{
  "version": "1.0",
  "truncation": null,
  "padding": null,
  "added_tokens": [
    {
      "id": 0,
      "content": "<|bos|>",
      "single_word": false,
      "lstrip": false,
      "rstrip": false,
      "normalized": false,
      "special": true
    },
    {
      "id": 1,
      "content": "<|eos|>",
      "single_word": false,
      "lstrip": false,
      "rstrip": false,
      "normalized": false,
      "special": true
    },
    {
      "id": 2,
      "content": "<|pad|>",
      "single_word": false,
      "lstrip": false,
      "rstrip": false,
      "normalized": false,
      "special": true
    },
    {
      "id": 3,
      "content": "<|reserved_0|>",
      "single_word": false,
      "lstrip": false,
      "rstrip": false,
      "normalized": false,
      "special": true
    },
    {
      "id": 4,
      "content": "<|reserved_1|>",
      "single_word": false,
      "lstrip": false,
      "rstrip": false,
      "normalized": false,
      "special": true
    },
    {
      "id": 5,
      "content": "<|reserved_2|>",
      "single_word": false,
      "lstrip": false,
      "rstrip": false,
      "normalized": false,
      "special": true
    },
    {
      "id": 6,
      "content": "<|reserved_3|>",
      "single_word": false,
      "lstrip": false,
      "rstrip": false,
      "normalized": false,
      "special": true
    },
    {
      "id": 7,
      "content": "<|reserved_4|>",
      "single_word": false,
      "lstrip": false,
      "rstrip": false,
      "normalized": false,
      "special": true
    },
    {
      "id": 8,
      "content": "<|img_start|>",
      "single_word": false,
      "lstrip": false,
      "rstrip": false,
      "normalized": false,
      "special": true
    },
    {
      "id": 9,
      "content": "<|img_end|>",
      "single_word": false,
      "lstrip": false,
      "rstrip": false,
      "normalized": false,
      "special": true
    },
    {
      "id": 10,
      "content": "<|image_pad|>",
      "single_word": false,
      "lstrip": false,
      "rstrip": false,
      "normalized": false,
      "special": true
    },
    {
      "id": 11,
      "content": "<|reserved_8|>",
      "single_word": false,
      "lstrip": false,
      "rstrip": false,
      "normalized": false,
      "special": true
    },
    {
      "id": 12,
      "content": "<|reserved_9|>",
      "single_word": false,
      "lstrip": false,
      "rstrip": false,
      "normalized": false,
      "special": true
    },
    {
      "id": 13,
      "content": "<|reserved_10|>",
      "single_word": false,
      "lstrip": false,
      "rstrip": false,
      "normalized": false,
      "special": true
    },
    {
      "id": 14,
      "content": "<|reserved_11|>",
      "single_word": false,
      "lstrip": false,
      "rstrip": false,
      "normalized": false,
      "special": true
    },
    {
      "id": 15,
      "content": "<|reserved_12|>",
      "single_word": false,
      "lstrip": false,
      "rstrip": false,
      "normalized": false,
      "special": true
    },
    {
      "id": 16,
      "content": "<|reserved_13|>",
      "single_word": false,
      "lstrip": false,
      "rstrip": false,
      "normalized": false,
      "special": true
    },
    {
      "id": 17,
      "content": "<|reserved_14|>",
      "single_word": false,
      "lstrip": false,
      "rstrip": false,
      "normalized": false,
      "special": true
    },
    {
      "id": 18,
      "content": "<|reserved_15|>",
      "single_word": false,
      "lstrip": false,
      "rstrip": false,
      "normalized": false,
      "special": true
    },
    {
      "id": 19,
      "content": "<|reserved_16|>",
      "single_word": false,
      "lstrip": false,
      "rstrip": false,
      "normalized": false,
      "special": true
    },
    {
      "id": 20,
      "content": "<|reserved_17|>",
      "single_word": false,
      "lstrip": false,
      "rstrip": false,
      "normalized": false,
      "special": true
    },
    {
      "id": 21,
      "content": "<|reserved_18|>",
      "single_word": false,
      "lstrip": false,
      "rstrip": false,
      "normalized": false,
      "special": true
    },
    {
      "id": 22,
      "content": "<|reserved_19|>",
      "single_word": false,
      "lstrip": false,
      "rstrip": false,
      "normalized": false,
      "special": true
    },
    {
      "id": 23,
      "content": "<|reserved_20|>",
      "single_word": false,
      "lstrip": false,
      "rstrip": false,
      "normalized": false,
      "special": true
    },
    {
      "id": 24,
      "content": "<|reserved_21|>",
      "single_word": false,
      "lstrip": false,
      "rstrip": false,
      "normalized": false,
      "special": true
    },
    {
      "id": 25,
      "content": "<|reserved_22|>",
      "single_word": false,
      "lstrip": false,
      "rstrip": false,
      "normalized": false,
      "special": true
    },
    {
      "id": 26,
      "content": "<|reserved_23|>",
      "single_word": false,
      "lstrip": false,
      "rstrip": false,
      "normalized": false,
      "special": true
    },
    {
      "id": 27,
      "content": "<|reserved_24|>",
      "single_word": false,
      "lstrip": false,
      "rstrip": false,
      "normalized": false,
      "special": true
    },
    {
      "id": 28,
      "content": "<|reserved_25|>",
      "single_word": false,
      "lstrip": false,
      "rstrip": false,
      "normalized": false,
      "special": true
    },
    {
      "id": 29,
      "content": "<|reserved_26|>",
      "single_word": false,
      "lstrip": false,
      "rstrip": false,
      "normalized": false,
      "special": true
    },
    {
      "id": 30,
      "content": "<|reserved_27|>",
      "single_word": false,
      "lstrip": false,
      "rstrip": false,
      "normalized": false,
      "special": true
    },
    {
      "id": 31,
      "content": "<|reserved_28|>",
      "single_word": false,
      "lstrip": false,
      "rstrip": false,
      "normalized": false,
      "special": true
    },
    {
      "id": 32,
      "content": "<|reserved_29|>",
      "single_word": false,
      "lstrip": false,
      "rstrip": false,
      "normalized": false,
      "special": true
    },
    {
      "id": 33,
      "content": "<|reserved_30|>",
      "single_word": false,
      "lstrip": false,
      "rstrip": false,
      "normalized": false,
      "special": true
    },
    {
      "id": 34,
      "content": "<|reserved_31|>",
      "single_word": false,
      "lstrip": false,
      "rstrip": false,
      "normalized": false,
      "special": true
    },
    {
      "id": 35,
      "content": "<|reserved_32|>",
      "single_word": false,
      "lstrip": false,
      "rstrip": false,
      "normalized": false,
      "special": true
    },
    {
      "id": 36,
      "content": "<|reserved_33|>",
      "single_word": false,
      "lstrip": false,
      "rstrip": false,
      "normalized": false,
      "special": true
    },
    {
      "id": 37,
      "content": "<|reserved_34|>",
      "single_word": false,
      "lstrip": false,
      "rstrip": false,
      "normalized": false,
      "special": true
    },
    {
      "id": 38,
      "content": "<|reserved_35|>",
      "single_word": false,
      "lstrip": false,
      "rstrip": false,
      "normalized": false,
      "special": true
    },
    {
      "id": 39,
      "content": "<|reserved_36|>",
      "single_word": false,
      "lstrip": false,
      "rstrip": false,
      "normalized": false,
      "special": true
    },
    {
      "id": 40,
      "content": "<|reserved_37|>",
      "single_word": false,
      "lstrip": false,
      "rstrip": false,
      "normalized": false,
      "special": true
    },
    {
      "id": 41,
      "content": "<|reserved_38|>",
      "single_word": false,
      "lstrip": false,
      "rstrip": false,
      "normalized": false,
      "special": true
    },
    {
      "id": 42,
      "content": "<|reserved_39|>",
      "single_word": false,
      "lstrip": false,
      "rstrip": false,
      "normalized": false,
      "special": true
    },
    {
      "id": 43,
      "content": "<|reserved_40|>",
      "single_word": false,
      "lstrip": false,
      "rstrip": false,
      "normalized": false,
      "special": true
    },
    {
      "id": 44,
      "content": "<|reserved_41|>",
      "single_word": false,
      "lstrip": false,
      "rstrip": false,
      "normalized": false,
      "special": true
    },
    {
      "id": 45,
      "content": "<|reserved_42|>",
      "single_word": false,
      "lstrip": false,
      "rstrip": false,
      "normalized": false,
      "special": true
    },
    {
      "id": 46,
      "content": "<|reserved_43|>",
      "single_word": false,
      "lstrip": false,
      "rstrip": false,
      "normalized": false,
      "special": true
    },
    {
      "id": 47,
      "content": "<|reserved_44|>",
      "single_word": false,
      "lstrip": false,
      "rstrip": false,
      "normalized": false,
      "special": true
    },
    {
      "id": 48,
      "content": "<|reserved_45|>",
      "single_word": false,
      "lstrip": false,
      "rstrip": false,
      "normalized": false,
      "special": true
    },
    {
      "id": 49,
      "content": "<|reserved_46|>",
      "single_word": false,
      "lstrip": false,
      "rstrip": false,
      "normalized": false,
      "special": true
    },
    {
      "id": 50,
      "content": "<|reserved_47|>",
      "single_word": false,
      "lstrip": false,
      "rstrip": false,
      "normalized": false,
      "special": true
    },
    {
      "id": 51,
      "content": "<|reserved_48|>",
      "single_word": false,
      "lstrip": false,
      "rstrip": false,
      "normalized": false,
      "special": true
    },
    {
      "id": 52,
      "content": "<|reserved_49|>",
      "single_word": false,
      "lstrip": false,
      "rstrip": false,
      "normalized": false,
      "special": true
    },
    {
      "id": 53,
      "content": "<|reserved_50|>",
      "single_word": false,
      "lstrip": false,
      "rstrip": false,
      "normalized": false,
      "special": true
    },
    {
      "id": 54,
      "content": "<|reserved_51|>",
      "single_word": false,
      "lstrip": false,
      "rstrip": false,
      "normalized": false,
      "special": true
    },
    {
      "id": 55,
      "content": "<|reserved_52|>",
      "single_word": false,
      "lstrip": false,
      "rstrip": false,
      "normalized": false,
      "special": true
    },
    {
      "id": 56,
      "content": "<|reserved_53|>",
      "single_word": false,
      "lstrip": false,
      "rstrip": false,
      "normalized": false,
      "special": true
    },
    {
      "id": 57,
      "content": "<|reserved_54|>",
      "single_word": false,
      "lstrip": false,
      "rstrip": false,
      "normalized": false,
      "special": true
    },
    {
      "id": 58,
      "content": "<|reserved_55|>",
      "single_word": false,
      "lstrip": false,
      "rstrip": false,
      "normalized": false,
      "special": true
    },
    {
      "id": 59,
      "content": "<|reserved_56|>",
      "single_word": false,
      "lstrip": false,
      "rstrip": false,
      "normalized": false,
      "special": true
    },
    {
      "id": 60,
      "content": "<|reserved_57|>",
      "single_word": false,
      "lstrip": false,
      "rstrip": false,
      "normalized": false,
      "special": true
    },
    {
      "id": 61,
      "content": "<|reserved_58|>",
      "single_word": false,
      "lstrip": false,
      "rstrip": false,
      "normalized": false,
      "special": true
    },
    {
      "id": 62,
      "content": "<|reserved_59|>",
      "single_word": false,
      "lstrip": false,
      "rstrip": false,
      "normalized": false,
      "special": true
    },
    {
      "id": 63,
      "content": "<|reserved_60|>",
      "single_word": false,
      "lstrip": false,
      "rstrip": false,
      "normalized": false,
      "special": true
    },
    {
      "id": 64,
      "content": "<|reserved_61|>",
      "single_word": false,
      "lstrip": false,
      "rstrip": false,
      "normalized": false,
      "special": true
    },
    {
      "id": 65,
      "content": "<|reserved_62|>",
      "single_word": false,
      "lstrip": false,
      "rstrip": false,
      "normalized": false,
      "special": true
    },
    {
      "id": 66,
      "content": "<|reserved_63|>",
      "single_word": false,
      "lstrip": false,
      "rstrip": false,
      "normalized": false,
      "special": true
    }
  ],
  "normalizer": null,
  "pre_tokenizer": {
    "type": "Sequence",
    "pretokenizers": [
      {
        "type": "Digits",
        "individual_digits": true
      },
      {
        "type": "Split",
        "pattern": {
          "Regex": " ?[\\p{L}\\p{M}]+| ?[^\\s\\p{L}\\p{M}\\p{N}]+|\\s+"
        },
        "behavior": "Isolated",
        "invert": false
      },
      {
        "type": "ByteLevel",
        "add_prefix_space": false,
        "trim_offsets": true,
        "use_regex": false
      }
    ]
  },
  "post_processor": null,
  "decoder": {
    "type": "ByteLevel",
    "add_prefix_space": true,
    "trim_offsets": true,
    "use_regex": true
  },
  "model": {
    "type": "BPE",
    "dropout": null,
    "unk_token": null,
    "continuing_subword_prefix": null,
    "end_of_word_suffix": null,
    "fuse_unk": false,
    "byte_fallback": false,
    "ignore_merges": false,
    "vocab": {
      "<|bos|>": 0,
      "<|eos|>": 1,
      "<|pad|>": 2,
      "<|reserved_0|>": 3,
      "<|reserved_1|>": 4,
      "<|reserved_2|>": 5,
      "<|reserved_3|>": 6,
      "<|reserved_4|>": 7,
      "<|img_start|>": 8,
      "<|img_end|>": 9,
      "<|image_pad|>": 10,
      "<|reserved_8|>": 11,
      "<|reserved_9|>": 12,
      "<|reserved_10|>": 13,
      "<|reserved_11|>": 14,
      "<|reserved_12|>": 15,
      "<|reserved_13|>": 16,
      "<|reserved_14|>": 17,
      "<|reserved_15|>": 18,
      "<|reserved_16|>": 19,
      "<|reserved_17|>": 20,
      "<|reserved_18|>": 21,
      "<|reserved_19|>": 22,
      "<|reserved_20|>": 23,
      "<|reserved_21|>": 24,
      "<|reserved_22|>": 25,
      "<|reserved_23|>": 26,
      "<|reserved_24|>": 27,
      "<|reserved_25|>": 28,
      "<|reserved_26|>": 29,
      "<|reserved_27|>": 30,
      "<|reserved_28|>": 31,
      "<|reserved_29|>": 32,
      "<|reserved_30|>": 33,
      "<|reserved_31|>": 34,
      "<|reserved_32|>": 35,
      "<|reserved_33|>": 36,
      "<|reserved_34|>": 37,
      "<|reserved_35|>": 38,
      "<|reserved_36|>": 39,
      "<|reserved_37|>": 40,
      "<|reserved_38|>": 41,
      "<|reserved_39|>": 42,
      "<|reserved_40|>": 43,
      "<|reserved_41|>": 44,
      "<|reserved_42|>": 45,
      "<|reserved_43|>": 46,
      "<|reserved_44|>": 47,
      "<|reserved_45|>": 48,
      "<|reserved_46|>": 49,
      "<|reserved_47|>": 50,
      "<|reserved_48|>": 51,
      "<|reserved_49|>": 52,
      "<|reserved_50|>": 53,
      "<|reserved_51|>": 54,
      "<|reserved_52|>": 55,
      "<|reserved_53|>": 56,
      "<|reserved_54|>": 57,
      "<|reserved_55|>": 58,
      "<|reserved_56|>": 59,
      "<|reserved_57|>": 60,
      "<|reserved_58|>": 61,
      "<|reserved_59|>": 62,
      "<|reserved_60|>": 63,
      "<|reserved_61|>": 64,
      "<|reserved_62|>": 65,
      "<|reserved_63|>": 66,
      "!": 67,
      "\"": 68,
      "#": 69,
      "$": 70,
      "%": 71,
      "&": 72,
      "'": 73,
      "(": 74,
      ")": 75,
      "*": 76,
      "+": 77,
      ",": 78,
      "-": 79,
      ".": 80,
      "/": 81,
      "0": 82,
      "1": 83,
      "2": 84,
      "3": 85,
      "4": 86,
      "5": 87,
      "6": 88,
      "7": 89,
      "8": 90,
      "9": 91,
      ":": 92,
      ";": 93,
      "<": 94,
      "=": 95,
      ">": 96,
      "?": 97,
      "@": 98,
      "A": 99,
      "B": 100,
      "C": 101,
      "D": 102,
      "E": 103,
      "F": 104,
      "G": 105,
      "H": 106,
      "I": 107,
      "J": 108,
      "K": 109,
      "L": 110,
      "M": 111,
      "N": 112,
      "O": 113,
      "P": 114,
      "Q": 115,
      "R": 116,
      "S": 117,
      "T": 118,
      "U": 119,
      "V": 120,
      "W": 121,
      "X": 122,
      "Y": 123,
      "Z": 124,
      "[": 125,
      "\\": 126,
      "]": 127,
      "^": 128,
      "_": 129,
      "`": 130,
      "a": 131,
      "b": 132,
      "c": 133,
      "d": 134,
      "e": 135,
      "f": 136,
      "g": 137,
      "h": 138,
      "i": 139,
      "j": 140,
      "k": 141,
      "l": 142,
      "m": 143,
      "n": 144,
      "o": 145,
      "p": 146,
      "q": 147,
      "r": 148,
      "s": 149,
      "t": 150,
      "u": 151,
      "v": 152,
      "w": 153,
      "x": 154,
      "y": 155,
      "z": 156,
      "{": 157,
      "|": 158,
      "}": 159,
      "~": 160,
      "¡": 161,
      "¢": 162,
      "£": 163,
      "¤": 164,
      "¥": 165,
      "¦": 166,
      "§": 167,
      "¨": 168,
      "©": 169,
      "ª": 170,
      "«": 171,
      "¬": 172,
      "®": 173,
      "¯": 174,
      "°": 175,
      "±": 176,
      "²": 177,
      "³": 178,
      "´": 179,
      "µ": 180,
      "¶": 181,
      "·": 182,
      "¸": 183,
      "¹": 184,
      "º": 185,
      "»": 186,
      "¼": 187,
      "½": 188,
      "¾": 189,
      "¿": 190,
      "À": 191,
      "Á": 192,
      "Â": 193,
      "Ã": 194,
      "Ä": 195,
      "Å": 196,
      "Æ": 197,
      "Ç": 198,
      "È": 199,
      "É": 200,
      "Ê": 201,
      "Ë": 202,
      "Ì": 203,
      "Í": 204,
      "Î": 205,
      "Ï": 206,
      "Ð": 207,
      "Ñ": 208,
      "Ò": 209,
      "Ó": 210,
      "Ô": 211,
      "Õ": 212,
      "Ö": 213,
      "×": 214,
      "Ø": 215,
      "Ù": 216,
      "Ú": 217,
      "Û": 218,
      "Ü": 219,
      "Ý": 220,
      "Þ": 221,
      "ß": 222,
      "à": 223,
      "á": 224,
      "â": 225,
      "ã": 226,
      "ä": 227,
      "å": 228,
      "æ": 229,
      "ç": 230,
      "è": 231,
      "é": 232,
      "ê": 233,
      "ë": 234,
      "ì": 235,
      "í": 236,
      "î": 237,
      "ï": 238,
      "ð": 239,
      "ñ": 240,
      "ò": 241,
      "ó": 242,
      "ô": 243,
      "õ": 244,
      "ö": 245,
      "÷": 246,
      "ø": 247,
      "ù": 248,
      "ú": 249,
      "û": 250,
      "ü": 251,
      "ý": 252,
      "þ": 253,
      "ÿ": 254,
      "Ā": 255,
      "ā": 256,
      "Ă": 257,
      "ă": 258,
      "Ą": 259,
      "ą": 260,
      "Ć": 261,
      "ć": 262,
      "Ĉ": 263,
      "ĉ": 264,
      "Ċ": 265,
      "ċ": 266,
      "Č": 267,
      "č": 268,
      "Ď": 269,
      "ď": 270,
      "Đ": 271,
      "đ": 272,
      "Ē": 273,
      "ē": 274,
      "Ĕ": 275,
      "ĕ": 276,
      "Ė": 277,
      "ė": 278,
      "Ę": 279,
      "ę": 280,
      "Ě": 281,
      "ě": 282,
      "Ĝ": 283,
      "ĝ": 284,
      "Ğ": 285,
      "ğ": 286,
      "Ġ": 287,
      "ġ": 288,
      "Ģ": 289,
      "ģ": 290,
      "Ĥ": 291,
      "ĥ": 292,
      "Ħ": 293,
      "ħ": 294,
      "Ĩ": 295,
      "ĩ": 296,
      "Ī": 297,
      "ī": 298,
      "Ĭ": 299,
      "ĭ": 300,
      "Į": 301,
      "į": 302,
      "İ": 303,
      "ı": 304,
      "Ĳ": 305,
      "ĳ": 306,
      "Ĵ": 307,
      "ĵ": 308,
      "Ķ": 309,
      "ķ": 310,
      "ĸ": 311,
      "Ĺ": 312,
      "ĺ": 313,
      "Ļ": 314,
      "ļ": 315,
      "Ľ": 316,
      "ľ": 317,
      "Ŀ": 318,
      "ŀ": 319,
      "Ł": 320,
      "ł": 321,
      "Ń": 322,
      "ĠĠ": 323,
      "Ġà": 324,
      "à¦": 325,
      "à¤": 326,
      "ĠĠĠĠ": 327,
      "à®": 328,
      "à²": 329,
      "àª": 330,
      "à¨": 331,
      "à§": 332,
      "à°": 333,
      "à´": 334,
      "à¥": 335,
      "Ġt": 336,
      "à¬": 337,
      "Ġà¤": 338,
      "Ġà¦": 339,
      "Ġa": 340,
      "à¯": 341,
      "ĠĠĠĠĠĠĠĠ": 342,
      "he": 343,
      "in": 344,
      "re": 345,
      "on": 346,
      "àµ": 347,
      "Ġà¨": 348,
      "Ġthe": 349,
      "er": 350,
      "à³": 351,
      "à«": 352,
      "à©": 353,
      "à¦¾": 354,
      "at": 355,
      "à±": 356,
      "à¤¾": 357,
      "à¯į": 358,
      "Ġo": 359,
      "Ġàª": 360,
      "Ġs": 361,
      "en": 362,
      "àŃ": 363,
      "es": 364,
      "is": 365,
      "Ġc": 366,
      "an": 367,
      "or": 368,
      "it": 369,
      "al": 370,
      "à¦¾à¦": 371,
      "à§ĩ": 372,
      "Ġà®": 373,
      "à¤¾à¤": 374,
      "Ġw": 375,
      "ed": 376,
      "Ġp": 377,
      "Ġà¬": 378,
      "àµį": 379,
      "Ġf": 380,
      "à¦¿": 381,
      "nd": 382,
      "Ġof": 383,
      "Ġb": 384,
      "ar": 385,
      "à¯įà®": 386,
      "Ġà²": 387,
      "à§į": 388,
      "Ġin": 389,
      "Ġà°": 390,
      "à§įà¦": 391,
      "à¥į": 392,
      "à¥įà¤": 393,
      "ion": 394,
      "ing": 395,
      "à¥ĩ": 396,
      "ic": 397,
      "àª¾": 398,
      "Ġm": 399,
      "àµįà´": 400,
      "ro": 401,
      "Ġto": 402,
      "Ġand": 403,
      "à¦¿à¦": 404,
      "Ġd": 405,
      "le": 406,
      "Ġà´": 407,
      "as": 408,
      "à³į": 409,
      "à§°": 410,
      "à¨¾": 411,
      "ou": 412,
      "à¯ģ": 413,
      "à³įà²": 414,
      "à®¿": 415,
      "àª¾àª": 416,
      "ent": 417,
      "à±į": 418,
      "à¥Ģ": 419,
      "à§ĩà¦": 420,
      "à²¿": 421,
      "à¤¿": 422,
      "à®¿à®": 423,
      "st": 424,
      "ct": 425,
      "à«ĩ": 426,
      "à¤°": 427,
      "Ġh": 428,
      "Ġre": 429,
      "à¬¾": 430,
      "à±įà°": 431,
      "àŃį": 432,
      "Ġth": 433,
      "Ġe": 434,
      "om": 435,
      "à´¿": 436,
      "Ġà¤ķ": 437,
      "à°¿": 438,
      "il": 439,
      "ĠĠĊ": 440,
      "à¬°": 441,
      "à¨¾à¨": 442,
      "à¤¿à¤": 443,
      "Ġn": 444,
      "Ġl": 445,
      "el": 446,
      "et": 447,
      "à¬¿": 448,
      "à¯ģà®": 449,
      "ĠĠĠĠĠĠĠĠĠĠĠĠ": 450,
      "à²¿à²": 451,
      "à±ģ": 452,
      "à°¾": 453,
      "Ġis": 454,
      "à³ģ": 455,
      "à´¿à´": 456,
      "à¥¤": 457,
      "à¤Ĥ": 458,
      "¯à¦": 459,
      "à©Ģ": 460,
      "ur": 461,
      "à²¾": 462,
      "ation": 463,
      "à©ĩ": 464,
      "im": 465,
      "à®¾": 466,
      "am": 467,
      "à§ģ": 468,
      "ĠT": 469,
      "à¦¨": 470,
      "à¨¿": 471,
      "à²¾à²": 472,
      "ut": 473,
      "ol": 474,
      "à«Ģ": 475,
      "à«į": 476,
      "à«įàª": 477,
      "à°¾à°": 478,
      "à®¾à®": 479,
      "à¥ĭ": 480,
      "ve": 481,
      "ce": 482,
      "id": 483,
      "àŃįà¬": 484,
      "¯à¦¼": 485,
      "à¤¨": 486,
      "Ġg": 487,
      "à¤¤": 488,
      "à¨°": 489,
      "àµģ": 490,
      "se": 491,
      "ĠĠĠĠĠĠĠĠĠĠĠĠĠĠĠĠ": 492,
      "ly": 493,
      "Ġà¦ķ": 494,
      "ch": 495,
      "ot": 496,
      "Ġbe": 497,
      "ĠI": 498,
      "à¦¤": 499,
      "Ġfor": 500,
      "à°¿à°": 501,
      "à¬¾à¬": 502,
      "ĠA": 503,
      "ul": 504,
      "àŃĩ": 505,
      "à¤ķ": 506,
      "ver": 507,
      "Ġ(": 508,
      "à³Ĩ": 509,
      "ay": 510,
      "ig": 511,
      "à¦°": 512,
      "ĠS": 513,
      "à¬¿à¬": 514,
      "à§ĭ": 515,
      "à¦ķ": 516,
      "àª¨": 517,
      "ra": 518,
      "ow": 519,
      "Ĥà°": 520,
      "à´¾": 521,
      "àµģà´": 522,
      "à¦²": 523,
      "Ġst": 524,
      "Ġu": 525,
      "Ġon": 526,
      "à¥įà¤¯": 527,
      "ĠC": 528,
      "Ġà¦¬": 529,
      "Ġà¤¸": 530,
      "est": 531,
      "à´¾à´": 532,
      "Ġthat": 533,
      "à¯įà®ķ": 534,
      "à®°": 535,
      "àª°": 536,
      "Ġà¦ª": 537,
      "Ġà¦¸": 538,
      "Ġas": 539,
      "à¤²": 540,
      "à²°": 541,
      "ith": 542,
      "ad": 543,
      "à¯Ī": 544,
      "ir": 545,
      "à®¤": 546,
      "âĢ": 547,
      "à¨¿à¨": 548,
      "if": 549,
      "à±ģà°": 550,
      "à²¦": 551,
      "Ġpro": 552,
      "à¯įà®¤": 553,
      "ment": 554,
      "Ġcon": 555,
      "Ġà¤¹": 556,
      "ĠM": 557,
      "Ġà¤®": 558,
      "à§Ģ": 559,
      "Ġan": 560,
      "ist": 561,
      "à¦®": 562,
      "à¤¸": 563,
      "od": 564,
      "Ġà¤ª": 565,
      "ab": 566,
      "Ġà¦Ĩ": 567,
      "her": 568,
      "ag": 569,
      "Ġwith": 570,
      "à«ĭ": 571,
      "à¥ģ": 572,
      "Ġit": 573,
      "Ġare": 574,
      "Ġ=": 575,
      "ĠP": 576,
      "Ġà¨¦": 577,
      "pp": 578,
      "Ġ\"": 579,
      "Ġde": 580,
      "àŃģ": 581,
      "ate": 582,
      "qu": 583,
      "à¨¤": 584,
      "Ġor": 585,
      "ers": 586,
      "Ġal": 587,
      "Ġà¨ķ": 588,
      "ri": 589,
      "ĠThe": 590,
      "Ġwh": 591,
      "Ġà¨¸": 592,
      "Ġex": 593,
      "and": 594,
      "nt": 595,
      "à®©": 596,
      "à¤¹": 597,
      "op": 598,
      "à¤¾à¤°": 599,
      "à©°": 600,
      "ĠB": 601,
      "res": 602,
      "Ġv": 603,
      "Ġy": 604,
      "ort": 605,
      "à¥įà¤°": 606,
      "Ġr": 607,
      "à®Ł": 608,
      "ĠN": 609,
      "ect": 610,
      "à¦¬": 611,
      "à¦¾à¦°": 612,
      "à¦¯à¦¼": 613,
      "um": 614,
      "rom": 615,
      "Ġby": 616,
      "ity": 617,
      "ere": 618,
      "àµĨ": 619,
      "à²µ": 620,
      "Ġà¦®": 621,
      "ies": 622,
      "Ġà¨¹": 623,
      "à¤®": 624,
      "un": 625,
      "ess": 626,
      "à©ĭ": 627,
      "ĠĠĠĠĠĠĠĠĊ": 628,
      "àª¤": 629,
      "th": 630,
      "àª¿": 631,
      "ill": 632,
      "Ġcom": 633,
      "em": 634,
      "®à¯į": 635,
      "iv": 636,
      "os": 637,
      "us": 638,
      "à²¨": 639,
      "à¨¸": 640,
      "à°¨": 641,
      "à²²": 642,
      "à«ģ": 643,
      "Ġà¦¨": 644,
      "ter": 645,
      "pl": 646,
      "à°Ĥà°": 647,
      "ore": 648,
      "àª®": 649,
      "à¨¨": 650,
      "à©±": 651,
      "¨àµįà´": 652,
      "à²Ĥ": 653,
      "ĠH": 654,
      "de": 655,
      "àªµ": 656,
      "à°°": 657,
      "ĠR": 658,
      "à´¤": 659,
      "Ġà¦¹": 660,
      "ĠF": 661,
      "à±ĩ": 662,
      "ue": 663,
      "à®³": 664,
      "à²¤": 665,
      "ĠĠĠĠĠĠĠĠĠĠĊ": 666,
      "ac": 667,
      "à¥Ī": 668,
      "Ġàªķ": 669,
      "Ġà¤Ĩ": 670,
      "Ġsu": 671,
      "Ġà¦ı": 672,
      "à¦¾à¦¨": 673,
      "Ġà¦¦": 674,
      "à¯įà®ª": 675,
      "ld": 676,
      "ain": 677,
      "ke": 678,
      "à¤µ": 679,
      "Ġà¤µ": 680,
      "àªķ": 681,
      "Ġà¨¨": 682,
      "à¨ķ": 683,
      "àŃĩà¬": 684,
      "à±ĭ": 685,
      "pt": 686,
      "Ġà®ª": 687,
      "Ġhe": 688,
      "Ġà¤ħ": 689,
      "ĠE": 690,
      "àªĤ": 691,
      "Ġat": 692,
      "à¦¾à§°": 693,
      "à¨¹": 694,
      "Ġnot": 695,
      "ive": 696,
      "oc": 697,
      "à¨¦": 698,
      "Ġà¤¨": 699,
      "à¦¸": 700,
      "Ġfrom": 701,
      "ult": 702,
      "ĠD": 703,
      "Ġà¦¤": 704,
      "ht": 705,
      "Ġàªª": 706,
      "cl": 707,
      "pe": 708,
      "à¤ª": 709,
      "ass": 710,
      "à¯Īà®": 711,
      "ķàµįà´": 712,
      "ķà¯įà®ķ": 713,
      "ial": 714,
      "à§įà¦¤": 715,
      "ant": 716,
      "Ġwas": 717,
      "à§įà¦°": 718,
      "à¥Ĥ": 719,
      "Ġà¨µ": 720,
      "Ġà®ķ": 721,
      "à®²": 722,
      "ure": 723,
      "à§įà¦¯": 724,
      "à¤£": 725,
      "à§ĩà¦°": 726,
      "Ġse": 727,
      "à¨Ĥ": 728,
      "==": 729,
      "Ġha": 730,
      "à²Ĺ": 731,
      "à¤ļ": 732,
      "Ġà®µ": 733,
      "à©ģ": 734,
      "à¬¨": 735,
      "à¯įà®Ł": 736,
      "our": 737,
      "Ġà¤¬": 738,
      "ĠW": 739,
      "àª¾àªĤ": 740,
      "Ġà¤ľ": 741,
      "à¤¦": 742,
      "ĠĠĠĠĊ": 743,
      "ĠĠĠĠĠĠĊ": 744,
      "Ġà¤¤": 745,
      "ew": 746,
      "à¨¼": 747,
      "à¥įà¤¯à¤¾à¤": 748,
      "ĠG": 749,
      "end": 750,
      "Ġà¤ķà¥ĩ": 751,
      "à©Ī": 752,
      "Ġà¦ħ": 753,
      "à¨²": 754,
      "Ġà¬ķ": 755,
      "à¤Ĺ": 756,
      "all": 757,
      "art": 758,
      "Ġà¤¦": 759,
      "à¦ª": 760,
      "à°²": 761,
      "à©Ĥ": 762,
      "Ġà¬¸": 763,
      "à´°": 764,
      "Ġàª¸": 765,
      "ia": 766,
      "à²ķ": 767,
      "Ġà®®": 768,
      "ions": 769,
      "à²³": 770,
      "ex": 771,
      "à¯ĩ": 772,
      "à¨¾à¨Ĥ": 773,
      "à¥ĩà¤Ĥ": 774,
      "Ġch": 775,
      "Ġsh": 776,
      "à®¿à®²": 777,
      "Ġàª¤": 778,
      "one": 779,
      "Ġcan": 780,
      "à§ģà¦": 781,
      "{\\": 782,
      "à®µ": 783,
      "ud": 784,
      "Ġà¬ª": 785,
      "ical": 786,
      "ķàµįà´ķ": 787,
      "Ġà²®": 788,
      "Ġ-": 789,
      "ĠL": 790,
      "ge": 791,
      "Ġà¥": 792,
      "¨àµįà´¨": 793,
      "à±Ģ": 794,
      "à¬ķ": 795,
      "The": 796,
      "à³ĩ": 797,
      "à«ĩàª": 798,
      "Ġà¥¤": 799,
      "àŃŁ": 800,
      "Ġà®ħ": 801,
      "du": 802,
      "Ġhave": 803,
      "ert": 804,
      "Ġà®¤": 805,
      "à°ķ": 806,
      "Ġint": 807,
      "ear": 808,
      "Ġà¤¹à¥Ī": 809,
      "age": 810,
      "àª¾àª°": 811,
      "ĠU": 812,
      "Ġàª®": 813,
      "Ġà¨ª": 814,
      "ich": 815,
      "Ġà²¸": 816,
      "ated": 817,
      "og": 818,
      "ame": 819,
      "à¤°à¥įà¤": 820,
      "Ġim": 821,
      "rou": 822,
      "Ġthis": 823,
      "ard": 824,
      "Ġle": 825,
      "à¯ģà®®à¯į": 826,
      "à¦¹": 827,
      "ight": 828,
      "Ġà®ļ": 829,
      "),": 830,
      "ost": 831,
      "Ġà°ª": 832,
      "à®¿à®¯": 833,
      "ĠĠĠĠĠĠĠĠĠĠĠĠĠĠĠĠĠĠĠĠ": 834,
      "ple": 835,
      "out": 836,
      "à¯Ĩ": 837,
      "à¦¿à¦¯à¦¼": 838,
      "àŃģà¬": 839,
      "Ġà¨ľ": 840,
      "Ġ'": 841,
      "à´¯": 842,
      "à¤¯": 843,
      "à©±à¨": 844,
      "à¤¾à¤¨": 845,
      "Ġà¤°": 846,
      "Ġà¤¯": 847,
      "à¬¾à¬°": 848,
      "ould": 849,
      "ian": 850,
      "ther": 851,
      "à°¾à°°": 852,
      "able": 853,
      "\",": 854,
      "port": 855,
      "à¦¦": 856,
      "Ġres": 857,
      "Ġus": 858,
      "à«įàª¯": 859,
      "àµįà´¤": 860,
      "Ġà¨ħ": 861,
      "red": 862,
      "à¦Ĺ": 863,
      "Ġà¤²": 864,
      "ĠJ": 865,
      "Ġà¬¬": 866,
      "ome": 867,
      "iz": 868,
      "¨à¯įà®¤": 869,
      "àŃįà¬°": 870,
      "ĠO": 871,
      "ak": 872,
      "à¦¿à¦²": 873,
      "à¨®": 874,
      "Ġà´ª": 875,
      "elf": 876,
      "à¦Ł": 877,
      "ff": 878,
      "à±įà°°": 879,
      "à¤¾à¤Ĥ": 880,
      "Ġà¦ľ": 881,
      "Ġà²ķ": 882,
      "à§±": 883,
      "à¦¾à¦²": 884,
      "Ġwhich": 885,
      "Ġcont": 886,
      "ell": 887,
      "àª¨à«ĩ": 888,
      "ust": 889,
      "à±Ĩ": 890,
      "àµĭ": 891,
      "à¨¾à¨°": 892,
      "Ġàªľ": 893,
      "\"\"": 894,
      "à¥ĩà¤": 895,
      "Ġab": 896,
      "à±ĩà°": 897,
      "à³įà²²": 898,
      "Ġà®ĩ": 899,
      "à§Ī": 900,
      "cc": 901,
      "Ġcl": 902,
      "à¦¿à¦¤": 903,
      "ĠàªĽ": 904,
      "à³įà²°": 905,
      "ap": 906,
      "ªà¯įà®ª": 907,
      "orm": 908,
      "à´Ł": 909,
      "à²¿à²¦": 910,
      "def": 911,
      "à®±": 912,
      "Ġà°ķ": 913,
      "act": 914,
      "à¦¿à¦ķ": 915,
      "ast": 916,
      "Ġàªħ": 917,
      "à²¡": 918,
      "à«įàª°": 919,
      "Ġà¨¤": 920,
      "Ġk": 921,
      "ount": 922,
      "à§įà§°": 923,
      "Ġwor": 924,
      "Ġhas": 925,
      "à³įà²¤": 926,
      "à¤¾à¤¤": 927,
      "ĠàªĨ": 928,
      "Ġà¨®": 929,
      "à´Ĥ": 930,
      "ations": 931,
      "ary": 932,
      "Ġà¦ļ": 933,
      "Ġà®¨": 934,
      "con": 935,
      "àŃįà¬¤": 936,
      "Ġà¦Ĺ": 937,
      "ine": 938,
      "à§ĩà¦¨": 939,
      "à³įà²¨": 940,
      "ance": 941,
      "àŃĭ": 942,
      "Ġpl": 943,
      "àª²": 944,
      "à§įà¦¬": 945,
      "âĢĻ": 946,
      "à¯įà®±": 947,
      "Ġà°µ": 948,
      "Ġall": 949,
      "à®®": 950,
      "Ġen": 951,
      "Ġà¨ĩ": 952,
      "urn": 953,
      "Ġyou": 954,
      "Ġà¦¯": 955,
      "Ġà°®": 956,
      "Ġwhe": 957,
      "à¦¿à¦¨": 958,
      "ĠInd": 959,
      "à²¾à²°": 960,
      "ĠĊ": 961,
      "ric": 962,
      "à¨£": 963,
      "à¦ĩ": 964,
      "Ġtheir": 965,
      "ĠIn": 966,
      "ib": 967,
      "Ġàªµ": 968,
      "Ġà¤ķà¤°": 969,
      "Ġà²¨": 970,
      "à¤¡": 971,
      "à¬°àŃĩ": 972,
      "ans": 973,
      "à¦¾à¦ķ": 974,
      "Ġà´ķ": 975,
      "à¦¾à¦ĩ": 976,
      "à¯ĭ": 977,
      "Ġapp": 978,
      "à¬®": 979,
      "àµĩ": 980,
      "à®£": 981,
      "Ġwe": 982,
      "..": 983,
      "oo": 984,
      "ual": 985,
      "so": 986,
      "Ġà¦ķà¦°": 987,
      "Ġà¨¦à©ĩ": 988,
      "àµįà´Ł": 989,
      "à´¿à´²": 990,
      "ĠàªĽà«ĩ": 991,
      "Ġper": 992,
      "Ġad": 993,
      "Ġà²ħ": 994,
      "à¦¾à¦¤": 995,
      "ong": 996,
      "à¤¾à¤²": 997,
      "):": 998,
      "Ġà°¸": 999,
      "ous": 1000,
      "à¤¿à¤ķ": 1001,
      "à®ķ": 1002,
      "Ġà¨²": 1003,
      "ks": 1004,
      "à©°à¨": 1005,
      "ĠâĢ": 1006,
      "Ġwill": 1007,
      "à´®": 1008,
      "ction": 1009,
      "à¦¾à¦¯à¦¼": 1010,
      "à¥įà¤¯à¤¾": 1011,
      "à®¿à®²à¯į": 1012,
      "Ġà®İ": 1013,
      "are": 1014,
      "Ġàª¹": 1015,
      "Ġdis": 1016,
      "ide": 1017,
      "ase": 1018,
      "ĠĠĠĠĠĠĠĠĠĠĠĠĊ": 1019,
      "Ġà¦¶": 1020,
      "ru": 1021,
      "Ġà¨¹à©Ī": 1022,
      "gh": 1023,
      "Ġà°ħ": 1024,
      "ry": 1025,
      "alue": 1026,
      "vel": 1027,
      "Ġà¤®à¥ĩà¤Ĥ": 1028,
      "Ľà§ĩ": 1029,
      "àŃĢ": 1030,
      "àŃįàŃŁ": 1031,
      "à¥ĭà¤Ĥ": 1032,
      "à°®": 1033,
      "à¬¤": 1034,
      "à²¾à²Ĺ": 1035,
      "à¤§": 1036,
      "à²²à³įà²²": 1037,
      "Ġexp": 1038,
      "à¥įà¤¤": 1039,
      "à®¤à¯įà®¤": 1040,
      "ĠĠĠĠĠĠĠĠĠĠ": 1041,
      "à¤ľ": 1042,
      "Ġà¬®": 1043,
      "à®¤à¯ģ": 1044,
      "ip": 1045,
      "à¦£": 1046,
      "àª¾àª¨": 1047,
      "à®¿à®°": 1048,
      "à¤¿à¤¯": 1049,
      "yle": 1050,
      "à¯įà®ķà®³": 1051,
      "Ġà¤ªà¥įà¤°": 1052,
      "Ġgo": 1053,
      "àª¿àª": 1054,
      "Ġà¦²": 1055,
      ").": 1056,
      "àµģà´Ĥ": 1057,
      "Ġmore": 1058,
      "à©į": 1059,
      "à²¸": 1060,
      "Ġwere": 1061,
      "Ġà²ª": 1062,
      "à³įà²¯": 1063,
      "à³Ĥ": 1064,
      "à°¤": 1065,
      "ext": 1066,
      "ĠĠĠĠĠĠĠĠĠĠĠĠĠĠĊ": 1067,
      "à²¯": 1068,
      "ĠK": 1069,
      "à²¨à³įà²¨": 1070,
      "Ġà¤Ĺ": 1071,
      "ile": 1072,
      "Ġà¦ķà§°": 1073,
      "ime": 1074,
      "Ġà¦Ń": 1075,
      "à°Ĥ": 1076,
      "ign": 1077,
      "Ġà²¹": 1078,
      "à¤¬": 1079,
      "à©Ģà¨": 1080,
      "Ġother": 1081,
      "à¤¿à¤¤": 1082,
      "Ġà¤ī": 1083,
      "ĠĠĠĠĠĠĠĠĠĠĠĠĠĠĠĠĊ": 1084,
      "à¬¹": 1085,
      "Ġman": 1086,
      "Ġà´µ": 1087,
      "Ġà´¸": 1088,
      "à¯Īà®¯": 1089,
      "Ġcomp": 1090,
      "style": 1091,
      "à´³": 1092,
      "à¦ľ": 1093,
      "à®¾à®°": 1094,
      "Ġà¨¬": 1095,
      "à«ģàªĤ": 1096,
      "à¤Ł": 1097,
      "ang": 1098,
      "ĠTh": 1099,
      "Ġne": 1100,
      "}}": 1101,
      "àª¹": 1102,
      "Ġun": 1103,
      "ence": 1104,
      "self": 1105,
      "Ġthey": 1106,
      "ress": 1107,
      "à±įà°¯": 1108,
      "Ġalso": 1109,
      "Ġàª¨": 1110,
      "Ġar": 1111,
      "Ġme": 1112,
      "ind": 1113,
      "à®¯": 1114,
      "à´¤àµįà´¤": 1115,
      "Ġdo": 1116,
      "Ġbut": 1117,
      "à´¿à´¯": 1118,
      "ord": 1119,
      "à¤¨à¥ĩ": 1120,
      "play": 1121,
      "dis": 1122,
      "à«Ģàª": 1123,
      "à«ĭàª": 1124,
      "à©Ĥà©°": 1125,
      "ick": 1126,
      "à®®à¯į": 1127,
      "ach": 1128,
      "à¨¤à©ĩ": 1129,
      "Ġone": 1130,
      "ire": 1131,
      "à¦¾à¦®": 1132,
      "à¯Ĭ": 1133,
      "Ġà¤ķà¥Ģ": 1134,
      "à®¿à®©": 1135,
      "Ġà¤Ń": 1136,
      "àª£": 1137,
      "ath": 1138,
      "ates": 1139,
      "Ġj": 1140,
      "turn": 1141,
      "à±įà°¨": 1142,
      "àµįà´°": 1143,
      "ub": 1144,
      "int": 1145,
      "ens": 1146,
      "à¨¿à¨Ĩ": 1147,
      "Ġà¤ķà¥ĭ": 1148,
      "ors": 1149,
      "à³Ģ": 1150,
      "ition": 1151,
      "ory": 1152,
      "Ġàª°": 1153,
      "ber": 1154,
      "ack": 1155,
      "à³Ĭ": 1156,
      "à¨µ": 1157,
      "à¯ģà®¤": 1158,
      "Ġà¦¬à¦¿à¦": 1159,
      "à²¿à²¸": 1160,
      "display": 1161,
      "à´µ": 1162,
      "ater": 1163,
      "Ġinf": 1164,
      "à°¿à°Ĥà°": 1165,
      "displaystyle": 1166,
      "à²¤à³įà²¤": 1167,
      "Ġà¦ī": 1168,
      "à¦¾à¦¬": 1169,
      "Ġpart": 1170,
      "Ġà²¬": 1171,
      "àŃĭà¬": 1172,
      "ely": 1173,
      "com": 1174,
      "à®Łà¯įà®Ł": 1175,
      "Ġà°ļ": 1176,
      "arg": 1177,
      "Ġout": 1178,
      "à²Ĥà²¦": 1179,
      "à°µ": 1180,
      "ĻàŃįà¬": 1181,
      "à³ĭ": 1182,
      "Ġà´ħ": 1183,
      "ose": 1184,
      "à¬¬": 1185,
      "Ġsc": 1186,
      "à´£": 1187,
      "àªª": 1188,
      "av": 1189,
      "Ġà´¨": 1190,
      "(\"": 1191,
      "Ġà°¨": 1192,
      "Ġà¨ī": 1193,
      "ark": 1194,
      "Ġà¤¹à¥ĭ": 1195,
      "Ġ{": 1196,
      "Ġev": 1197,
      "à´¸": 1198,
      "Ġà´®": 1199,
      "``": 1200,
      "Ġcomm": 1201,
      "ace": 1202,
      "à¯ģà®ķà¯įà®ķ": 1203,
      "à¬¸": 1204,
      "ĠSt": 1205,
      "Ġà¨°": 1206,
      "ĠĠĠĠĠĠĠĠĠĠĠĠĠĠ": 1207,
      "à´¨": 1208,
      "ep": 1209,
      "à®Ļ": 1210,
      "à´±": 1211,
      "ail": 1212,
      "vers": 1213,
      "Ġ==": 1214,
      "à´²": 1215,
      "à¨¾à¨²": 1216,
      "à°¾à°²": 1217,
      "àª¨àª¾": 1218,
      "au": 1219,
      "ake": 1220,
      "à¦¼": 1221,
      "à±įà°²": 1222,
      "à²®": 1223,
      "à¨ª": 1224,
      "Ġà¬ħ": 1225,
      "à°¸": 1226,
      "àª¸": 1227,
      "Ġà¤¶": 1228,
      "ite": 1229,
      "Ġàªķàª°": 1230,
      "ice": 1231,
      "à§įà¦·": 1232,
      "à¦¨à§įà¦": 1233,
      "à°¦": 1234,
      "Ġà¨¨à©Ĥà©°": 1235,
      "Ġits": 1236,
      "à®°à¯į": 1237,
      "ments": 1238,
      "àµįà´ª": 1239,
      "per": 1240,
      "à®¨à¯įà®¤": 1241,
      "Ġà¨Ĺ": 1242,
      "à±įà°¤": 1243,
      "àª®àª¾àªĤ": 1244,
      "ie": 1245,
      "ient": 1246,
      "ild": 1247,
      "ces": 1248,
      "Ġà¬¨": 1249,
      "àª¾àª®": 1250,
      "ish": 1251,
      "Ġà¬ı": 1252,
      "ĠNone": 1253,
      "Ġàª¤à«ĩ": 1254,
      "rib": 1255,
      "Ġsp": 1256,
      "Ġag": 1257,
      "à¨ľ": 1258,
      "Ġhis": 1259,
      "à®¾à®ķ": 1260,
      "nder": 1261,
      "àªĤàª": 1262,
      "Ġpre": 1263,
      "à´¨àµįà´¨": 1264,
      "Ġà¨¦à©Ģ": 1265,
      "à§įà¦Ł": 1266,
      "Ġso": 1267,
      "Ġà²µ": 1268,
      "lo": 1269,
      "Ġthan": 1270,
      "ĠV": 1271,
      "à®¾à®©": 1272,
      "àµįà´¯": 1273,
      "à¥ģà¤": 1274,
      "à¦¿à¦¬": 1275,
      "à¬¾à¬¨": 1276,
      "à¦ļ": 1277,
      "Ġyear": 1278,
      "à®¿à®±": 1279,
      "--": 1280,
      "à´ª": 1281,
      "Ġup": 1282,
      "own": 1283,
      "Ġwho": 1284,
      "Ġàª¬": 1285,
      "ĩà¬": 1286,
      "à§Ĥ": 1287,
      "àµĢ": 1288,
      "Ġmay": 1289,
      "ĠCh": 1290,
      "ject": 1291,
      "ree": 1292,
      "à«Ĥ": 1293,
      "assert": 1294,
      "à¤¾à¤¹": 1295,
      "Ġà°¤": 1296,
      "quest": 1297,
      "pec": 1298,
      "Ġà¤ı": 1299,
      "Ġà¬¹": 1300,
      "à´¾à´¯": 1301,
      "à¨Ĺ": 1302,
      "Ġtra": 1303,
      "à¬¿à¬¬": 1304,
      "Ġà¬¦": 1305,
      "Ġà¤ĩ": 1306,
      "àµģà´¨àµįà´¨": 1307,
      "Ġbeen": 1308,
      "àµįà´ļ": 1309,
      "à¨Ł": 1310,
      "Ġà¦ªà§įà¦°": 1311,
      "à³ģà²µ": 1312,
      "à°ª": 1313,
      "Ġover": 1314,
      "Ġà¨ķà¨°": 1315,
      "ities": 1316,
      "à°¡": 1317,
      "Ġsy": 1318,
      "à¦¶": 1319,
      "à§ĥ": 1320,
      "Ġà¤ļ": 1321,
      "à¬£": 1322,
      "ational": 1323,
      "à¤¤à¤¾": 1324,
      "Ġà¤¸à¥ĩ": 1325,
      "¡à¦¼": 1326,
      "low": 1327,
      "à²Ĺà²³": 1328,
      "à§ĩà¦ĩ": 1329,
      "à±ģà°²": 1330,
      "app": 1331,
      "à¦Ĥ": 1332,
      "erv": 1333,
      "à¤¹à¥ĩ": 1334,
      "fere": 1335,
      "à¦¤à§ĩ": 1336,
      "very": 1337,
      "à°Ł": 1338,
      "à¨Ī": 1339,
      "à¤¾à¤µ": 1340,
      "à®ļ": 1341,
      "ĻàŃįà¬ķ": 1342,
      "Ġàªı": 1343,
      "Ġif": 1344,
      "Ġtr": 1345,
      "cre": 1346,
      "àµ½": 1347,
      "à²¨à³įà²¨à³ģ": 1348,
      "à®ªà¯įà®ª": 1349,
      "à³įà²¦": 1350,
      "aram": 1351,
      "à¦¾à¦ľ": 1352,
      "Ġà¬ķà¬°": 1353,
      "ound": 1354,
      "Ġro": 1355,
      "Ġinv": 1356,
      "Ġthere": 1357,
      "_{": 1358,
      "Ġacc": 1359,
      "hed": 1360,
      "à²¿à²¯": 1361,
      "ĠIndia": 1362,
      "Ġà¬Ĩ": 1363,
      "à°¾à°¨": 1364,
      "ms": 1365,
      "Ġabout": 1366,
      "wo": 1367,
      "à¤¾à¤¸": 1368,
      "Ġdef": 1369,
      "Ġte": 1370,
      "àµ¼": 1371,
      "Ġà¦°": 1372,
      "à°¿à°¨": 1373,
      "à¤¶": 1374,
      "à°¯": 1375,
      "âĪ": 1376,
      "irst": 1377,
      "à¦¾à¦¸": 1378,
      "à²²à³įà²²à²¿": 1379,
      "reat": 1380,
      "Ġpe": 1381,
      "Ġà¤ªà¤°": 1382,
      "à²°à³ģ": 1383,
      "\"\"\"": 1384,
      "Ļàµįà´": 1385,
      "à¯Ģ": 1386,
      "Ġà¦¸à¦®": 1387,
      "à²ª": 1388,
      "rit": 1389,
      "à¦Ń": 1390,
      "Ġ[": 1391,
      "àª¨à«Ģ": 1392,
      "à´ķ": 1393,
      "Ġtime": 1394,
      "ility": 1395,
      "cept": 1396,
      "old": 1397,
      "Ġàª¦": 1398,
      "ays": 1399,
      "à¯ģà®ķ": 1400,
      "à¤¾à¤¯": 1401,
      "Ġtest": 1402,
      "ook": 1403,
      "à¤¿à¤²": 1404,
      "ool": 1405,
      "à²¿à²Ĺ": 1406,
      "à¤¾à¤®": 1407,
      "à±Ĥà°": 1408,
      "ings": 1409,
      "à¯Ĥ": 1410,
      "ents": 1411,
      "à²¬": 1412,
      "à¤¨à¤¾": 1413,
      "ĠIt": 1414,
      "Ġà²Ĩ": 1415,
      "Ġsuch": 1416,
      "à§ģà¦²": 1417,
      "ari": 1418,
      "Ġsome": 1419,
      "Ġcons": 1420,
      "à¬°àŃįà¬": 1421,
      "à¦§": 1422,
      "à¦¾à¦¦": 1423,
      "we": 1424,
      "à§°à§ģ": 1425,
      "Ġbet": 1426,
      "Ġli": 1427,
      "Ġwhen": 1428,
      "à²Ł": 1429,
      "ĠThis": 1430,
      "lic": 1431,
      "âĢĿ": 1432,
      "à¤ķà¥įà¤": 1433,
      "row": 1434,
      "Ġà¨Ĩ": 1435,
      "ally": 1436,
      "Ġà²¤": 1437,
      "ĠĠĠĠĠĠĠĠĠĠĠĠĠĠĠĠĠĠĊ": 1438,
      "cess": 1439,
      "à¦¾à¦¹": 1440,
      "Ġà¤Ķ": 1441,
      "ative": 1442,
      "à¦ģ": 1443,
      "Ġà®ī": 1444,
      "à§įà¦¯à¦": 1445,
      "ype": 1446,
      "ution": 1447,
      "à°¿à°ķ": 1448,
      "Ġà®İà®©": 1449,
      "Ġunder": 1450,
      "à¥įà¤µ": 1451,
      "ific": 1452,
      "ph": 1453,
      "eth": 1454,
      "Ġà¤Ĩà¤¹à¥ĩ": 1455,
      "à¯įà®ļ": 1456,
      "ove": 1457,
      "Ġimport": 1458,
      "à´¿à´ķàµįà´ķ": 1459,
      "Ġinto": 1460,
      "Ġem": 1461,
      "Ġass": 1462,
      "Ġgen": 1463,
      "Ġhad": 1464,
      "Ġstr": 1465,
      "à±įà°Ł": 1466,
      "lect": 1467,
      "Ġyour": 1468,
      "olog": 1469,
      "Ġreg": 1470,
      "Ľà¦¿à¦²": 1471,
      "¥à«Ģ": 1472,
      "Ġnew": 1473,
      "Ġà²ĩ": 1474,
      "ĠĠĠĠĠĠĠĠĠĠĠĠĠĠĠĠĠĠ": 1475,
      "anc": 1476,
      "ange": 1477,
      "Ġam": 1478,
      "\")": 1479,
      "Ġà¨µà¨¿à¨": 1480,
      "get": 1481,
      "Ġincl": 1482,
      "àµįà´±": 1483,
      "à±Ī": 1484,
      "Ġany": 1485,
      "à©įà¨°": 1486,
      "à§ĩà¦ķ": 1487,
      "ern": 1488,
      "Ġà¦¥": 1489,
      "Ġsa": 1490,
      "Ġdif": 1491,
      "à´ķàµįà´ķ": 1492,
      "Ġact": 1493,
      "à¨¾à¨¨": 1494,
      "à´¾à´£": 1495,
      "Ġà¤Ķà¤°": 1496,
      "ys": 1497,
      "Ġob": 1498,
      "Ġstud": 1499,
      "Ġà¬°": 1500,
      "à¬ª": 1501,
      "à§įà¦¥": 1502,
      "Ġà°°": 1503,
      "Ġdes": 1504,
      "ļàµįà´ļ": 1505,
      "ise": 1506,
      "à¤²à¥ĩ": 1507,
      "ren": 1508,
      "ons": 1509,
      "Ġà¨ħà¨¤à©ĩ": 1510,
      "à¯ģà®µ": 1511,
      "vern": 1512,
      "à®¾à®²": 1513,
      "Ġprov": 1514,
      "ata": 1515,
      "ft": 1516,
      "Ġàª¶": 1517,
      "te": 1518,
      "Ġbec": 1519,
      "à§ĩà¦²": 1520,
      "à¬¿à¬²": 1521,
      "Ġàªħàª¨à«ĩ": 1522,
      "stem": 1523,
      "Ġno": 1524,
      "Ġàª²": 1525,
      "Ġà¦ıà¦ķ": 1526,
      "ĠUn": 1527,
      "à¯įà®³": 1528,
      "Ġhig": 1529,
      "()": 1530,
      "Ġinter": 1531,
      "Ġwould": 1532,
      "Ġpol": 1533,
      "Ġvalue": 1534,
      "à¤¼": 1535,
      "Ġrec": 1536,
      "à³Ĩà²¯": 1537,
      "Ġresult": 1538,
      "à®¿à®ķ": 1539,
      "velop": 1540,
      "Ġfirst": 1541,
      "fter": 1542,
      "à§Ģà¦¯à¦¼": 1543,
      "à³įà²ķ": 1544,
      "à³įà²Ł": 1545,
      "à°Ĥà°¦": 1546,
      "Ġused": 1547,
      "ople": 1548,
      "à±ģà°¨": 1549,
      "à²¹": 1550,
      "Ġà¦ĵ": 1551,
      "Ġuse": 1552,
      "Ġthese": 1553,
      "Ġkn": 1554,
      "ault": 1555,
      "oss": 1556,
      "Ġà¨¹à©ĭ": 1557,
      "à¦ĸ": 1558,
      "Ġà¤ķà¤¾": 1559,
      "ax": 1560,
      "à®¿à®Ł": 1561,
      "à¨¸à¨¼": 1562,
      "à®©à¯į": 1563,
      "Ġwork": 1564,
      "à´¨àµįà´": 1565,
      "Ġà§": 1566,
      "à¦¥": 1567,
      "rough": 1568,
      "__": 1569,
      "return": 1570,
      "àª°à«įàª": 1571,
      "à²¿à²ķ": 1572,
      "àª¯": 1573,
      "Ġqu": 1574,
      "ied": 1575,
      "à´Ļàµįà´": 1576,
      "Ġà´¤": 1577,
      "Ġsub": 1578,
      "Ġtwo": 1579,
      "Ġprodu": 1580,
      "Ġco": 1581,
      "In": 1582,
      "lp": 1583,
      "erm": 1584,
      "à¦¿à¦°": 1585,
      "als": 1586,
      "Ġthem": 1587,
      "Ġcount": 1588,
      "Ġform": 1589,
      "Ġoff": 1590,
      "à¥įà¤¹": 1591,
      "pro": 1592,
      "à¥įà¤Ł": 1593,
      "à®´": 1594,
      "à¤¾à¤ľ": 1595,
      "ĠY": 1596,
      "à©ĭà¨Ĥ": 1597,
      "à§įà¦®": 1598,
      "Ġonly": 1599,
      "à¨¿à©±à¨": 1600,
      "Ġà¦¹à¦¯à¦¼": 1601,
      "ased": 1602,
      "Ġnum": 1603,
      "Ġà§°": 1604,
      "Ġmost": 1605,
      "Ġà¦¦à§ĩà¦": 1606,
      "Ġrel": 1607,
      "ause": 1608,
      "les": 1609,
      "form": 1610,
      "à®¿à®¤": 1611,
      "Ġà¦ªà§°": 1612,
      "ĠâĢľ": 1613,
      "Ġà²İ": 1614,
      "à´¿à´°": 1615,
      "gr": 1616,
      "ict": 1617,
      "ll": 1618,
      "Ġeff": 1619,
      "à¤¤à¥Ģ": 1620,
      "Ġra": 1621,
      "Ġ.": 1622,
      "Ġspec": 1623,
      "à¥Ĥà¤¨": 1624,
      "à«ģàª": 1625,
      "à¤¿à¤¸": 1626,
      "à¤Ń": 1627,
      "ics": 1628,
      "ced": 1629,
      "à¤¹à¥Ģ": 1630,
      "à¯įà®ķà®³à¯į": 1631,
      "Ġmod": 1632,
      "Ġà¤¸à¤Ĥ": 1633,
      "ures": 1634,
      "Ġà¦ıà¦ĩ": 1635,
      "Ġcall": 1636,
      "Ġcol": 1637,
      "**": 1638,
      "Ġà¬ľ": 1639,
      "Ġdist": 1640,
      "Ġà¦Ĩà¦®": 1641,
      "à¬³": 1642,
      "Ġà¦Ĩà§°à§ģ": 1643,
      "à¬¨àŃįà¬¤": 1644,
      "ix": 1645,
      "Ġà¦ĸ": 1646,
      "à²¿à²¦à³įà²¦": 1647,
      "à¤¿à¤¨": 1648,
      "à°¾à°°à±ģ": 1649,
      "iss": 1650,
      "Ġfun": 1651,
      "Ġpeople": 1652,
      "Ġà´İ": 1653,
      "Ġprob": 1654,
      "ank": 1655,
      "àª¾àªµ": 1656,
      "à¤¾à¤ļ": 1657,
      "ob": 1658,
      "à±Ĭ": 1659,
      "à²£": 1660,
      "und": 1661,
      "Ġà¦ĩ": 1662,
      "Ġ:": 1663,
      "à®ķà¯įà®ķ": 1664,
      "à¬ĻàŃįà¬ķ": 1665,
      "àµĤ": 1666,
      "à°Ĺ": 1667,
      "ract": 1668,
      "Ġà®Ĩ": 1669,
      "à¦¾à¦ª": 1670,
      "à°¿à°Ĥà°ļ": 1671,
      "Ġadd": 1672,
      "ond": 1673,
      "ating": 1674,
      "à©Ģà¨Ĩ": 1675,
      "alth": 1676,
      "ĠRe": 1677,
      "ample": 1678,
      "à´¿à´¨": 1679,
      "uring": 1680,
      "à±ģà°Ĥà°": 1681,
      "à¦¾à¦Ĺ": 1682,
      "à®ª": 1683,
      "ular": 1684,
      "Ġà¬ªàŃįà¬°": 1685,
      "ner": 1686,
      "à®£à¯įà®Ł": 1687,
      "à¯įà®²": 1688,
      "à¨¦à¨¾": 1689,
      "Ġ===": 1690,
      "name": 1691,
      "à²¿à²°": 1692,
      "à²¿à²Ĥ": 1693,
      "ween": 1694,
      "à¤¤à¥ĩ": 1695,
      "Ġà¦ªà§įà§°": 1696,
      "Ġà°ªà±įà°°": 1697,
      "à¬¿à¬ķ": 1698,
      "Ġthrough": 1699,
      "à¦¿à§°": 1700,
      "Ġhow": 1701,
      "ov": 1702,
      "Ġpo": 1703,
      "text": 1704,
      "Ġdevelop": 1705,
      "Ġfin": 1706,
      "ĠAs": 1707,
      "Ġinst": 1708,
      "Ġà®ļà¯Ĩ": 1709,
      "ited": 1710,
      "à¦²à§ĩ": 1711,
      "Ġà¬¯": 1712,
      "Ġà¤ıà¤ķ": 1713,
      "hen": 1714,
      "ues": 1715,
      "ĠàªĹ": 1716,
      "Ġà°Ĩ": 1717,
      "à¦¿à¦¯à¦¼à§ĩ": 1718,
      "Ġvari": 1719,
      "Ġbetween": 1720,
      "fore": 1721,
      "^{": 1722,
      "uc": 1723,
      "à¨¬": 1724,
      "à¤¨à¥Ģ": 1725,
      "ror": 1726,
      "Ġmat": 1727,
      "\":": 1728,
      "aw": 1729,
      "Ġ\\": 1730,
      "mer": 1731,
      "round": 1732,
      "ever": 1733,
      "Ġsystem": 1734,
      "à²¿à²¨": 1735,
      "Ġà¨¦à¨¾": 1736,
      "à´¾à´£àµį": 1737,
      "Ġset": 1738,
      "à°¨à°¿": 1739,
      "Ġdiffere": 1740,
      "à®±à¯įà®±": 1741,
      "Ġàª¹àª¤": 1742,
      "Ġà¬Ĺ": 1743,
      "test": 1744,
      "à©ľ": 1745,
      "à²¿à²¤": 1746,
      "Ġà¤ħà¤¸": 1747,
      "àµģà´Ł": 1748,
      "Ġneed": 1749,
      "à¤¿à¤¯à¤¾": 1750,
      "yp": 1751,
      "Ġà¤µà¤¿à¤": 1752,
      "à±ģà°ķ": 1753,
      "à®¿à®ķà¯įà®ķ": 1754,
      "vernment": 1755,
      "ock": 1756,
      "à§ĩà¦ĵ": 1757,
      "à°°à±įà°": 1758,
      "ible": 1759,
      "Ġmany": 1760,
      "Ġà²°": 1761,
      "à´¿à´ļàµįà´ļ": 1762,
      "ered": 1763,
      "à¤Ĥà¤¤": 1764,
      "à¨¿à¨¸": 1765,
      "oth": 1766,
      "ning": 1767,
      "iel": 1768,
      "Ġmark": 1769,
      "à¤²à¤¾": 1770,
      "Ġshould": 1771,
      "à¬²": 1772,
      "à²°à³įà²": 1773,
      "oy": 1774,
      "à´¾à´°": 1775,
      "àªĹ": 1776,
      "àª¦": 1777,
      "àªľ": 1778,
      "ĠHe": 1779,
      "Ġrem": 1780,
      "Ġatt": 1781,
      "Ġà¨ĩà¨¸": 1782,
      "à´¿àµ½": 1783,
      "Ġyears": 1784,
      "Ġcent": 1785,
      "its": 1786,
      "arch": 1787,
      "],": 1788,
      "ected": 1789,
      "Ġpr": 1790,
      "rue": 1791,
      "Ġac": 1792,
      "vi": 1793,
      "Ġà´ĩ": 1794,
      "à¦Ľà§ĩ": 1795,
      "à´Ļàµįà´Ļ": 1796,
      "cy": 1797,
      "àª¡": 1798,
      "Ġph": 1799,
      "à§ĭà§±": 1800,
      "à¬¦": 1801,
      "à¯įà®µ": 1802,
      "Ġà¨ķà¨¿": 1803,
      "Ġà¬¤": 1804,
      "Ġfl": 1805,
      "Ġcur": 1806,
      "à¤°à¥Ģ": 1807,
      "Ġà¤ĸ": 1808,
      "Ġà¦«": 1809,
      "ten": 1810,
      "ower": 1811,
      "cent": 1812,
      "à©įà¨¹": 1813,
      "Ġgener": 1814,
      "à¯ģà®®": 1815,
      "à³ģà²¦": 1816,
      "Ġà²®à²¾à²": 1817,
      "Ġwhere": 1818,
      "Ġà²ªà³įà²°": 1819,
      "Ġà¨¨à©ĩ": 1820,
      "click": 1821,
      "Ġtrans": 1822,
      "âģ": 1823,
      "ator": 1824,
      "Ġsupp": 1825,
      "àª¾àª¯": 1826,
      "à®¾à®¤": 1827,
      "ne": 1828,
      "Ġà¬Ń": 1829,
      "ood": 1830,
      "à¤¾à¤Ĺ": 1831,
      "àµĩà´": 1832,
      "à®¿à®©à¯į": 1833,
      "Ġins": 1834,
      "irect": 1835,
      "io": 1836,
      "à¯ģà®¤à¯įà®¤": 1837,
      "Ġris": 1838,
      "pr": 1839,
      "Ġà¦ħà¦¨": 1840,
      "à§įà¦ª": 1841,
      "ident": 1842,
      "Ġget": 1843,
      "put": 1844,
      "Ġà¤«": 1845,
      "à§ģà¦°": 1846,
      "Ġmon": 1847,
      "hes": 1848,
      "Ġà¨ļ": 1849,
      "à¤²à¥Ģ": 1850,
      "Ġpres": 1851,
      "Ġà´ļ": 1852,
      "erest": 1853,
      "gan": 1854,
      "àµ»": 1855,
      "à¯ģà®³": 1856,
      "ough": 1857,
      "roup": 1858,
      "param": 1859,
      "à¦ķà§įà¦·": 1860,
      "Ġàª®àª¾àª": 1861,
      "ield": 1862,
      "Ġincre": 1863,
      "conom": 1864,
      "Ġfe": 1865,
      "àµįà´²": 1866,
      "à³ģà²¤à³įà²¤": 1867,
      "Ġ|": 1868,
      "hem": 1869,
      "àµģà´ķ": 1870,
      "uch": 1871,
      "à©Ģà¨Ĩà¨Ĥ": 1872,
      "ars": 1873,
      "Ġafter": 1874,
      "à¥ĩà¤¶": 1875,
      "à§ĩà¦¤": 1876,
      "value": 1877,
      "Ġà´Ĩ": 1878,
      "à¦·": 1879,
      "ists": 1880,
      "à¨¦à©ĩ": 1881,
      "âĪĴ": 1882,
      "Ġsur": 1883,
      "Ġthen": 1884,
      "Ġà¨µà¨¿à¨ļ": 1885,
      "ife": 1886,
      "Ġhelp": 1887,
      "ask": 1888,
      "à±įà°ª": 1889,
      "à®²à¯į": 1890,
      "àª³": 1891,
      "ĠàªĨàªµ": 1892,
      "à¤ķà¥įà¤·": 1893,
      "wn": 1894,
      "Ġà°¦": 1895,
      "ins": 1896,
      "Ġind": 1897,
      "Ġlike": 1898,
      "ĠCom": 1899,
      "Ġà¤¤à¥įà¤¯à¤¾à¤": 1900,
      "Ġà¦§": 1901,
      "Ġà¤¹à¥Īà¤Ĥ": 1902,
      "ute": 1903,
      "Ġwhat": 1904,
      "ption": 1905,
      "Ġcould": 1906,
      "à¯ģà®Ł": 1907,
      "à´¤àµį": 1908,
      "Ġà¤ĩà¤¸": 1909,
      "Ġà¤ĺ": 1910,
      "à´¾à´¨": 1911,
      "===": 1912,
      "à¥įà¤¥": 1913,
      "Ġinclud": 1914,
      "Th": 1915,
      "à¤¿à¤ı": 1916,
      "rac": 1917,
      "Ġbu": 1918,
      "Ġke": 1919,
      "ful": 1920,
      "à¤¾à¤¦": 1921,
      "à¦ķà§ĩ": 1922,
      "ollow": 1923,
      "ade": 1924,
      "à¦¡à¦¼": 1925,
      "à¨ļ": 1926,
      "Ġà²ľ": 1927,
      "à²¶": 1928,
      "Ġà¤¨à¥ĩ": 1929,
      "ives": 1930,
      "à¬¾à¬ĩà¬": 1931,
      "Ġsaid": 1932,
      "à§ĩà¦¶": 1933,
      "à¨¤à¨¾": 1934,
      "à¬¿à¬¤": 1935,
      "Ġà²Ĺ": 1936,
      "àª¥à«Ģ": 1937,
      "Ġà°ĩ": 1938,
      "à«ĩàª²": 1939,
      "à±įà°µ": 1940,
      "à²¿à²¦à³Ĩ": 1941,
      "ages": 1942,
      "à¨¤à©Ģ": 1943,
      "illion": 1944,
      "ts": 1945,
      "Ġear": 1946,
      "ural": 1947,
      "à¬¼": 1948,
      "Ġself": 1949,
      "à«įàªŁ": 1950,
      "Ġà¨²à¨Ī": 1951,
      "à®¾à®°à¯į": 1952,
      "Ġchild": 1953,
      "Ġresp": 1954,
      "ah": 1955,
      "Ġà¦ĺ": 1956,
      "Ġà°ī": 1957,
      "à®¾à®Ł": 1958,
      "Ġà°Ĺ": 1959,
      "Ġinvest": 1960,
      ".\"": 1961,
      "iter": 1962,
      "à²Ĥà²¤": 1963,
      "Ġinterest": 1964,
      "Ġàªªà«įàª°": 1965,
      "Ġà°ļà±ĩà°": 1966,
      "à²ļ": 1967,
      "à¬¾à¬¹": 1968,
      "ines": 1969,
      "Ġà°¬": 1970,
      "Ġed": 1971,
      "Ġà°²": 1972,
      "ode": 1973,
      "Ġequ": 1974,
      "Ġàªī": 1975,
      "Ġà²¦": 1976,
      "ink": 1977,
      "Ġà¦ªà¦°": 1978,
      "àªµàª¾": 1979,
      "ĠIndian": 1980,
      "à¤ļà¥įà¤¯à¤¾": 1981,
      "à¤¿à¤µ": 1982,
      "uth": 1983,
      "ethod": 1984,
      "ically": 1985,
      "à§ĭà¦¨": 1986,
      "Ġest": 1987,
      "à«įàª¤": 1988,
      "Ľà¬¿": 1989,
      "Ġmarket": 1990,
      "à²¾à²¨": 1991,
      "à´¿à´ķ": 1992,
      "ĠSe": 1993,
      "ually": 1994,
      "mand": 1995,
      "ĠĠĠĠĠĠĠĠĠĠĠĠĠĠĠĠĠĠĠĠĊ": 1996,
      "ized": 1997,
      "Ġàª¥": 1998,
      "Ġwell": 1999,
      "Ġreturn": 2000,
      "Ġhigh": 2001,
      "ash": 2002,
      "ily": 2003,
      ">>": 2004,
      "à©Į": 2005,
      "Ġbl": 2006,
      "àµ¾": 2007,
      "à®¿à®µ": 2008,
      "à®Ļà¯įà®ķ": 2009,
      "à¦Ľ": 2010,
      "Ġsame": 2011,
      "Ġdisc": 2012,
      "Ġour": 2013,
      "à§§": 2014,
      "Ġnumber": 2015,
      "Ġàªķà«ĩ": 2016,
      "Ġdep": 2017,
      "Ġà¦¨à¦¿à¦": 2018,
      "ĠPro": 2019,
      "àª¾àª®àª¾àªĤ": 2020,
      "à´ªàµįà´ª": 2021,
      "Ġà¤¯à¤¾": 2022,
      "ants": 2023,
      "up": 2024,
      "à¤ķà¤¾à¤°": 2025,
      "ability": 2026,
      "à°Ĥà°Ł": 2027,
      "Ġà¨ķà©Ģ": 2028,
      "à´Łàµįà´Ł": 2029,
      "à¥ī": 2030,
      "Ġdec": 2031,
      "à¦¾à¦Ł": 2032,
      "other": 2033,
      "à¥ĥ": 2034,
      "à²¾à²¦": 2035,
      "Ġà®ĩà®°": 2036,
      "à¬§": 2037,
      "ases": 2038,
      "à¨¾à¨¹": 2039,
      "à§įà¦¦": 2040,
      "Ġdet": 2041,
      "str": 2042,
      "Ġàªļ": 2043,
      "à°¨à±įà°¨": 2044,
      "à§įà¦§": 2045,
      "Ġàªĸ": 2046,
      "ital": 2047,
      "Ġinform": 2048,
      "à¤Ī": 2049,
      "à§įà¦Ĺ": 2050,
      "li": 2051,
      "Ġà¬¶": 2052,
      "Ġà¨¸à¨¼": 2053,
      "ral": 2054,
      "à¦ĵ": 2055,
      "àµĨà´¯": 2056,
      "à¨¿à©±à¨ļ": 2057,
      "...": 2058,
      "Ġdifferent": 2059,
      "à®¿à®¤à¯įà®¤": 2060,
      "ward": 2061,
      "Ġà¦Ł": 2062,
      "àµĬ": 2063,
      "Ĺà°¾": 2064,
      "Ġsm": 2065,
      "ize": 2066,
      "à°ķà±įà°": 2067,
      "ĠDe": 2068,
      "Ġfollow": 2069,
      "Ġeach": 2070,
      "Ġfunction": 2071,
      "aj": 2072,
      "Ġeffect": 2073,
      "from": 2074,
      "Ġà¨ĸ": 2075,
      "Ġdata": 2076,
      "à¤ĸ": 2077,
      "ivers": 2078,
      "any": 2079,
      "Ġà¨ªà©įà¨°": 2080,
      "Ġà¨µà¨¿à©±à¨ļ": 2081,
      "ruct": 2082,
      "Ġà¦¨à¦¾": 2083,
      "Ġ``": 2084,
      "à¦²à§Ī": 2085,
      "Ġappro": 2086,
      "Ġà¤¥": 2087,
      "alse": 2088,
      "¦à°¿": 2089,
      "chn": 2090,
      "à¥ģà¤°": 2091,
      "aking": 2092,
      "à²Ĥà²¦à³ģ": 2093,
      "àª¶": 2094,
      "àµĭà´": 2095,
      "Ġà¤¸à¤®": 2096,
      "ted": 2097,
      "ting": 2098,
      "ug": 2099,
      "Ġfact": 2100,
      "à°¾à°¯": 2101,
      "à¯ģà®±": 2102,
      "ng": 2103,
      "¥à¬¿à¬²": 2104,
      "à©Ģà¨Ĥ": 2105,
      "Ġloc": 2106,
      "Ġsim": 2107,
      "Ġà¦¬à¦²": 2108,
      "à°¿à°¤": 2109,
      "ĠFor": 2110,
      "à§įà¦ķ": 2111,
      "Ġgovernment": 2112,
      "iron": 2113,
      "Ġcor": 2114,
      "à²¿à²Ĺà³Ĩ": 2115,
      "Ġexample": 2116,
      "à¤¿à¤Ĥ": 2117,
      "Ġà¨¨à¨¾à¨²": 2118,
      "Ġhealth": 2119,
      "read": 2120,
      "Ġmake": 2121,
      "Ġthose": 2122,
      "Ġworld": 2123,
      "à¨Ĩ": 2124,
      "ined": 2125,
      "à§ģà§°": 2126,
      "Ġrese": 2127,
      "ices": 2128,
      "à¬¡": 2129,
      "ology": 2130,
      "à¥Į": 2131,
      "à®²à¯įà®²": 2132,
      "Ġlong": 2133,
      "Ġher": 2134,
      "Ġrate": 2135,
      "ĠàªŃ": 2136,
      "Ġbeing": 2137,
      "à²ķà³įà²ķ": 2138,
      "led": 2139,
      "à¦¾à¦ģ": 2140,
      "à§ģà¦ķ": 2141,
      "Ġent": 2142,
      "chool": 2143,
      "à¤£à¥įà¤¯à¤¾à¤": 2144,
      "Ġpub": 2145,
      "à¨¿à¨¹": 2146,
      "àª¾àª¤": 2147,
      "à¯įà®©": 2148,
      "fl": 2149,
      "Ġpers": 2150,
      "à¬Ĥ": 2151,
      "à²°à³Ĩ": 2152,
      "à©±à¨ķ": 2153,
      "à¥ĩà¤¤": 2154,
      "à§ģà¦¨": 2155,
      "Ġpop": 2156,
      "Ġeconom": 2157,
      "Ġbecause": 2158,
      "Ġser": 2159,
      "imes": 2160,
      "à³įà²®": 2161,
      "tp": 2162,
      "àŃĤ": 2163,
      "Ġend": 2164,
      "à®©à¯įà®±": 2165,
      "tern": 2166,
      "Ġwater": 2167,
      "Ġà¨Ń": 2168,
      "à¤¸à¥ĩ": 2169,
      "Ġrisk": 2170,
      "Ġmed": 2171,
      "args": 2172,
      "à¦Ļ": 2173,
      "Ġprocess": 2174,
      "ivid": 2175,
      "Ġstate": 2176,
      "Ġà°ľ": 2177,
      "eng": 2178,
      "land": 2179,
      "',": 2180,
      "for": 2181,
      "ved": 2182,
      "Ġrep": 2183,
      "Ġsign": 2184,
      "à®¾à®²à¯į": 2185,
      "ince": 2186,
      "ork": 2187,
      "Ġà´ªàµįà´°": 2188,
      "ont": 2189,
      "Ġrequ": 2190,
      "der": 2191,
      "Ġà¤ķà¤¿": 2192,
      "à°¿à°¯": 2193,
      "àŃĩà¬¬": 2194,
      "àª§": 2195,
      "Ġà®Ĵ": 2196,
      "¸à±įà°¤": 2197,
      "ude": 2198,
      "à¦¨à§įà¦¦": 2199,
      "ok": 2200,
      "à§ĭà¦Ĺ": 2201,
      "Ġeven": 2202,
      "à¨°à©Ģ": 2203,
      "Ġcalled": 2204,
      "Ġfound": 2205,
      "à§ĩà¦Ľà§ĩ": 2206,
      "Ġà¦Ľ": 2207,
      "rent": 2208,
      "ck": 2209,
      "the": 2210,
      "à¦¿à¦¯à¦¼à¦¾": 2211,
      "àª¿àªķ": 2212,
      "Ġext": 2213,
      "Ġjust": 2214,
      "Ġpric": 2215,
      "oci": 2216,
      "à±ģà°¨à±įà°¨": 2217,
      "Ġbel": 2218,
      "à¤¾à¤ª": 2219,
      "ection": 2220,
      "à´¿à´²àµį": 2221,
      "àµģà´®": 2222,
      "à©°à¨¦": 2223,
      "Ġcomple": 2224,
      "à¬Ĺ": 2225,
      "viron": 2226,
      "Ġà¬ĵ": 2227,
      "à¨¿à©°à¨": 2228,
      "ĠIf": 2229,
      "à§ĭà§°": 2230,
      "iven": 2231,
      "à®³à¯į": 2232,
      "ĠâĢĵ": 2233,
      "ism": 2234,
      "Ġ->": 2235,
      "Ġpartic": 2236,
      "ature": 2237,
      "Ġlist": 2238,
      "Ġàªªàª°": 2239,
      "ven": 2240,
      "Ġgrow": 2241,
      "Ġmin": 2242,
      "Ġduring": 2243,
      "Ġagain": 2244,
      "Ġà¤Ńà¥Ģ": 2245,
      "Ġà¬ī": 2246,
      "Ġstand": 2247,
      "Ġà¬²": 2248,
      "cur": 2249,
      "à°¿à°²": 2250,
      "à°ļ": 2251,
      "vent": 2252,
      "ared": 2253,
      "à¦¤à¦¿": 2254,
      "à¥įà¤ª": 2255,
      "à¦¨à§ĩ": 2256,
      "Ġà®ķà¯Ĭ": 2257,
      "ss": 2258,
      "à³įà²µ": 2259,
      "Ġinformation": 2260,
      "Ġà¤Ĩà¤£": 2261,
      "¡à±ģ": 2262,
      "ished": 2263,
      "Ġà¨«": 2264,
      "erg": 2265,
      "Ġdoes": 2266,
      "gram": 2267,
      "Ġà¨¹à¨¨": 2268,
      "ĠAn": 2269,
      "à°Ĥà°¤": 2270,
      "ulation": 2271,
      "meric": 2272,
      "à¦¨à§įà¦¤": 2273,
      "Ġà¨¸à©Ģ": 2274,
      "Ġà®ļà¯Ĩà®¯": 2275,
      "à§¦": 2276,
      "Ġback": 2277,
      "ene": 2278,
      "à´£àµįà´Ł": 2279,
      "Ġ_": 2280,
      "Ġà°İ": 2281,
      "Ġsee": 2282,
      "Ġinde": 2283,
      "ght": 2284,
      "Ġcre": 2285,
      "àŃįà¬·": 2286,
      "ĠNew": 2287,
      "Ġprovid": 2288,
      "Ġà¦¹à§Ī": 2289,
      "ĠAl": 2290,
      "frac": 2291,
      "ĠĠĠĠĠĠĠĠĠĠĠĠĠĠĠĠĠĠĠĠĠĠĊ": 2292,
      "à§¨": 2293,
      "Ġà¨¤à©ĭà¨Ĥ": 2294,
      "Ġ,": 2295,
      "àµģà´¤": 2296,
      "à±ģà°¤": 2297,
      "à¤ı": 2298,
      "Ġboth": 2299,
      "àª¾àª¸": 2300,
      "à¥ĭà¤Ĺ": 2301,
      "à¯ģà®³à¯įà®³": 2302,
      "à©ģà¨°": 2303,
      "with": 2304,
      "à¦Łà¦¾": 2305,
      "à²¾à²Ĺà²¿": 2306,
      "à¬¿à¬¬à¬¾": 2307,
      "à²¿à²Ĥà²¦": 2308,
      "à¤ķà¥ĩ": 2309,
      "Ġright": 2310,
      "Ġà¨µà©Ģ": 2311,
      "à¦ĸà¦¨": 2312,
      "à´¦": 2313,
      "Ġav": 2314,
      "url": 2315,
      "Ġà¦¡": 2316,
      "Ġshow": 2317,
      "à²·": 2318,
      "Ġdistrib": 2319,
      "à¦²à§ĭ": 2320,
      "hip": 2321,
      "arm": 2322,
      "Ġway": 2323,
      "cond": 2324,
      "àŃįà¬Ł": 2325,
      "à¬¾à¬ķ": 2326,
      "à¤³": 2327,
      "à¤ķà¤°": 2328,
      "att": 2329,
      "à¬¿à¬¨": 2330,
      "à¤¾à¤°à¥Ģ": 2331,
      "àŃįà¬¬": 2332,
      "à²¾à²¯": 2333,
      "Ġrun": 2334,
      "à©įà¨¹à¨¾à¨Ĥ": 2335,
      "à³Ī": 2336,
      "Ġpay": 2337,
      "Ġmem": 2338,
      "à¨¿à¨²": 2339,
      "Ġevery": 2340,
      "ets": 2341,
      "Ġmade": 2342,
      "Ġà®ħà®µ": 2343,
      "Ġfam": 2344,
      "This": 2345,
      "à¯ģà®¨à¯įà®¤": 2346,
      "àª¬": 2347,
      "Ġbefore": 2348,
      "Ġown": 2349,
      "ience": 2350,
      "Ġcap": 2351,
      "à«įàªµ": 2352,
      "àŃĥ": 2353,
      "à²¾à²µ": 2354,
      "ĠEx": 2355,
      "Ġà¬¸à¬®": 2356,
      "à¥Ģà¤²": 2357,
      "à¦¬à§ĩ": 2358,
      "Ġà¤ķà¤¾à¤°": 2359,
      "ially": 2360,
      "à§Ģà§°": 2361,
      "à¨¾à¨µ": 2362,
      "Ġprop": 2363,
      "à®Ļà¯įà®ķà®³": 2364,
      "àªŁ": 2365,
      "âĢĵ": 2366,
      "default": 2367,
      "Ġwhile": 2368,
      "àª¤àª¾": 2369,
      "Ġusing": 2370,
      "ries": 2371,
      "class": 2372,
      "ather": 2373,
      "à²Ĥà²¡": 2374,
      "Ġfund": 2375,
      "à¥įà¤°à¥Ģ": 2376,
      "Ġà¤Ł": 2377,
      "Ġref": 2378,
      "ĠAmeric": 2379,
      "ĠHow": 2380,
      "à°ľ": 2381,
      "Ġca": 2382,
      "Ġreport": 2383,
      "Ġknow": 2384,
      "Ġà¦¸à¦Ĥ": 2385,
      "Ġiss": 2386,
      "Ġlevel": 2387,
      "à¦¿à¦®": 2388,
      "à¨¾à¨Ī": 2389,
      "Ġà¬ıà¬¹": 2390,
      "Ġhum": 2391,
      "à¨ĸ": 2392,
      "ified": 2393,
      "opt": 2394,
      "à¨¾à¨¸": 2395,
      "Ġval": 2396,
      "à¨§": 2397,
      "nce": 2398,
      "Ġserv": 2399,
      "à¤¾à¤£": 2400,
      "arge": 2401,
      "Ġà¤Ĩà¤£à¤¿": 2402,
      "à¦«": 2403,
      "à®¾à®µ": 2404,
      "val": 2405,
      "à®³à¯įà®³": 2406,
      "to": 2407,
      "à¬¶": 2408,
      "à¦¾à¦ĵ": 2409,
      "\"]": 2410,
      "Ġà´¬": 2411,
      "à´¿à´Ł": 2412,
      "Ġà®ªà¯ĭ": 2413,
      "Ġocc": 2414,
      "à§ģà¦®": 2415,
      "Ġgroup": 2416,
      "osed": 2417,
      "Ġpoint": 2418,
      "à¦¾à¦§": 2419,
      "pre": 2420,
      "Ġà²®à²¾à²¡": 2421,
      "Ġtechn": 2422,
      "à²ľ": 2423,
      "Ġà¦ķà¦°à§ĩ": 2424,
      "ury": 2425,
      "Ġà¦¯à§ĩ": 2426,
      "à§İ": 2427,
      "Ġart": 2428,
      "àª¾àª²": 2429,
      "ancial": 2430,
      "à§įà¦²": 2431,
      "Ġmuch": 2432,
      "Er": 2433,
      "Ġpat": 2434,
      "Ġmethod": 2435,
      "Ġà®µà®°": 2436,
      "à°ķà±ģ": 2437,
      "Ġà¤²à¤¿à¤ı": 2438,
      "Ġà²Ī": 2439,
      "angu": 2440,
      "Ġdi": 2441,
      "Ġvery": 2442,
      "à´ķàµįà´": 2443,
      "Ġà²¶": 2444,
      "ĠInt": 2445,
      "à¬¾à¬®": 2446,
      "àµĨà´¨àµįà´¨": 2447,
      "à°¨à±ģ": 2448,
      "à§įà¦ļ": 2449,
      "hat": 2450,
      "à§įà¦¨": 2451,
      "right": 2452,
      "à¬Ń": 2453,
      "àµįà´³": 2454,
      "à®¾à®³": 2455,
      "Ġname": 2456,
      "Ġà¤ħà¤¨": 2457,
      "à¦ł": 2458,
      "Ġà®ħà®¤": 2459,
      "à²§": 2460,
      "à¤¾à¤¨à¥ĩ": 2461,
      "à¯ģà®ķà¯įà®ķà¯ģ": 2462,
      "))": 2463,
      "Ġà¦Ĩà¦°": 2464,
      "Ġà´°": 2465,
      "ĠAr": 2466,
      "ĠĠĠĠĠĠĠĠĠĠĠĠĠĠĠĠĠĠĠĠĠĠ": 2467,
      "à±ģà°²à±ģ": 2468,
      "à±įà°ļ": 2469,
      "Ġà¦¦à§ĩà¦ĸ": 2470,
      "An": 2471,
      "à¥įà¤®": 2472,
      "à²Ĺà³Ĩ": 2473,
      "àµģà´ŁàµĨ": 2474,
      "à¦¿à¦¸": 2475,
      "Ġhand": 2476,
      "Ġà¤ħà¤ª": 2477,
      "à¤¹à¥Ģà¤Ĥ": 2478,
      "onse": 2479,
      "ession": 2480,
      "Ġarg": 2481,
      "à¬Ł": 2482,
      "Ġfil": 2483,
      "Ġàªªàª£": 2484,
      "Ġimp": 2485,
      "Ġà¨ķà¨°à¨¨": 2486,
      "à¤¾à¤ķ": 2487,
      "à²¾à²²": 2488,
      "à¤¾à¤¹à¥Ģ": 2489,
      "Ġà¬¬à¬¿à¬": 2490,
      "Error": 2491,
      "iod": 2492,
      "Ġà²ħà²µ": 2493,
      "à§ĩà¦ĵà¦ģ": 2494,
      ",\"": 2495,
      "à±Ĩà°²": 2496,
      "air": 2497,
      "Ġà¦®à¦¾à¦¨": 2498,
      "Ġà¦ľà¦¨": 2499,
      "bers": 2500,
      "à¨¿à¨°": 2501,
      "Ġcontin": 2502,
      "à¦¾à¦ļ": 2503,
      "Ġoften": 2504,
      "Ġnow": 2505,
      "Ġlife": 2506,
      "Ġmust": 2507,
      "à§ĩà¦·": 2508,
      "Ġthree": 2509,
      "Ġà°µà°¿à°": 2510,
      "Ġsmall": 2511,
      "à¬ľ": 2512,
      "àª¿àª¤": 2513,
      "à®¾à®©à¯į": 2514,
      "à¤ķà¥įà¤¤": 2515,
      "Łà«ĩ": 2516,
      "à¤¿à¤°": 2517,
      "àª¿àª¯": 2518,
      "Ġcommun": 2519,
      "Ġshe": 2520,
      "Ġà¨¤à©ĩ": 2521,
      "ination": 2522,
      "Ġop": 2523,
      "Ġdirect": 2524,
      "orth": 2525,
      "Ġà¨ĩà¨¹": 2526,
      "à§ĥà¦¤": 2527,
      "Ġ_{": 2528,
      "Ġgiven": 2529,
      "ĠRes": 2530,
      "ma": 2531,
      "Ġvi": 2532,
      "Ġclass": 2533,
      "àªļ": 2534,
      "à²¿à²²": 2535,
      "ired": 2536,
      "Ġgra": 2537,
      "à©±à¨²": 2538,
      "Ġà¤¡": 2539,
      "Ġredu": 2540,
      "àŃįà¬¦": 2541,
      "à¯Īà®ķ": 2542,
      "ream": 2543,
      "Ġreal": 2544,
      "à³įà²·": 2545,
      "à¬¥": 2546,
      "Ġà¦¤à§ĩà¦ĵà¦ģ": 2547,
      "Ġà¦īà¦ª": 2548,
      "Ġposs": 2549,
      "rol": 2550,
      "à²¤à³įà²¤à³ģ": 2551,
      "ving": 2552,
      "Ġlo": 2553,
      "be": 2554,
      "±àµĨ": 2555,
      "ains": 2556,
      "[\"": 2557,
      "à¤·": 2558,
      "à§Į": 2559,
      "Ġlead": 2560,
      "Ġallow": 2561,
      "Ġobject": 2562,
      "à¬¾à¬¸": 2563,
      "py": 2564,
      "Ġà´Ĵ": 2565,
      "Ġhim": 2566,
      "à§įà¦¡": 2567,
      "Ġconst": 2568,
      "à¨ľà¨¼": 2569,
      "Ġpolic": 2570,
      "ploy": 2571,
      ":`": 2572,
      "Ġàªıàªķ": 2573,
      "uss": 2574,
      "Ġmeas": 2575,
      "Ġtype": 2576,
      "àª°à«Ģ": 2577,
      "à¤¡à¤¼": 2578,
      "ran": 2579,
      "}\\": 2580,
      "day": 2581,
      "à¬ķàŃģ": 2582,
      "Ġà¤ħà¤§": 2583,
      "Ġer": 2584,
      "à¦¾à¦¶": 2585,
      "Ġà¤¹à¥Ģ": 2586,
      "à¤ļà¥Ģ": 2587,
      "ale": 2588,
      "Ġschool": 2589,
      "à§ĩà¦Ł": 2590,
      "à§Ģà¦°": 2591,
      "à¨¾à¨£": 2592,
      "ness": 2593,
      "Ġà¬¹àŃĭà¬": 2594,
      "à°ªà±įà°ª": 2595,
      "Ġà¬¦àŃĩà¬": 2596,
      "Ġincluding": 2597,
      "Ġpercent": 2598,
      "à°¿à°°": 2599,
      "à¥Īà¤Ĥ": 2600,
      "Ġinfl": 2601,
      "à¦¾à¦¡à¦¼": 2602,
      "à§ĩà¦Ľ": 2603,
      "Ġlim": 2604,
      "man": 2605,
      "à¤Ĥà¤¦": 2606,
      "atic": 2607,
      "Ġcar": 2608,
      "à²Ń": 2609,
      "Ġmy": 2610,
      "à²¿à²µ": 2611,
      "à¦¾à¦¬à§ĩ": 2612,
      "eral": 2613,
      "ody": 2614,
      "àµģà´¨àµįà´¨àµģ": 2615,
      "Ġàª«": 2616,
      "Ġgood": 2617,
      "à¬¨àŃįà¬¤à¬¿": 2618,
      "Ġà¤¦à¥ĩ": 2619,
      "à§ĩà¦ĸ": 2620,
      "ĠĠĠĠĠĠĠĠĠĠĠĠĠĠĠĠĠĠĠĠĠĠĠĠ": 2621,
      "itive": 2622,
      "à°Ĥà°¡": 2623,
      "vironment": 2624,
      "à®¾à®¯": 2625,
      "Ġmain": 2626,
      "Ġconf": 2627,
      "inal": 2628,
      "Ġàªľà«ĩ": 2629,
      "âģł": 2630,
      "à¦¿à¦ļ": 2631,
      "Ġimportant": 2632,
      "Ġactiv": 2633,
      "ety": 2634,
      "Ġproduct": 2635,
      "à¥ĩà¤²": 2636,
      "Ġprogram": 2637,
      "Ġà¬ļ": 2638,
      "Ġpower": 2639,
      "Ġexpl": 2640,
      "Ġcommon": 2641,
      "Ġconsid": 2642,
      "à°¹": 2643,
      "à¦¿à¦Ľ": 2644,
      "ception": 2645,
      "Ġproble": 2646,
      "à±įà°¸": 2647,
      "à²¦à²²à³įà²²à²¿": 2648,
      "à¦¸à§įà¦¥": 2649,
      "à°²à±ģ": 2650,
      "ertain": 2651,
      "Ġà¤®à¤¹": 2652,
      "ency": 2653,
      "Ġpri": 2654,
      "Ġx": 2655,
      "Ġfind": 2656,
      "àµģà´³": 2657,
      "Ġdefault": 2658,
      "Ġrequest": 2659,
      "à¨¡": 2660,
      "àª¨à«įàª": 2661,
      "Ġà¦¥à¦¾à¦ķ": 2662,
      "request": 2663,
      "à´¾à´¤": 2664,
      "Ġsol": 2665,
      "à¬¾à¬°àŃĩ": 2666,
      "Ġsupport": 2667,
      "ĠThey": 2668,
      "Ġà¨Ĩà¨ª": 2669,
      "à°¿à°ª": 2670,
      "àµĪ": 2671,
      "Ġcell": 2672,
      "Ġpass": 2673,
      "Ġorgan": 2674,
      "dition": 2675,
      "ious": 2676,
      "Ġ?": 2677,
      "à§ģà¦ĸ": 2678,
      "ization": 2679,
      "Ġexper": 2680,
      "à¯ģà®ªà¯įà®ª": 2681,
      "à°°à±į": 2682,
      "iversity": 2683,
      "Ġtreat": 2684,
      "Ġ{\\": 2685,
      "Ġà¤¸à¤¾à¤": 2686,
      "Ġstandard": 2687,
      "à¦¨à¦¾": 2688,
      "Ġread": 2689,
      "à´¾à´¯à´¿": 2690,
      "Ġtyp": 2691,
      "ĠSc": 2692,
      "SE": 2693,
      "à±įà°®": 2694,
      "Ġdown": 2695,
      "Ġà®İà®©à¯įà®±": 2696,
      "Ġagainst": 2697,
      "à°¿à°ķà°¿": 2698,
      "mon": 2699,
      "ision": 2700,
      "Ġcase": 2701,
      "à®¿à®ªà¯įà®ª": 2702,
      "à¬°àŃģ": 2703,
      "ave": 2704,
      "à´±àµįà´±": 2705,
      "à²²à³ģ": 2706,
      "à«įàª¯àª¾": 2707,
      "=\"": 2708,
      "Ġeduc": 2709,
      "sc": 2710,
      "Ġless": 2711,
      "à¬¾à¬¬": 2712,
      "version": 2713,
      "path": 2714,
      "Ġà¤¤à¥ĭ": 2715,
      "Ġà¨ķà©ĩ": 2716,
      "à¯Ĩà®°": 2717,
      "àªŃ": 2718,
      "eter": 2719,
      "Ġknown": 2720,
      "à¨¾à¨ĩ": 2721,
      "à´¿à´¨àµįà´": 2722,
      "Ġà¤Ĩà¤ª": 2723,
      "gg": 2724,
      "Ġà´ī": 2725,
      "Ġann": 2726,
      "Ġà²Ń": 2727,
      "Ġhist": 2728,
      "Ġà²ļ": 2729,
      "Ġstart": 2730,
      "----": 2731,
      "àªµàª¾àª¨": 2732,
      "à¬¡à¬¼": 2733,
      "Ġtem": 2734,
      "Ġà¤Ŀ": 2735,
      "Ġinc": 2736,
      "Ġà²¯": 2737,
      "Ġelect": 2738,
      "Ġlangu": 2739,
      "ised": 2740,
      "Ġà¤¨à¤¹à¥Ģà¤Ĥ": 2741,
      "à¤°à¥įà¤µ": 2742,
      "à¦ľà¦¨": 2743,
      "Ġà²®à²¤à³įà²¤à³ģ": 2744,
      "Ġàª®àª¾àªŁà«ĩ": 2745,
      "àŃįà¬§": 2746,
      "à©±à¨ĸ": 2747,
      "Ġàª°àª¹": 2748,
      "lished": 2749,
      "Ġà²ī": 2750,
      "Ġà²Ĵ": 2751,
      "à¬¾à¬¤": 2752,
      "à®¿à®Łà¯įà®Ł": 2753,
      "Ġperson": 2754,
      ".,": 2755,
      "à´Ļàµįà´Ļà´³": 2756,
      "Ġperiod": 2757,
      "ording": 2758,
      "Ġchildren": 2759,
      "Ġlaw": 2760,
      "à®ªà¯įà®ªà®Łà¯įà®Ł": 2761,
      "²à±ĭ": 2762,
      "ds": 2763,
      "ves": 2764,
      "Ġstudy": 2765,
      "Ġpos": 2766,
      "Ġàª¸àª¾àª": 2767,
      "à¦¿à¦¶": 2768,
      "Ġà¤§": 2769,
      "Ġland": 2770,
      "Ġà´µà´¿à´": 2771,
      "Ġà¬¸àŃĩà¬": 2772,
      "ull": 2773,
      "à¯Īà®¯à®¿à®²à¯į": 2774,
      "Ġresearch": 2775,
      "}{": 2776,
      "à§įà¦ľ": 2777,
      "Ġdesc": 2778,
      "à¦¾à¦Ĥ": 2779,
      "ze": 2780,
      "stand": 2781,
      "à¨¿à¨¤": 2782,
      "atch": 2783,
      "iness": 2784,
      "à²¾à²¸": 2785,
      "ify": 2786,
      "ty": 2787,
      "à°Ĥà°²à±ĭ": 2788,
      "ium": 2789,
      "Ġoper": 2790,
      "Ġà²¸à²Ĥ": 2791,
      "à¥ģà¤²": 2792,
      "redit": 2793,
      "itions": 2794,
      "ĠIs": 2795,
      "à®¾à®®": 2796,
      "ames": 2797,
      "ĠWe": 2798,
      "à¤¾à¤ł": 2799,
      "Ġmult": 2800,
      "à°¾à°¤": 2801,
      "à¥įà¤²": 2802,
      "ource": 2803,
      "àªĤàªĹ": 2804,
      "à¥įà¤§": 2805,
      "outh": 2806,
      "àµįà´®": 2807,
      "Ġplay": 2808,
      "à®¤à¯įà®¤à®¿à®²à¯į": 2809,
      "ĠSh": 2810,
      "à²¦à³Ĩ": 2811,
      "Ġàªµàª¿àª": 2812,
      "//": 2813,
      "à¥Ģà¤®": 2814,
      "à³įà²ª": 2815,
      "Ġpublic": 2816,
      "ik": 2817,
      "lob": 2818,
      "ajor": 2819,
      "\"),": 2820,
      "ross": 2821,
      "inist": 2822,
      "Ġnon": 2823,
      "els": 2824,
      "ĠTrue": 2825,
      "Ġstill": 2826,
      "à¨¥": 2827,
      "Ġtake": 2828,
      "àª¾àªľ": 2829,
      "Ġà¦ķà¦¥": 2830,
      "à§ĭà¦ķ": 2831,
      "Ġcountry": 2832,
      "unc": 2833,
      "Ġà¤¯à¤¾à¤Ĥ": 2834,
      "set": 2835,
      "à¦Ľà¦¿à¦²": 2836,
      "à¤¾à¤¬": 2837,
      "Ġà´ľ": 2838,
      "Ġà®µà¯ĩ": 2839,
      "ring": 2840,
      "à¨«": 2841,
      "Ġcour": 2842,
      "à²¦à³ģ": 2843,
      "Ġchang": 2844,
      "à´Ĥà´": 2845,
      "Ġà¦ªà¦¾à¦°": 2846,
      "omen": 2847,
      "à¤ļà¥ĩ": 2848,
      "Ġdid": 2849,
      "à¨¨à©įà¨¹à¨¾à¨Ĥ": 2850,
      "à¦¾à¦¨à§įà¦¤": 2851,
      "à¤¯à¤¾": 2852,
      "à´¨àµįà´¤": 2853,
      "||": 2854,
      "Ġà°Ī": 2855,
      "âĢĶ": 2856,
      "Ġà¨¸à¨®": 2857,
      "Ġcal": 2858,
      "Ġà¤ķà¤¿à¤¯à¤¾": 2859,
      "akes": 2860,
      "à²¾à²Ĥ": 2861,
      "ĠUnited": 2862,
      "à¤ł": 2863,
      "à¨¿à¨ķ": 2864,
      "à°¾à°Ĥà°": 2865,
      "Ġfinancial": 2866,
      "Ġpresent": 2867,
      "à¤«": 2868,
      "àª¨à«ĭ": 2869,
      "Ġcurrent": 2870,
      "Ġwithout": 2871,
      "Ġsecond": 2872,
      "Ġà¤ľà¤¾à¤¤": 2873,
      "Re": 2874,
      "àª¾àª£": 2875,
      "ential": 2876,
      "à§įà¦¤à§ģ": 2877,
      "à¦Łà¦¿": 2878,
      "Ġà®Ĵà®°": 2879,
      "Ġtax": 2880,
      "arn": 2881,
      "àŃģà¬°": 2882,
      "Ġ$": 2883,
      "Ġaround": 2884,
      "Ġà¦ķà§ĭà¦¨": 2885,
      "à²¾à²°à³Ĩ": 2886,
      "sh": 2887,
      "Ġday": 2888,
      "ained": 2889,
      "Ġà®°": 2890,
      "Ġfut": 2891,
      "à¦¿à¦·": 2892,
      "¥à¬¿à¬²àŃĩ": 2893,
      "Ġter": 2894,
      "ately": 2895,
      "Ġamount": 2896,
      "oh": 2897,
      "à°¾à°®": 2898,
      "ĠCon": 2899,
      "à¨ķà¨¾à¨°": 2900,
      "ĠHowever": 2901,
      "ality": 2902,
      "urance": 2903,
      "lim": 2904,
      "Ġpur": 2905,
      "uro": 2906,
      "Ġfore": 2907,
      "ason": 2908,
      "Ġà¨¨à¨¹": 2909,
      "àª¾àª°à«ĩ": 2910,
      "à°£": 2911,
      "arent": 2912,
      "à¦Ļà§įà¦Ĺ": 2913,
      "Ġ*": 2914,
      "inc": 2915,
      "Ġwrit": 2916,
      "ived": 2917,
      "Ġplan": 2918,
      "Ġà¨°à¨¹": 2919,
      "à¤¥": 2920,
      "ables": 2921,
      "True": 2922,
      "._": 2923,
      "ior": 2924,
      "à¨¿à¨¹à¨¾": 2925,
      "àµģà´µ": 2926,
      "():": 2927,
      "Ġaccount": 2928,
      "à§ĩà¦ķà§ĩ": 2929,
      "à¤ķà¥Ģ": 2930,
      "àŃ§": 2931,
      "à¤¤à¥įà¤¤": 2932,
      "Ġà¤°à¤¾à¤ľ": 2933,
      "Ġmillion": 2934,
      "amp": 2935,
      "oney": 2936,
      "à®Łà¯ģà®¤à¯įà®¤": 2937,
      "cul": 2938,
      "way": 2939,
      "Ġà¦¯à¦": 2940,
      "à¯įà®®": 2941,
      "Ġà°¶": 2942,
      "à«ĩàª°": 2943,
      "à¦¸à¦®": 2944,
      "Ġlarge": 2945,
      "://": 2946,
      "àª¾àªĹ": 2947,
      "à¨¾à¨ľ": 2948,
      "Ġaff": 2949,
      "à§ĩà¦¯à¦¼": 2950,
      "àªµàª¾àª®àª¾àªĤ": 2951,
      "à¬ķàŃįà¬·": 2952,
      "Ġprice": 2953,
      "ŀàµįà´": 2954,
      "à¥įà¤¦": 2955,
      "à¦¿à¦¤à§ĩ": 2956,
      "Ġà´İà´¨àµįà´¨": 2957,
      "à²¾à²®": 2958,
      "Ġà¦¸à§ĩà¦ĩ": 2959,
      "àµģà´³àµįà´³": 2960,
      "Ġà¨Ĩà¨ªà¨£": 2961,
      "àµįà´µ": 2962,
      "à§ĩà¦®": 2963,
      "Ġnorm": 2964,
      "Ġgu": 2965,
      "ument": 2966,
      "Ġà¦¸à§įà¦¬": 2967,
      "à´¾à´²": 2968,
      "Ġproject": 2969,
      "à´´": 2970,
      "àª¾àª³": 2971,
      "Ġà¦¤à§ĭ": 2972,
      "Ġlast": 2973,
      "Ġprot": 2974,
      "Ġ!": 2975,
      "Ġopen": 2976,
      "},": 2977,
      "Ġà¤īà¤¨": 2978,
      "à¨¦à©Ģ": 2979,
      "à«ĩàª¶": 2980,
      "à²Łà³įà²Ł": 2981,
      "ividual": 2982,
      "à¨¾à¨®": 2983,
      "à¦ķà¦²": 2984,
      "iqu": 2985,
      "à°¾à°Ł": 2986,
      "Ġà¤ľà¥ĭ": 2987,
      "à«įàª¯à«ģàªĤ": 2988,
      "Ġdistribution": 2989,
      "ule": 2990,
      "ĠPh": 2991,
      "Ġoccur": 2992,
      "lear": 2993,
      "Ġà¦ľà¦¾à¦¨": 2994,
      "ĠX": 2995,
      "à¨¾à¨¬": 2996,
      "ĠThere": 2997,
      "à³ĩà²ķ": 2998,
      "Ġà¤¯à¤¹": 2999,
      "****": 3000,
      "son": 3001,
      "Ġopt": 3002,
      "Ġcost": 3003,
      "ech": 3004,
      "mit": 3005,
      "à´¿à´¤": 3006,
      "line": 3007,
      "Ġbas": 3008,
      "ailable": 3009,
      "Ġà¬ķà¬°à¬¿à¬": 3010,
      "à¯Īà®ķà¯įà®ķ": 3011,
      "à¥ĩà¤Ł": 3012,
      "Ġmean": 3013,
      "Ġà¨īà¨¹": 3014,
      "Ġcare": 3015,
      "à¬¾à¬ľ": 3016,
      "ission": 3017,
      "ively": 3018,
      "not": 3019,
      "à°§": 3020,
      "ians": 3021,
      "àŃįà¬¥": 3022,
      "Ġà¦¤à¦¾à¦°": 3023,
      "Ġà²¨à³Ģ": 3024,
      "Ġadv": 3025,
      "tle": 3026,
      "Ġmajor": 3027,
      "oint": 3028,
      "à°Ĥà°Ĺà°¾": 3029,
      "à¥įà¤¨": 3030,
      "Ġele": 3031,
      "à¯ĩà®°": 3032,
      "à«ĩàªŁ": 3033,
      "uthor": 3034,
      "math": 3035,
      "Ġbus": 3036,
      "à°¬": 3037,
      "ĠAnd": 3038,
      "ĠLe": 3039,
      "ai": 3040,
      "à¥įà¤·": 3041,
      "ources": 3042,
      "Ġinte": 3043,
      "Ġàª¤à«ĩàª®": 3044,
      "Ġinclude": 3045,
      "gin": 3046,
      "lish": 3047,
      "Ġz": 3048,
      "à¦¿à¦Ł": 3049,
      "Ġà®ĩà®¨à¯įà®¤": 3050,
      "à¨Ń": 3051,
      "Ġbo": 3052,
      "Ġstat": 3053,
      "à¥įà¤¯à¥ĩ": 3054,
      "ured": 3055,
      "Ġà¤īà¤ª": 3056,
      "ec": 3057,
      "Ġprof": 3058,
      "Ġâ": 3059,
      "Ġsk": 3060,
      "Ġsl": 3061,
      "ĠBut": 3062,
      "command": 3063,
      "à²Ĺà²³à³ģ": 3064,
      "Ġaddition": 3065,
      "àªĸ": 3066,
      "omet": 3067,
      "à¤¾à¤²à¤¾": 3068,
      "az": 3069,
      "à§ģà¦¦": 3070,
      "Ġbeh": 3071,
      "ram": 3072,
      "ĠCent": 3073,
      "à¨ı": 3074,
      "ĠàªŁ": 3075,
      "Ġindu": 3076,
      "Ġà®¨à®Ł": 3077,
      "por": 3078,
      "ªàµįà´ª": 3079,
      "Ġleg": 3080,
      "Ġapplic": 3081,
      "Ġdise": 3082,
      "à§°à§ĩ": 3083,
      "Ġlarg": 3084,
      "Ġlook": 3085,
      "à¤Ĥà¤Ĺ": 3086,
      "ĠFalse": 3087,
      "ocial": 3088,
      "Ġdesign": 3089,
      "Ġà¨¨à¨¹à©Ģà¨Ĥ": 3090,
      "Ġanal": 3091,
      "à¥ģà¤¨": 3092,
      "here": 3093,
      "à¦¾à¦ĸ": 3094,
      "Ġà°Ń": 3095,
      "ems": 3096,
      "Ġà¦Ĩà¦Ĺ": 3097,
      "à§ģà¦·": 3098,
      "à§ĭà§±à¦¾": 3099,
      "à¦ı": 3100,
      "à²Ĥà²¬": 3101,
      "Ġdevelopment": 3102,
      "ĠĠĠĠĠĠĠĠĠĠĠĠĠĠĠĠĠĠĠĠĠĠĠĠĊ": 3103,
      "à®®à¯įà®ª": 3104,
      "à¦¨à§įà¦§": 3105,
      "ŀàµįà´ŀ": 3106,
      "Ľà¬¨àŃįà¬¤à¬¿": 3107,
      "ering": 3108,
      "à¤²à¥įà¤¯à¤¾à¤": 3109,
      "à¦¾à¦£": 3110,
      "Ġchange": 3111,
      "Ġplace": 3112,
      "ron": 3113,
      "Ġgre": 3114,
      "à¤¹à¤¾": 3115,
      "à®Ļà¯įà®ķà®³à¯į": 3116,
      "à±Ĥ": 3117,
      "à¤¾à¤Ī": 3118,
      "cli": 3119,
      "à¤ļà¤¾": 3120,
      "Ġrece": 3121,
      "ccess": 3122,
      "à°Łà±įà°Ł": 3123,
      "à±ģà°°": 3124,
      "agement": 3125,
      "Ġà¨ĩà©±à¨ķ": 3126,
      "Ġà¨īà¨¸": 3127,
      "enc": 3128,
      "ĠThese": 3129,
      "à©°à¨Ĺ": 3130,
      "\".": 3131,
      "nc": 3132,
      "à°Ń": 3133,
      "à±įà°²à±ĭ": 3134,
      "Ġà¨¸à¨ķ": 3135,
      "ĠEng": 3136,
      "à¦¿à¦Ľà§ĩ": 3137,
      "Ġà¦ķà¦¿à¦¨": 3138,
      "àª¿àªµ": 3139,
      "Ġsever": 3140,
      "à¬¾à¬ĩ": 3141,
      "Ġà¨ªà¨°": 3142,
      "Ġà¨®à©ģ": 3143,
      "Ġstudents": 3144,
      "à°ļà±įà°ļ": 3145,
      "Ġprom": 3146,
      "Ġanother": 3147,
      "http": 3148,
      "Ġmet": 3149,
      "à¦¿à¦¦": 3150,
      "Ġà¦¬à¦¿à¦¶": 3151,
      "à¬¾à¬ķàŃģ": 3152,
      "Ġport": 3153,
      "Ġwithin": 3154,
      "à°¨à±į": 3155,
      "Ġà°¯": 3156,
      "Ġmight": 3157,
      "iving": 3158,
      "Ġexpected": 3159,
      "Ġà¦ķà§°à¦¾": 3160,
      "à²ķà³įà²ķà³Ĩ": 3161,
      "ense": 3162,
      "à¥įà¤¸": 3163,
      "Ġà®µà®¿à®": 3164,
      "Ġà®¤à¯Ĭ": 3165,
      "oke": 3166,
      "par": 3167,
      "Ġspe": 3168,
      "ateg": 3169,
      "à¤¾à¤°à¤¾": 3170,
      "à¬ļ": 3171,
      "Ġrest": 3172,
      "à²µà³ģ": 3173,
      "Ġsince": 3174,
      "ently": 3175,
      "oper": 3176,
      "à¦¾à¦¤à§ĩ": 3177,
      "Ġpract": 3178,
      "à¥Ģà¤¨": 3179,
      "àª¿àª²": 3180,
      "ĠGo": 3181,
      "Ġà¬ħà¬¨": 3182,
      "Ġhuman": 3183,
      "Ġpolicy": 3184,
      "à¤¾à¤łà¥Ģ": 3185,
      "run": 3186,
      "Ġident": 3187,
      "Ġterm": 3188,
      "ĠAd": 3189,
      "à¦¾à¦¦à§ĩà¦°": 3190,
      "Ġpress": 3191,
      "Ġparam": 3192,
      "Ġdue": 3193,
      "à³įà²¸": 3194,
      "Ġà¨¦à¨¿": 3195,
      "Ġà¬¹àŃĭà¬ĩà¬": 3196,
      "ouse": 3197,
      "à¬¾à¬²": 3198,
      "à³ģà²µà³ģà²¦": 3199,
      "It": 3200,
      "àŃ¨": 3201,
      "Ġbank": 3202,
      "Ġlow": 3203,
      "Ġà¨¸à¨¿à©°à¨": 3204,
      "Ġfew": 3205,
      "à¤¿à¤¶": 3206,
      "à¬¾à¬ª": 3207,
      "ued": 3208,
      "Ġintern": 3209,
      "àµģà´£": 3210,
      "Ġenvironment": 3211,
      "Ġindividual": 3212,
      "à°ķà±įà°ķ": 3213,
      "ĠZ": 3214,
      "Ġà¬ĸ": 3215,
      "Ġàªķàª°à«Ģ": 3216,
      "type": 3217,
      ">>>": 3218,
      "me": 3219,
      "Ġàª§": 3220,
      "Ġbased": 3221,
      "à©Īà¨Ĥ": 3222,
      "à²ķà³įà²·": 3223,
      "less": 3224,
      "arian": 3225,
      "ĠCl": 3226,
      "Ġorder": 3227,
      "Ġfollowing": 3228,
      "orld": 3229,
      "stit": 3230,
      "Ġgreat": 3231,
      "Ġ&": 3232,
      "à®±à¯įà®ķ": 3233,
      "ĠàªĨàªª": 3234,
      "Ġ+": 3235,
      "Ġà´¶": 3236,
      "Ġà¬ªà¬°": 3237,
      "Ġbre": 3238,
      "à¬¿à¬°": 3239,
      "idd": 3240,
      "rop": 3241,
      "lood": 3242,
      "Ġsum": 3243,
      "àª¾àª¦": 3244,
      "Ġà¤ķà¤°à¤¨à¥ĩ": 3245,
      "mb": 3246,
      "Ġmoney": 3247,
      "à´¶": 3248,
      "Ġà¨¡": 3249,
      "àª¾àªķ": 3250,
      "à°²à±ĭ": 3251,
      "Ġve": 3252,
      "Ġà¦ķà§°à¦¿": 3253,
      "Ġkey": 3254,
      "Ġparticular": 3255,
      "Ġview": 3256,
      "pect": 3257,
      "à³ĥ": 3258,
      "Ġcontrol": 3259,
      "àµįà´ķàµįà´ķ": 3260,
      "à±ģà°µ": 3261,
      "hers": 3262,
      "bs": 3263,
      "Ġopp": 3264,
      "à¥Īà¤Ĥà¤ķ": 3265,
      "unt": 3266,
      "ways": 3267,
      "âģ¡": 3268,
      "Ġseveral": 3269,
      "arc": 3270,
      "ĠStates": 3271,
      "Ġà²µà²¿à²": 3272,
      "Ġprovide": 3273,
      "Ġrepres": 3274,
      "Ġà´²": 3275,
      "Ġàª¤àª®": 3276,
      "ĠUniversity": 3277,
      "med": 3278,
      "Ġà²®à³ģ": 3279,
      "ining": 3280,
      "Ġunt": 3281,
      "Ġà¦¥à§ĩà¦ķà§ĩ": 3282,
      "Ġcredit": 3283,
      "à¥įà¤ķ": 3284,
      "over": 3285,
      "Ġà¨¸à¨¿à©°à¨ĺ": 3286,
      "ier": 3287,
      "·àŃįà¬Ł": 3288,
      "ĠAt": 3289,
      "Ġavailable": 3290,
      "à´¿à´¨àµįà´±àµĨ": 3291,
      "à²µà²¨à³įà²¨à³ģ": 3292,
      "ples": 3293,
      "(\"/": 3294,
      "If": 3295,
      "ots": 3296,
      "ends": 3297,
      "Ġemploy": 3298,
      "Ġcountries": 3299,
      "Ġmonth": 3300,
      "enef": 3301,
      "ton": 3302,
      "Ġlog": 3303,
      "à¬¾à¬ĩà¬ģ": 3304,
      "ler": 3305,
      "Ġet": 3306,
      "à¥§": 3307,
      "Ġfood": 3308,
      "à´¾à´ķàµįà´ķ": 3309,
      "à§ģà§±": 3310,
      "ĠNational": 3311,
      "pend": 3312,
      "à°¾à°µ": 3313,
      "Ġà¤µà¥įà¤¯": 3314,
      "acter": 3315,
      "Ġà¨Ĺà¨¿à¨Ĩ": 3316,
      "ead": 3317,
      "Ġà®ı": 3318,
      "à¦¤à¦¾": 3319,
      "àªķà«įàª": 3320,
      "àª¾àª°à«Ģ": 3321,
      "view": 3322,
      "à¤°à¥įà¤®": 3323,
      "ote": 3324,
      "à²¿à²²à³įà²²": 3325,
      "Ġcertain": 3326,
      "à®µà®°": 3327,
      "ĠAct": 3328,
      "Ġà¤¸à¤ķ": 3329,
      "Ġà¦¤à¦¿à¦¨": 3330,
      "Ġshort": 3331,
      "à°¾à°²à±ģ": 3332,
      "à¦·à§įà¦Ł": 3333,
      "à¬§àŃįàŃŁ": 3334,
      "fer": 3335,
      "Ġoffic": 3336,
      "ann": 3337,
      "ctx": 3338,
      "ilar": 3339,
      "à¯ģà®ª": 3340,
      "Ġabove": 3341,
      "Ġà¦ªà§°à¦¾": 3342,
      "ST": 3343,
      "à¤¿à¤®": 3344,
      "à¦¤à§įà¦¤": 3345,
      "ina": 3346,
      "Ġinvol": 3347,
      "Ġà¤²à¥ĩ": 3348,
      "à§įà¦£": 3349,
      "Ġpopulation": 3350,
      "orn": 3351,
      "Ġmil": 3352,
      "Ġarea": 3353,
      "àªµà«Ģ": 3354,
      "à®¸": 3355,
      "Ġfour": 3356,
      "Ġà¦ıà¦¬": 3357,
      "duct": 3358,
      "à®ªà¯įà®ªà®Ł": 3359,
      "Ġamong": 3360,
      "Ġà¨¹à©Ģ": 3361,
      "ustom": 3362,
      "Ġà¨īà¨¨à©įà¨¹à¨¾à¨Ĥ": 3363,
      "Ġprobability": 3364,
      "lobal": 3365,
      "à²¿à²Ĺà²³": 3366,
      "à¯Īà®¤à¯įà®¤": 3367,
      "Ġà¨ķà©ĭ": 3368,
      "tal": 3369,
      "à§įà¦ł": 3370,
      "à¥ģà¤¦": 3371,
      "Ġà¦ķà§°à¦¿à¦¬": 3372,
      "à´²àµįà´²": 3373,
      "à¦¿à¦ª": 3374,
      "à´¿à´²àµĨ": 3375,
      "à¨¿à¨Ĩà¨Ĥ": 3376,
      "Ġperform": 3377,
      "Ġsit": 3378,
      "rel": 3379,
      "à³įà²Ĺ": 3380,
      "à´¾à´Ł": 3381,
      "à¦¯à¦¼à¦¾": 3382,
      "à§Ģà¦¯à¦¼à¦¾": 3383,
      "ffic": 3384,
      "oid": 3385,
      "ional": 3386,
      "ger": 3387,
      "àµįà´¥": 3388,
      "utions": 3389,
      "change": 3390,
      "Ġeducation": 3391,
      "ek": 3392,
      "urther": 3393,
      "à¤¸à¥įà¤¤": 3394,
      "à¤¸à¥įà¤¥": 3395,
      "ĠWh": 3396,
      "à¥įà¤¯à¤¾à¤Ĥ": 3397,
      "Ġtimes": 3398,
      "inv": 3399,
      "Ġiter": 3400,
      "ĠJew": 3401,
      "à¥Ģà¤¤": 3402,
      "Ġeas": 3403,
      "à§ĭà¦ģ": 3404,
      "gress": 3405,
      "iple": 3406,
      "Ġà¦®à¦¹": 3407,
      "à¤µà¤°": 3408,
      "Ġà´Ĵà´°": 3409,
      "Ġindust": 3410,
      "à¦°à§ĩ": 3411,
      "àªĤàª¤": 3412,
      "Ġgeneral": 3413,
      "atural": 3414,
      "àµįà´¸": 3415,
      "à®¾à®®à¯į": 3416,
      "Ġhead": 3417,
      "à±Īà°¨": 3418,
      "Ġlocal": 3419,
      "Ġà¨ľà©ĭ": 3420,
      "Ġpossible": 3421,
      "à¨¿à¨¨": 3422,
      "à²¨à³Ĩ": 3423,
      "Ġà®µà¯Ĩ": 3424,
      "IO": 3425,
      "à¥ģà¤®": 3426,
      "Ġà¤ªà¥įà¤°à¤¤": 3427,
      "ĻàŃįà¬Ĺ": 3428,
      "xy": 3429,
      "raph": 3430,
      "Ġà¦ķà¦¿à¦¨à§įà¦¤à§ģ": 3431,
      "à¦ŀ": 3432,
      "à¨¾à¨¤": 3433,
      "à¦¨à§°": 3434,
      "Ġvis": 3435,
      "¥à«ĩ": 3436,
      "à²¨à³ģ": 3437,
      "à§ģà¦¤": 3438,
      "à´¿à´²àµįà´²": 3439,
      "à¯ģà®°": 3440,
      "import": 3441,
      "à¦°à¦¾": 3442,
      "Ġà¤¸à¤°": 3443,
      "à¥Ĥà¤ª": 3444,
      "àª¾àª°àª¾": 3445,
      "à¦Ĩ": 3446,
      "àŃįà¬ª": 3447,
      "Ġà¤īà¤¸": 3448,
      "à³įà²¥": 3449,
      "à´¿à´µ": 3450,
      "olution": 3451,
      "Ġà¦ķà¦¾à§°": 3452,
      "though": 3453,
      "Ġà®ķà¯Ĥ": 3454,
      "ĠUS": 3455,
      "Ġdeterm": 3456,
      "ergy": 3457,
      "ought": 3458,
      "à²¿à²®": 3459,
      "Ġà¦Ĩà¦Ľà§ĩ": 3460,
      "Ġà¦¸à¦®à¦¯à¦¼": 3461,
      "Ġearly": 3462,
      "flag": 3463,
      "Ġintegr": 3464,
      "Ġwant": 3465,
      "Ġà¨¹à©ģ": 3466,
      "Ġà¤¤à¤°": 3467,
      "Ġestim": 3468,
      "rist": 3469,
      "à¤¾à¤ĩ": 3470,
      "Ġmove": 3471,
      "Ġà¦²à¦Ĺ": 3472,
      "Ġbro": 3473,
      "à¬¾à¬³": 3474,
      "Ġphys": 3475,
      "ither": 3476,
      "à¨°à©ĩ": 3477,
      "à²°à³į": 3478,
      "ha": 3479,
      "ww": 3480,
      "Ġes": 3481,
      "Ġcaus": 3482,
      "ides": 3483,
      "verage": 3484,
      "Ġorig": 3485,
      "Ġà¨¸à¨°": 3486,
      "àµĭà´Ł": 3487,
      "aim": 3488,
      "Ġ)": 3489,
      "Ġfac": 3490,
      "osp": 3491,
      "Ġàª¸àª®": 3492,
      "print": 3493,
      "Ġestab": 3494,
      "Ġà¤ħà¤§à¤¿à¤ķ": 3495,
      "head": 3496,
      "à¤¾à¤§": 3497,
      "Ġtop": 3498,
      "à¤ķà¤¾": 3499,
      "verse": 3500,
      "à±ģà°Ĺ": 3501,
      "Ġbond": 3502,
      "Ġhigher": 3503,
      "Ġthink": 3504,
      "Ġà¤¹à¥ģà¤": 3505,
      "Ġà¤ªà¤¹": 3506,
      "àµĨà´Ł": 3507,
      "Ġteam": 3508,
      "Ġfamily": 3509,
      "Ġtri": 3510,
      "à¤Ĥà¤¡": 3511,
      "by": 3512,
      "Ġder": 3513,
      "àª¾àªĪ": 3514,
      "Ġold": 3515,
      "Ġfre": 3516,
      "Ġbenef": 3517,
      "à§ĩà¦¬": 3518,
      "âĢį": 3519,
      "ĠAmerican": 3520,
      "anks": 3521,
      "à«ĭàªķ": 3522,
      "Ġeng": 3523,
      "àªĪ": 3524,
      "à°¾à°¦": 3525,
      "idence": 3526,
      "Ġvalues": 3527,
      "Ġide": 3528,
      "erc": 3529,
      "ories": 3530,
      "àª¨à«ģàªĤ": 3531,
      "Ġsuccess": 3532,
      "àª¾àª¨àª¾": 3533,
      "à¬¾àŃŁ": 3534,
      "ending": 3535,
      "à´¸àµį": 3536,
      "Ġbody": 3537,
      "à¬¾à¬Ĺ": 3538,
      "Ġà¦Ĩà¦ª": 3539,
      "Ġeconomic": 3540,
      "ration": 3541,
      "Ġhere": 3542,
      ".âĢĿ": 3543,
      "īà¬": 3544,
      "à¦¾à¦ķà§ĩ": 3545,
      "Ġbuild": 3546,
      "urope": 3547,
      "à¨ĩ": 3548,
      "à§įà¦Ń": 3549,
      "à§ģà¦¬": 3550,
      "ĠBank": 3551,
      "à¯Īà®µ": 3552,
      "Ġindex": 3553,
      "à¤¾à¤¶": 3554,
      "Ġnear": 3555,
      "à°¿à°Ĺ": 3556,
      "à¤¿à¤¯à¥ĭà¤Ĥ": 3557,
      "Ġsignific": 3558,
      "ĠQ": 3559,
      "à§ĭà¦°": 3560,
      "Ġrecord": 3561,
      "Ġà¦Ĩà¦®à¦¿": 3562,
      "à°³": 3563,
      "à±įà°ķ": 3564,
      "à¬¿à¬¶": 3565,
      "à«įàª¯à«ĭ": 3566,
      "à¯ģà®ķà®¿à®±": 3567,
      "left": 3568,
      "amb": 3569,
      "Ġareas": 3570,
      "resp": 3571,
      "ended": 3572,
      "Ġnet": 3573,
      "Ġà¦¬à§įà¦¯à¦": 3574,
      "Ġ[\"": 3575,
      "à¦¿à¦ľ": 3576,
      "ental": 3577,
      "à§ĩà¦¦": 3578,
      "Ġà¨ľà¨¾à¨Ĥ": 3579,
      "Ġunderstand": 3580,
      "St": 3581,
      "foo": 3582,
      "ances": 3583,
      "Ġcomput": 3584,
      "àµģà´£àµįà´Ł": 3585,
      "à´¹": 3586,
      "Ġche": 3587,
      "à¬¾à¬£": 3588,
      "ager": 3589,
      "Ġdon": 3590,
      "Ġà¨ķà©Ģà¨¤à¨¾": 3591,
      "plate": 3592,
      "Ġbusiness": 3593,
      "à¤¾à¤²à¥ĩ": 3594,
      "à´¿à´°àµģà´¨àµįà´¨àµģ": 3595,
      "Ġàªĺ": 3596,
      "ises": 3597,
      "à¤°à¥ĩ": 3598,
      "à¥ĭà¤ľ": 3599,
      "Ġgr": 3600,
      "Ġà¤¸à¥įà¤µ": 3601,
      "à°¿à°Ĥà°¦à°¿": 3602,
      "Ġlanguage": 3603,
      "of": 3604,
      "sy": 3605,
      "atives": 3606,
      "à¨¾à¨¦": 3607,
      "à¨¾à¨ī": 3608,
      "Ġtre": 3609,
      "Ġsays": 3610,
      "ilities": 3611,
      "Ġ/": 3612,
      "à¤¢": 3613,
      "Ġà°¹": 3614,
      "Ġà¤ªà¥Ĥ": 3615,
      "Ġcentury": 3616,
      "à¦¡": 3617,
      "ats": 3618,
      "Ġà¬ĺ": 3619,
      "ooks": 3620,
      "Ġsing": 3621,
      "rodu": 3622,
      "Ġloss": 3623,
      "à°¿à°µ": 3624,
      "à¬¿à¬Ľà¬¿": 3625,
      "Ġà¦ħà¦§": 3626,
      "dom": 3627,
      "ling": 3628,
      "reg": 3629,
      "Ġhold": 3630,
      "à²¨à³į": 3631,
      "ĠWorld": 3632,
      "à¦¾à¦²à§ĩ": 3633,
      "Ġinit": 3634,
      "plic": 3635,
      "Ġtoo": 3636,
      "Ġà¦Ĩà¦¹": 3637,
      "Ġà¤¬à¥Īà¤Ĥà¤ķ": 3638,
      "data": 3639,
      "ware": 3640,
      "à¦¯": 3641,
      "à²¿à²¦à³įà²¦à²¾à²°à³Ĩ": 3642,
      "::": 3643,
      "Ġdel": 3644,
      "Ġla": 3645,
      "igh": 3646,
      "Ġstruct": 3647,
      "àµĩà´°": 3648,
      "Ġà¦ķà¦¥à¦¾": 3649,
      "pper": 3650,
      "result": 3651,
      "Ġmeans": 3652,
      "Ġàª¶àªķ": 3653,
      "Ġgrowth": 3654,
      "Ġpriv": 3655,
      "à¦¿à¦²à§ĩ": 3656,
      "à±ĩà°¦": 3657,
      "à°ķà±įà°·": 3658,
      "Ġcr": 3659,
      "Ġlab": 3660,
      "Ġà¨ĺ": 3661,
      "Ġht": 3662,
      "Ġà¬®à¬§àŃįàŃŁ": 3663,
      "Ġà´¨à´¿à´": 3664,
      "Ġquest": 3665,
      "Ġà°Ĵ": 3666,
      "Ġfar": 3667,
      "Ġincrease": 3668,
      "àª¥": 3669,
      "à¦¾à¦·": 3670,
      "à¨¤à¨°": 3671,
      "à¦¾à§°à§ĩ": 3672,
      "Ġimpro": 3673,
      "Ġà°®à°°": 3674,
      "Ġà¦¸à¦®à§įà¦ª": 3675,
      "Ġà¬ıà¬¹à¬¿": 3676,
      "àŃ¦": 3677,
      "Any": 3678,
      "Ġtotal": 3679,
      "Ġenergy": 3680,
      "Ġsay": 3681,
      "Ġel": 3682,
      "à«įàª®": 3683,
      "à®®à®¾à®ķ": 3684,
      "Ġà®īà®³à¯įà®³": 3685,
      "à±ģà°Ĥà°¦à°¿": 3686,
      "Ġversion": 3687,
      "Ġoption": 3688,
      "à¦ķà§°": 3689,
      "à©ĭà¨ķ": 3690,
      "à³Ĭà²³": 3691,
      "à¬¸àŃįà¬¤": 3692,
      "à«ĥ": 3693,
      "Ġdeb": 3694,
      "Ġà¨ķà©ģ": 3695,
      "Ġchar": 3696,
      "Ġà¤Ńà¤¾à¤°": 3697,
      "à¦¾à¦Ľ": 3698,
      "à³ĩà²¶": 3699,
      "à¤¾à¤Ĥà¤Ĺ": 3700,
      "Ġevent": 3701,
      "Ġàª¸àª¾àª¥à«ĩ": 3702,
      "face": 3703,
      "à±ĥ": 3704,
      "Ġà²²": 3705,
      "àŃįà¬¡": 3706,
      "à¦ķà¦¾à¦°": 3707,
      "Ġà¤®à¥ĭ": 3708,
      "à§Ģà¦¨": 3709,
      "à®©à¯įà®©": 3710,
      "Ġleast": 3711,
      "àŃ±": 3712,
      "à¦¿à¦Ľà¦¿à¦²": 3713,
      "à§Ģà¦¤": 3714,
      "à²¡à³Ĩ": 3715,
      "}}\\": 3716,
      "à±įà°²à±ģ": 3717,
      "à§°à¦¤": 3718,
      "à²¾à²ľ": 3719,
      "à¦®à¦¾à¦¨": 3720,
      "Ġclick": 3721,
      "à¯įà®¯": 3722,
      "Ġrates": 3723,
      "Ġclient": 3724,
      ",âĢĿ": 3725,
      "back": 3726,
      "à¨Ŀ": 3727,
      "Ġfield": 3728,
      "Ġà°ı": 3729,
      "Ġà¦¬à§°": 3730,
      "à´¾à´µ": 3731,
      "Ġàª¤à«ĩàª": 3732,
      "Ġà¦¨à¦¿à¦ľ": 3733,
      "Ġcapital": 3734,
      "mber": 3735,
      "à´¾àµ»": 3736,
      "rict": 3737,
      "Ġlik": 3738,
      "Ĥ¹": 3739,
      "Ġà®ªà¯Ĩ": 3740,
      "Ġà¦ħà¦Ń": 3741,
      "à§įà¦¯à§ĩ": 3742,
      "à¨²à©ĩ": 3743,
      "Ġinsurance": 3744,
      "Ġnext": 3745,
      "à¬¿à¬Ĩ": 3746,
      "Ġà¤²à¤Ĺ": 3747,
      "Ġresults": 3748,
      "à´¡": 3749,
      "Ġbi": 3750,
      "Ġlin": 3751,
      "à«įàª¥": 3752,
      "ĠEurope": 3753,
      "à¯Īà®ª": 3754,
      "Ġneg": 3755,
      "à¦¾à¦¥": 3756,
      "Ġà®ĩà®¤": 3757,
      "à¬®à¬¾à¬¨": 3758,
      "Ġà®Ĵà®°à¯ģ": 3759,
      "tes": 3760,
      "¯àŃįàŃŁ": 3761,
      "Ġpot": 3762,
      "aken": 3763,
      "à¤¾à¤²à¥Ģ": 3764,
      "ape": 3765,
      "Ġcult": 3766,
      "Ġflow": 3767,
      "rad": 3768,
      "àµģà´±": 3769,
      "à²¾à²Ĺà²¿à²¦à³Ĩ": 3770,
      "Ġvarious": 3771,
      "Ġkeep": 3772,
      "Ġuntil": 3773,
      "à¬¾à¬ĻàŃįà¬ķ": 3774,
      "acy": 3775,
      "Ġà®®à¯ģà®": 3776,
      "Ġdisease": 3777,
      "For": 3778,
      "¥à¬¿à¬¬à¬¾": 3779,
      "Ġà¨Ł": 3780,
      "à³įà²ļ": 3781,
      "à°¾à°ķ": 3782,
      "à²®à³įà²®": 3783,
      "Ġaccess": 3784,
      "Ġàªīàªª": 3785,
      "Ġbelie": 3786,
      "Ġsocial": 3787,
      "à³įà²³": 3788,
      "à°¿à°¸à±įà°¤": 3789,
      "Ġà¤¥à¤¾": 3790,
      "Ġà¦¬à§įà¦¯": 3791,
      "rix": 3792,
      "ĠGod": 3793,
      "Ġnormal": 3794,
      "Ġant": 3795,
      "à¤§à¥įà¤¯à¥ĩ": 3796,
      "ength": 3797,
      "Ġfuture": 3798,
      "àªı": 3799,
      "Ġexist": 3800,
      "Ġmodel": 3801,
      "my": 3802,
      "pass": 3803,
      "ences": 3804,
      "Ġpost": 3805,
      "une": 3806,
      "à¨¹à©ģ": 3807,
      "Ġsecur": 3808,
      "Ġà¬ıà¬ķ": 3809,
      "Type": 3810,
      "code": 3811,
      "Ġàª¡": 3812,
      "ĠWhen": 3813,
      "Ġrepresent": 3814,
      "àª¾àªĩ": 3815,
      "à¦¦à§ĩà¦°": 3816,
      "NA": 3817,
      "bar": 3818,
      "andom": 3819,
      "ĠFl": 3820,
      "Ġà¤µà¤°à¥įà¤": 3821,
      "Ġtheory": 3822,
      "Ġpar": 3823,
      "ention": 3824,
      "Ġà¤¨à¤¾à¤¹à¥Ģ": 3825,
      "Ġà®ħà®°": 3826,
      "Ġà¨ľà¨¼": 3827,
      "aterial": 3828,
      "Ġconsum": 3829,
      "Ġtreatment": 3830,
      "cer": 3831,
      "Ġhome": 3832,
      "à¯įà®¤à¯įà®¤": 3833,
      "Ġcontract": 3834,
      "Ġobs": 3835,
      "Ġbecome": 3836,
      "Ġput": 3837,
      "àŃįà¬®": 3838,
      "à¥ģà¤¸": 3839,
      "à¨¨à¨¾": 3840,
      "tem": 3841,
      "{\"": 3842,
      "Ġaut": 3843,
      "à¥įà¤ļ": 3844,
      "à¦¨à¦¿": 3845,
      "Ġcomb": 3846,
      "à§ģà¦²à¦¿": 3847,
      "Ġ}": 3848,
      "Ġturn": 3849,
      "ĠCol": 3850,
      "Ġexam": 3851,
      "Ġà¤¦à¥ĭ": 3852,
      "Ġà®®à®±à¯įà®±": 3853,
      "à±Ģà°¸": 3854,
      "Ġpropert": 3855,
      "Ġcases": 3856,
      "alk": 3857,
      "ĠCan": 3858,
      "Ġmar": 3859,
      "Ġlater": 3860,
      "à«ĭàª²": 3861,
      "à²·à³įà²Ł": 3862,
      "option": 3863,
      "Ġrele": 3864,
      "à©ĩà¨Ĥ": 3865,
      "ĠâĤ¹": 3866,
      "àª«": 3867,
      "help": 3868,
      "Ġà¦¦à§ģà¦": 3869,
      "Ġà®¤à¯ĩ": 3870,
      "à´¿à´ķàµįà´ķàµģà´¨àµįà´¨": 3871,
      "Ġàª¹àª¤àª¾": 3872,
      "Ġbir": 3873,
      "Ġlight": 3874,
      "à§ĭà¦²": 3875,
      "Ġpolit": 3876,
      "func": 3877,
      "à§©": 3878,
      "à¥¦": 3879,
      "à¥ĭà¤²": 3880,
      "Ġspecial": 3881,
      "ctions": 3882,
      "Ġcontext": 3883,
      "à²Ĺà²³à²¨à³įà²¨à³ģ": 3884,
      "Ġà¦Ĩà¦¸": 3885,
      "à©Ĥà¨°": 3886,
      "à´°àµį": 3887,
      "aps": 3888,
      "àªĤàª¦": 3889,
      "vious": 3890,
      "Ġdescrib": 3891,
      "Ġhttp": 3892,
      "agn": 3893,
      "Ġà¤Ĺà¤¯à¤¾": 3894,
      "à§ģà¦ķà§įà¦¤": 3895,
      "Ġseries": 3896,
      "âĢľ": 3897,
      "aining": 3898,
      "ĠOn": 3899,
      "à¥ĩà¤ĸ": 3900,
      "Ġscient": 3901,
      "àª¶à«ĩ": 3902,
      "à´ļàµįà´ļ": 3903,
      "àŃįà¬ļ": 3904,
      "à³Ĩà²²": 3905,
      "Ġà¦ªà§įà¦°à¦¤": 3906,
      "ological": 3907,
      "àµģà´¤àµįà´¤": 3908,
      "à¤¾à¤³": 3909,
      "àŃįàŃ±": 3910,
      "Ġnational": 3911,
      "Ġbetter": 3912,
      "à´·": 3913,
      "à¬ĸ": 3914,
      "Ġà¤ķà¤®": 3915,
      "rain": 3916,
      "à¬ķàŃįà¬¤": 3917,
      "à¤¾à¤¨à¤¾": 3918,
      "à®±à¯įà®ª": 3919,
      "Ġà¦²à¦¾à¦Ĺ": 3920,
      "asing": 3921,
      "Ġanim": 3922,
      "Ġà¦Ĩà¦¬": 3923,
      "file": 3924,
      "gen": 3925,
      "à¦ĥ": 3926,
      "à®©à®°à¯į": 3927,
      "Ġrequire": 3928,
      "ble": 3929,
      "Ġpath": 3930,
      "ably": 3931,
      "Ġà¨ĩà¨ķ": 3932,
      "tx": 3933,
      "atory": 3934,
      "ĠTo": 3935,
      "ĠPl": 3936,
      "context": 3937,
      "work": 3938,
      "Ġmus": 3939,
      "ĠFr": 3940,
      "àª¾àª¨à«Ģ": 3941,
      "à´¿à´¨àµį": 3942,
      "à®¾à®Łà¯įà®Ł": 3943,
      "Ġà®Ł": 3944,
      "Ġfree": 3945,
      "Ġbest": 3946,
      "à¦¿à¦Ĥ": 3947,
      "à¤¤à¥įà¤°": 3948,
      "à¥ģà¤ª": 3949,
      "àŃĩà¬²": 3950,
      "Ġhapp": 3951,
      "Ġà°ļà±Ĩ": 3952,
      "ĠIntern": 3953,
      "ee": 3954,
      "Ġauthor": 3955,
      "Ġwomen": 3956,
      "àª¾àª¡": 3957,
      "Ġà¤¤à¥įà¤¯à¤¾à¤Ĥ": 3958,
      "à´¿à´Łàµįà´Ł": 3959,
      "Ġsignificant": 3960,
      "Ġsect": 3961,
      "à®¿à®´": 3962,
      "Ġrange": 3963,
      "à¨£à¨¾": 3964,
      "à°Ĥà°¦à°¿": 3965,
      "à´ķàµįà´·": 3966,
      "à§«": 3967,
      "à§¯": 3968,
      "ored": 3969,
      "Ġvol": 3970,
      "key": 3971,
      "Ġusually": 3972,
      "anies": 3973,
      "à´¿à´ªàµįà´ª": 3974,
      "à«įàª²": 3975,
      "lying": 3976,
      "à¯įà®¨à¯įà®¤": 3977,
      "à°¾à°Ĺ": 3978,
      "à«ģàª°": 3979,
      "Ġà¨¤à©ģ": 3980,
      "ĠâĢĶ": 3981,
      "Ġà¦¬à¦¿à¦·": 3982,
      "Ġà²İà²Ĥà²¦à³ģ": 3983,
      "à²¿à²°à³ģà²µ": 3984,
      "Ġchanges": 3985,
      "Ġdom": 3986,
      "à°¾à°¸": 3987,
      "add": 3988,
      "Ġà¤¦à¤¿à¤²": 3989,
      "à´ķàµįà´ķàµį": 3990,
      "Ġà¤ł": 3991,
      "Ġà¬ªà¬¾à¬ĩà¬ģ": 3992,
      "àŃĭà¬²": 3993,
      "àª¾àªĸ": 3994,
      "Ġàªķàª¹": 3995,
      "à¦¾à¦¨à§ĩ": 3996,
      "à±Ĥà°¡": 3997,
      "à±Ĥà°°": 3998,
      "ĠYou": 3999,
      "pytest": 4000,
      "fil": 4001,
      "isc": 4002,
      "Ġà°¡": 4003,
      "à¤Ĥà¤§": 4004,
      "à²¾à²ķ": 4005,
      "à³ĩà²³": 4006,
      "Ġà®¤à®¿à®°": 4007,
      "ookie": 4008,
      "à²ĸ": 4009,
      "Ġcrit": 4010,
      "alf": 4011,
      "Ġfall": 4012,
      "Ġbillion": 4013,
      "Ġà´¦": 4014,
      "Ġdev": 4015,
      "à¥įà¤¯à¤¾à¤¤": 4016,
      "Ġplant": 4017,
      "Ġsimilar": 4018,
      "Ġà¤¸à¤¾à¤¥": 4019,
      "Ġhistory": 4020,
      "mark": 4021,
      "ole": 4022,
      "à§ĩà¦¹": 4023,
      "à«Ģàªı": 4024,
      "Ġspace": 4025,
      "à°¶": 4026,
      "Ġà¤®à¥įà¤¹": 4027,
      "Ġenc": 4028,
      "Ġà²¹à³Ĩ": 4029,
      "Ġà²¹à³Ĭ": 4030,
      "Ġcalcul": 4031,
      "à¬¨àŃįà¬¦": 4032,
      "ĠSy": 4033,
      "à¤ĺ": 4034,
      "à¯įà®£": 4035,
      "Ġmaterial": 4036,
      "Ġà´Ĺ": 4037,
      "raw": 4038,
      "à´¾àµ¼": 4039,
      "hi": 4040,
      "à°Ĥà°Ĺ": 4041,
      "output": 4042,
      "à°¤à±įà°¤": 4043,
      "Ġconc": 4044,
      "Ġmanagement": 4045,
      "Ġprim": 4046,
      "=\\": 4047,
      "Ġi": 4048,
      "àªĽ": 4049,
      "Ġà¬§": 4050,
      "à±įà°¥": 4051,
      "ills": 4052,
      "à°¦à±įà°": 4053,
      "Ġfail": 4054,
      "à¥ĭà¤ķ": 4055,
      "à¦¤à§ĭ": 4056,
      "istic": 4057,
      "Ġà°¤à±Ĩà°²": 4058,
      "Ġà´ļàµĨà´¯": 4059,
      "à§ĩà¦Ľà§ĩà¦¨": 4060,
      "invoke": 4061,
      "Ġbool": 4062,
      "ctor": 4063,
      "Ġà¤¸à¥ģà¤°": 4064,
      "à¥ģà¤³": 4065,
      "Ġspecific": 4066,
      "Ġfile": 4067,
      "Ġstates": 4068,
      "à´¾à´¸": 4069,
      "ĠBrit": 4070,
      "à®¨": 4071,
      "à¨¾à¨ķ": 4072,
      "ember": 4073,
      "Ġà®ķà®Ł": 4074,
      "Ġdiff": 4075,
      "Ġspecies": 4076,
      "Ġà¤¸à¤°à¤ķà¤¾à¤°": 4077,
      "à°·": 4078,
      "àµģà´ķàµįà´ķ": 4079,
      "exp": 4080,
      "Ex": 4081,
      "env": 4082,
      "à¦ķà¦¾": 4083,
      "Ġà¤¹à¥ĭà¤¤à¤¾": 4084,
      "\"],": 4085,
      "Ġtext": 4086,
      "à§°à¦¿": 4087,
      "utes": 4088,
      "àŃįà¬°àŃĢ": 4089,
      "Ġàª¹àª¤à«Ģ": 4090,
      "à®¿à®ļ": 4091,
      "à¤²à¥įà¤¯à¤¾": 4092,
      "ards": 4093,
      "aper": 4094,
      "à¤¾à¤¯à¤¾": 4095,
      "Ġà¦ıà¦¬à¦Ĥ": 4096,
      "IT": 4097,
      "à´¬": 4098,
      "à®¿à®®": 4099,
      "cont": 4100,
      ".\\": 4101,
      "à¦¾à§±": 4102,
      "àŃįà¬¨": 4103,
      "Ġà¦ħà¦¬": 4104,
      "à¯Īà®¯à¯ģà®®à¯į": 4105,
      "Ġà¨¦à¨¿à©±": 4106,
      "Ġà¤¨à¤¿": 4107,
      "Ġà®®à¯ĩ": 4108,
      "ogn": 4109,
      "à¤¾à¤Ł": 4110,
      "à®¾à®£": 4111,
      "à®°à¯įà®ķà®³à¯į": 4112,
      "Ġleft": 4113,
      "à³Ĭà²Ĥà²¡": 4114,
      "Ġtrad": 4115,
      "·à¥įà¤Ł": 4116,
      "Ġ__": 4117,
      "à²°à²¿à²¸": 4118,
      "ĠMed": 4119,
      "plement": 4120,
      "Ġà¨¤à¨¾à¨Ĥ": 4121,
      "à«ĭàª¡": 4122,
      "ysis": 4123,
      "à¬ĻàŃįà¬ķàŃģ": 4124,
      "Ġà®ļà¯Ĩà®¯à¯įà®¤": 4125,
      "à¤¾à¤ı": 4126,
      "Ġà¨ķà¨¾à¨°": 4127,
      "ators": 4128,
      "Ġcause": 4129,
      "Ġlower": 4130,
      "à«Ģàª¤": 4131,
      "ids": 4132,
      "rag": 4133,
      "ival": 4134,
      "Ġà®µà®¾à®": 4135,
      "Ġà¦¦à§ĩà¦¶": 4136,
      "wh": 4137,
      "à¬ł": 4138,
      "Ġair": 4139,
      "Ġàª¯": 4140,
      "Ġwar": 4141,
      "ĠAll": 4142,
      "Ġà¦¬à¦¾": 4143,
      "ĠChrist": 4144,
      "Ġhowever": 4145,
      "à¥ĭà¤Ł": 4146,
      "à°¿à°¸": 4147,
      "à¤µà¤¾": 4148,
      "ograph": 4149,
      "Ġà°ªà°°": 4150,
      "Ġinvestment": 4151,
      "Ġsingle": 4152,
      "wargs": 4153,
      "Ġnatural": 4154,
      "à®¤à¯į": 4155,
      "Ġable": 4156,
      "à§Ĥà¦°": 4157,
      "àª¾àªª": 4158,
      "à²¾à²¤": 4159,
      "Ġàªķàª¾àª°": 4160,
      "à³ĩà²µ": 4161,
      "Ġà¬ıà¬¬": 4162,
      "mp": 4163,
      "à¤°à¥įà¤£": 4164,
      "Ġà°Ł": 4165,
      "à¤£à¤¾à¤°": 4166,
      "Ġà¤¬à¥Ģà¤®": 4167,
      "à¥ĩà¤¸": 4168,
      "icle": 4169,
      "Ġà°ķà±Ĭ": 4170,
      "Ġcentral": 4171,
      "As": 4172,
      "hold": 4173,
      "à§ĩà¦ľ": 4174,
      "à§ĩà¦Ľà¦¿à¦²": 4175,
      "Ġconn": 4176,
      "à©°à¨®": 4177,
      "ush": 4178,
      "à¥Ĥà¤°": 4179,
      "à°¾à°¯à°¿": 4180,
      "¥à¬¿à¬²à¬¾": 4181,
      "Ġterms": 4182,
      "Ġdri": 4183,
      "etic": 4184,
      "à«įàª¸": 4185,
      "Ġà¤¸à¥įà¤¥": 4186,
      "à²µà²¾à²Ĺà²¿": 4187,
      "Ġà²ķà²¾à²°": 4188,
      "à®¿à®©à¯įà®±": 4189,
      "à¥ģà¤ĸ": 4190,
      "à°¾à°¨à°¿à°ķà°¿": 4191,
      "Ġcomplex": 4192,
      "à¦¦à§įà¦§": 4193,
      "Ġcells": 4194,
      "Ġpressure": 4195,
      "à¥¨": 4196,
      "Ġà¨§": 4197,
      "Ġà¦¨à¦¾à¦®": 4198,
      "àŃĩà¬¤": 4199,
      "#:": 4200,
      "à¥ħ": 4201,
      "àŃįà¬²": 4202,
      "Ġà¬¸àŃĩ": 4203,
      "erve": 4204,
      "àª¾àª¹": 4205,
      "à´¾à´±": 4206,
      "à¦¯à¦¼à§ĩ": 4207,
      "Ġà²ĩà²¦": 4208,
      "ER": 4209,
      "False": 4210,
      "Ġline": 4211,
      "Ġà¦Ĩà¦¨": 4212,
      "à©±à¨¸": 4213,
      "Ġà¦¦à¦¿à¦¨": 4214,
      "Ġà¤¦à¥įà¤µ": 4215,
      "àµįà´±àµįà´±": 4216,
      "Ġà°«": 4217,
      "àŃĩà¬¶": 4218,
      "Ġintrodu": 4219,
      "Ġà¤Ĩà¤¹à¥ĩà¤¤": 4220,
      "à®¿à®ķà®³": 4221,
      "àµģà´ķà´³": 4222,
      "use": 4223,
      "Ġsw": 4224,
      "Ġret": 4225,
      "Ġlit": 4226,
      "à±ģà°¡à±ģ": 4227,
      "ope": 4228,
      "Ġà¤ķà¤°à¤£à¥įà¤¯à¤¾à¤": 4229,
      "Ġà¬®àŃģà¬": 4230,
      "Ġflask": 4231,
      "Ġà°ļà±ĩà°¸": 4232,
      "bin": 4233,
      "eb": 4234,
      "Ġà¨¯": 4235,
      "Ġblood": 4236,
      "àŃĩà¬³": 4237,
      "Ġproblem": 4238,
      "aid": 4239,
      "Ġur": 4240,
      "ĠĠĠĠĠĠĠĠĠĠĠĠĠĠĠĠĠĠĠĠĠĠĠĠĠĠ": 4241,
      "à¬¿à¬ª": 4242,
      "à¨¾à¨°à©Ģ": 4243,
      "Ġothers": 4244,
      "Ġà¦¤à¦¿à¦¨à¦¿": 4245,
      "Ġfive": 4246,
      "Ġmen": 4247,
      "à¯Īà®ªà¯įà®ª": 4248,
      "Ġà¦ķà§°à§ĩ": 4249,
      "rite": 4250,
      "Ïĥ": 4251,
      "Ġà¦ķà¦¿": 4252,
      "Ġstep": 4253,
      "àŃĩà¬ķ": 4254,
      "Ġà®®à®±à¯įà®±à¯ģà®®à¯į": 4255,
      "PI": 4256,
      "à§ª": 4257,
      "Ġà¤Ľ": 4258,
      "Ġalong": 4259,
      "Ġà¨Ĩà¨ªà¨£à©ĩ": 4260,
      "Ġà¨ķà¨¿à¨¸": 4261,
      "Ġàª¨àª¥à«Ģ": 4262,
      "à¥ĥà¤¤": 4263,
      "Com": 4264,
      "Ġà¦ķà§įà¦·": 4265,
      "ĠPol": 4266,
      "ĠFin": 4267,
      "à§Ĥà§°": 4268,
      "à²¬à³ĩà²ķ": 4269,
      "Ġindepend": 4270,
      "ya": 4271,
      "Ġparent": 4272,
      "Ġcome": 4273,
      "à²ļà³įà²ļ": 4274,
      "igma": 4275,
      "Ġà¬¸à¬¹": 4276,
      "Ġindic": 4277,
      "à¦¿à¦ĵ": 4278,
      "à¬¾à¬¯": 4279,
      "Ġà¦®à§ģà¦ĸ": 4280,
      "Ġmeasure": 4281,
      "part": 4282,
      "inst": 4283,
      "Ġsqu": 4284,
      "aster": 4285,
      "Ġbecame": 4286,
      "à³ģà²¤à³įà²¤à²¦à³Ĩ": 4287,
      "Ġage": 4288,
      "Ġmax": 4289,
      "à¬¾à¬¦": 4290,
      "à¦¿à¦ķà§ĩ": 4291,
      "ification": 4292,
      "hand": 4293,
      "}^{": 4294,
      "à¨¿à¨µ": 4295,
      "Ġà®ķà¯ģà®±": 4296,
      "Ġà°¸à°Ĥà°": 4297,
      "Ġà°ħà°¨": 4298,
      "à³Į": 4299,
      "indow": 4300,
      "à´Ļàµįà´ķ": 4301,
      "pos": 4302,
      "Ġsom": 4303,
      "Ġeither": 4304,
      "à¤¸à¥Ģ": 4305,
      "à±Ģà°°": 4306,
      "Ġà®ĩà®°à¯ģà®ķà¯įà®ķ": 4307,
      "IN": 4308,
      "Ļà¯įà®ķ": 4309,
      "à¤¿à¤Ł": 4310,
      "Ġlet": 4311,
      "Ġà¦¯à¦¾à¦¯à¦¼": 4312,
      "Ġexpress": 4313,
      "Ġà´¨à´Ł": 4314,
      "Ġincreased": 4315,
      "echo": 4316,
      "most": 4317,
      "ane": 4318,
      "à°¿à°®": 4319,
      "à¨¾à¨°à©ĩ": 4320,
      "à±ĩà°¶": 4321,
      "à¥ģà¤³à¥ĩ": 4322,
      "Ġclear": 4323,
      "raise": 4324,
      "ĠAss": 4325,
      "Ġpast": 4326,
      "à¨¨à©Ģ": 4327,
      "à§Ĥà¦ª": 4328,
      "Ġnews": 4329,
      "operator": 4330,
      "Ġofficial": 4331,
      "Ġà°Ĵà°ķ": 4332,
      "init": 4333,
      "Ġà¦ķà¦®": 4334,
      "ĠOr": 4335,
      "àŃĭà¬ķ": 4336,
      "Ġmaking": 4337,
      "Ġhard": 4338,
      "Ġà°¸à°®": 4339,
      "Ġà¬°à¬¹": 4340,
      "Ġsubject": 4341,
      "iterable": 4342,
      "à©Įà¨°": 4343,
      "PA": 4344,
      "\\\\": 4345,
      "lean": 4346,
      "àª¤à«Ģ": 4347,
      "Ġpatient": 4348,
      "Ġinflu": 4349,
      "Ġprivate": 4350,
      "Ġbr": 4351,
      "ĠSp": 4352,
      "Ġyield": 4353,
      "Ġà¦¨à¦¿à¦°": 4354,
      "à«ĩàª¸": 4355,
      "Ġà°ªà±Ĩ": 4356,
      "Ġà°ķà±ĭ": 4357,
      "Ġà¦ķà¦°à¦¾": 4358,
      "Ġdiscuss": 4359,
      "à¤ħ": 4360,
      "iting": 4361,
      "à§ĭà¦Ł": 4362,
      "Ġsugg": 4363,
      "à´®àµįà´®": 4364,
      "ixed": 4365,
      "Ġsuggest": 4366,
      "Ġâģł": 4367,
      "ĵà¤Ĥ": 4368,
      "Ġsize": 4369,
      "Ġcash": 4370,
      "à¦¨à§ĩà¦°": 4371,
      "à°¾à°ľ": 4372,
      "Ġrandom": 4373,
      "ueprint": 4374,
      "à¬ķà¬¾à¬°": 4375,
      "Ġwords": 4376,
      "Ġà¨Ĳ": 4377,
      "à¤µà¤¿à¤": 4378,
      "operatorname": 4379,
      "Ġà®ªà®¿à®°": 4380,
      "à®¿à®²à¯įà®²": 4381,
      "Ġwhether": 4382,
      "Ġservices": 4383,
      "Ġbehav": 4384,
      "ID": 4385,
      "ox": 4386,
      "Ġà¬Ł": 4387,
      "à¦¿à¦¹": 4388,
      "ada": 4389,
      "à¤¦à¥Ģ": 4390,
      "ricult": 4391,
      "àª¯àª¾": 4392,
      "wards": 4393,
      "Ġimpact": 4394,
      "side": 4395,
      "Ġpain": 4396,
      "Ġà²Ĩà²¦": 4397,
      "Ġmembers": 4398,
      "icult": 4399,
      "lection": 4400,
      "à¦¤à§įà¦¯": 4401,
      "Ġcond": 4402,
      "ung": 4403,
      "à©°à¨ľ": 4404,
      "Ġà¬¹àŃĩà¬¬": 4405,
      "Ġassoci": 4406,
      "à¯ģà®®à¯įà®ª": 4407,
      "à¤¿à¤Ĥà¤Ĺ": 4408,
      "Ġproblems": 4409,
      "àªķà«įàª·": 4410,
      "Ġà®¯": 4411,
      "Ġfurther": 4412,
      "Ġbanks": 4413,
      "uted": 4414,
      "à¦ķà§įà¦¤": 4415,
      "Ġstock": 4416,
      "Ġhaving": 4417,
      "Ġclaim": 4418,
      "Ġà¦¬à¦¿à¦Ń": 4419,
      "pecially": 4420,
      "mathb": 4421,
      "yn": 4422,
      "Ġà´«": 4423,
      "ules": 4424,
      "à¤Ĺà¤¾": 4425,
      "Ġàªµàª§": 4426,
      "à§įà¦¸": 4427,
      "à®¾à®±": 4428,
      "à§ģà¦¹": 4429,
      "à«Ģàªĵ": 4430,
      "Ġmot": 4431,
      "Ġthings": 4432,
      "à§ĭà¦§": 4433,
      "comm": 4434,
      "à¤Ńà¥Ģ": 4435,
      "Ġcommunity": 4436,
      "There": 4437,
      "Ġà´ħà´µ": 4438,
      "Ġsaf": 4439,
      "ariance": 4440,
      "à¤ķà¥įà¤°": 4441,
      "Ġdecl": 4442,
      "à¤°à¥įà¤¤": 4443,
      "itor": 4444,
      "ĠMan": 4445,
      "ister": 4446,
      "Ġdeveloped": 4447,
      "Ġacross": 4448,
      "ready": 4449,
      "Ġà¦ķà§ĭà¦¨à§ĭ": 4450,
      "Ġà´Ĵà´°àµģ": 4451,
      "à´Ń": 4452,
      "à®°à¯įà®ķà®³": 4453,
      "Ġà¤¹à¥ĩ": 4454,
      "Ġrather": 4455,
      "ocus": 4456,
      "Ġà´ªà´±": 4457,
      "ĠĠĠĠĠĠĠĠĠĠĠĠĠĠĠĠĠĠĠĠĠĠĠĠĠĠĊ": 4458,
      "Ġà¤¸à¤¾à¤®": 4459,
      "Ġà´ªà´°": 4460,
      "Ġsystems": 4461,
      "template": 4462,
      "Ġconcern": 4463,
      "à¤Ĥà¤¬": 4464,
      "Ġà¦¨à¦¾à¦ĩ": 4465,
      "Ġà¦ıà¦ĸà¦¨": 4466,
      "Ġà¤ľà¤¿à¤¸": 4467,
      "à°¦à°¿": 4468,
      "Ġrequired": 4469,
      "ique": 4470,
      "ising": 4471,
      "ĠTe": 4472,
      "à¦¸à§įà¦¤": 4473,
      "à¤¦à¤¾à¤°": 4474,
      "except": 4475,
      "Ġworks": 4476,
      "Ġcompanies": 4477,
      "Ġà®ķà¯Ĭà®£à¯įà®Ł": 4478,
      "Ġrunner": 4479,
      "Ġtypes": 4480,
      "BI": 4481,
      "sum": 4482,
      "à´Ĺ": 4483,
      "ĠSouth": 4484,
      "ands": 4485,
      "à®¿à®¯à®¿à®²à¯į": 4486,
      "à²¸à³į": 4487,
      "}}}": 4488,
      "load": 4489,
      "Ġà¬°à¬¾à¬ľ": 4490,
      "àµĩà´·": 4491,
      "Ġtemper": 4492,
      "à¨¾à¨ª": 4493,
      "vert": 4494,
      "ference": 4495,
      "RE": 4496,
      "aut": 4497,
      "à¤°à¥ĭ": 4498,
      "à«Ģàª¨à«ĩ": 4499,
      "ĠMinist": 4500,
      "pped": 4501,
      "ortun": 4502,
      "Ġà®ĩà®°à¯ģà®¨à¯įà®¤": 4503,
      "mission": 4504,
      "à¤Ĩ": 4505,
      "à¦ķà¦¾à§°": 4506,
      "Ġà®ªà®Ł": 4507,
      "heme": 4508,
      "Ġobserv": 4509,
      "Ġà¤®à¥įà¤¹à¤£": 4510,
      "None": 4511,
      "Ġà¦ł": 4512,
      "à¥Ģà¤µ": 4513,
      "ĠAf": 4514,
      "ibility": 4515,
      "mu": 4516,
      "Ġà¦ķà¦¿à¦Ľ": 4517,
      "Ġshare": 4518,
      "Ġcompany": 4519,
      "àŃĭà¬Ĺ": 4520,
      "Ġà¬īà¬ª": 4521,
      "log": 4522,
      "à¤¾à¤¡": 4523,
      "Ġà¦¸à¦¬": 4524,
      "Ġ--": 4525,
      "Ġà®¤à¯Ĩà®°": 4526,
      "Ġà¨ľà¨¾à¨£": 4527,
      "xim": 4528,
      "oms": 4529,
      "Ġà®µà®´": 4530,
      "Ġà¦ħà¦¸à¦®": 4531,
      "à§ģà¦Ł": 4532,
      "à®¿à®°à¯ģà®¨à¯įà®¤": 4533,
      "à¦ĺ": 4534,
      "à©ĩà¨Ĺ": 4535,
      "imum": 4536,
      "Ġà¦ļà¦²": 4537,
      "Ġà¦¹à§Īà¦Ľà§ĩ": 4538,
      "à¤¾à¤ĸ": 4539,
      "à¦¿à¦ĸ": 4540,
      "Ġà¦ķà¦¾à¦°": 4541,
      "ĠAust": 4542,
      "Ġalways": 4543,
      "Ġà²¨à³Ģà²¡": 4544,
      "à¤¿à¤ľ": 4545,
      "à¨¿à¨¸à¨¼": 4546,
      "Ġproducts": 4547,
      "sigma": 4548,
      "leg": 4549,
      "à±įà°¡": 4550,
      "Ġà¦¬à¦¹": 4551,
      "à³Ĥà²°": 4552,
      "à²¿à²¸à²¿à²¦": 4553,
      "à®©à¯įà®±à¯ģ": 4554,
      "Ġinternational": 4555,
      "àµĥ": 4556,
      "oph": 4557,
      "à±ĩà°ķ": 4558,
      "à¤£à¥ĩ": 4559,
      "ĠWest": 4560,
      "à±Ģà°": 4561,
      "uments": 4562,
      "à¨ħ": 4563,
      "à´ŀàµįà´ŀ": 4564,
      "Ġà´Ł": 4565,
      "Ġglobal": 4566,
      "àŃģà¬²": 4567,
      "Ġà¨²à©ĭà¨ķ": 4568,
      "attr": 4569,
      "Ġaverage": 4570,
      "Ġsite": 4571,
      "à°¾à°ª": 4572,
      "àª°à«ĩ": 4573,
      "à«ĭàªĪ": 4574,
      "Ġlikely": 4575,
      "Ġdays": 4576,
      "aged": 4577,
      "Ġà¨¸à©ģ": 4578,
      "à§įà¦°à§Ģ": 4579,
      "Ġnumbers": 4580,
      "ero": 4581,
      "Ġà¤¸à¤°à¥įà¤µ": 4582,
      "ump": 4583,
      "ivity": 4584,
      "à¬¨à¬¾": 4585,
      "ĠOne": 4586,
      "Ġà¬¨à¬¿à¬": 4587,
      "Ġprevent": 4588,
      "Ġà¤µà¤¿à¤¶": 4589,
      "reen": 4590,
      "à§ĩà¦ª": 4591,
      "à´¿à´¸": 4592,
      "à©°à¨¤": 4593,
      "Ġà¦¹à¦¬à§ĩ": 4594,
      "Ġà¤µà¤¹": 4595,
      "Ġcourse": 4596,
      "à«įàªª": 4597,
      "Ġdeath": 4598,
      "empt": 4599,
      "Ġàª¸à«ģàª": 4600,
      "ledge": 4601,
      "ohn": 4602,
      "no": 4603,
      "Ġà¦ķà§ĩà¦¨": 4604,
      "Ġà¦¸à§ĩ": 4605,
      "aces": 4606,
      ")}": 4607,
      "Ġsent": 4608,
      "alt": 4609,
      "à¦¾à¦Ļ": 4610,
      "à®ªà¯į": 4611,
      "Ġcharacter": 4612,
      "={\\": 4613,
      "uation": 4614,
      "à°¾à°¡à±ģ": 4615,
      "àµģà´ª": 4616,
      "ird": 4617,
      "Ġà®µà®¨à¯įà®¤": 4618,
      "Ġappear": 4619,
      "à±ģà°Ĥà°¡": 4620,
      "ĠComp": 4621,
      "Ġà¤ķà¤¾à¤°à¥įà¤¯": 4622,
      "Ġà¦ľà¦¨à§įà¦¯": 4623,
      "Ġà´±": 4624,
      "Ġhy": 4625,
      "àŃįà¬ķ": 4626,
      "ĠBe": 4627,
      "Ġà®®à¯ģà®Ł": 4628,
      "Ġà®ħà®®": 4629,
      "Ġcontrib": 4630,
      "ĠState": 4631,
      "Ġstrong": 4632,
      "à©°à¨¦à¨°": 4633,
      "àªĩ": 4634,
      "eds": 4635,
      "ederal": 4636,
      "Ġmov": 4637,
      "conf": 4638,
      "Ġnecess": 4639,
      "à®¿à®ķà®³à¯į": 4640,
      "Ġtechnology": 4641,
      "Ġinflation": 4642,
      "Ġlimit": 4643,
      "ript": 4644,
      "opy": 4645,
      "essage": 4646,
      "Ġseen": 4647,
      "à¨²à©Ģ": 4648,
      "ditional": 4649,
      "Ġsource": 4650,
      "à²¾à²ª": 4651,
      "Ġà¨µà¨¾à¨²": 4652,
      "à³ĭà²Ĺ": 4653,
      "à§įà¦ŀ": 4654,
      "à³Ĩà²Ĺà³Ĩ": 4655,
      "ĠMay": 4656,
      "Ġrat": 4657,
      "à²µà²°": 4658,
      "Ġà¦¹à¦ĩ": 4659,
      "Ġnever": 4660,
      "à´¨àµį": 4661,
      "à¤¾à¤ļà¥įà¤¯à¤¾": 4662,
      "Ġeffects": 4663,
      "Ġbelow": 4664,
      "Ġcreate": 4665,
      "Ġbook": 4666,
      "à§įà¦Ľ": 4667,
      "à³įà²¬": 4668,
      "Ġà¤¬à¤¨": 4669,
      "Ġabs": 4670,
      "Ġprovided": 4671,
      "Ġlevels": 4672,
      "Ġà®İà®©à¯įà®±à¯ģ": 4673,
      "Ġoil": 4674,
      "à²¾à²£": 4675,
      "Ġalready": 4676,
      "à¤Ĥà¤¤à¤°": 4677,
      "Ind": 4678,
      "à§Ń": 4679,
      "à²¾à²¡": 4680,
      "Ġimplement": 4681,
      "à©±à¨Ĺ": 4682,
      "à®ļà¯įà®ļ": 4683,
      "àµĩà´¶": 4684,
      "Ġrespons": 4685,
      "Ġconsidered": 4686,
      "Ġespecially": 4687,
      "fact": 4688,
      "chang": 4689,
      "à´¾à´®": 4690,
      "Ġà¦Ĩà¦ľ": 4691,
      "Ġà¤¹à¥ĭà¤¤à¥Ģ": 4692,
      "Ġmodern": 4693,
      "Ġfunds": 4694,
      "Ġmethods": 4695,
      "oot": 4696,
      "Ġbig": 4697,
      "Ġà¦¹à¦¯à¦¼à§ĩ": 4698,
      "Ġderiv": 4699,
      "bl": 4700,
      "Ġdig": 4701,
      "Ġà¦ķà§ĭ": 4702,
      "à¨ķà©ĩ": 4703,
      "Ġrelations": 4704,
      "call": 4705,
      "Ġà¨ķà¨¿à¨¹à¨¾": 4706,
      "à¦ªà§įà¦°": 4707,
      "Ġà¬¸à¬Ĥ": 4708,
      "runner": 4709,
      "¡à¬¼": 4710,
      "Ġpred": 4711,
      "Ġfocus": 4712,
      "à¨¾à¨Ĺ": 4713,
      "Ġà®ªà¯Ĭ": 4714,
      "à¤¾à¤¤à¥įà¤°": 4715,
      "à¤¶à¥Ģ": 4716,
      "Ġtaken": 4717,
      "Ġà´¯": 4718,
      "stream": 4719,
      "Ġà¦¸à¦¹": 4720,
      "istics": 4721,
      "ĠNorth": 4722,
      "earch": 4723,
      "Ġworking": 4724,
      "Ġresponse": 4725,
      "We": 4726,
      "à«Ī": 4727,
      "ilt": 4728,
      "à´¿à´ķà´³": 4729,
      "Ġrights": 4730,
      "Ġconsider": 4731,
      "EN": 4732,
      "Ġà¤Ĳ": 4733,
      "ones": 4734,
      "àŃ©": 4735,
      "ithm": 4736,
      "Ġdemand": 4737,
      "Ġà¦Ńà¦¾à¦²": 4738,
      "Ġinstead": 4739,
      "nces": 4740,
      "Ġà¬«": 4741,
      "arning": 4742,
      "ĠSome": 4743,
      "à¬¿à¬ģ": 4744,
      "à¨®à©Ģ": 4745,
      "kwargs": 4746,
      "word": 4747,
      "Ġsix": 4748,
      "àŃĮ": 4749,
      "à®©à¯Ī": 4750,
      "ccording": 4751,
      "Ġweight": 4752,
      "Ġexpect": 4753,
      "Ġill": 4754,
      "à¥ĩà¤µ": 4755,
      "Ġtoget": 4756,
      "Ġbegin": 4757,
      "Ġlearn": 4758,
      "à°Ĺà°¾": 4759,
      "Ġprinc": 4760,
      "Ġtogether": 4761,
      "à«§": 4762,
      "anu": 4763,
      "ĠSo": 4764,
      "à¦²à¦¾": 4765,
      "à´¾à´Ĥ": 4766,
      "Ġà¦®à¦§": 4767,
      "àŃģà¬¬": 4768,
      "Ġà´ªàµĭ": 4769,
      "à´¾à´¯à´¿à´°àµģà´¨àµįà´¨àµģ": 4770,
      "Ġà®İà®©à¯įà®ª": 4771,
      "Ġà²ħà²µà²°": 4772,
      "Ġconditions": 4773,
      "ires": 4774,
      "Ġtoday": 4775,
      "Ġà°¨à°¿à°°": 4776,
      "àµģà´ķà´¯": 4777,
      "--------": 4778,
      "inary": 4779,
      "enn": 4780,
      "Ġà¤ķà¥įà¤·": 4781,
      "ĠAb": 4782,
      "Ġà°µà±įà°¯": 4783,
      "àŃĥà¬¤": 4784,
      "Ġaway": 4785,
      "Ġside": 4786,
      "à¥ģà¤ķ": 4787,
      "à²µà²¾à²Ĺ": 4788,
      "ĠâĢĺ": 4789,
      "àª¾àª¨à«ĩ": 4790,
      "Ġdifficult": 4791,
      "ES": 4792,
      "Ġctx": 4793,
      "à¤¿à¤ª": 4794,
      "à°¾à°¡": 4795,
      "hern": 4796,
      "à«ĭàª¤": 4797,
      "Ġà¬®à¬¹": 4798,
      "à¯Īà®ķà®³": 4799,
      "ET": 4800,
      "fix": 4801,
      "à³įà²§": 4802,
      "Ġà¦¬à¦¾à¦¬à§ĩ": 4803,
      "Ġà®¨à®¿à®²": 4804,
      "Ġà²¨à²¿à²°": 4805,
      "àµĤà´Ł": 4806,
      "Ġrespect": 4807,
      "Ġà¨ķà©Ģà¨¤à©Ģ": 4808,
      "à¯ģà®³à¯įà®³à®¤à¯ģ": 4809,
      "ĠEnglish": 4810,
      "Ġà¤¦à¥įà¤µà¤¾à¤°à¤¾": 4811,
      "cing": 4812,
      "Ġcou": 4813,
      "Ġthought": 4814,
      "ĠAg": 4815,
      "à±įà°¨à°¿": 4816,
      "Ġà¬ľà¬£": 4817,
      "Ġsurface": 4818,
      ".)": 4819,
      "Ġfull": 4820,
      "Ġparticip": 4821,
      "Ġàªĵ": 4822,
      "Ġà´Ń": 4823,
      "Ġonce": 4824,
      "à¤®à¥ĩà¤Ĥ": 4825,
      "à«Ģàª¯": 4826,
      "àª£à«ĩ": 4827,
      "Ġà¤¹à¥ĭà¤¤à¥ĩ": 4828,
      "Ġaccording": 4829,
      "à¦¾à¦Ń": 4830,
      "Ġhalf": 4831,
      "Ġà®ķà¯ĭ": 4832,
      "à°²à±į": 4833,
      "Ġfunctions": 4834,
      "Ġincome": 4835,
      "rv": 4836,
      "®à¬¾à¬¨": 4837,
      "ana": 4838,
      "Ġdivid": 4839,
      "irc": 4840,
      "à´°àµįà´": 4841,
      "Ġcancer": 4842,
      "ublic": 4843,
      "à«ĩàª²àª¾": 4844,
      "uff": 4845,
      "§à«Ģ": 4846,
      "à¤°à¤£": 4847,
      "oll": 4848,
      "ĠEar": 4849,
      "à¤°à¥įà¤¥": 4850,
      "Ġà¤°à¥Ĥà¤ª": 4851,
      "Ġà²ªà²°": 4852,
      "Ġproduction": 4853,
      "Ġà§°à¦¾à¦ľ": 4854,
      "Ġà¦¨à¦¿à¦¯à¦¼à§ĩ": 4855,
      "place": 4856,
      "Ġà¦ıà¦Łà¦¾": 4857,
      "àŃĩà¬¨": 4858,
      "ĠEn": 4859,
      "Ġcollect": 4860,
      "à²Ĥà²¤à³Ĩ": 4861,
      "AN": 4862,
      "Åĭ": 4863,
      "àµĨà´Łàµįà´Ł": 4864,
      "Ġà¤²à¤¾à¤Ĺ": 4865,
      "à¥ĩà¤¡": 4866,
      "rick": 4867,
      "à§ĭà§±à¦¾à§°": 4868,
      "à¤·à¥įà¤Ł": 4869,
      "Con": 4870,
      "à´ľ": 4871,
      "Ġitself": 4872,
      "Ġmeet": 4873,
      "Ġà¦īà¦ł": 4874,
      "Ġrole": 4875,
      "Ġaddress": 4876,
      "àµĨà´¨àµįà´¨àµį": 4877,
      "Ġrequests": 4878,
      "AS": 4879,
      "Ġred": 4880,
      "Ġliter": 4881,
      "¢à¦¼": 4882,
      "àŃģà¬£": 4883,
      "Ġà®µà¯ĩà®£à¯įà®Ł": 4884,
      "Ġestablished": 4885,
      "Ġlittle": 4886,
      "Ġstream": 4887,
      "ĠPr": 4888,
      "Ġens": 4889,
      "à¤¿à¤¯à¤®": 4890,
      "ension": 4891,
      "Ġneeds": 4892,
      "à¬¿à¬³": 4893,
      "à«ģàªķ": 4894,
      "Ġà¬ķà¬¾à¬°": 4895,
      "ething": 4896,
      "Ġà¦ĺà¦Ł": 4897,
      "Ġapplication": 4898,
      "alle": 4899,
      "aries": 4900,
      "àª°à«Ĥ": 4901,
      "ĠMus": 4902,
      "à«įàª¯àª¾àª°à«ĩ": 4903,
      "Ġmatrix": 4904,
      "à¦ī": 4905,
      "Ġregul": 4906,
      "Ġrelated": 4907,
      "Ġà¦ĩà¦¯à¦¼": 4908,
      "ĠàªĨàªµà«Ģ": 4909,
      "Ġprovides": 4910,
      "Ġà¦¬à¦¿à¦¶à§įà¦¬": 4911,
      "Ġà®¤à¯Ĭà®Ł": 4912,
      "fol": 4913,
      "iation": 4914,
      "rec": 4915,
      "àª¾àª¥à«Ģ": 4916,
      "à¤°à¤¾": 4917,
      "à¬¿à¬¸": 4918,
      "Ġà¦ªà¦¡à¦¼": 4919,
      "à±ĭà°Ĺ": 4920,
      "à¥įà¤¯à¤¾à¤ļ": 4921,
      "à¥ĩà¤³": 4922,
      "Ġàªħàª®": 4923,
      "à´£à´Ĥ": 4924,
      "à¬°àŃįà¬¬": 4925,
      "Ġà¤ľà¤¾à¤¤à¤¾": 4926,
      "Ġoptions": 4927,
      "nal": 4928,
      "quence": 4929,
      "Ġà®ħà®Ł": 4930,
      "Ġà¤īà¤¤": 4931,
      "Ġà¦īà¦¦": 4932,
      "Ġinstit": 4933,
      "à°¿à°¯à±ģ": 4934,
      "ociety": 4935,
      "Ġmultiple": 4936,
      "Ġanalysis": 4937,
      "AT": 4938,
      "mod": 4939,
      "Ġhouse": 4940,
      "chie": 4941,
      "Ġà¤¸à¥ĭ": 4942,
      "thing": 4943,
      "à´ķà´°": 4944,
      "à¤ķà¥įà¤¸": 4945,
      "ares": 4946,
      "atter": 4947,
      "Ġà¤ķà¤¿à¤¸": 4948,
      "ĠTr": 4949,
      "Ġà¨¸à©°à¨": 4950,
      "ĠHis": 4951,
      "àŃĩà¬īà¬": 4952,
      "à®µà¯ĩ": 4953,
      "Ġà¬¬àŃįàŃŁ": 4954,
      "Ġgoing": 4955,
      "Ġà¨¬à¨£": 4956,
      "à®¿à®±à¯įà®ķ": 4957,
      "Ġthough": 4958,
      "Ġà¦¬à§ģà¦²à¦¿": 4959,
      "Ġconcept": 4960,
      "Ġà¤®à¤¿à¤²": 4961,
      "ĠGu": 4962,
      "à²ķà²°": 4963,
      "ĠJu": 4964,
      "Ġenough": 4965,
      "Ġgovern": 4966,
      "Ġà²¹à²¾à²Ĺ": 4967,
      "à§Ĥà¦²": 4968,
      "à§ĭà¦ª": 4969,
      "====": 4970,
      "ĠGen": 4971,
      "Ġà®¨à¯Ģ": 4972,
      "Ġà°µà±Ĩ": 4973,
      "Ġà¦²à§ĭà¦ķ": 4974,
      "Ġ====": 4975,
      "ĠHealth": 4976,
      "Ġfrequ": 4977,
      "da": 4978,
      "Ġtry": 4979,
      "elves": 4980,
      "Ġà¦Ĩà¦¦": 4981,
      "Ġà®ªà®¾à®°": 4982,
      "ĠWhat": 4983,
      "Ġstudies": 4984,
      "ĠGovernment": 4985,
      "Pro": 4986,
      "inf": 4987,
      "ison": 4988,
      "Ġcame": 4989,
      "à®¿à®ª": 4990,
      "Ġresearc": 4991,
      "Ġà²¡": 4992,
      "à¯įà®ķà¯įà®ķ": 4993,
      "Ġexchange": 4994,
      "ĠBy": 4995,
      "Ġrv": 4996,
      "artment": 4997,
      "Ġà¨ħà¨¸": 4998,
      "Ġà¦ķà¦°à¦¤à§ĩ": 4999,
      "Ġà²ħà²¦": 5000,
      "à¦£à§ĩ": 5001,
      "Ġissues": 5002,
      "Ġpolitical": 5003,
      "à²¥": 5004,
      "Ġà¨Ľ": 5005,
      "ivil": 5006,
      "à°Ĥà°ļ": 5007,
      "Ġrecent": 5008,
      "Ġà´¡": 5009,
      "àª¾àªĵ": 5010,
      "Ġconduct": 5011,
      "à¦Łà§ĭ": 5012,
      "Ġquant": 5013,
      "Ġrad": 5014,
      "Ġvariable": 5015,
      "What": 5016,
      "Ġri": 5017,
      "à¬ŀ": 5018,
      "Ġsens": 5019,
      "à©ĩà¨¸à¨¼": 5020,
      "Ġà¨¸à¨¨": 5021,
      "Ġà¦¦à¦¿à¦¯à¦¼à§ĩ": 5022,
      "Ġàª®àª¹": 5023,
      ".}": 5024,
      "])": 5025,
      "à¤ĥ": 5026,
      "Ġfr": 5027,
      "Ġge": 5028,
      "Ġà´ħà´¤": 5029,
      "à¤¾à¤ģ": 5030,
      "ĠBl": 5031,
      "à²²à³Ĩ": 5032,
      "overed": 5033,
      "à¤¾à¤ļà¥Ģ": 5034,
      "à¨¾à¨īà¨£": 5035,
      "à¤¸à¤¾": 5036,
      "àª¿àª¨": 5037,
      "Ġà®µà¯Ģ": 5038,
      "Ġcannot": 5039,
      "à¬¾à¬°àŃģ": 5040,
      "Ġkind": 5041,
      "Ġeffort": 5042,
      "Ġindustry": 5043,
      "à§¬": 5044,
      "àŃ«": 5045,
      "Ġchem": 5046,
      "à¨¾à¨ħ": 5047,
      "à¨°à¨¾": 5048,
      "à¬¾à¬ı": 5049,
      "àªķàª¾àª°": 5050,
      "ĠDep": 5051,
      "ĠGerm": 5052,
      "Ġà²¸à²®": 5053,
      "Ġimm": 5054,
      "à®£à¯įà®£": 5055,
      "à«ĭàªŁ": 5056,
      "Ġasset": 5057,
      "Ġpublished": 5058,
      "Ġmedical": 5059,
      "imate": 5060,
      "Ġgive": 5061,
      "à«ĭàª°": 5062,
      "aches": 5063,
      "àŃĩà¬ĩ": 5064,
      "Ġevidence": 5065,
      "à¯ģà®ķà®³": 5066,
      "à¤Ĥà¤¤à¥įà¤°": 5067,
      "Ġà¤¬à¥Ģà¤®à¤¾": 5068,
      "rect": 5069,
      "àŃª": 5070,
      "à¤¾à¤Ĥà¤¤": 5071,
      "Ġà¦ľà§Ģ": 5072,
      "Ġassum": 5073,
      "ĠYork": 5074,
      "à´Ļàµįà´Ļàµ¾": 5075,
      "Ġbuy": 5076,
      "Ġà¤µà¥įà¤¯à¤ķà¥įà¤¤": 5077,
      "à§®": 5078,
      "à«ĩàª¨": 5079,
      "Ġà¤ķà¤¹à¤¾": 5080,
      "à¤Ĥà¤ª": 5081,
      "à¨¿à©°": 5082,
      "Ġà¦¸à¦°": 5083,
      "Ġask": 5084,
      "à¦¨à§įà¦¨": 5085,
      "Ġà¦Ĩà¦®à¦¾à¦°": 5086,
      "Ġvariables": 5087,
      "Ġà¦¸à¦Ń": 5088,
      "umb": 5089,
      "à©±à¨Ł": 5090,
      "Ġàªµàª°à«įàª": 5091,
      "Ġà²¬à³Ĩ": 5092,
      "Ġdone": 5093,
      "à¦¬à¦¾à¦°": 5094,
      "Ġapproach": 5095,
      "instance": 5096,
      "oice": 5097,
      "Ġprogress": 5098,
      "Ġà¦Ĺà§įà¦°": 5099,
      "ruction": 5100,
      "Ġregion": 5101,
      "Ġcreated": 5102,
      "br": 5103,
      "gy": 5104,
      "sw": 5105,
      "à¨ł": 5106,
      "Ġcustom": 5107,
      "à´¾à´§": 5108,
      "Ġà¨¨à¨¾": 5109,
      "Ġà¦°à¦¾à¦ľ": 5110,
      "à®¿à®¤à¯įà®¤à¯ģ": 5111,
      "Ġactivities": 5112,
      "Ġà¤¯à¤¾à¤Ĥà¤¨à¥Ģ": 5113,
      "********": 5114,
      "rast": 5115,
      "ĠWith": 5116,
      "à±ĩà°¸": 5117,
      "Ġevents": 5118,
      "Ġrecogn": 5119,
      "Ġforeign": 5120,
      "ĠAfric": 5121,
      "Ġà¤ķà¤¾à¤®": 5122,
      "iment": 5123,
      "aced": 5124,
      "Ġà²®à³Ĥ": 5125,
      "order": 5126,
      "comple": 5127,
      "Ġtrade": 5128,
      "__(": 5129,
      "ĠBritish": 5130,
      "à¨ī": 5131,
      "Ġreason": 5132,
      "à«įàªķ": 5133,
      "Ġà¦ķà¦²": 5134,
      "à®¤à®¾à®ķ": 5135,
      "ports": 5136,
      "à®¤à¯įà®¤à¯Ī": 5137,
      "à°¤à°¿": 5138,
      "ĠThat": 5139,
      "comes": 5140,
      "Ġà¬ªàŃįà¬°à¬¤": 5141,
      "Ġà¤ħà¤ªà¤¨à¥ĩ": 5142,
      "Ġà¦¯à¦¦": 5143,
      "fficient": 5144,
      "ging": 5145,
      "vest": 5146,
      "à¦ħ": 5147,
      "hest": 5148,
      "Ġdict": 5149,
      "à®¾à®ļ": 5150,
      "ĠIS": 5151,
      "ĠCal": 5152,
      "ĠCons": 5153,
      "à¦¬à§ĭà§°": 5154,
      "à¥įà¤¯à¤¾à¤¨": 5155,
      "ĠUN": 5156,
      "à«įàª¯àª¾àªĤ": 5157,
      "rug": 5158,
      "Ġcommand": 5159,
      "à¨Łà©Ģ": 5160,
      "Ġgl": 5161,
      "ĠIm": 5162,
      "Ġà¦¸à§įà¦¥": 5163,
      "à¨²à¨¾": 5164,
      "Ġà¬ķà¬¹": 5165,
      "à®¿à®°à¯ģà®ķà¯įà®ķ": 5166,
      "à«ĭàªĹ": 5167,
      "Ġprevious": 5168,
      "Ġactivity": 5169,
      "kn": 5170,
      "uk": 5171,
      "Ġcit": 5172,
      "Ġà²ı": 5173,
      "à¥ģà¤Ĺ": 5174,
      "Ġà¤µà¤¿à¤ķ": 5175,
      "à¦ªà¦°": 5176,
      "Ġclose": 5177,
      "Ġà¨®à¨¹": 5178,
      "Ġà°ļà±ĩà°¯": 5179,
      "àµĭà´Ĺ": 5180,
      "à©ģà¨°à©Ĥ": 5181,
      "à³Ĭà²³à³įà²³": 5182,
      "ef": 5183,
      "à§°à¦¾": 5184,
      "à¥ĭà¤°": 5185,
      "Ġplants": 5186,
      "ĠInstit": 5187,
      "Ġà¬ķà¬°à¬¿à¬¬": 5188,
      "Ġ...": 5189,
      "àµģà´°": 5190,
      "ĠCont": 5191,
      "ĠMe": 5192,
      "Ġvariance": 5193,
      "à¥ĩà¤ľ": 5194,
      "Ġgenerally": 5195,
      "iver": 5196,
      "icro": 5197,
      "Ġdoc": 5198,
      "à§°à§°": 5199,
      "à²¾à²§": 5200,
      "à§ĭà¦¹": 5201,
      "à«ģàª²": 5202,
      "duc": 5203,
      "ĠJohn": 5204,
      "à°¤à±ĭ": 5205,
      "à°Ĥà°¤à±ĭ": 5206,
      "ters": 5207,
      "Ġmakes": 5208,
      "Ġà¦¬à§ģà¦": 5209,
      "Ġà¦¸à¦ķ": 5210,
      "pping": 5211,
      "à®µà¯ģà®®à¯į": 5212,
      "Ġà²¸à²°": 5213,
      "à©Ģà¨ľ": 5214,
      "Ġwhole": 5215,
      "à§įà¦¯à¦ķ": 5216,
      "Ġreturns": 5217,
      "Ġreduce": 5218,
      "Ġpositive": 5219,
      "host": 5220,
      "Î¼": 5221,
      "atures": 5222,
      "à®¿à®¨à¯įà®¤": 5223,
      "etri": 5224,
      "Ġground": 5225,
      "à¨¿à¨®": 5226,
      "Ġà®ħà®©": 5227,
      "Ġupon": 5228,
      "Ġposition": 5229,
      "When": 5230,
      "met": 5231,
      "à¤¾à¤ĵà¤Ĥ": 5232,
      "à§ĩà¦¸": 5233,
      "Ġled": 5234,
      "à¨°à¨¾à¨Ĥ": 5235,
      "Ġà¦Ĩà¦ķ": 5236,
      "Ġvir": 5237,
      "à²²à³į": 5238,
      "term": 5239,
      "ours": 5240,
      "ĠWar": 5241,
      "rought": 5242,
      "Ġword": 5243,
      "Ġà¤Ĺà¥įà¤°": 5244,
      "hemat": 5245,
      "à¬¾à¬¹à¬¿à¬ģ": 5246,
      "Ġapproxim": 5247,
      ")\\": 5248,
      "Ġwid": 5249,
      "à¦¿à¦Ĺ": 5250,
      "Ġà´¹": 5251,
      "ĠII": 5252,
      "à§įà¦¯à¦¾à¦¨": 5253,
      "Ġà¨¬à¨¹à©ģ": 5254,
      "Ġà¦¹à¦¯à¦¼à§ĩà¦Ľà§ĩ": 5255,
      "à´¿à´ļàµįà´ļàµģ": 5256,
      "à¯ģà®Łà®©à¯į": 5257,
      "à§İà¦¸": 5258,
      "Ġsecurity": 5259,
      "CO": 5260,
      "han": 5261,
      "md": 5262,
      "ĠÂ": 5263,
      "Ġsell": 5264,
      "Ġcity": 5265,
      "Ġwin": 5266,
      "à«Ģàªķ": 5267,
      "à¤£à¥Ģ": 5268,
      "à³įà²¤à³ģ": 5269,
      "Ġappl": 5270,
      "Ġà¬ķà¬°à¬¿": 5271,
      "Ġformul": 5272,
      "Ġknowledge": 5273,
      "Al": 5274,
      "Wh": 5275,
      "af": 5276,
      "minist": 5277,
      "try": 5278,
      "Ġcode": 5279,
      "Ġà®ľ": 5280,
      "à¬¿à¬°àŃĩ": 5281,
      "à°¾à°§": 5282,
      "ĠPre": 5283,
      "Ġà²¹à³ĩà²³": 5284,
      "à°¿à°¨à°¿": 5285,
      "Ġentire": 5286,
      "Ġà¬ıà¬¬à¬Ĥ": 5287,
      "Ġsomething": 5288,
      "à´§": 5289,
      "inde": 5290,
      "à±ĩà°°": 5291,
      "Ġà¤Ĩà¤µ": 5292,
      "Ġà¤Ĩà¤¯": 5293,
      "Ġà®ªà®²": 5294,
      "à¤¾à¤¨à¥Ģ": 5295,
      "like": 5296,
      "medi": 5297,
      "where": 5298,
      "etary": 5299,
      "ĠMar": 5300,
      "Ġàªħàª¨": 5301,
      "Ġsoft": 5302,
      "Ġaccept": 5303,
      "à§ģà¦¦à§įà¦§": 5304,
      "à²¾à²Ł": 5305,
      "Ġà¦®à¦¨": 5306,
      "Ġà¤¨à¤¿à¤µ": 5307,
      "Ġà¨µà¨°": 5308,
      "Ġà¤¦à¤¿à¤¯à¤¾": 5309,
      "Ġà°ķà°¾à°°": 5310,
      "à¦¿à¦ķà§įà¦·": 5311,
      "à§įà§°à§Ģ": 5312,
      "à°¸à±įà°¤": 5313,
      "Ġschools": 5314,
      "ometimes": 5315,
      "à´«": 5316,
      "à¤¾à¤·à¥įà¤Ł": 5317,
      "Ġsuper": 5318,
      "Ġà®ªà®¯": 5319,
      "à®¿à®¯à®¾à®ķ": 5320,
      "à±ĩà°Ł": 5321,
      "igned": 5322,
      "àµģà´¨àµįà´¨à´¤àµį": 5323,
      "Ġstrateg": 5324,
      "Ġphot": 5325,
      "ym": 5326,
      "oman": 5327,
      "à¤Ĺà¥Ģ": 5328,
      "Ġà®ħà®±": 5329,
      "à´µàµģà´Ĥ": 5330,
      "à¨Ĺà¨°": 5331,
      "Ġcolor": 5332,
      "Ġreported": 5333,
      "iddle": 5334,
      "Ġà¨¸à¨°à¨ķà¨¾à¨°": 5335,
      "dict": 5336,
      "à§ĩà§±": 5337,
      "Ġtook": 5338,
      "ils": 5339,
      "à¨¾à¨¡": 5340,
      "à®Łà®¿": 5341,
      "à¦¯à¦¼à¦¾à¦°": 5342,
      "Ġà¦¤à¦¾à¦ģ": 5343,
      "à¯Īà®ļ": 5344,
      "à¯ĩà®ļ": 5345,
      "Ġà®ļà¯Ĭ": 5346,
      "Ġyoung": 5347,
      "à©°à¨¡": 5348,
      "Ġetc": 5349,
      "à¦ŀà§įà¦ļ": 5350,
      "Ġphysical": 5351,
      "let": 5352,
      "àª¤àª¾àªĤ": 5353,
      "Ġà¦¤à¦¾à§°": 5354,
      "Ġsepar": 5355,
      "Ġà¤¬à¤¾à¤¦": 5356,
      "à´¤àµįà´¤àµĨ": 5357,
      "à«Ģàªľ": 5358,
      "ĠChina": 5359,
      "Ġmedic": 5360,
      "Ġresources": 5361,
      "à¤§à¥Ģ": 5362,
      "à«ĭàª¯": 5363,
      "Ġregard": 5364,
      "à´¿à´²àµģà´Ĥ": 5365,
      "Ġcoll": 5366,
      "Ġpayment": 5367,
      "à´ļ": 5368,
      "Ġà¤ĳ": 5369,
      "arily": 5370,
      "Ġà´ĵ": 5371,
      "à³ģà²°": 5372,
      "Ġprote": 5373,
      "Ġwhy": 5374,
      "ĠNe": 5375,
      "à¤¦à¥ĩà¤¶": 5376,
      "action": 5377,
      "Ġàª¨àª¹": 5378,
      "aves": 5379,
      "à¤¾à¤ļà¤¾": 5380,
      "Ġequal": 5381,
      "à°¦à±įà°¦": 5382,
      "hib": 5383,
      "jar": 5384,
      "Ġmort": 5385,
      "àµįà´ķ": 5386,
      "Ġdefined": 5387,
      "Ġquality": 5388,
      "Ġexperience": 5389,
      "var": 5390,
      "ery": 5391,
      "Ġpy": 5392,
      "à§įà¦¶": 5393,
      "else": 5394,
      "à´¿à´®": 5395,
      "Ġbegan": 5396,
      "Ġà¦Ĩà§°": 5397,
      "Ġà¦Ĩà¦Ľà¦¿à¦²": 5398,
      "Ġàªªàª¡": 5399,
      "Ġsex": 5400,
      "arget": 5401,
      "à¥Įà¤°": 5402,
      "Ġpoints": 5403,
      "Ġrev": 5404,
      "Ġheld": 5405,
      "Ġà¤ľà¤¾": 5406,
      "Ġàª®àª³": 5407,
      "Ġà¤¯à¥ĩ": 5408,
      "Ġcontent": 5409,
      "à¯ĭà®¤à¯ģ": 5410,
      "pril": 5411,
      "Ġload": 5412,
      "Ġhistor": 5413,
      "Request": 5414,
      "Ġlargest": 5415,
      "Ġà°®à°°à°¿à°¯à±ģ": 5416,
      "ĠInternational": 5417,
      "à¬·àŃįà¬Ł": 5418,
      "Ġachie": 5419,
      "rab": 5420,
      "Ġà¦¸à¦Ļà§įà¦Ĺ": 5421,
      "ĠHind": 5422,
      "à²¤à³įà²¯": 5423,
      "Ġtrue": 5424,
      "Ġfactors": 5425,
      "Ġerror": 5426,
      "à³ģà²µà³ģà²¦à³ģ": 5427,
      "Ġbehavior": 5428,
      "à§įà¦Ľà§ĩ": 5429,
      "urs": 5430,
      "à¤¤à¥ĭ": 5431,
      "Ġà¦ķà¦¾à¦®": 5432,
      "à¬¾à¬§": 5433,
      "Ġstri": 5434,
      "Ġalmost": 5435,
      "Ġà°ħà°µ": 5436,
      "aring": 5437,
      "à¯įà®°": 5438,
      "roll": 5439,
      "Ġdate": 5440,
      "Ġweek": 5441,
      "Ġgroups": 5442,
      "mat": 5443,
      "Ġtool": 5444,
      "oding": 5445,
      "Ġàª¤à«ĭ": 5446,
      "Ġà®¨à®¿à®±": 5447,
      "à°¾à°¨à±įà°¨à°¿": 5448,
      "à´¦àµįà´": 5449,
      "Ġmonths": 5450,
      "Ġà®µà¯Ĩà®³": 5451,
      "wise": 5452,
      "Ġut": 5453,
      "org": 5454,
      "ales": 5455,
      "Ġden": 5456,
      "Ġlay": 5457,
      "Ġlive": 5458,
      "Ġlib": 5459,
      "à¥Ĥà¤²": 5460,
      "Ġà°ķà±Ĥà°¡": 5461,
      "à§ĥà¦·à§įà¦Ł": 5462,
      "Ġfamil": 5463,
      "Ġissue": 5464,
      "Ġgreater": 5465,
      "Ch": 5466,
      "à®ĩ": 5467,
      "à³įà²£": 5468,
      "à³ģà²ķ": 5469,
      "à±ģà°ª": 5470,
      "Ġwhose": 5471,
      "Ġà¨ªà©°à¨ľ": 5472,
      "à¤¯à¥ĩ": 5473,
      "à©±à¨§": 5474,
      "Ġsym": 5475,
      "Ġà²Ĩà²Ĺ": 5476,
      "à¦§à¦¾à¦¨": 5477,
      "Ġincreasing": 5478,
      "ott": 5479,
      "Ġà¦¸à¦¾à¦®": 5480,
      "àª¿àª°": 5481,
      "Ġà¤¤à¤ķ": 5482,
      "Ġà¦ļà§°": 5483,
      "Ġportfol": 5484,
      "apt": 5485,
      "Ġways": 5486,
      "Ġbar": 5487,
      "ĠKing": 5488,
      "Ġà²ľà²¨": 5489,
      "à±ģà°¨à±įà°¨à°¾à°°à±ģ": 5490,
      "Ġpotential": 5491,
      "go": 5492,
      "uous": 5493,
      "esp": 5494,
      "Ġdest": 5495,
      "Ġreally": 5496,
      "à§ģà¦ª": 5497,
      "ĠNo": 5498,
      "à¤¡à¥ĩ": 5499,
      "Ġjob": 5500,
      "mselves": 5501,
      "Ġdetail": 5502,
      "Ġpopular": 5503,
      "Ġà¤Ńà¤¾à¤°à¤¤": 5504,
      "Ġthus": 5505,
      "à²°à³Ĥ": 5506,
      "à¥ģà¤¤": 5507,
      "plit": 5508,
      "ocks": 5509,
      "Ġà¨ľà¨¿à¨¸": 5510,
      "Ġdefin": 5511,
      "CC": 5512,
      "ih": 5513,
      "à²ĥ": 5514,
      "Ġthemselves": 5515,
      "Ġà´Ī": 5516,
      "à¬¾à¬¶": 5517,
      "à¬¿à¬ı": 5518,
      "à¤¦à¥įà¤§": 5519,
      "Ġà®®à®©": 5520,
      "à±Ģà°µ": 5521,
      "à°¿à°Ĥà°Ĺ": 5522,
      "Ġà¨Ĺà¨Ī": 5523,
      "à¬¾à¬¨àŃįà¬¤": 5524,
      "à¬°àŃįà¬·": 5525,
      "Ġeconomy": 5526,
      "à³įà²Ĺà³Ĩ": 5527,
      "config": 5528,
      "anuary": 5529,
      "('": 5530,
      "How": 5531,
      "Ġtaking": 5532,
      "amed": 5533,
      "à¦®à¦¨": 5534,
      "à§įà¦¯à¦¾à¦²": 5535,
      "ournal": 5536,
      "à¤Ĺà¤°": 5537,
      "à±įà°°à°®": 5538,
      "à®®à®¾à®©": 5539,
      "Ġfeel": 5540,
      "OR": 5541,
      "ban": 5542,
      "method": 5543,
      "Ġess": 5544,
      "Ġliving": 5545,
      "à¦°à§įà¦¤": 5546,
      "Ġà¦¬à¦Ľ": 5547,
      "irm": 5548,
      "à²¤à²¿": 5549,
      "à®ķà¯į": 5550,
      "Ġà¤ĩà¤¨": 5551,
      "Ġneeded": 5552,
      "Ġà¬¤à¬¾à¬ĻàŃįà¬ķ": 5553,
      "Ġelse": 5554,
      "ae": 5555,
      "Ġà¤ķà¥ģà¤": 5556,
      "à¤®à¤§à¥įà¤¯à¥ĩ": 5557,
      "à¦¾à§°à¦¤": 5558,
      "àŃģà¬®": 5559,
      "à¤¾à¤Ĥà¤¨à¤¾": 5560,
      "ĠResearch": 5561,
      "oard": 5562,
      "esh": 5563,
      "àŃįà¬Ń": 5564,
      "à²µà²¾à²¦": 5565,
      "Ġà®®à¯Ĥ": 5566,
      "Ġà¤²à¥ĭà¤Ĺ": 5567,
      "ief": 5568,
      "àªĤàª§": 5569,
      "ney": 5570,
      "Ġwritten": 5571,
      "point": 5572,
      "uple": 5573,
      "het": 5574,
      "à°¿à°Ł": 5575,
      "Ġà®®à¯ģà®¤": 5576,
      "àµĭà´³": 5577,
      "Ġà´ķàµĬ": 5578,
      "à¨¾à¨¨à©Ĥà©°": 5579,
      "à¥ĩà¤¨": 5580,
      "ĠMarch": 5581,
      "à®²à¯Ī": 5582,
      "Ġagricult": 5583,
      "à³ģà²¦à³ģ": 5584,
      "Ġprotect": 5585,
      "Ġadditional": 5586,
      "Ġstructure": 5587,
      "based": 5588,
      "ml": 5589,
      "Ġ<": 5590,
      "à«¦": 5591,
      "Ġfarm": 5592,
      "ried": 5593,
      "ĠDr": 5594,
      "à¤ªà¥įà¤°": 5595,
      "Ġà¦ħà¦°": 5596,
      "Ġà´¸à´Ĥà´": 5597,
      "Ġà¦īà¦¤à§įà¦¤": 5598,
      "Ġà¤ļà¤¾à¤¹": 5599,
      "Ġaffect": 5600,
      "à«Ģàªµ": 5601,
      "Ġà¤®à¤¿à¤": 5602,
      "ĠPres": 5603,
      "Ġà¤¦à¤°": 5604,
      "à¯ĩà®©à¯į": 5605,
      "Ġà¨ªà©ģ": 5606,
      "à±ĩà°µ": 5607,
      "Ġà°ħà°Ĥà°¦": 5608,
      "Ġscience": 5609,
      "à°¡à°Ĥ": 5610,
      "à±įà°¸à±į": 5611,
      "Ġà¤īà¤¨à¥įà¤¹": 5612,
      "On": 5613,
      "à¬°à¬¿": 5614,
      "à²¿à²Ł": 5615,
      "ĠApp": 5616,
      "ĠCar": 5617,
      "à©ĭà¨°": 5618,
      "àŃĢàŃŁ": 5619,
      "Ġcompet": 5620,
      "à²¿à²¸à²¿": 5621,
      "Ġeffic": 5622,
      "Ġà®ļà¯Ĩà®¯à¯įà®¯": 5623,
      "Ġlinear": 5624,
      "à¦¾à¦ī": 5625,
      "Ġdam": 5626,
      "à®¾à®ķà¯įà®ķ": 5627,
      "chan": 5628,
      "Ġdeg": 5629,
      "à±ĭà°µ": 5630,
      "Ġà¤¦à¥ĩà¤ĸ": 5631,
      "à¦¦à¦¿à¦¨": 5632,
      "Ġà¤ķà¤°à¤¤à¥ĩ": 5633,
      "Ġàª°à«Ĥ": 5634,
      "Ġparts": 5635,
      "Ġàª¹àª¤à«ĭ": 5636,
      "Ġprices": 5637,
      "à«Ģàª®": 5638,
      "àŃįà¬¸": 5639,
      "Ġà¤¸à¤¹": 5640,
      "à´¾à´ķ": 5641,
      "à´¾à´ľ": 5642,
      "Ġà¤¨à¤¿à¤": 5643,
      "Ġuses": 5644,
      "à¯ģà®ķà¯į": 5645,
      "à²Łà³į": 5646,
      "Ġdirectly": 5647,
      "Ġpractice": 5648,
      "Ġproperty": 5649,
      "Ġà¨¬à¨¹à©ģà¨¤": 5650,
      "time": 5651,
      "Ġsense": 5652,
      "Ġpaid": 5653,
      "route": 5654,
      "Ġey": 5655,
      "ĠCD": 5656,
      "à®©à®¾à®²à¯į": 5657,
      "ached": 5658,
      "à«Ģàª¸": 5659,
      "à¨Łà¨°": 5660,
      "Ġnegative": 5661,
      ")^{": 5662,
      "Ġinput": 5663,
      "à©ĭà¨²": 5664,
      "Ġà¦¨à¦¿à¦¯à¦¼": 5665,
      "izing": 5666,
      "Ġà´µàµĢ": 5667,
      "à¤Łà¥Ģ": 5668,
      "à§Ģà¦¯à¦¼à§ĩ": 5669,
      "flask": 5670,
      "à¯Īà®ªà¯į": 5671,
      "Ġign": 5672,
      "Ġàª²à«ĭàªķ": 5673,
      "à°¿à°Ĥà°ļà°¾à°°à±ģ": 5674,
      "Ġrefer": 5675,
      "Ġpurch": 5676,
      "Ġà¨°à¨¹à©ĩ": 5677,
      "Ġsector": 5678,
      "orrow": 5679,
      "Ġmut": 5680,
      "Ġà¦ķà¦¾à¦ľ": 5681,
      "Ġà¨¸à¨¾à¨¹": 5682,
      "à®ķà¯ģà®¤": 5683,
      "àª¿àª¸": 5684,
      "àŃĭà¬Ł": 5685,
      "Ġà¨°à¨¿à¨¹à¨¾": 5686,
      "à¤ķà¥įà¤·à¤¾": 5687,
      "Ġà°īà°¨à±įà°¨": 5688,
      "Ġengine": 5689,
      "]:": 5690,
      "Ġforce": 5691,
      "à¬¿à¬®": 5692,
      "istory": 5693,
      "àªµà«ģàªĤ": 5694,
      "Ġà¨ªà¨¹": 5695,
      "à®®à®¿à®´": 5696,
      "àµįà´¯à´®": 5697,
      "Ġerr": 5698,
      "ges": 5699,
      "lam": 5700,
      "à¬ĻàŃįà¬Ĺ": 5701,
      "ĠAfter": 5702,
      "Ġà¦¸à¦¾à¦¹": 5703,
      "osis": 5704,
      "Ġàªªàª¹": 5705,
      "à¤¬à¤Ĥà¤§": 5706,
      "à±ģà°ķà±ģ": 5707,
      "Ġavoid": 5708,
      "à®¿à®²à¯įà®²à¯Ī": 5709,
      "To": 5710,
      "loc": 5711,
      "Ã©": 5712,
      "aters": 5713,
      "Ġcirc": 5714,
      "à°¾à°°à°Ĥ": 5715,
      "Ġà´ªàµįà´°à´¤": 5716,
      "Ġpassed": 5717,
      "à¤¢à¤¼": 5718,
      "({\"": 5719,
      "down": 5720,
      "sub": 5721,
      "tain": 5722,
      "Ġpaper": 5723,
      "à¯įà®¨": 5724,
      "à§ĩà¦Ĺ": 5725,
      "Ġlink": 5726,
      "à¯ģà®£": 5727,
      "Ġà¦¨à¦¿à§°": 5728,
      "Ġà®ªà®°": 5729,
      "Ġà¤¤à¥ĩ": 5730,
      "à©±à¨¡": 5731,
      "Ġà¬¬àŃĭà¬²": 5732,
      "Ġàªķàª°àªµàª¾àª®àª¾àªĤ": 5733,
      "Ġà¬Ĩà¬¸": 5734,
      "Ġcover": 5735,
      "Ġadded": 5736,
      "textstyle": 5737,
      "ĠAmerica": 5738,
      "Ġà¬¦àŃĩà¬ĸ": 5739,
      "Ġà¤µà¤°à¥įà¤·": 5740,
      "à¬¯": 5741,
      "Ġmass": 5742,
      "à¤ķà¥ĭ": 5743,
      "Ġ(\"": 5744,
      "Ġà¦¦à¦²": 5745,
      "Ġà²®à³ĩ": 5746,
      "à¤§à¤¾à¤°": 5747,
      "à´²àµį": 5748,
      "Ġàªķàª°à«ĩ": 5749,
      "à´¾à´¨àµį": 5750,
      "¸à¤¾à¤łà¥Ģ": 5751,
      "Ġfig": 5752,
      "Ġfish": 5753,
      "uration": 5754,
      "Ġà¤¸à¥ģ": 5755,
      "Ġaltern": 5756,
      "Ġà¤Ĩà¤®": 5757,
      "Ġassets": 5758,
      "Ġactually": 5759,
      "à¤¾à¤ļà¥ĩ": 5760,
      "Ġservice": 5761,
      "Ġbasic": 5762,
      "cd": 5763,
      "isions": 5764,
      "à±ģà°¡": 5765,
      "à§Ģà¦ķà§įà¦·": 5766,
      "Ġà¨¦à©ģ": 5767,
      "rial": 5768,
      "Ġà¦ħà¦¤": 5769,
      "Ġà°ķà°²": 5770,
      "rown": 5771,
      "à¯įà®ļà®¿": 5772,
      "à´¿à´¨àµĨ": 5773,
      "Ġà¬²àŃĭà¬ķ": 5774,
      "Ġà¦¤à§ĭà¦®": 5775,
      "Ġimprove": 5776,
      "Ø§": 5777,
      "hel": 5778,
      "Ġce": 5779,
      "Ġbase": 5780,
      "illed": 5781,
      "Ġà²ķà³Ĭ": 5782,
      "Ġclos": 5783,
      "à¦¾à¦¤à§įà¦°": 5784,
      "âĪĳ": 5785,
      "Ļàµįà´Ļ": 5786,
      "Ġoriginal": 5787,
      "àµģà´£àµįà´Łàµį": 5788,
      "index": 5789,
      "year": 5790,
      "Ġà¦Ľà¦¿à¦²": 5791,
      "ara": 5792,
      "elt": 5793,
      "à°¾à°£": 5794,
      "Ġexc": 5795,
      "à¦¾à¦°à¦¾": 5796,
      "ĠGe": 5797,
      "Ġà²µà³įà²¯": 5798,
      "ĠUnion": 5799,
      "Ġbuilt": 5800,
      "Ġà¤¥à¥Ģ": 5801,
      "Ġprograms": 5802,
      "ĠCenter": 5803,
      "Ġinvolved": 5804,
      "Ġà®®à¯ģà®©": 5805,
      "ĠAustral": 5806,
      "Ġà®ħà®¤à®¿à®ķ": 5807,
      "Ġannual": 5808,
      "Ġnetwork": 5809,
      "len": 5810,
      "ĠCor": 5811,
      "Ġchall": 5812,
      "Ġà¤ªà¥įà¤°à¤ķà¤¾à¤°": 5813,
      "à©Ģà¨µ": 5814,
      "Ġà¤¤à¥įà¤¯à¤¾à¤ļ": 5815,
      "Ġà°²à±ĭ": 5816,
      "Ġquestion": 5817,
      "Ġrelationship": 5818,
      "AR": 5819,
      "Call": 5820,
      "lex": 5821,
      "ĠApril": 5822,
      "à±ģà°®": 5823,
      "Ġà¦Ĩà¦²": 5824,
      "Ġyet": 5825,
      "à²¤à³įà²°": 5826,
      "à¥įà¤¯à¤¾à¤ª": 5827,
      "à§ĩà¦·à§įà¦Ł": 5828,
      "Ġlegal": 5829,
      "Ġperformance": 5830,
      "Ġà®ħà®°à®ļ": 5831,
      "Ġresearchers": 5832,
      "TT": 5833,
      "¨à§įà¦¤": 5834,
      "à§°à¦£": 5835,
      "Ġgas": 5836,
      "Ġund": 5837,
      "abit": 5838,
      "à°¨à±ĩ": 5839,
      "ptember": 5840,
      "à§ģà¦£": 5841,
      "à°®à±įà°®": 5842,
      "Ġà¬ħà¬§": 5843,
      "à³Ĩà²¯à²²à³įà²²à²¿": 5844,
      "Ġreceived": 5845,
      "Ġopportun": 5846,
      ".\"\"\"": 5847,
      "PV": 5848,
      "error": 5849,
      "std": 5850,
      "Ġrecomm": 5851,
      "Ġà¤®à¤¨": 5852,
      "à¨ķà¨°": 5853,
      "à«ĩàª¡": 5854,
      "Ġàªľà«ĭ": 5855,
      "Ġà¤ķà¤°à¤¨à¤¾": 5856,
      "Ġmarkets": 5857,
      "Ġfactor": 5858,
      "ĠJewish": 5859,
      "Ġcheck": 5860,
      "à©ĩà¨Ĺà¨¾": 5861,
      "Ġà°ķà±Ĥà°¡à°¾": 5862,
      "col": 5863,
      "ches": 5864,
      "âī": 5865,
      "Ġsample": 5866,
      "à°¿à°·": 5867,
      "Ġà¦®à¦¨à§ĩ": 5868,
      "à²¤à³Ĩ": 5869,
      "Ġà¦¦à§įà¦¬": 5870,
      "Ġà¦¬à¦¿à¦ľ": 5871,
      "Ġà¨ļà¨¾à¨¹": 5872,
      "ternal": 5873,
      "Ġaction": 5874,
      "Ġcreat": 5875,
      "Ġà²Ł": 5876,
      "à²¿à²³": 5877,
      "à¤¤à¤¿": 5878,
      "Ġrule": 5879,
      "àª¤àª¿": 5880,
      "ender": 5881,
      "ĠOther": 5882,
      "Ġcompared": 5883,
      "à²¬à³įà²¬": 5884,
      "Ġproduce": 5885,
      "Ġà²¹à³Ĩà²ļà³įà²ļ": 5886,
      "àªĽà«Ģ": 5887,
      "Ġisinstance": 5888,
      "à¤ªà¥Ģ": 5889,
      "Ġseason": 5890,
      "à¥įà¤¯à¤¾à¤µ": 5891,
      "exception": 5892,
      "Ġà¨²à©Ī": 5893,
      "Ġàª¬àª¨": 5894,
      "à²ªà³įà²ª": 5895,
      "Ġcurren": 5896,
      "Ġbal": 5897,
      "Ġà²«": 5898,
      "Ġtown": 5899,
      "à¦¿à¦¯": 5900,
      "oun": 5901,
      "sequ": 5902,
      "Ġà¦¬à¦²à§ĩ": 5903,
      "Ġà¤¹à¤®": 5904,
      "Ġà®®à¯Ģ": 5905,
      "ey": 5906,
      "pared": 5907,
      "rary": 5908,
      "Ġ**": 5909,
      "ened": 5910,
      "Ġcard": 5911,
      "ley": 5912,
      "à²¾à²¹": 5913,
      "vere": 5914,
      "à§ĭà¦·": 5915,
      "estic": 5916,
      "Ġà¤ªà¤¾à¤°": 5917,
      "Ġsure": 5918,
      "Ġability": 5919,
      "Ġearli": 5920,
      "Ġà¦¤à§ĩà¦ĵà¦ģà§°": 5921,
      "Ġcosts": 5922,
      "Ġbasis": 5923,
      "Ġtw": 5924,
      "Ġsun": 5925,
      "isation": 5926,
      "Ġbrain": 5927,
      "àŃįà¬ľ": 5928,
      "Ġà¤®à¤¾à¤¨": 5929,
      "Ġlearning": 5930,
      "Ġuser": 5931,
      "à²¾à²°à²¿": 5932,
      "à¦£à§įà¦¡": 5933,
      "Ġlonger": 5934,
      "Ġshows": 5935,
      "Ġcapt": 5936,
      "Ġprimary": 5937,
      "Ġdrug": 5938,
      "Ġà´ı": 5939,
      "à¯ģà®ļ": 5940,
      "à¦¨à¦¾à¦°": 5941,
      "Ġdecre": 5942,
      "Ġà¨¸à¨¿à©±à¨": 5943,
      "ĠEduc": 5944,
      "à¯Īà®¨à¯įà®¤": 5945,
      "Ġà´¸àµįà´µ": 5946,
      "Ġoutside": 5947,
      "Ġiterable": 5948,
      "ĠJews": 5949,
      "Ġanimals": 5950,
      "mathbf": 5951,
      "json": 5952,
      "à¥ĩà¤°": 5953,
      "imal": 5954,
      "ĠCo": 5955,
      "à©±à¨¤": 5956,
      "Ġà¨ľà¨¾": 5957,
      "Ġflag": 5958,
      "Ġindependent": 5959,
      "list": 5960,
      "Ġà¤ĭ": 5961,
      "à§ĩà¦ļ": 5962,
      "vey": 5963,
      "à¦¯à¦¼à§ĭ": 5964,
      "Ġà®ķà¯ĩ": 5965,
      "Ġcli": 5966,
      "à¦¥à¦®": 5967,
      "Ġà°²à±ĩà°¦": 5968,
      "ĠEuropean": 5969,
      "Ġtemperature": 5970,
      "inated": 5971,
      "Ġwild": 5972,
      "à±įà°Ĺ": 5973,
      "à´¾à´³": 5974,
      "ĠMore": 5975,
      "Ġà¨¦à©ĭ": 5976,
      "Ġheart": 5977,
      "Ġ{\"": 5978,
      "ervation": 5979,
      "Ġà¬Ĩà¬": 5980,
      "Ġsimple": 5981,
      "à¯ģà®ķà®¿à®±à®¤à¯ģ": 5982,
      "sych": 5983,
      "àŃĩà¬³àŃĩ": 5984,
      "ores": 5985,
      "à³įà²¡": 5986,
      "Ġhom": 5987,
      "Ġlot": 5988,
      "à§ģà¦¸": 5989,
      "ided": 5990,
      "rap": 5991,
      "à¥įà¤¯à¤®": 5992,
      "àªµà«ĩ": 5993,
      "Ġà¤¬à¤¹": 5994,
      "à³ĩà²°": 5995,
      "Ġà²¸à³ģ": 5996,
      "Ġà°ħà°¯": 5997,
      "à¯Īà®¯à¯Ī": 5998,
      "ression": 5999,
      "à¤¥à¤¾": 6000,
      "Ġà®ķà¯Ĥà®±": 6001,
      "bre": 6002,
      "igation": 6003,
      "à±ģà°¦": 6004,
      "Ġanc": 6005,
      "acks": 6006,
      "Ġà®ĩà®Ł": 6007,
      "Ġparty": 6008,
      "à¤¾à¤µà¤°": 6009,
      "ĠReg": 6010,
      "à¯Īà®ķà¯į": 6011,
      "changed": 6012,
      "ĠJuly": 6013,
      "ike": 6014,
      "ser": 6015,
      "à¤¾à¤Ń": 6016,
      "à¦¿à¦Ń": 6017,
      "cember": 6018,
      "ĠShe": 6019,
      "Ġà¤µà¥ĩ": 6020,
      "Ġà°ªà±ĭ": 6021,
      "aching": 6022,
      "à´±à´¿à´¯": 6023,
      "Ġàª¤à«ĩàª¨àª¾": 6024,
      "Ġà¤®à¤¿à¤³": 6025,
      "àŃ¯": 6026,
      "Ġà®ĵ": 6027,
      "Ġfixed": 6028,
      "à¥įà¤¡": 6029,
      "clus": 6030,
      "Ġà¤ľà¤¨": 6031,
      "Ġà¤°à¤¹": 6032,
      "à¥ĩà¤·": 6033,
      "Ġcommit": 6034,
      "Ġà®İà®©à¯įà®©": 6035,
      "Ġdecision": 6036,
      "ambda": 6037,
      "Ġratio": 6038,
      "à±Į": 6039,
      "Ġcy": 6040,
      "Ġlength": 6041,
      "Ġstory": 6042,
      "Ġà¦¬à¦¸": 6043,
      "à¨¸à¨¤": 6044,
      "Ġà¦¨à¦¹": 6045,
      "ĠEm": 6046,
      "Ġà¤ľà¤¬": 6047,
      "à³įà²°à³Ģ": 6048,
      "Ġteac": 6049,
      "à²¿à²Ĥà²Ĺ": 6050,
      "Ġfinal": 6051,
      "à´¿à´ļàµįà´ļàµį": 6052,
      "Ġà°ļà±ĩà°¸à±įà°¤": 6053,
      "Ġindividuals": 6054,
      "Ġmusic": 6055,
      "Ġportfolio": 6056,
      "co": 6057,
      "uel": 6058,
      "Ġà®ļà®¿à®±": 6059,
      "àŃģà¬¤": 6060,
      "ĠJune": 6061,
      "Ġàª¨à«ĩ": 6062,
      "à¤£à¥įà¤¯à¤¾à¤ļ": 6063,
      "à¨¿à©°à¨Ĺ": 6064,
      "Ġarticle": 6065,
      "ĠWhile": 6066,
      "Ġà¨¤à©ģà¨¹": 6067,
      "just": 6068,
      "atus": 6069,
      "à´¿à´±": 6070,
      "Ġà¨¦à©Ģà¨Ĩà¨Ĥ": 6071,
      "àª¤à«įàª°": 6072,
      "Ġàª¸àª°": 6073,
      "Ġà°®à±Ĭ": 6074,
      "à¤¿à¤¤à¥Ģ": 6075,
      "à´ķà´³": 6076,
      "Ġemerg": 6077,
      "Ġà¦¥à¦ķà¦¾": 6078,
      "à°¿à°Ĥà°ļà°¿": 6079,
      "Ġsupply": 6080,
      "Ġà´¨à´¿à´¨àµįà´¨": 6081,
      "Ġcitiz": 6082,
      "Ġà¨ªà©°à¨ľà¨¾à¨¬": 6083,
      "cle": 6084,
      "ners": 6085,
      "Ġtell": 6086,
      "Ġpack": 6087,
      "à²¿à²¡": 6088,
      "à©Ģà¨¤": 6089,
      "Ġdemon": 6090,
      "Ġà¨¹à¨°": 6091,
      "ĠOct": 6092,
      "Ġà®İà®¤": 6093,
      "Ġmechan": 6094,
      "Ġpoor": 6095,
      "Ġdepos": 6096,
      "ĠMuslim": 6097,
      "Ġchemical": 6098,
      "Ġà¦¸à¦Ļà§įà¦Ĺà§ĩ": 6099,
      "dd": 6100,
      "ply": 6101,
      "su": 6102,
      "tion": 6103,
      "Ġtakes": 6104,
      "Ġdou": 6105,
      "uls": 6106,
      "Ġonline": 6107,
      "à¨¿à¨ĸ": 6108,
      "Ġà®¤à®©": 6109,
      "Ġimage": 6110,
      "à¤¾à¤¤à¥Ģà¤²": 6111,
      "Ġmanu": 6112,
      "Ġà´¸à´®": 6113,
      "Ġà¬¯àŃĩ": 6114,
      "Ġàª¹àª¤à«ģàªĤ": 6115,
      "Ġincludes": 6116,
      "\"])": 6117,
      "ĠEarth": 6118,
      "come": 6119,
      "Ġcro": 6120,
      "ĠĠĠĠĠĠĠĠĠĠĠĠĠĠĠĠĠĠĠĠĠĠĠĠĠĠĠĠ": 6121,
      "Ġansw": 6122,
      "rompt": 6123,
      "Ġshown": 6124,
      "apter": 6125,
      "à²¿à²ķà³Ĩ": 6126,
      "Ġrelig": 6127,
      "Ġremov": 6128,
      "Ġincluded": 6129,
      "à¨¾à¨¸à¨¼": 6130,
      "Ġà¦®à¦¾à¦¨à§ģà¦¹": 6131,
      "Ġcomputer": 6132,
      "Ġà¦¬à¦¿à¦·à¦¯à¦¼": 6133,
      "Ġassociated": 6134,
      "max": 6135,
      "Ġir": 6136,
      "itary": 6137,
      "àª¾àª¬": 6138,
      "Ġthird": 6139,
      "à¦°à§ĩà¦°": 6140,
      "ĠMod": 6141,
      "à¨¨à¨¾à¨Ĥ": 6142,
      "à¥Īà¤¸à¥ĩ": 6143,
      "Ġselect": 6144,
      "Ġàª¸à«įàªµ": 6145,
      "ĠJanuary": 6146,
      "Ġà°®à±Ģ": 6147,
      "à¬£àŃįà¬¡": 6148,
      "Ġassess": 6149,
      "ĠSeptember": 6150,
      "Ġgrowing": 6151,
      "Ġidea": 6152,
      "-\\": 6153,
      "oes": 6154,
      "Ġsources": 6155,
      "à¦¿à¦¡": 6156,
      "à¥įà¤¯à¥Ĥ": 6157,
      "Ġconver": 6158,
      "Ġà¤¦à¥ĩà¤¶": 6159,
      "à°²à±įà°²": 6160,
      "Ġà¤¯à¥ĩà¤": 6161,
      "ensive": 6162,
      "àª¸à«įàª¤": 6163,
      "à¯Ĥà®°": 6164,
      "à²¬à²¹": 6165,
      "à²¿à²¦à³įà²¦à³ģ": 6166,
      "Ġthroughout": 6167,
      "Ġà²Ĵà²Ĥà²¦à³ģ": 6168,
      "Ġà¤ķà¥įà¤·à¥ĩà¤¤": 6169,
      "ED": 6170,
      "bon": 6171,
      "ged": 6172,
      "ray": 6173,
      "àŃįà¬ł": 6174,
      "ription": 6175,
      "actions": 6176,
      "Ġbonds": 6177,
      "®à¥ģà¤³à¥ĩ": 6178,
      "oted": 6179,
      "Ġste": 6180,
      "istan": 6181,
      "clud": 6182,
      "Ġà¬¸à¬°": 6183,
      "Ġà¤°à¤¹à¥ĩ": 6184,
      "Ġà¦ķà¦°à§ĩà¦¨": 6185,
      "Ġàª°àª¾àªľ": 6186,
      "ĠSee": 6187,
      "Ġreflect": 6188,
      "response": 6189,
      "aff": 6190,
      "à¥Ģà¤°": 6191,
      "abilities": 6192,
      "Ġitems": 6193,
      "Ġdeal": 6194,
      "Ġdevi": 6195,
      "Ġà¤Ĩà¤ľ": 6196,
      "Ġà¤ħà¤µ": 6197,
      "Ġà¤¹à¥ĭà¤¨à¥ĩ": 6198,
      "Ġagree": 6199,
      "Ġconsist": 6200,
      "à¦¿à¦ļà¦¾à¦ª": 6201,
      "Ġà¦®à¦§à§įà¦¯à§ĩ": 6202,
      "ees": 6203,
      "Ġtarget": 6204,
      "à¬¢": 6205,
      "Ġsound": 6206,
      "Ġlate": 6207,
      "Ġgame": 6208,
      "Ġà¦¬à¦¾à¦¡à¦¼": 6209,
      "à°Ĥà°ª": 6210,
      "Ġà¦ıà¦¸": 6211,
      "Ġà®ªà®¤": 6212,
      "ights": 6213,
      "à¦¿à¦¨à§įà¦¨": 6214,
      "ips": 6215,
      "Ġspread": 6216,
      "à°¿à°²à±ĭ": 6217,
      "Ġlanguages": 6218,
      "Ġnecessary": 6219,
      "ĠInstitute": 6220,
      "ON": 6221,
      "Ġà¤®à¥ĩ": 6222,
      "Ġà¤ķà¥ĩà¤²à¥ĩ": 6223,
      "à¤°à¥įà¤ľ": 6224,
      "apan": 6225,
      "à®ķà®°": 6226,
      "à´¤àµįà´¤à´¿àµ½": 6227,
      "à¨Ĺà©ĩ": 6228,
      "Ġintroduced": 6229,
      "Ġà¤ķà¤¿à¤¸à¥Ģ": 6230,
      "Ġà²¹à²¾à²Ĺà³Ĥ": 6231,
      "à¥įà¤ŀ": 6232,
      "à²¿à²·": 6233,
      "à²Ĥà²Ĺ": 6234,
      "Ġà¦ıà¦°": 6235,
      "à©Īà¨¨": 6236,
      "Ġà¨ľà¨¦": 6237,
      "à©±à¨¥": 6238,
      "Ġà°µà°¾à°°": 6239,
      "à¤¿à¤¯à¥ĩ": 6240,
      "àª¿àªŁ": 6241,
      "Ġà¤īà¤¦": 6242,
      "à¦¨à§įà¦®": 6243,
      "Ġtests": 6244,
      "Ġà¦ªà§įà§°à¦¤": 6245,
      "Ġpatients": 6246,
      "Cl": 6247,
      "ĠàªĿ": 6248,
      "enced": 6249,
      "Ġpage": 6250,
      "à°¿à°ļ": 6251,
      "adem": 6252,
      "ĠPer": 6253,
      "àµĨà´Ļàµįà´ķ": 6254,
      "ĠUPI": 6255,
      "àŃģà¬¦": 6256,
      "Ġcontain": 6257,
      "à§ĩà¦²à§ĩ": 6258,
      "à±ģà°Ĥà°¦": 6259,
      "Ġloan": 6260,
      "Ġparticularly": 6261,
      "ening": 6262,
      "Ġcamp": 6263,
      "à®¤à®¿": 6264,
      "Ġà¦®à¦¨à§įà¦¤": 6265,
      "à¦¸à§įà¦ķ": 6266,
      "à¦¾à¦ķà¦¾": 6267,
      "Ġàª¹à«ĭàª¯": 6268,
      "Ġà¦²à§Ī": 6269,
      "Ġà¦Ńà¦¿à¦¤": 6270,
      "Ġàª°à«Ģàª¤": 6271,
      "à±ģà°²à±ĭ": 6272,
      "à±ģà°Ĥà°Ł": 6273,
      "uck": 6274,
      "Ġà´ĩà´¤": 6275,
      "ugust": 6276,
      "Ġà²ħà²µà²°à³ģ": 6277,
      "à«ĩàªŁàª²": 6278,
      "àµĮ": 6279,
      "Ġà¦®à¦¾à¦ľ": 6280,
      "osition": 6281,
      "à¯įà®ªà¯įà®ª": 6282,
      "udget": 6283,
      "à¤°à¥įà¤Ł": 6284,
      "à±įà°°à±Ģ": 6285,
      "àŃįà¬¤àŃįà¬¤": 6286,
      "Ġago": 6287,
      "Ġà¤¸à¤ķà¤¤à¤¾": 6288,
      "Ġdescribed": 6289,
      "Ġà¤ķà¥ģà¤Ľ": 6290,
      "Ġ`": 6291,
      "à®ħ": 6292,
      "à«Į": 6293,
      "iles": 6294,
      "ĠIran": 6295,
      "à¤¸à¥įà¤Ł": 6296,
      "aging": 6297,
      "àªķà«ĩ": 6298,
      "à±ĭà°ľ": 6299,
      "à§įà¦¯à¦¾": 6300,
      "Ġà¦¯à§ĩà¦¨": 6301,
      "Ġprec": 6302,
      "ĠDevelop": 6303,
      "Ġeffective": 6304,
      "à¨ĩà¨Ĩ": 6305,
      "Ġparents": 6306,
      "Ġver": 6307,
      "Ġface": 6308,
      "à¤Ĥà¤ļ": 6309,
      "Ġsearch": 6310,
      "à°ķà±įà°¤": 6311,
      "à¯ĭà®¤": 6312,
      "à´®à´¾à´¯": 6313,
      "à°®à±Īà°¨": 6314,
      "ĠStud": 6315,
      "Ġà¬ħà¬Ń": 6316,
      "Ġregular": 6317,
      "Ġà¨¹à©ĭà¨£": 6318,
      "Ġattempt": 6319,
      "Ġlarger": 6320,
      "pri": 6321,
      "ĠĠĠĠĠĠĠĠĠĠĠĠĠĠĠĠĠĠĠĠĠĠĠĠĠĠĠĠĊ": 6322,
      "Ġà¦ªà¦¾à§°": 6323,
      "à²²à²¾à²Ĺ": 6324,
      "ĠFeb": 6325,
      "Ġsurv": 6326,
      "Ġpattern": 6327,
      "Ġà¨¸à¨ķà¨¦à¨¾": 6328,
      "AL": 6329,
      "ns": 6330,
      "à¬«": 6331,
      "eding": 6332,
      "Ġdiv": 6333,
      "Ġà®ªà®¾à®¤": 6334,
      "Ġà¤¤à¥ģà¤®": 6335,
      "à¥ĩà¤¬": 6336,
      "Ġà°®à°¾à°°": 6337,
      "Ġà²®à²¾à²¤": 6338,
      "Ġblack": 6339,
      "prefix": 6340,
      "Ġelectric": 6341,
      "Ġbuilding": 6342,
      "ĠHindi": 6343,
      "rm": 6344,
      "rs": 6345,
      "Ġà¤ĵ": 6346,
      "à¤¤à¤¾à¤¤": 6347,
      "Ġforms": 6348,
      "ĠAm": 6349,
      "Ġà¨ķà©°à¨®": 6350,
      "Ġheav": 6351,
      "à²¡à³ģ": 6352,
      "à¬¤à¬¾": 6353,
      "formation": 6354,
      "Ġdeveloping": 6355,
      "à¨¾à¨ĩà¨Ĩ": 6356,
      "Ġelements": 6357,
      "Ġcut": 6358,
      "à¦¿à§±": 6359,
      "à§ĩà¦ģ": 6360,
      "Ġà¤®à¥ģà¤ĸ": 6361,
      "Ġexerc": 6362,
      "Ġàª®àª¾àªĤ": 6363,
      "à¤¾à¤Ĥà¤¨à¥Ģ": 6364,
      "à¯ģà®µà®¤": 6365,
      "Ġdifference": 6366,
      "Ġinvestors": 6367,
      "Ġàªīàª¤": 6368,
      "ION": 6369,
      "bit": 6370,
      "Ġsat": 6371,
      "à¦¾à¦ł": 6372,
      "Ġà¬¥": 6373,
      "à²¿à²ľ": 6374,
      "à°¾à°¬": 6375,
      "à©°à¨¦à¨¾": 6376,
      "Ġvill": 6377,
      "Ġà¦¹à¦¿à¦ļà¦¾à¦ª": 6378,
      "Ġà¬¸àŃįà¬¥": 6379,
      "Ġà¦īà¦²": 6380,
      "à§ĩà¦²à¦¾": 6381,
      "Ġdesigned": 6382,
      "ĠDepartment": 6383,
      "IC": 6384,
      "iam": 6385,
      "à«ĭàª°à«įàª": 6386,
      "Ġà¦¹à¦¾à¦¤": 6387,
      "à¤µà¤¾à¤°": 6388,
      "Ġà¤ħà¤Ń": 6389,
      "Ġà®İà®´": 6390,
      "à´¤àµįà´¤à´¿à´¯": 6391,
      "(\"--": 6392,
      "Ġà¬ķà¬°à¬¾à¬¯": 6393,
      "Ġà°°à±Ĩ": 6394,
      "Ġà¨¹à©ĭà¨°": 6395,
      "Ġà°īà°Ĥà°Ł": 6396,
      "à¨«à¨¼": 6397,
      "à¦¿à¦·à§įà¦Ł": 6398,
      "Test": 6399,
      "à¦¾à§İ": 6400,
      "Ġà¨¸à¨Ń": 6401,
      "Ġà¤ľà¤®": 6402,
      "à²³à³ģ": 6403,
      "Ġtraining": 6404,
      "àµģà´¨àµįà´¨à´¤": 6405,
      "wood": 6406,
      "à¤Ĥà¤¤à¥įà¤°à¥Ģ": 6407,
      "àªµàª¾àª¨à«Ģ": 6408,
      "Ġmanufact": 6409,
      "Ġàªĩ": 6410,
      "Ġwest": 6411,
      "àµįà´£": 6412,
      "igr": 6413,
      "à¨¨à©ģ": 6414,
      "Ġà®ķà®°": 6415,
      "Ġà¤ķà¥ĩà¤²à¥Ģ": 6416,
      "Ġà¬ªà¬°àŃĩ": 6417,
      "Ġà®¤à®²": 6418,
      "à¯Ģà®°": 6419,
      "à¤¤à¥Ģà¤¯": 6420,
      "à®£à¯įà®Łà¯ģ": 6421,
      "Ġà®ħà®µà®°à¯į": 6422,
      "Ġà¤ĭà¤£": 6423,
      "PL": 6424,
      "Ġ^{": 6425,
      "Ġful": 6426,
      "Ġnature": 6427,
      "Ġà¦¬à§ĥ": 6428,
      "à±ģà°Ĺà°¾": 6429,
      "Ġà¦Ĩà¦ĩ": 6430,
      "à¨¸à©Ģ": 6431,
      "à²ķà³įà²¤": 6432,
      "Ġà²®à³Ĭ": 6433,
      "à´¯àµģà´ŁàµĨ": 6434,
      "Ġà¦¶à§ĩà¦·": 6435,
      "``.": 6436,
      "Ġtherefore": 6437,
      "Ġà´¤àµģà´Ł": 6438,
      "Ġproduced": 6439,
      "Ġà²°à²¾à²ľ": 6440,
      "mitted": 6441,
      "Ġzero": 6442,
      "ncil": 6443,
      "Int": 6444,
      "`.": 6445,
      "Ġord": 6446,
      "Ġà¦®à§ĭ": 6447,
      "ĠRuss": 6448,
      "Ġsust": 6449,
      "Ġà®ħà®¨à¯įà®¤": 6450,
      "à¤ľà¥Ģ": 6451,
      "àª£à«Ģ": 6452,
      "à´¸àµįà´¥": 6453,
      "Ġprem": 6454,
      "Ġcorrel": 6455,
      "àµĨà´¨àµįà´¨àµģà´Ĥ": 6456,
      "Ġà¬¸àŃĩà¬®à¬¾à¬¨": 6457,
      "Ġà¬ħà¬¨àŃģà¬": 6458,
      "idden": 6459,
      "Ġà¬¬àŃĭà¬²à¬¿": 6460,
      "date": 6461,
      "oin": 6462,
      "ington": 6463,
      "Ġà¤ķà¥įà¤°": 6464,
      "à¥¤\"": 6465,
      "ĠSu": 6466,
      "Ġà¤¸à¥įà¤Ł": 6467,
      "à¦¾à¦°à§ĩ": 6468,
      "à©ĭà©ľ": 6469,
      "Ġà¤¨à¤µ": 6470,
      "ĠàªªàªĽà«Ģ": 6471,
      "Ġà®ķà®¾à®²": 6472,
      "Ġàª¸àª¾àª®": 6473,
      "àŃģà¬¹": 6474,
      "Ġà²ķà³ģ": 6475,
      "à´®àµįà´ª": 6476,
      "à°¤à±įà°¯": 6477,
      "Ġjud": 6478,
      "ovember": 6479,
      "Ġformer": 6480,
      "Ġflu": 6481,
      "Ġà´Ĩà´°": 6482,
      "à®Ļà¯įà®ķà®³à®¿à®²à¯į": 6483,
      "à¦ŀà§įà¦ľ": 6484,
      "Ġbroad": 6485,
      "Ġà°ļà±Ĩà°ªà±įà°ª": 6486,
      "Ġà´ļàµĨà´¯àµįà´¯": 6487,
      "ŀàµįà´ļ": 6488,
      "à¦¿à¦§": 6489,
      "à¨¾à¨«": 6490,
      "Ġconcent": 6491,
      "Ġà¤¹à¤¾": 6492,
      "Ġà¤ħà¤®": 6493,
      "à§įà¦°à¦®": 6494,
      "à§ģà¦ĩ": 6495,
      "Ġà¤¶à¤ķ": 6496,
      "à±Ĥà°ª": 6497,
      "Ġà®īà®£": 6498,
      "à¬ĻàŃįà¬ķà¬°": 6499,
      "Ġà¤ĺà¤Ł": 6500,
      "Ġpolicies": 6501,
      "Ġà¤¹à¥ģà¤ı": 6502,
      "Ġà¨ķà©ģà¨Ŀ": 6503,
      "expected": 6504,
      "Ġà¨ªà¨¹à¨¿à¨²": 6505,
      ");": 6506,
      "icles": 6507,
      "à´¿à´¨àµįà´¨": 6508,
      "à§Ģà¦ķ": 6509,
      "Ġvide": 6510,
      "Ġà®ªà®£": 6511,
      "Ġà¦¤à¦¾à¦¹": 6512,
      "Ġà°ħà°§": 6513,
      "à«ĭàªľ": 6514,
      "Ġà¦ıà¦ķà¦Łà¦¿": 6515,
      "parametri": 6516,
      "à§ĩà¦¯à¦¼à§ĩ": 6517,
      "Ġskin": 6518,
      "Ġàªīàªªàª°": 6519,
      "Ġà²Ĩà²¦à²°à³Ĩ": 6520,
      "Ġà¤ķà¥įà¤·à¥ĩà¤¤à¥įà¤°": 6521,
      "iet": 6522,
      "erous": 6523,
      "ament": 6524,
      "à¦¤à§įà¦°": 6525,
      "ume": 6526,
      "Ġà´ķà´´": 6527,
      "à³ĭà²¡": 6528,
      "Ġàª¦à«įàªµ": 6529,
      "Ġsubst": 6530,
      "à°¿à°Ĥà°ļà°¿à°¨": 6531,
      "Ġà¤ķà¤¾à¤°à¤£": 6532,
      "à´¨àµįà´¤àµįà´°": 6533,
      "Ġquestions": 6534,
      "parametrize": 6535,
      "ober": 6536,
      "Ġaim": 6537,
      "à§°à§įà¦®": 6538,
      "Ġthreat": 6539,
      "âĢ¦": 6540,
      "ĠPe": 6541,
      "Ġrules": 6542,
      "à¨ķà©Ģ": 6543,
      "à®²à®ķ": 6544,
      "Ġàª®à«ģàª": 6545,
      "Ġà²¸à³įà²¥": 6546,
      "Ġà¨®à©Īà¨Ĥ": 6547,
      "à®¾à®°à¯įà®ķà®³à¯į": 6548,
      "Ġàª°àª¾àªĸ": 6549,
      "à¤¾à¤µà¤¾": 6550,
      "Ġmathemat": 6551,
      "à´¾à´¤àµįà´°": 6552,
      "Ġmeaning": 6553,
      "Ġà¨ķà©ĭà¨Ī": 6554,
      "ricket": 6555,
      "You": 6556,
      "rim": 6557,
      "à¥©": 6558,
      "Ġà²ĸ": 6559,
      "Ġmor": 6560,
      "Ġà¤¬à¤¾à¤°": 6561,
      "à©Īà¨¸": 6562,
      "ĠJapan": 6563,
      "Ġà¦Ĺà§Ī": 6564,
      "à²¸à³įà²¤": 6565,
      "à®¾à®°à®£": 6566,
      "Ġarch": 6567,
      "Ġàª¥àª¾àª¯": 6568,
      "à´ªàµįà´ªàµĨà´Ł": 6569,
      "à¨Ĩà¨Ĥ": 6570,
      "Ġcommunic": 6571,
      "Ġscientists": 6572,
      "Ġsoftware": 6573,
      "Ġmortg": 6574,
      "US": 6575,
      "Var": 6576,
      "Ġ;": 6577,
      "Ġsometimes": 6578,
      "àŃ¬": 6579,
      "Ġà¬Ľ": 6580,
      "àª¾àª¶": 6581,
      "Ġhost": 6582,
      "à±įà°¬": 6583,
      "urch": 6584,
      "à§ĭà¦®": 6585,
      "raft": 6586,
      "abor": 6587,
      "àªĤàªķ": 6588,
      "Ġclimate": 6589,
      "à°®à±ģ": 6590,
      "Ġexpos": 6591,
      "Ġcompon": 6592,
      "à´¤àµįà´¤àµį": 6593,
      "à´µà´°": 6594,
      "Ġdepend": 6595,
      "Ġfilm": 6596,
      "Ġconstant": 6597,
      "Ġstarted": 6598,
      "Ġprofession": 6599,
      "Ġà¨¦à¨¿à©±à¨¤à¨¾": 6600,
      "ĠMinister": 6601,
      "ļà°¿": 6602,
      "Ġfri": 6603,
      "Ġà¤ķà¤Ĥà¤ª": 6604,
      "ĠPart": 6605,
      "Ġalthough": 6606,
      "Ġà®ªà¯Ĩà®°": 6607,
      "Ġà¦¤à¦¾à¦ĩ": 6608,
      "à©°à¨§": 6609,
      "à¬°àŃįà¬¯àŃįàŃŁ": 6610,
      "Ġmatch": 6611,
      "Ġmeasures": 6612,
      "Ġprior": 6613,
      "Ġenvironmental": 6614,
      "Ġà®µà¯ĩà®£à¯įà®Łà¯ģà®®à¯į": 6615,
      "prompt": 6616,
      "oring": 6617,
      "item": 6618,
      "à¤¾à¤¢": 6619,
      "Ġdr": 6620,
      "à´¿à´ŀàµįà´ŀ": 6621,
      "à±ģà°Ł": 6622,
      "Ġitem": 6623,
      "Ġà¦®à¦ĩ": 6624,
      "unch": 6625,
      "à±ĩà°²": 6626,
      "Ġà¦¤à¦¥": 6627,
      "à§ģà¦§": 6628,
      "à©±à¨ļ": 6629,
      "Ġà¤°à¥ģà¤ª": 6630,
      "Ġà²ķà³Ĩà²²": 6631,
      "Ġà²ħà²§": 6632,
      "Ġà°ħà°¨à±įà°¨": 6633,
      "à²Ĥà²¦à³įà²°": 6634,
      "Ġà´®àµģà´": 6635,
      "Ġà¬¨à¬¾à¬¹à¬¿à¬ģ": 6636,
      "append": 6637,
      "anced": 6638,
      "Ġquick": 6639,
      "Ġà¦ķà¦¿à¦Ľà§ģ": 6640,
      "Ġslow": 6641,
      "Ġflo": 6642,
      "à²¾à²¶": 6643,
      "àŃįà¬¯àŃįàŃŁ": 6644,
      "à²¦à³įà²¦": 6645,
      "Ġcomes": 6646,
      "Ġà®¤à®®à®¿à®´": 6647,
      "à²¿à²¸à³ģà²µ": 6648,
      "à®¿à®±à®¤à¯ģ": 6649,
      "à²Ĺà²³à²²à³įà²²à²¿": 6650,
      "Ġà²Ĩà²°": 6651,
      "Ġinstance": 6652,
      "à°¿à°²à±įà°²": 6653,
      "ĠNews": 6654,
      "Ġallows": 6655,
      "Ġapplied": 6656,
      "Un": 6657,
      "Ġos": 6658,
      "Ġborrow": 6659,
      "à«įàªļ": 6660,
      "à¬¾à¬Ł": 6661,
      "ĠServ": 6662,
      "à¥įà¤¯à¥ĭà¤Ĥ": 6663,
      "Ġà¤°à¤¹à¤¾": 6664,
      "Ġà²¬à²³": 6665,
      "aving": 6666,
      "Ġactive": 6667,
      "ĠDecember": 6668,
      "www": 6669,
      "Ġiniti": 6670,
      "Ġfamilies": 6671,
      "Ġdemonstr": 6672,
      "àª·": 6673,
      "àŃ®": 6674,
      "Ġbound": 6675,
      "à¥ĩà¤®": 6676,
      "Ġà¤®à¥ģ": 6677,
      "Ġ\"-": 6678,
      "ptoms": 6679,
      "à³Ĭà²Ĥà²¦": 6680,
      "à¤¾à¤¸à¥įà¤¤": 6681,
      "reng": 6682,
      "à¨¾à¨ľà¨¼": 6683,
      "Ġà¤¦à¥ĭà¤¨": 6684,
      "Ġà¤īà¤¤à¥įà¤ª": 6685,
      "ĠEducation": 6686,
      "([\"": 6687,
      "rest": 6688,
      "Ġsil": 6689,
      "àª¾àªı": 6690,
      "Ġà¤¸à¤¬": 6691,
      "Ġà¦®à§ĭà§°": 6692,
      "Ġsequence": 6693,
      "à¤°à¥įà¤¶": 6694,
      "Ġà¨²à¨Ĺ": 6695,
      "Ġà¤Ĺà¥ĭ": 6696,
      "Ġà¦§à¦°": 6697,
      "Ġmedia": 6698,
      "à¬¥à¬¾": 6699,
      "Ġlogar": 6700,
      "headers": 6701,
      "EC": 6702,
      "bp": 6703,
      "lin": 6704,
      "})": 6705,
      "Ġaud": 6706,
      "à¤¾à¤«": 6707,
      "Ġwa": 6708,
      "lege": 6709,
      "Ġà¨¦à¨°": 6710,
      "à¤¹à¤°": 6711,
      "used": 6712,
      "à¨¨à©ĩ": 6713,
      "Ġà¤ľà¥Ģà¤µ": 6714,
      "à©Īà¨ķ": 6715,
      "à°ķà°¿": 6716,
      "Ġà¤²à¥ĭà¤ķ": 6717,
      "Ġcontact": 6718,
      "Ġà¨¤à¨°": 6719,
      "Ġadminist": 6720,
      "à¬¤àŃįà¬¤": 6721,
      "à²¸à³įà²¥": 6722,
      "Ġà¬¨à¬¿": 6723,
      "àµįà´¯à´Ĥ": 6724,
      "rench": 6725,
      "à´¨àµįà´±": 6726,
      "à²¿à²¤à³įà²¤à³ģ": 6727,
      "à§ĩà¦¤à§ĩ": 6728,
      "à¨¾à¨µà¨¾à¨Ĥ": 6729,
      "Ġà¤ħà¤¨à¥įà¤¯": 6730,
      "Ġconstit": 6731,
      "à²¬à³ĩà²ķà³ģ": 6732,
      "Ġàª¸à«ģàª§à«Ģ": 6733,
      "known": 6734,
      "')": 6735,
      "SS": 6736,
      "range": 6737,
      "Ġwind": 6738,
      "icit": 6739,
      "ĠTra": 6740,
      "ĠSing": 6741,
      "Ġdeep": 6742,
      "Ġwhite": 6743,
      "à¯ĭà®®à¯į": 6744,
      "Ġwebs": 6745,
      "Ġà¤Ĺà¤Ī": 6746,
      "à´¿à´¯àµģà´ŁàµĨ": 6747,
      "Ġà¬ķà¬°à¬¿à¬¬à¬¾": 6748,
      "à²¿à²¦à³įà²¦à²°à³ģ": 6749,
      "Ġà¬¨à¬¿à¬ľ": 6750,
      "àŃŃ": 6751,
      "itle": 6752,
      "Ġep": 6753,
      "à¤¿à¤¦": 6754,
      "amm": 6755,
      "Ġà¤®à¤¾à¤°": 6756,
      "à©ĭà¨Ĺ": 6757,
      "Ġà®µà®¿à®Ł": 6758,
      "à¥įà¤¯à¤¾à¤ľ": 6759,
      "à²¡à³Ĩà²¯": 6760,
      "Ġà¦¶à¦¿à¦ķà§įà¦·": 6761,
      "Ġà¬®à¬¨": 6762,
      "à¤¶à¥įà¤¯": 6763,
      "Ġworkers": 6764,
      "Ġà®Ĩà®ķ": 6765,
      "fully": 6766,
      "Ġà¦¥à¦¾à¦ķà§ĩ": 6767,
      "Ġàª¤àª®à«ĩ": 6768,
      "Ġvisit": 6769,
      "Ġcaused": 6770,
      "Ġbenefits": 6771,
      "bra": 6772,
      "care": 6773,
      "ŀà¯įà®ļ": 6774,
      "ites": 6775,
      "Ġmom": 6776,
      "rael": 6777,
      "Ġà¦¬à¦¾à¦Ĥ": 6778,
      "acc": 6779,
      "Ġà¤ħà¤¤": 6780,
      "à¤¦à¤¿": 6781,
      "Ġà¤°à¤¾à¤¹": 6782,
      "Ġà¦ļà¦¾à¦ĩ": 6783,
      "à¬¸àŃįà¬¥": 6784,
      "Ġà¤ĩà¤¤": 6785,
      "Ġà¬Ĩà¬®": 6786,
      "à§°à§ģà§±": 6787,
      "Ġà²İà²Ĥà²¬": 6788,
      "attle": 6789,
      "Ġlimited": 6790,
      "ĠCentral": 6791,
      "indows": 6792,
      "Ġà´ªà´±à´ŀàµįà´ŀ": 6793,
      "info": 6794,
      "Ġà¦¯à¦¦à¦¿": 6795,
      "DE": 6796,
      "session": 6797,
      "Ġmother": 6798,
      "à¦¨à¦¤": 6799,
      "see": 6800,
      "à¦²à§ĩà¦¨": 6801,
      "Ġà¤ªà¤£": 6802,
      "Ġà¦Ĩà¦¶": 6803,
      "Ġà¦¤à¦¾à¦¦à§ĩà¦°": 6804,
      "à®²à¯įà®µ": 6805,
      "à«įàª°à«Ģ": 6806,
      "Ġking": 6807,
      "Ġàªķàª°àªµàª¾": 6808,
      "à¯ģà®ķà®³à¯į": 6809,
      "à©ľà©ĩ": 6810,
      "Ġà¤µà¤¿à¤Ń": 6811,
      "Ġà¤¥à¥ĩ": 6812,
      "Ġcontinue": 6813,
      "Ġà¦¬à§įà¦¯à¦¬": 6814,
      "Ġbirth": 6815,
      "Ġà®¤à¯Ĭà®Łà®°": 6816,
      "à¤°à¥įà¤¯": 6817,
      "ĠAccording": 6818,
      "à¬¿à¬¹": 6819,
      "Ġà¦¬à¦°": 6820,
      "Ġà¦¬à§Ī": 6821,
      "à«ģàª®": 6822,
      "Ġàª®à«ĩàª": 6823,
      "Ġà²¸à³įà²µ": 6824,
      "Ġà¨®à©Į": 6825,
      "Ġà²¨à²¡à³Ĩ": 6826,
      "à¤¿à¤ķà¥įà¤·": 6827,
      "à©°à¨¬": 6828,
      "Ġdoctor": 6829,
      "Ġà¦¬à¦¿à¦¦": 6830,
      "Ġcommerc": 6831,
      "Ġà°¤à±Ģà°¸": 6832,
      "à±įà°Łà±įà°°": 6833,
      "Ġprint": 6834,
      "à¬¾à¬ĩà¬Ľà¬¿": 6835,
      "Ġearth": 6836,
      "Ġà¤¸à¤®à¤¯": 6837,
      "Ġà¦®à¦¾à¦¨à§ģà¦·": 6838,
      "Ġà¬¹àŃĭà¬ĩ": 6839,
      "à°¿à°Ĥà°Ĺà±į": 6840,
      "Ġàª°à«Ģàª¤à«ĩ": 6841,
      "rid": 6842,
      "âĭ": 6843,
      "à¦¢à¦¼": 6844,
      "ename": 6845,
      "à´¾àµ½": 6846,
      "ĠHar": 6847,
      "Ġsuff": 6848,
      "ipal": 6849,
      "aily": 6850,
      "à§Ĥà¦¹": 6851,
      "Ġtrack": 6852,
      "Ġà®īà®Ł": 6853,
      "à²¿à²¤à³ģ": 6854,
      "à®¾à®³à¯į": 6855,
      "Ġà¦¤à§ĩà¦ĵà¦ģà¦²à§ĭ": 6856,
      "Ġunderstanding": 6857,
      "Ġpredict": 6858,
      "RO": 6859,
      "auth": 6860,
      "cast": 6861,
      "new": 6862,
      "Ġmessage": 6863,
      "status": 6864,
      "à«ĩàªķ": 6865,
      "Ġever": 6866,
      "à¤ķà¤¿": 6867,
      "ĠCong": 6868,
      "à´¾à´ª": 6869,
      "ops": 6870,
      "à¤¯à¥ĭà¤Ĺ": 6871,
      "à¦¾à¦²à§Ģ": 6872,
      "à§įà¦¬à§°": 6873,
      "ruary": 6874,
      "Ġà¦ķà§°à¦¾à§°": 6875,
      "à³Ģà²°": 6876,
      "à¦¿à¦¬à¦²à§Ī": 6877,
      "Ġcorrect": 6878,
      "Ġextre": 6879,
      "vention": 6880,
      "Ġargument": 6881,
      "Ġbreak": 6882,
      "Ġautom": 6883,
      "ivalent": 6884,
      "bi": 6885,
      "ned": 6886,
      "yield": 6887,
      "isms": 6888,
      "à¦¾à¦Ľà§ĩ": 6889,
      "Ġwon": 6890,
      "Ġfav": 6891,
      "à§ĭà¦¸": 6892,
      "Ġà¦¸à¦¦": 6893,
      "ĠPar": 6894,
      "ĠBh": 6895,
      "Ġà²®à²¨": 6896,
      "Ġexpert": 6897,
      "Ġà¦ķà§°à¦¿à¦Ľà§ĩ": 6898,
      "àµįà´°àµĢ": 6899,
      "Ġoutput": 6900,
      "Ġscheme": 6901,
      "tee": 6902,
      "Ġà¦ıà¦ķà¦Łà¦¾": 6903,
      "à²£à³įà²£": 6904,
      "Ġà¤ħà¤¸à¤²à¥įà¤¯à¤¾à¤": 6905,
      "Ġsimply": 6906,
      "Ġleading": 6907,
      "Ġtypically": 6908,
      "Ġmulti": 6909,
      "Ġstatus": 6910,
      "content": 6911,
      "Ġensure": 6912,
      "RL": 6913,
      "Value": 6914,
      "Ġast": 6915,
      "atively": 6916,
      "à¤¾à¤¥": 6917,
      "à«ĩàª®": 6918,
      "ĠAugust": 6919,
      "istance": 6920,
      "à°Ĥà°ķ": 6921,
      "Ġàªªà«ĭàª¤": 6922,
      "à¤Ĺà¥ĩ": 6923,
      "Ġà®ĩà®²à¯įà®²": 6924,
      "Ġà¤ķà¤°à¤¤à¤¾": 6925,
      "Ġà´µà´°": 6926,
      "à´¤àµįà´¤à´¿à´²àµį": 6927,
      "àªĤàªļ": 6928,
      "à§įà¦¯à¦®": 6929,
      "Ġoffer": 6930,
      "à®ķà¯įà®ķà¯ģ": 6931,
      "Ġà¦ħà¦¨à§ĩà¦ķ": 6932,
      "à´ªàµįà´ªàµĨà´Łàµįà´Ł": 6933,
      "à¥įà¤°à¥Ģà¤¯": 6934,
      "Ġargs": 6935,
      "Ġà²Ńà²¾à²°": 6936,
      "Ġfutures": 6937,
      "Ġwriting": 6938,
      "Ġcurrency": 6939,
      "bu": 6940,
      "Ġà¨¥": 6941,
      "Ġcateg": 6942,
      "à«ĩàªµ": 6943,
      "Ġlack": 6944,
      "à¯ģà®²": 6945,
      "ades": 6946,
      "ĠPers": 6947,
      "qual": 6948,
      "à²µà²°à³ģ": 6949,
      "Ġà¦ıà¦¤": 6950,
      "Ġregist": 6951,
      "Ġà´¤à´¿à´°": 6952,
      "à¯ģà®³à¯į": 6953,
      "params": 6954,
      "Ġcommunities": 6955,
      "Ġviol": 6956,
      "ĠPhil": 6957,
      "Ġà¬ķà¬°à¬¿à¬¥à¬¿à¬²àŃĩ": 6958,
      "Ġà¨²à©ĭà¨ķà¨¾à¨Ĥ": 6959,
      "Ġà¦¸à¦¾à¦§": 6960,
      "unic": 6961,
      "à´¯àµįà´ķàµįà´ķ": 6962,
      "à¤¾à¤Ĥà¤ļà¥Ģ": 6963,
      "Ġà¦¶à§ģà¦¨": 6964,
      "Ġà²ĩà²¦à³ģ": 6965,
      "Ġà²İà²²à³įà²²": 6966,
      "Ġpayments": 6967,
      "Ġobjects": 6968,
      "By": 6969,
      "more": 6970,
      "Ġà°§": 6971,
      "à¦¿à¦ī": 6972,
      "asons": 6973,
      "Ġnation": 6974,
      "uries": 6975,
      "à¥įà¤¯à¤ķà¥įà¤·": 6976,
      "Ġà¤ªà¥ĭ": 6977,
      "Ġà¨ķà¨¹": 6978,
      "à®¿à®²à¯ģà®®à¯į": 6979,
      "à¬¤à¬¿": 6980,
      "à¤ľà¥ĩ": 6981,
      "Ġeval": 6982,
      "Ġà¬¹àŃĩà¬²": 6983,
      "à´¨àµįà´¦": 6984,
      "àª¾àªµà«Ģ": 6985,
      "Ġà¤ħà¤¸à¥ĩ": 6986,
      "Ġacqu": 6987,
      "ĠàªĨàªµà«ĩ": 6988,
      "àµĨà´¯àµģà´Ĥ": 6989,
      "Ġserver": 6990,
      "à§ģà¦·à§įà¦ł": 6991,
      "Ġreceive": 6992,
      "Ġdetermine": 6993,
      "ĠCanada": 6994,
      "Ġà¬¸à¬°à¬ķà¬¾à¬°": 6995,
      "ja": 6996,
      "~~": 6997,
      "isl": 6998,
      "Ġlines": 6999,
      "à«ĢàªĤ": 7000,
      "ĠAnt": 7001,
      "html": 7002,
      "à¤¦à¤¾à¤¨": 7003,
      "exit": 7004,
      "à§ģà¦Ĺ": 7005,
      "ĠUs": 7006,
      "àŃįà¬°à¬®": 7007,
      "à±ĩà°·": 7008,
      "Ġà¨Ĺà¨ı": 7009,
      "à´¨àµįà´§": 7010,
      "Ġmovement": 7011,
      "Ġbenefit": 7012,
      "Ġcitizens": 7013,
      "àªĨ": 7014,
      "Ġnorth": 7015,
      "à²¿à²ª": 7016,
      "à¤Ĥà¤Ł": 7017,
      "ulations": 7018,
      "à«ĭàª¨": 7019,
      "ĠPress": 7020,
      "à¦¾à¦°à§ĩà¦°": 7021,
      "ĠRE": 7022,
      "ĠRep": 7023,
      "Ġà¨®à¨¿à¨²": 7024,
      "Ġevolution": 7025,
      "Ġà¬ķà¬°àŃģà¬": 7026,
      "à±ģà°¨à±ģ": 7027,
      "à´¨àµįà´±àµĨ": 7028,
      "Ġissued": 7029,
      "Ġexperi": 7030,
      "Ġcourt": 7031,
      "encies": 7032,
      "([": 7033,
      "ris": 7034,
      "à¬ģ": 7035,
      "inate": 7036,
      "Ġhyp": 7037,
      "à¯ģà®´": 7038,
      "olly": 7039,
      "à°¾à°·": 7040,
      "Ġà¤¸à¤¾à¤Ĥà¤Ĺ": 7041,
      "ĠMor": 7042,
      "thon": 7043,
      "Ġà¦ħà§±": 7044,
      "à®¿à®¯à¯Ī": 7045,
      "Ġà²ħà²¨": 7046,
      "à´®à´¾à´¯à´¿": 7047,
      "à³ĭà²Ł": 7048,
      "process": 7049,
      "Ġlocation": 7050,
      "Ġà¦¬à¦²à§ĩà¦¨": 7051,
      "Callable": 7052,
      "count": 7053,
      "life": 7054,
      "Ġtheore": 7055,
      "ala": 7056,
      "à§ĩà§°": 7057,
      "à§ĩà¦¡": 7058,
      "Ġhor": 7059,
      "Ġhosp": 7060,
      "à¦ķà¦¾à¦¶": 7061,
      "à®¤à¯Ī": 7062,
      "à¦¬à§°": 7063,
      "àª¿àªĤàªĹ": 7064,
      "à²¨à³ĩ": 7065,
      "Ġsea": 7066,
      "Ġremain": 7067,
      "à«ĩàª²à«Ģ": 7068,
      "Ġcomplete": 7069,
      "Ġmemory": 7070,
      "Ġà¬ıà¬¹à¬¾": 7071,
      "Ġàª¶àªķà«ĩ": 7072,
      "yl": 7073,
      "Ġtend": 7074,
      "onal": 7075,
      "Ġcross": 7076,
      "à²¿à²¯à²²à³įà²²à²¿": 7077,
      "Ġà®ıà®±à¯įà®ª": 7078,
      "But": 7079,
      "With": 7080,
      "ls": 7081,
      "na": 7082,
      "Ġà¨ı": 7083,
      "Ġbring": 7084,
      "à°¿à°ľ": 7085,
      "à¬¿à¬Ł": 7086,
      "ift": 7087,
      "Ġà¤ħà¤²": 7088,
      "ĠDNA": 7089,
      "Ġà¨µà©ĩ": 7090,
      "à¤¡à¥Ģ": 7091,
      "à¤¾à¤²à¤¯": 7092,
      "Ġà´¸à´Ĥ": 7093,
      "Ġtraditional": 7094,
      "Ġmodels": 7095,
      "Ġinstru": 7096,
      "Ġà°ļà±ĩà°¶": 7097,
      "Ġpersonal": 7098,
      "à®¸à¯į": 7099,
      "ino": 7100,
      "ani": 7101,
      "Ġfederal": 7102,
      "Ġinj": 7103,
      "Ġhours": 7104,
      "eters": 7105,
      "à«Ģàª°": 7106,
      "Ġà¦¬à¦¾à¦¹": 7107,
      "Ġà¤¸à¥Ĥ": 7108,
      "à¨¿à¨£": 7109,
      "Ġà¦¨à¦¯à¦¼": 7110,
      "Ġà¦ıà¦²": 7111,
      "à¦¾à¦¨à¦¾": 7112,
      "Ġà¤¬à¥Ģ": 7113,
      "Ġà¤¬à¤¾à¤¤": 7114,
      "à§ģà¦ľ": 7115,
      "Ġà°µà°ļà±įà°ļ": 7116,
      "Ġàª¤à«ĩàª¨à«ĩ": 7117,
      "Ġà¦¦à§ĩà¦ĸà¦¾": 7118,
      "Ġbeginning": 7119,
      "ĠOctober": 7120,
      "And": 7121,
      "BN": 7122,
      "à¤Ŀ": 7123,
      "à¦¿à¦£": 7124,
      "à¦¨à§Ģ": 7125,
      "àŃįà¬£": 7126,
      "Ġgold": 7127,
      "à¦ķà§Ī": 7128,
      "Ġà¦ªà¦¾à¦²": 7129,
      "ĠBay": 7130,
      "Ġà¤ªà¥įà¤°à¤¶": 7131,
      "Ġà¤ķà¥ĭà¤Ī": 7132,
      "comp": 7133,
      "à¦¾à¦¸à§įà¦¤": 7134,
      "à³Ĩà²¯à²¨à³įà²¨à³ģ": 7135,
      "Ġintegral": 7136,
      "Ġlabor": 7137,
      "Ġpytest": 7138,
      "BC": 7139,
      "now": 7140,
      "à¬ı": 7141,
      "Ġà¦¢": 7142,
      "Ġsus": 7143,
      "Ġsection": 7144,
      "à¥įà¤Ľ": 7145,
      "à¬°à¬£": 7146,
      "à¤¿à¤ĸ": 7147,
      "Ġà¦¬à§ĩà¦¶": 7148,
      "ĠMon": 7149,
      "ĠNovember": 7150,
      "uman": 7151,
      "à¥Ĥà¤®": 7152,
      "à§įà¦¯à¦¾à¦¯à¦¼": 7153,
      "Ġà¬ķà¬³": 7154,
      "à¤¾à¤Ĥà¤ļà¥įà¤¯à¤¾": 7155,
      "Ġcompound": 7156,
      "à¬¸à¬¿": 7157,
      "à¥ģà¤·": 7158,
      "Ġàª²àª¾àªĹ": 7159,
      "à¥įà¤¹à¤¾": 7160,
      "à°¿à°¤à±ĩ": 7161,
      "à¤£à¥įà¤¯à¤¾à¤¤": 7162,
      "Ġfilms": 7163,
      "Ġcontinuous": 7164,
      "Ġculture": 7165,
      "Ġàªµàª°à«įàª·": 7166,
      "Ġurl": 7167,
      "à¥ª": 7168,
      "Ġsouth": 7169,
      "Ġmind": 7170,
      "à®¿à®³": 7171,
      "Ġforward": 7172,
      "Ġà¦ªà¦¿à¦Ľ": 7173,
      "à°Ĥà°¬": 7174,
      "à¨¦à¨°": 7175,
      "rices": 7176,
      "à´¿à´²àµĩ": 7177,
      "à¤ľà¤¨": 7178,
      "Ġtravel": 7179,
      "à®¿à®Łà®®à¯į": 7180,
      "Ġmode": 7181,
      "Ġà¦ĩà¦¤": 7182,
      "lands": 7183,
      "valid": 7184,
      "Ġà²¯à²¾à²µ": 7185,
      "à´Ĥà´Ĺ": 7186,
      "Ġmilitary": 7187,
      "à²¿à²Ĺà²³à³ģ": 7188,
      "haps": 7189,
      "meth": 7190,
      "rt": 7191,
      "}+": 7192,
      "ĠàªĪ": 7193,
      "Ġsession": 7194,
      "Ġwent": 7195,
      "Ġà´ķàµįà´": 7196,
      "Ġnames": 7197,
      "ĠArab": 7198,
      "Ġà¦¸à¦ķà¦²": 7199,
      "à¨¿à¨ī": 7200,
      "à¨¸à©Ģà¨Ĥ": 7201,
      "Ġà¦¦à¦¿à¦¯à¦¼": 7202,
      "à¨ķà¨¿": 7203,
      "Ġsec": 7204,
      "ĠWill": 7205,
      "Ġshall": 7206,
      "Ġà²µà²°à³įà²": 7207,
      "à´£àµįà´Łàµį": 7208,
      "Ġfiles": 7209,
      "Ġcontinued": 7210,
      "Ġparameter": 7211,
      "ĠTechn": 7212,
      "àŃĩà¬īà¬ģ": 7213,
      "group": 7214,
      "ona": 7215,
      "asc": 7216,
      "Ġreve": 7217,
      "ama": 7218,
      "à¥ĭà¤§": 7219,
      "Ġgives": 7220,
      "Ġà¦ķà¦¬": 7221,
      "Ġà¤¸à¥įà¤ª": 7222,
      "Ġà¨µà©±à¨²": 7223,
      "à³įà²°à³Ĩ": 7224,
      "à²¿à²¸à²²à³ģ": 7225,
      "à¤¿à¤²à¤¾": 7226,
      "Ġà¦ĵà¦ª": 7227,
      "àª¨à«įàª¸": 7228,
      "ĠCompany": 7229,
      "rate": 7230,
      "Ġ>": 7231,
      "esc": 7232,
      "Ġstreng": 7233,
      "à±ĭà°¯": 7234,
      "Ġà¬ķà¬²": 7235,
      "Ġimmedi": 7236,
      "Ġà¦¯à§ĭà¦Ĺ": 7237,
      "Ġà´µàµįà´¯": 7238,
      "Ġà¨Ĺà©±à¨²": 7239,
      "àµĢà´¸àµį": 7240,
      "Ġà°¤à°¨": 7241,
      "Ġhighest": 7242,
      "à²£à³Ĩ": 7243,
      "àªŁàª²": 7244,
      "Ġ[\"--": 7245,
      "Ġà®¤à¯Ĩà®°à®¿à®µ": 7246,
      "(\\": 7247,
      "lease": 7248,
      "Ġlen": 7249,
      "Ġlost": 7250,
      "Ġcondition": 7251,
      "ĠEd": 7252,
      "Ġseem": 7253,
      "Ġà¤¬à¥įà¤¯à¤¾à¤ľ": 7254,
      "à¯Ĩà®©": 7255,
      "Ġliqu": 7256,
      "à¤ķà¥įà¤Ł": 7257,
      "à¬¿à¬²àŃįà¬²": 7258,
      "Ġà¬ªàŃįà¬°à¬ķ": 7259,
      "à¥īà¤²": 7260,
      "Ġà°ľà°°": 7261,
      "Ġdoesn": 7262,
      "Ġoperations": 7263,
      "Ġà¦ªà¦¾à¦°à§ĩ": 7264,
      "Ġà¬ķà¬¾à¬°àŃįà¬¯àŃįàŃŁ": 7265,
      "ĠCalif": 7266,
      "ounced": 7267,
      "Ġbrought": 7268,
      "Ġmid": 7269,
      "ĠSim": 7270,
      "Ġproper": 7271,
      "Ġà¤®à¥Ģ": 7272,
      "Ġà¨¸à¨µ": 7273,
      "à¨¦à¨¾à¨°": 7274,
      "Ġà¬¸àŃįà¬¬": 7275,
      "Ġà®ĩà®¯": 7276,
      "ferences": 7277,
      "Ġ[],": 7278,
      "Ġtransfer": 7279,
      "ĠIslam": 7280,
      "Ġà´ļàµĨà´¯àµįà´¤": 7281,
      "dro": 7282,
      "Ġà¬¡": 7283,
      "à¯įà®¸": 7284,
      "à«įàª¨": 7285,
      "ĠSchool": 7286,
      "à´¾à´Ĺ": 7287,
      "ĠMany": 7288,
      "à¦¬à¦¾à¦¦": 7289,
      "à²Ĥà²Ł": 7290,
      "Ġà¦¹à¦²": 7291,
      "à®µà®°à¯į": 7292,
      "à¤¬à¤°": 7293,
      "Ġà¤ªà¤°à¤¿à¤": 7294,
      "à¯ģà®µà®°": 7295,
      "Ġgreen": 7296,
      "Ġspeak": 7297,
      "Ġinitial": 7298,
      "Ġproperties": 7299,
      "Ġtrading": 7300,
      "Ġmaximum": 7301,
      "complete": 7302,
      "min": 7303,
      "Ġà®¸": 7304,
      "ĠMost": 7305,
      "Ġà¦¨à¦¤": 7306,
      "à±ĩà°Ĥà°¦": 7307,
      "ache": 7308,
      "Ġà¨µà¨§": 7309,
      "à¦¿à¦¤à¦¾": 7310,
      "oose": 7311,
      "à¯ģà®ķà¯įà®ķà¯ģà®®à¯į": 7312,
      "Ġà¬¬à¬¿à¬¶": 7313,
      "à¯Īà®ķà®³à¯į": 7314,
      "Ġallowed": 7315,
      "Ġcauses": 7316,
      "·àŃįà¬ł": 7317,
      "Ġpie": 7318,
      "à¥įà¤£": 7319,
      "Ġmob": 7320,
      "Ġthous": 7321,
      "à²¾à²³": 7322,
      "à¤ķà¤¿à¤¨": 7323,
      "ĠSm": 7324,
      "ĠCou": 7325,
      "àŃĩà¬£": 7326,
      "ĠDav": 7327,
      "à®µà¯ģ": 7328,
      "à¯Ĩà®¯": 7329,
      "Ġà¨ħà¨ľ": 7330,
      "à¤¿à¤ķà¤¾": 7331,
      "à¬¤àŃįàŃŁ": 7332,
      "àªªà«įàª°": 7333,
      "ĠChar": 7334,
      "Ġ[]": 7335,
      "Ġunderlying": 7336,
      "Ġà¦Ĩà¦®à¦¾à¦¦à§ĩà¦°": 7337,
      "à¬¾à¬¹à¬¾": 7338,
      "Ġà²¦à²¿à²¨": 7339,
      "Ġappropri": 7340,
      "ĠFlask": 7341,
      "Ġàª²à«ĭàªķà«ĭ": 7342,
      "PT": 7343,
      "post": 7344,
      "à¤ģ": 7345,
      "à¥«": 7346,
      "à§°à¦¾à¦ķ": 7347,
      "ĠCour": 7348,
      "Ġà¦¬à¦¿à¦ķ": 7349,
      "à¤¾à¤Ĥà¤¸": 7350,
      "à®¤à¯įà®¤à®¿à®©à¯į": 7351,
      "Ġà¦ķà§°à¦¿à¦Ľà¦¿à¦²": 7352,
      "àµĢà´µ": 7353,
      "à§ĥà¦·": 7354,
      "à¨¸à¨¼à¨¨": 7355,
      "Ġprobably": 7356,
      "Ġà¤ĺà¤°": 7357,
      "à²Ĥà²¤à²°": 7358,
      "Ġà¨ĸà¨¼": 7359,
      "Ġconfig": 7360,
      "ĠIsrael": 7361,
      "ecause": 7362,
      "Ġapplications": 7363,
      "Ġnearly": 7364,
      "à°³à±įà°²": 7365,
      "ĠChristian": 7366,
      "ĠAssoci": 7367,
      "Ġà¦¬à¦¿à¦Ńà¦¿à¦¨à§įà¦¨": 7368,
      "Ġfront": 7369,
      "Ġprotein": 7370,
      "Ġearlier": 7371,
      "sp": 7372,
      "Ġaid": 7373,
      "Ġà®Ĭ": 7374,
      "Ġà°ĵ": 7375,
      "entially": 7376,
      "à¥Ģà¤¯": 7377,
      "Ġà¤Ĩà¤²à¥ĩ": 7378,
      "Ġàª¤àª°": 7379,
      "Ġoverall": 7380,
      "à°¡à±įà°¡": 7381,
      "ancy": 7382,
      "ĠAsia": 7383,
      "à°°à±įà°µ": 7384,
      "à¬ĹàŃįà¬°": 7385,
      "Ġarguments": 7386,
      "à¬¾à¬¤àŃįà¬°": 7387,
      "Ġà¬°à¬¾à¬ľàŃįàŃŁ": 7388,
      "Ġsymptoms": 7389,
      "à²¬à²¹à³ģà²¦à³ģ": 7390,
      "Ġcommercial": 7391,
      "aul": 7392,
      "ira": 7393,
      "Ġ#": 7394,
      "Ġten": 7395,
      "ony": 7396,
      "àµº": 7397,
      "Ġsort": 7398,
      "Ġwrite": 7399,
      "Ġrepe": 7400,
      "ĠTest": 7401,
      "à¬¿à¬¯": 7402,
      "ĠMark": 7403,
      "Ġà¤®à¥ģà¤¦": 7404,
      "ĠEast": 7405,
      "à¤ļà¥įà¤ļ": 7406,
      "Ġà¤¦à¥Ģ": 7407,
      "Ġà¤¦à¤¿à¤µ": 7408,
      "à«ĩàªĸ": 7409,
      "à©±à¨ľ": 7410,
      "àŃĢà¬°": 7411,
      "Ġestimated": 7412,
      "Ġmaterials": 7413,
      "Ġformula": 7414,
      "ĠFebruary": 7415,
      "Ġsold": 7416,
      "Ġbit": 7417,
      "Ġtowards": 7418,
      "à¥Ģà¤¸": 7419,
      "à±įà°³": 7420,
      "Ġà¤ķà¤¾à¤¹à¥Ģ": 7421,
      "à²°à²¿à²Ĥà²¦": 7422,
      "abc": 7423,
      "Ġexact": 7424,
      "ĠNot": 7425,
      "à²µà³Ĩ": 7426,
      "ĠFrench": 7427,
      "ocation": 7428,
      "example": 7429,
      "Ġà¬ªàŃĤ": 7430,
      "Ġàªµà«įàª¯": 7431,
      "à³Ģà²µ": 7432,
      "à§įà¦¯à¦¤": 7433,
      "Ġà¨Ńà¨¾à¨°": 7434,
      "Ġà¬ĵà¬¡à¬¼": 7435,
      "ĠAlthough": 7436,
      "à¥ģà¤¸à¤¾à¤°": 7437,
      "Ġderivative": 7438,
      "\").": 7439,
      "pare": 7440,
      "Ġreview": 7441,
      "ider": 7442,
      "Ġgain": 7443,
      "rage": 7444,
      "ĠPark": 7445,
      "keyp": 7446,
      "Ġà¤¤à¤¥à¤¾": 7447,
      "Ġà¦ħà¦¸": 7448,
      "Ġàª¸àªĤàª": 7449,
      "à¤°à¥įà¤Ĺ": 7450,
      "à¦¹à¦£": 7451,
      "Ġcontains": 7452,
      "Ġà¦Ńà¦¾à§°à¦¤": 7453,
      "ensity": 7454,
      "Ġà¦°à¦¾à¦ĸ": 7455,
      "Ġstring": 7456,
      "Ġremains": 7457,
      "Ġà¨ĸà©ĩ": 7458,
      "airs": 7459,
      "ifying": 7460,
      "Ġàª¦à«įàªµàª¾àª°àª¾": 7461,
      "keypatch": 7462,
      "One": 7463,
      "ps": 7464,
      "Ġbul": 7465,
      "Ġlat": 7466,
      "à®¾à®ľ": 7467,
      "ĠĠĠĠĠĠĠĠĠĠĠĠĠĠĠĠĠĠĠĠĠĠĠĠĠĠĠĠĠĠĠĠ": 7468,
      "à°¿à°¦": 7469,
      "à²¦à²¿à²Ĥà²¦": 7470,
      "à©°à¨¦à©ĩ": 7471,
      "à©ĭà¨Ł": 7472,
      "à¥įà¤¯à¤¾à¤²": 7473,
      "Ġà®®à®°": 7474,
      "à§ģà¦Ń": 7475,
      "Ġà¤°à¤¹à¥Ģ": 7476,
      "Ġà¤Ĺà¥ģ": 7477,
      "à«Ĥàª°": 7478,
      "à¬°àŃįà¬®": 7479,
      "undred": 7480,
      "Ġfollowed": 7481,
      "Ġàª°àª¹à«ĩ": 7482,
      "ronic": 7483,
      "DP": 7484,
      "UN": 7485,
      "pose": 7486,
      "inct": 7487,
      "Ġdaily": 7488,
      "Ġà¦ķà¦¯à¦¼": 7489,
      "àŃģà¬¨": 7490,
      "ĠHistory": 7491,
      "Ġà¤ľà¤¾à¤ı": 7492,
      "à¤¦à¤¾": 7493,
      "à¤Ĺà¥įà¤°": 7494,
      "ellow": 7495,
      "à´¤àµįà´¤à´¿à´¨àµįà´±àµĨ": 7496,
      "Ġà¤¹à¥ĭà¤¤": 7497,
      "Ġà¨°à©±à¨ĸ": 7498,
      "à°¾à°²à°¨à°¿": 7499,
      "Ġstudent": 7500,
      "à®¾à®¤à¯ģ": 7501,
      "Ġrisks": 7502,
      "Ġàª¥àªĪ": 7503,
      "à¤¾à¤ªà¥įà¤¤": 7504,
      "iques": 7505,
      "mbol": 7506,
      "Ġà¤µà¥įà¤¯à¤µ": 7507,
      "respond": 7508,
      "Param": 7509,
      "map": 7510,
      "à¨¾à¨ı": 7511,
      "amil": 7512,
      "Ġà¤¸à¤Ńà¥Ģ": 7513,
      "à²¦à²²": 7514,
      "Ġrise": 7515,
      "umul": 7516,
      "ĠFund": 7517,
      "Ġseems": 7518,
      "à¬¨àŃįà¬§": 7519,
      "à¤°à¥įà¤ļ": 7520,
      "à°¿à°Ĥà°¦": 7521,
      "coming": 7522,
      "à¯ģà®µà®©": 7523,
      "Ġcapac": 7524,
      "Ġorigin": 7525,
      "Ġbelieve": 7526,
      "à¯įà®¨à¯įà®¤à¯ģ": 7527,
      "à¤¾à¤·à¥įà¤Łà¥įà¤°": 7528,
      "He": 7529,
      "ground": 7530,
      "Ġmicro": 7531,
      "eturn": 7532,
      "Ġà¨¦à¨¿à¨¨": 7533,
      "Ġà¤µà¤¾à¤²à¥ĩ": 7534,
      "à¦Ĺà§įà¦°": 7535,
      "Ġadult": 7536,
      "à´³àµįà´³": 7537,
      "Ġunique": 7538,
      "ornia": 7539,
      "à´¾à´Łàµįà´Ł": 7540,
      "Ġinfluence": 7541,
      "Ġà²®à³Ĥà²²": 7542,
      "ched": 7543,
      "Ġà®²": 7544,
      "Ġmount": 7545,
      "Ġmagn": 7546,
      "Ġmole": 7547,
      "àª¾àª¥": 7548,
      "à«įàª§": 7549,
      "à®Łà¯ģ": 7550,
      "Ġà¦¤à¦¾": 7551,
      "à©ģà¨ķ": 7552,
      "à±Ģà°²": 7553,
      "Ġà¨ľà©ĩ": 7554,
      "Ġdoing": 7555,
      "à°µà°°": 7556,
      "à«Ĥàª°à«įàª": 7557,
      "Ġinterpre": 7558,
      "à±ģà°Ĥà°ļà°¿": 7559,
      "Ġà°Ĺà±ģà°°": 7560,
      "à¦¾à¦·à§įà¦Ł": 7561,
      "Ġexisting": 7562,
      "ĠSystem": 7563,
      "Ġà°¤à±Ģà°¸à±ģà°ķ": 7564,
      "ius": 7565,
      "à¬ĥ": 7566,
      "indu": 7567,
      "Ġcivil": 7568,
      "Ġpsych": 7569,
      "à¤¿à¤¹": 7570,
      "à«Ģàª¨àª¾": 7571,
      "Ġà¦¬à¦¨à§įà¦§": 7572,
      "Ġheat": 7573,
      "Ġà®ķà®Łà¯įà®Ł": 7574,
      "à¤¦à¥įà¤°": 7575,
      "à´¯àµģà´Ĥ": 7576,
      "à¤¾à¤¤à¤¾": 7577,
      "Ġappe": 7578,
      "Ġuseful": 7579,
      "Ġà¨¹à©ĭà¨ı": 7580,
      "à²¿à²ķà³Ĭà²Ĥà²¡": 7581,
      "Ġvariety": 7582,
      "Ġmatter": 7583,
      "Ġattrib": 7584,
      "à§ĩà¦Ľà¦¿": 7585,
      "unting": 7586,
      "Ġlinks": 7587,
      "ĠAfrica": 7588,
      "à´¿à´±àµįà´±": 7589,
      "xic": 7590,
      "}{\\": 7591,
      "Ġtrib": 7592,
      "Ġpict": 7593,
      "Ġhabit": 7594,
      "Ġgot": 7595,
      "ĠSw": 7596,
      "à¥ģà¤ķà¥įà¤¤": 7597,
      "Ġvia": 7598,
      "Ġrural": 7599,
      "à«ģàª¨": 7600,
      "Ġà¦¤à§ģà¦²": 7601,
      "à¥Ĥà¤¸": 7602,
      "Ġà¤¦à¤¿à¤¨": 7603,
      "à¤¿à¤¤à¥įà¤°": 7604,
      "à¤¿à¤¤à¥įà¤¤": 7605,
      "àªĤàª¡": 7606,
      "cret": 7607,
      "à°¯à°Ĥ": 7608,
      "Ġà´¤à´¨àµįà´¨": 7609,
      "Ġà®ħà®µà®°": 7610,
      "Ġsolution": 7611,
      "Ġveh": 7612,
      "Ġinstitutions": 7613,
      "Ġcrore": 7614,
      "ĠDevelopment": 7615,
      "({\\": 7616,
      "ij": 7617,
      "Ġsam": 7618,
      "àŃĪ": 7619,
      "eta": 7620,
      "à©Ģà¨°": 7621,
      "Ġà¦ªà¦¾à¦¨": 7622,
      "unction": 7623,
      "à¨¸à¨°": 7624,
      "à¦¾à§°à§°": 7625,
      "à¥įà¤¯à¤¾à¤¯": 7626,
      "ĠGr": 7627,
      "ĠGree": 7628,
      "Ġà¤ķà¥ĩà¤²à¤¾": 7629,
      "Ġà²¸à²¹": 7630,
      "Ġà¨ľà¨¾à¨µ": 7631,
      "Ġà´ħà´Ł": 7632,
      "Ġàª¤à«ĩàª¨à«Ģ": 7633,
      "Ġà¤ıà¤µ": 7634,
      "à¯ģà®ķà®¿à®©à¯įà®±": 7635,
      "à¤Ńà¤¾à¤µ": 7636,
      "à¬®à¬¾à¬¨àŃĩ": 7637,
      "à²ĸà³įà²¯": 7638,
      "handler": 7639,
      "à¨¾à¨ħà¨¦": 7640,
      "Ġwebsite": 7641,
      "At": 7642,
      "aur": 7643,
      "eration": 7644,
      "Ġsed": 7645,
      "Ġreach": 7646,
      "à¬°àŃįà¬¤àŃįà¬¤": 7647,
      "ĠWash": 7648,
      "Ġà¦ħà¦ª": 7649,
      "ormal": 7650,
      "àŃĭà¬°": 7651,
      "Ġà´µàµĨ": 7652,
      "Ġà²¬à²Ĺ": 7653,
      "Ġà°ªà±įà°°à°Ń": 7654,
      "hens": 7655,
      "Ġcurve": 7656,
      "à¨¾à¨£à©Ģ": 7657,
      "Ġà¤²à¥ĩà¤ķà¤¿à¤¨": 7658,
      "à¦¯à§ĭà¦Ĺ": 7659,
      "Ġà®¤à¯ĩà®µ": 7660,
      "Ġdigital": 7661,
      "ĠPresident": 7662,
      "ME": 7663,
      "ĠàªĬ": 7664,
      "Ġà²§": 7665,
      "àª¾àªŁ": 7666,
      "Ġrepl": 7667,
      "à¨¿à©°à¨¦": 7668,
      "à«Ģàª¨": 7669,
      "à«Ģàª²": 7670,
      "Ġà¨¸à©ĭ": 7671,
      "à²²à²¾à²Ĺà²¿à²¦à³Ĩ": 7672,
      "alls": 7673,
      "àŃŁà¬°àŃĩ": 7674,
      "àª¾àª°à«ĭ": 7675,
      "iance": 7676,
      "àŃĢà¬¨": 7677,
      "à®¤à¯įà®¤à®¿à®±à¯įà®ķ": 7678,
      "Ġà¦²à¦ķà§įà¦·": 7679,
      "à°Łà°¿": 7680,
      "Ġrelative": 7681,
      "issions": 7682,
      "à¬¦àŃįà¬§": 7683,
      "ĠCommission": 7684,
      "àª¿àª¯àª¾": 7685,
      "Ġcarry": 7686,
      "Ġoccurs": 7687,
      "ometric": 7688,
      "Ġà²µà²¿à²¶": 7689,
      "à«ĥàª¤": 7690,
      "Ġà²ķà²¾à²°à³įà²¯": 7691,
      "Ġsafety": 7692,
      "stdout": 7693,
      "Ġà¦¨à¦¤à§ģà¦¨": 7694,
      "off": 7695,
      "vant": 7696,
      "Ġà¦ķà§Ģ": 7697,
      "open": 7698,
      "à²ķà²¾à²°": 7699,
      "à®µà¯įà®µ": 7700,
      "Ġà´ªàµĬ": 7701,
      "Ġà´ķàµĩ": 7702,
      "Ġà´ķà´¾à´°": 7703,
      "Ġunc": 7704,
      "Ġà´ħà´¨": 7705,
      "Ġaccom": 7706,
      "ĠComm": 7707,
      "ructure": 7708,
      "Ġanaly": 7709,
      "Ġà¦²à¦Ĺà¦¤": 7710,
      "Ġà¤Ńà¤¾à¤°à¤¤à¥Ģà¤¯": 7711,
      "oon": 7712,
      "Ġtalk": 7713,
      "à¬Ĩ": 7714,
      "erk": 7715,
      "Ġexec": 7716,
      "Ġà¦¤à§ģà¦®": 7717,
      "Ġàªªà«ĭàª²": 7718,
      "Ġà¤°à¤ĸ": 7719,
      "àµįà´¤àµįà´¤": 7720,
      "Ġclosed": 7721,
      "à´®à´¾à´£àµį": 7722,
      "ĠKe": 7723,
      "Ġà¦Ńà¦¾à¦¬": 7724,
      "Ġà¨¬à¨¾à¨ħà¨¦": 7725,
      "à±įà°¯à°Ĥ": 7726,
      "à°¸à±į": 7727,
      "Ġtele": 7728,
      "Ġà²¤à²¿à²³": 7729,
      "à§įà¦¯à¦¨à§įà¦¤": 7730,
      "à¥įà¤¹à¥Ģ": 7731,
      "force": 7732,
      "à¦¸à§įà¦¥à¦¿à¦¤": 7733,
      "Ġprotection": 7734,
      "Ġversionchanged": 7735,
      "Ġefforts": 7736,
      "Ġà®İà®¤à®¿à®°": 7737,
      "AD": 7738,
      "Fl": 7739,
      "uge": 7740,
      "à¨¯": 7741,
      "à´ŀàµįà´ļ": 7742,
      "Ġtuple": 7743,
      "Ġfru": 7744,
      "Ġfather": 7745,
      "Ġfoot": 7746,
      "à¥ĩà¤¦": 7747,
      "àµįà´¨": 7748,
      "ceed": 7749,
      "uled": 7750,
      "essor": 7751,
      "à®²à®¾à®®à¯į": 7752,
      "elling": 7753,
      "Ġà¦ķà¦°à¦¾à¦°": 7754,
      "Ġàª¦àª¿àªµ": 7755,
      "Ġactual": 7756,
      "proxy": 7757,
      "Ġà¤¸à¤Ĥà¤ª": 7758,
      "àµģà´ķàµ¾": 7759,
      "Ġblock": 7760,
      "Ġrequires": 7761,
      "àŃĩà¬¬àŃĩ": 7762,
      "Ġprojects": 7763,
      "Ġestablish": 7764,
      "à²·à³įà²Łà³ģ": 7765,
      "Ġà¦ĩà¦¯à¦¼à¦¾à§°": 7766,
      "Ġignore": 7767,
      "Ġà²Ńà²¾à²°à²¤": 7768,
      "Ġliquid": 7769,
      "gar": 7770,
      "Â°": 7771,
      "Ġtim": 7772,
      "Ġsal": 7773,
      "à©°à¨¨": 7774,
      "àŃĩà¬¸": 7775,
      "ĠEconom": 7776,
      "à¦¾à§°à§Ģ": 7777,
      "à²³à³Ĩ": 7778,
      "à®¿à®¯à¯ģà®®à¯į": 7779,
      "à±Ĩà°Ł": 7780,
      "Ġà²ħà²Ń": 7781,
      "à¤¨à¥ĩà¤ķ": 7782,
      "à¦¾à¦®à§Ģ": 7783,
      "Ġsoon": 7784,
      "à´¿à´ķàµįà´ķàµģà´Ĥ": 7785,
      "ĠProv": 7786,
      "à®Ļà¯įà®ķà®³à¯Ī": 7787,
      "à´Ļàµįà´Ļà´³àµį": 7788,
      "Ġelement": 7789,
      "added": 7790,
      "Ġà®µà®¾à®´": 7791,
      "ĠCongress": 7792,
      "tained": 7793,
      "Ġsociety": 7794,
      "ese": 7795,
      "Ġcert": 7796,
      "Ġclean": 7797,
      "Ġmach": 7798,
      "raction": 7799,
      "Ġshares": 7800,
      "Ġà¦ľà¦¾à¦¤": 7801,
      "Ġàªľàª¾àª£": 7802,
      "à³įà²°à²®": 7803,
      "Ġà¦Ĺà§įà§°": 7804,
      "Ġà°ħà°¨à°¿": 7805,
      "à°¡à°¾à°¨à°¿à°ķà°¿": 7806,
      "à§ģà¦²à§ĭ": 7807,
      "Ġà¤¸à¤Ĥà¤¬à¤Ĥà¤§": 7808,
      "Ġà²Ĺà³įà²°": 7809,
      "Ġsmaller": 7810,
      "à¤¾à¤¶à¤¿": 7811,
      "Ġdebt": 7812,
      "Ġà¤ķà¤°à¤£à¥įà¤¯à¤¾à¤¤": 7813,
      "ĠISBN": 7814,
      "Ġà¦¬à¦¾à¦Ĥà¦²": 7815,
      "Some": 7816,
      "do": 7817,
      "Ļà¯įà®ķà®³à¯į": 7818,
      "à²«": 7819,
      "Ġcopy": 7820,
      "Ġà¤ķà¤¹": 7821,
      "Ġbecomes": 7822,
      "Ġexception": 7823,
      "Ġà¤µà¤¿à¤¨": 7824,
      "à¦¸à¦ķà¦²": 7825,
      "Ġà´ķàµĤà´Ł": 7826,
      "Ġà¦ªà§įà¦°à¦¶": 7827,
      "Ġà¦Ĩà¦®à¦°à¦¾": 7828,
      "Ġincreases": 7829,
      "à°ªà±įà°ªà±ģà°¡à±ģ": 7830,
      "Ġà¤Ŀà¤¾à¤²": 7831,
      "Ġlaws": 7832,
      "à¤¸à¥įà¤¥à¤¾": 7833,
      "ĠQu": 7834,
      "Ġà¦ħà¦Ńà¦¿à¦¯": 7835,
      "Ġà´ªà´°à´¿à´": 7836,
      ")=": 7837,
      "Ġfat": 7838,
      "Ġbooks": 7839,
      "cean": 7840,
      "àŃĩà¬°": 7841,
      "ĠSam": 7842,
      "orthern": 7843,
      "Ġà¨¹à¨¾à¨Ĥ": 7844,
      "àª¿àªĤ": 7845,
      "à´¤à´¿à´°": 7846,
      "Ġàªķàª¾àª®": 7847,
      "à¤ļà¥įà¤Ľ": 7848,
      "Ġà®®à®¾à®µ": 7849,
      "Ġà®ļà®®": 7850,
      "izes": 7851,
      "à«Ģàª§": 7852,
      "Ġà°¦à±Ģ": 7853,
      "à°Ĥà°¤à±įà°°": 7854,
      "Ġà¤ħà¤ªà¤¨à¥Ģ": 7855,
      "à®±à¯įà®ķà¯ģ": 7856,
      "à¯Īà®¤à¯įà®¤à¯ģ": 7857,
      "Ġdocument": 7858,
      "ios": 7859,
      "Ġeight": 7860,
      "ĠAc": 7861,
      "unk": 7862,
      "à²Ĥà²ª": 7863,
      "à®²à®®à¯į": 7864,
      "à¦¦à¦¾à¦¨": 7865,
      "à±Ĩà°Ĥà°Ł": 7866,
      "Ġà¦ķà¦°à§įà¦®": 7867,
      "Ġàªıàª®": 7868,
      "Ġshowed": 7869,
      "ĠScience": 7870,
      "à®¾à®®à®²à¯į": 7871,
      "Ġprompt": 7872,
      "(\"/\")": 7873,
      "Ġà¦ķà§°à¦¿à¦¬à¦²à§Ī": 7874,
      "Ġhous": 7875,
      "à¤¿à¤Ĺ": 7876,
      "à°¾à°¹": 7877,
      "Ġgave": 7878,
      "ĠSer": 7879,
      "à¤²à¤Ĥ": 7880,
      "à¨¿à¨Ł": 7881,
      "rip": 7882,
      "Ġà¨¸à¨¹": 7883,
      "Ġbytes": 7884,
      "ĠRBI": 7885,
      "Ġàª¸à«įàªŁ": 7886,
      "Ġà²®à²¹": 7887,
      "Ġreserv": 7888,
      "Ġà¬¬à¬°àŃįà¬·": 7889,
      "izations": 7890,
      "à²¾à²°à³ģ": 7891,
      "à²¿à²¸à³ģà²¤à³įà²¤": 7892,
      "à´¸àµįà´±àµįà´±": 7893,
      "à´¨à´Ĥ": 7894,
      "Ġà¤µà¤¿à¤¦": 7895,
      "Ġà¦ħà¦¨à§ģà¦·à§įà¦ł": 7896,
      "Ġà¤¤à¥įà¤¯à¤¾à¤®à¥ģà¤³à¥ĩ": 7897,
      "Ġreading": 7898,
      "Ġà¨¤à©ģà¨¸à©Ģà¨Ĥ": 7899,
      "Ġdefinition": 7900,
      "ĠCalifornia": 7901,
      "Sh": 7902,
      "body": 7903,
      "à®ŀà¯įà®ļ": 7904,
      "à¦¾à¦«": 7905,
      "Ġbudget": 7906,
      "à§ĩà¦£": 7907,
      "Ġhar": 7908,
      "omb": 7909,
      "à¦¬à¦¾": 7910,
      "Ġàªķà«ĭàªĪ": 7911,
      "Ġà¤¨à¤¿à¤¯": 7912,
      "à©ģà¨²": 7913,
      "Ġà²¸à²¾à²§": 7914,
      "à¤¡à¥Ĥà¤¨": 7915,
      "Ġexpon": 7916,
      "Ġà¨ķà¨°à¨¦à©ĩ": 7917,
      "Ġrot": 7918,
      "àµ¼à´¤àµįà´¤": 7919,
      "ookies": 7920,
      "Ġà¨¹à©ĭà¨ĩà¨Ĩ": 7921,
      "Ġinside": 7922,
      "Ġmonetary": 7923,
      "Ġàªļàª¾àª²": 7924,
      "options": 7925,
      "Ġvalid": 7926,
      "Ġà¤°à¤¾à¤ľà¥įà¤¯": 7927,
      "Ġà¦¬à¦¿à¦¶à§ĩà¦·": 7928,
      "à®¾à®±à¯įà®±": 7929,
      "à¬ŀàŃįà¬ļ": 7930,
      "Ġà¬ħà¬§à¬¿à¬ķ": 7931,
      "Ġbalance": 7932,
      "Ġà¦ªà¦¥": 7933,
      "ects": 7934,
      "oses": 7935,
      "Ġà¦¨à§ĩà¦¤": 7936,
      "ĠRiver": 7937,
      "ĠFirst": 7938,
      "Ġà¨ľà©Ģ": 7939,
      "à¤¾à¤Ĥà¤ļ": 7940,
      "orders": 7941,
      "Ġà¦¬à¦¿à¦ª": 7942,
      "à¦¾à¦¦à¦ķ": 7943,
      "à²¿à²¤à³įà²°": 7944,
      "Ġà¬Ńà¬¾à¬¬": 7945,
      "Ġcorrespond": 7946,
      "Ġloans": 7947,
      "Ġleaders": 7948,
      "à¤Ĥà¤¦à¥įà¤°": 7949,
      "à´±àµįà´±àµį": 7950,
      "Ġskills": 7951,
      "stitution": 7952,
      "domain": 7953,
      "Ġscientific": 7954,
      "wide": 7955,
      "isis": 7956,
      "à°¾à°¶": 7957,
      "Ġproced": 7958,
      "ĠMah": 7959,
      "Ġà¦Ĩà¦¤": 7960,
      "Ġà¦®à§ĥà¦¤": 7961,
      "à¤µà¥Ģ": 7962,
      "àŃĩà¬ĸ": 7963,
      "à¦¾à¦ķà§įà¦¤": 7964,
      "à¨µà¨¾": 7965,
      "à¨¾à¨²à©Ģ": 7966,
      "à¤¤à¥Ģà¤²": 7967,
      "Ġà®Ĩà®¯": 7968,
      "Ġgoods": 7969,
      "Ġaccounts": 7970,
      "Ġà¦ħà¦§à¦¿à¦ķ": 7971,
      "Exception": 7972,
      "Ġsquare": 7973,
      "ĠGerman": 7974,
      "Ġexposure": 7975,
      "spec": 7976,
      "split": 7977,
      "ret": 7978,
      "Ġsem": 7979,
      "Ġlic": 7980,
      "chol": 7981,
      "à²¤à²¿à²¯": 7982,
      "Ġà®ħà®³": 7983,
      "à¤°à¥įà¤¸": 7984,
      "à¦¿à¦²à§ĩà¦¨": 7985,
      "àµĭà´Łàµįà´Ł": 7986,
      "Ġàªµàª¾àª¤": 7987,
      "Ġà²¨à²¿à²®": 7988,
      "à©ľà©Ģ": 7989,
      "Ġgetting": 7990,
      "à¤¿à¤µà¤¾à¤°": 7991,
      "Ġà¦¨à¦¿à¦¶": 7992,
      "Ġfollows": 7993,
      "Ġprocessing": 7994,
      "ranch": 7995,
      "Ġà¬¦àŃĩà¬¶": 7996,
      "Ġsituation": 7997,
      "Ġà¨ķà¨¿à¨¸à©ĩ": 7998,
      "Ġàªµàª§à«ģ": 7999,
      "Ġà¨¸à¨¿à©±à¨ĸ": 8000,
      "ĠCouncil": 8001,
      "cookie": 8002,
      "Ġ}}": 8003,
      "à±įà°£": 8004,
      "à«įàª·": 8005,
      "Ġgard": 8006,
      "à¬¿à¬ĻàŃįà¬Ĺ": 8007,
      "que": 8008,
      "ĠDo": 8009,
      "à±ĩà°®": 8010,
      "Ġà®¨à®¾à®©à¯į": 8011,
      "Ġà¦Ĺà¦¤": 8012,
      "à©°à¨ļ": 8013,
      "à¥ĭà¤Ĥà¤¨à¥ĩ": 8014,
      "Ġexpand": 8015,
      "Ġà¦²à¦¿à¦ĸ": 8016,
      "Ġà¬ħà¬¬": 8017,
      "à¤ķà¤°à¤£": 8018,
      "Ġreduced": 8019,
      "Ġà®µà¯Ĩà®³à®¿à®¯": 8020,
      "à«¨": 8021,
      "Ġdraw": 8022,
      "Ġreform": 8023,
      "Ġthing": 8024,
      "à¤ķà¥ĭà¤Ĥ": 8025,
      "Ġstop": 8026,
      "irit": 8027,
      "Ġà¤®à¤¾à¤¤à¥įà¤°": 8028,
      "Ġdem": 8029,
      "Ġvict": 8030,
      "àªķà«įàª¤": 8031,
      "à§ģà¦ģ": 8032,
      "Ġà¦ļà¦ķ": 8033,
      "Ġplans": 8034,
      "Ġà¦¯à¦¾à¦¬": 8035,
      "àµĩà´£àµįà´Ł": 8036,
      "Ġà¤Ĺà¤ı": 8037,
      "Ġà¤Ńà¤¾à¤Ĺ": 8038,
      "ologies": 8039,
      "Ġàª²à«ĩ": 8040,
      "Ġpolice": 8041,
      "Ġraised": 8042,
      "issing": 8043,
      "Ġà®Ĩà®©à®¾à®²à¯į": 8044,
      "Ġattract": 8045,
      "Ġadvant": 8046,
      "Ġemployment": 8047,
      "Ġalternative": 8048,
      "DI": 8049,
      "à¬ĩ": 8050,
      "itude": 8051,
      "à¬¿à¬Ĥ": 8052,
      "à¬¿à¬Ľà¬¨àŃįà¬¤à¬¿": 8053,
      "iff": 8054,
      "ĠMP": 8055,
      "à©±à¨¤à¨°": 8056,
      "Ġà¤ħà¤¨à¥ĩà¤ķ": 8057,
      "à¤ļà¤¾à¤°": 8058,
      "ĠGroup": 8059,
      "Ġà¦ļà¦¿à¦¨": 8060,
      "Ġà¨²à©±à¨Ĺ": 8061,
      "à¤¾à¤£à¥Ģ": 8062,
      "ĠReserve": 8063,
      "Ġà¨Ĩà¨ªà¨£à©Ģ": 8064,
      "Ġcrisis": 8065,
      "Ġà¦¬à§įà¦¯à§±": 8066,
      "Ġà®®à¯ĩà®²": 8067,
      "Ġà¦ľà§Ģà§±": 8068,
      "CI": 8069,
      "light": 8070,
      "pid": 8071,
      "aligned": 8072,
      "à®¾à®ªà¯įà®ª": 8073,
      "àª¨àª¾àªĤ": 8074,
      "à´¤à´¿": 8075,
      "aint": 8076,
      "Ġà¤¬à¤¢à¤¼": 8077,
      "Ġà®ļà®¿à®²": 8078,
      "àŃĢà¬¬": 8079,
      "Ġà°¨à±ģà°Ĥà°ļà°¿": 8080,
      "à¦Ĥà¦¶": 8081,
      "à°¿à°ķà°¾à°°": 8082,
      "Ġà¦ªà§°à§Ģà¦ķà§įà¦·": 8083,
      "à©ľà©įà¨¹": 8084,
      "à®¿à®ķà¯įà®ķà®ªà¯įà®ªà®Łà¯įà®Ł": 8085,
      "Ġreturned": 8086,
      "ĠExchange": 8087,
      "Ġtechniques": 8088,
      "Ġconstruct": 8089,
      "Ġcurrently": 8090,
      "Ġforest": 8091,
      "Ġlooking": 8092,
      "ĠEngland": 8093,
      "Ġanimal": 8094,
      "Ġrequirements": 8095,
      "Ġencou": 8096,
      "Ġsteps": 8097,
      "Ġobserved": 8098,
      "Ġà¤¯à¥ĩà¤¥": 8099,
      "write": 8100,
      "à¬Ľ": 8101,
      "hell": 8102,
      "erate": 8103,
      "itation": 8104,
      "aled": 8105,
      "Ġwaters": 8106,
      "Ġhundred": 8107,
      "Ġlove": 8108,
      "Ġlives": 8109,
      "sec": 8110,
      "ĠSur": 8111,
      "istical": 8112,
      "Ġdead": 8113,
      "Ġà¦¤à¦¬à§ĩ": 8114,
      "Ġà®µà®¿à®°": 8115,
      "Ġà¤¬à¤¾à¤ľ": 8116,
      "à±ĩà°ª": 8117,
      "Ġà´¸àµįà´¥": 8118,
      "Ġscreen": 8119,
      "à¬£à¬¾": 8120,
      "Ġtesting": 8121,
      "Ġà®īà®°": 8122,
      "Ġresulting": 8123,
      "Ġà²Ĺà³ģ": 8124,
      "Ġhealthcare": 8125,
      "current": 8126,
      "Ġà®ªà¯ĭà®²": 8127,
      "à´ķàµįà´¤": 8128,
      "Ġgradu": 8129,
      "à²¦à³ģà²ķ": 8130,
      "Ġlogarithm": 8131,
      "HE": 8132,
      "gn": 8133,
      "hing": 8134,
      "à®·": 8135,
      "arter": 8136,
      "à²¿à²İ": 8137,
      "àª¤à«ĩ": 8138,
      "Ġà¦¹à§ĭà§±à¦¾": 8139,
      "àªķà«ĭ": 8140,
      "à¨ķà¨¾": 8141,
      "Ġàª¸àªĤ": 8142,
      "Ġà¬ªà¬¾à¬": 8143,
      "àµĭàµ¾": 8144,
      "Ġà´ķàµģà´±": 8145,
      "à®Łà¯įà®Łà¯ģ": 8146,
      "à´£àµįà´£": 8147,
      "Ġtransport": 8148,
      "Ġà¤«à¤¿à¤°": 8149,
      "Ġseek": 8150,
      "à²¿à²µà³Ĩ": 8151,
      "Ġà®µà®¿à®³": 8152,
      "Ġà¦¦à§ģà¦ĩ": 8153,
      "à°·à±įà°Ł": 8154,
      "Ġà¬īà¬ªà¬°àŃĩ": 8155,
      "cmd": 8156,
      "mosp": 8157,
      "Ġinn": 8158,
      "cho": 8159,
      "ĠSince": 8160,
      "Ġà¤ªà¤¾à¤¹": 8161,
      "Ġà¦¤à¦ĸà¦¨": 8162,
      "Ġà¤¬à¤¦": 8163,
      "à±Ģà°¯": 8164,
      "Ġà¨®à©ĩ": 8165,
      "Ġà¤ķà¤°à¥Ĥà¤¨": 8166,
      "Ġà¤īà¤¤à¥įà¤¤": 8167,
      "Ġà´¨àµĩ": 8168,
      "Ġà¦°à¦¯à¦¼": 8169,
      "à¬ªàŃįà¬°": 8170,
      "Ġà¤ĺà¥ĩà¤¤": 8171,
      "Ġbehind": 8172,
      "à¬¾à¬ĩà¬¬": 8173,
      "Ġvideo": 8174,
      "ollywood": 8175,
      "PO": 8176,
      "net": 8177,
      "à¤ĩ": 8178,
      "à°¾à°³": 8179,
      "à¤¨à¥įà¤¦": 8180,
      "à¨¿à¨¬": 8181,
      "à°Ĥà°§": 8182,
      "Ġàª¸à«įàª¥": 8183,
      "Ġà¬ªà¬¾à¬°": 8184,
      "These": 8185,
      "à´¯à´Ĥ": 8186,
      "à¦¿à¦²à¦¾": 8187,
      "à¨¿à¨Ĩà¨°": 8188,
      "ĠValue": 8189,
      "à±ģà°²à°ķà±ģ": 8190,
      "phas": 8191,
      "Ġàª®àª¾àª¤": 8192,
      "Ġmajority": 8193,
      "Ġà¬®à¬§àŃįàŃŁà¬°àŃĩ": 8194,
      "Ġbirds": 8195,
      "Ġachieve": 8196,
      "Ġà¦ħà¦°à§įà¦¥": 8197,
      "TTP": 8198,
      "fin": 8199,
      "ga": 8200,
      "sk": 8201,
      "}=": 8202,
      "Ġà¤ķà¤¾à¤¯": 8203,
      "Ġà¤¸à¥Ģ": 8204,
      "àª°àª®": 8205,
      "àª°àª£": 8206,
      "à²¦à²²à³įà²²": 8207,
      "ĠMat": 8208,
      "à¨¤à¨¾à¨Ĥ": 8209,
      "à©ĭà¨ľ": 8210,
      "àª¤à«ĭ": 8211,
      "osing": 8212,
      "Ġà¨ªà©Ī": 8213,
      "à¤¯à¤°": 8214,
      "Ġà¦Ĺà§ĩà¦²": 8215,
      "à¦¿à¦¨à§įà¦¦": 8216,
      "à¦¾à¦¤à§įà§°": 8217,
      "à©°à¨Ł": 8218,
      "à³Ĥà²¡": 8219,
      "Ġunit": 8220,
      "à¯Ĭà®°": 8221,
      "apping": 8222,
      "Ġaccur": 8223,
      "Ġsaw": 8224,
      "Ġquite": 8225,
      "Ġattack": 8226,
      "à®¾à®¤à¯įà®¤": 8227,
      "Ġequivalent": 8228,
      "àµĩà´°à´³": 8229,
      "Ġdomestic": 8230,
      "Ġàªķàª¹à«įàª¯à«ģàªĤ": 8231,
      "Ġurban": 8232,
      "Ġdeviation": 8233,
      "ĠWashington": 8234,
      "ln": 8235,
      "wa": 8236,
      "àªł": 8237,
      "alination": 8238,
      "Ġwide": 8239,
      "Ġec": 8240,
      "Ġà¤ķà¥ģ": 8241,
      "à¦¤à¦¿à¦ķ": 8242,
      "à¦°à§įà¦ķ": 8243,
      "à§ĭà¦ļ": 8244,
      "à´¾à´¦": 8245,
      "ĠPM": 8246,
      "Ġà¨¸à¨¾à¨°à©ĩ": 8247,
      "Ġà®ªà¯ģà®¤": 8248,
      "Ġà®ķà®²": 8249,
      "Ġà®®à®ķà¯įà®ķ": 8250,
      "à®µà®¿à®²à¯įà®²à¯Ī": 8251,
      "à¦Ĺà§įà§°": 8252,
      "akistan": 8253,
      "à±ĩà°¤": 8254,
      "rupt": 8255,
      "àµĢà´°": 8256,
      "à¬¿à¬¬à¬¾à¬°": 8257,
      "à¦¾à¦¦à§ĩà¦¶": 8258,
      "Ġformed": 8259,
      "ĠRead": 8260,
      "à²Ĥà²¤à³įà²°": 8261,
      "Ġhimself": 8262,
      "Ġà¤Ŀà¤¾à¤²à¥ĩ": 8263,
      "à´¨àµįà´¤àµįà´¯": 8264,
      "à±Ģà°°à±ģ": 8265,
      "Ġcapacity": 8266,
      "àªħ": 8267,
      "Ġtable": 8268,
      "heck": 8269,
      "à««": 8270,
      "Ġpan": 8271,
      "ingu": 8272,
      "à¨°à¨®": 8273,
      "ĠCount": 8274,
      "Ġà¦Ĩà¦²à§ĭ": 8275,
      "ĠRaj": 8276,
      "à¤ªà¤¾à¤¸": 8277,
      "à«ĩàªľ": 8278,
      "ĠUnder": 8279,
      "Ġàªľàª£": 8280,
      "ĠàªĨàªĹ": 8281,
      "ruc": 8282,
      "à¨µà¨°": 8283,
      "Ġà´¨à´¿à´°": 8284,
      "à°¾à°¨à°¿": 8285,
      "Ġà¨¹à©ĭà¨Ī": 8286,
      "Ġà¦Ĩà¦®à¦¾à§°": 8287,
      "à®±à¯įà®±à¯ģ": 8288,
      "Ġserious": 8289,
      "à¯ģà®³à¯įà®³à®¾à®°à¯į": 8290,
      "à²ľà³įà²": 8291,
      "Ġà¬¦àŃĩà¬ĩà¬": 8292,
      "Ġideas": 8293,
      "Ġàª¤à«ĩàªĵ": 8294,
      "Ġsecurities": 8295,
      "Ġwidely": 8296,
      "Ġàª¦àª¿àªµàª¸": 8297,
      "Se": 8298,
      "book": 8299,
      "ii": 8300,
      "à¥įà¤Ĺ": 8301,
      "Ġnamed": 8302,
      "à®¾à®ª": 8303,
      "rapy": 8304,
      "Ġà¦¸à§Ī": 8305,
      "à²Ĥà²§": 8306,
      "àŃĩà¬·": 8307,
      "Ġà®ªà¯ĩ": 8308,
      "Ġà¤¨à¤¿à¤ķ": 8309,
      "Ġà®ļà®°": 8310,
      "Ġà²¨à³ĭà²¡": 8311,
      "à©Ģà¨ħ": 8312,
      "Ġà²¬à²Ĥà²¦": 8313,
      "à±ģà°²à°¨à±ģ": 8314,
      "à¬¿à¬²àŃĩ": 8315,
      "Ġà¨¹à©ĭà¨µ": 8316,
      "àµĩà´¹": 8317,
      "Ġfeature": 8318,
      "Ġà¤ĩà¤¸à¤ķà¥ĩ": 8319,
      "ĠIndians": 8320,
      "Ġproviding": 8321,
      "Ġcommonly": 8322,
      "à´¿à´¤àµįà´°": 8323,
      "Ġeasy": 8324,
      "Ġlaunc": 8325,
      "Ġdevice": 8326,
      "à§įà¦¯à¦¾à¦²à¦¯à¦¼": 8327,
      "Ġpremium": 8328,
      "overy": 8329,
      "ĠØ": 8330,
      "ini": 8331,
      "Ġcities": 8332,
      "edia": 8333,
      "Ġmix": 8334,
      "start": 8335,
      "à±įà°·": 8336,
      "à§Ģà¦®": 8337,
      "à¦¬à§įà¦¯": 8338,
      "àŃĩà¬ª": 8339,
      "ĠLaw": 8340,
      "à¤°à¥įà¤¡": 8341,
      "Ġà¨¤à©±à¨ķ": 8342,
      "Ġgoal": 8343,
      "Ġà²¤à²®à³įà²®": 8344,
      "Ġgenetic": 8345,
      "Ġrecently": 8346,
      "à¤¾à¤ľà¥Ģ": 8347,
      "Ġàª¥àª¯": 8348,
      "Ġcarbon": 8349,
      "à´¾à´¤àµįà´¤": 8350,
      "Ġà¨¸à¨®à©ĩà¨Ĥ": 8351,
      "Ġspeed": 8352,
      "Ġvector": 8353,
      "ING": 8354,
      "à¤ķà¥įà¤°à¤®": 8355,
      "atform": 8356,
      "Ġà¤ķà¤Ī": 8357,
      "à®¾à®¨": 8358,
      "ĠMy": 8359,
      "ĠMet": 8360,
      "Ġà¨¸à¨¥": 8361,
      "Ġà¦®à¦¤": 8362,
      "Ġà¦¨à§ĩà¦ĩ": 8363,
      "àŃĩà¬Ł": 8364,
      "Ġà®ªà®ķà¯ģà®¤": 8365,
      "à¤°à¥įà¤§": 8366,
      "outhern": 8367,
      "à±Ĩà°°": 8368,
      "Ġà´ķàµģà´Ł": 8369,
      "à°¸à°Ĥ": 8370,
      "Ġinstall": 8371,
      "Ġà¬ĹàŃįà¬°": 8372,
      "Ġà¦«à¦²": 8373,
      "Ġfeet": 8374,
      "Ġlocated": 8375,
      "à¦¸à§įà¦¥à¦¾": 8376,
      "à¥įà¤²à¥Ģ": 8377,
      "Ġà¬ĺà¬Ł": 8378,
      "Ġhttpbin": 8379,
      "Context": 8380,
      "à¤¶à¥įà¤¯à¤ķ": 8381,
      "ĠCourt": 8382,
      "Ġà¬ĵà¬¡à¬¼à¬¿à¬¶": 8383,
      "Ġà²¬à²Ĺà³įà²Ĺà³Ĩ": 8384,
      "¨à¥ĩ": 8385,
      "à°«": 8386,
      "Ġworth": 8387,
      "Ġà¬ĩ": 8388,
      "Ġdat": 8389,
      "Ġreasons": 8390,
      "odes": 8391,
      "Ġà¤ªà¥ģà¤°": 8392,
      "à®Łà®¿à®¯": 8393,
      "à¦ªà§įà§°": 8394,
      "à²³à³įà²³": 8395,
      "à¦¾à¦²à¦¿à¦ķ": 8396,
      "Ġcompar": 8397,
      "Ġà¦ªà§įà¦°à¦¥à¦®": 8398,
      "Ġoffice": 8399,
      "à¬¨àŃįà¬¤àŃģ": 8400,
      "à§ĩà¦¤à¦¿à¦¯à¦¼à¦¾": 8401,
      "Ġhighly": 8402,
      "à¤¿à¤Ĥà¤¹": 8403,
      "Ġprocesses": 8404,
      "Ġpercentage": 8405,
      "Ġàª¸àª®àª¯": 8406,
      "Ġà¤¹à¥ģà¤Ĩ": 8407,
      "Ġmoment": 8408,
      "Ġà®®à®¾à®µà®Łà¯įà®Ł": 8409,
      "after": 8410,
      "gor": 8411,
      "ÇĿ": 8412,
      "ĠCO": 8413,
      "Ġà¤¹à¤ľ": 8414,
      "abet": 8415,
      "Ġà¤¬à¥įà¤°": 8416,
      "Ġà¤¬à¥Ī": 8417,
      "Ġà®ħà®ªà¯įà®ª": 8418,
      "Ġà¦ļà¦¿à¦ķ": 8419,
      "Ġà°µà°°": 8420,
      "à®¨à¯įà®¤à¯ģ": 8421,
      "Ġà²ĩà²²à³įà²²": 8422,
      "Ġoffers": 8423,
      "à¬³à¬°àŃĩ": 8424,
      "à¯įà®µà¯ģ": 8425,
      "ĠArt": 8426,
      "Ġplayed": 8427,
      "à¯ģà®ªà¯į": 8428,
      "Ġflows": 8429,
      "Ġcontracts": 8430,
      "ĠTrans": 8431,
      "gypt": 8432,
      "Ġmortgage": 8433,
      "mi": 8434,
      "à®Ĩ": 8435,
[...]
