{
  "version": "1.0",
  "truncation": null,
  "padding": null,
  "added_tokens": [
    {
      "id": 0,
      "content": "<|bos|>",
      "single_word": false,
      "lstrip": false,
      "rstrip": false,
      "normalized": false,
      "special": true
    },
    {
      "id": 1,
      "content": "<|eos|>",
      "single_word": false,
      "lstrip": false,
      "rstrip": false,
      "normalized": false,
      "special": true
    },
    {
      "id": 2,
      "content": "<|pad|>",
      "single_word": false,
      "lstrip": false,
      "rstrip": false,
      "normalized": false,
      "special": true
    },
    {
      "id": 3,
      "content": "<|reserved_0|>",
      "single_word": false,
      "lstrip": false,
      "rstrip": false,
      "normalized": false,
      "special": true
    },
    {
      "id": 4,
      "content": "<|reserved_1|>",
      "single_word": false,
      "lstrip": false,
      "rstrip": false,
      "normalized": false,
      "special": true
    },
    {
      "id": 5,
      "content": "<|reserved_2|>",
      "single_word": false,
      "lstrip": false,
      "rstrip": false,
      "normalized": false,
      "special": true
    },
    {
      "id": 6,
      "content": "<|reserved_3|>",
      "single_word": false,
      "lstrip": false,
      "rstrip": false,
      "normalized": false,
      "special": true
    },
    {
      "id": 7,
      "content": "<|reserved_4|>",
      "single_word": false,
      "lstrip": false,
      "rstrip": false,
      "normalized": false,
      "special": true
    },
    {
      "id": 8,
      "content": "<|reserved_5|>",
      "single_word": false,
      "lstrip": false,
      "rstrip": false,
      "normalized": false,
      "special": true
    },
    {
      "id": 9,
      "content": "<|reserved_6|>",
      "single_word": false,
      "lstrip": false,
      "rstrip": false,
      "normalized": false,
      "special": true
    },
    {
      "id": 10,
      "content": "<|reserved_7|>",
      "single_word": false,
      "lstrip": false,
      "rstrip": false,
      "normalized": false,
      "special": true
    },
    {
      "id": 11,
      "content": "<|reserved_8|>",
      "single_word": false,
      "lstrip": false,
      "rstrip": false,
      "normalized": false,
      "special": true
    },
    {
      "id": 12,
      "content": "<|reserved_9|>",
      "single_word": false,
      "lstrip": false,
      "rstrip": false,
      "normalized": false,
      "special": true
    },
    {
      "id": 13,
      "content": "<|reserved_10|>",
      "single_word": false,
      "lstrip": false,
      "rstrip": false,
      "normalized": false,
      "special": true
    },
    {
      "id": 14,
      "content": "<|reserved_11|>",
      "single_word": false,
      "lstrip": false,
      "rstrip": false,
      "normalized": false,
      "special": true
    },
    {
      "id": 15,
      "content": "<|reserved_12|>",
      "single_word": false,
      "lstrip": false,
      "rstrip": false,
      "normalized": false,
      "special": true
    },
    {
      "id": 16,
      "content": "<|reserved_13|>",
      "single_word": false,
      "lstrip": false,
      "rstrip": false,
      "normalized": false,
      "special": true
    },
    {
      "id": 17,
      "content": "<|reserved_14|>",
      "single_word": false,
      "lstrip": false,
      "rstrip": false,
      "normalized": false,
      "special": true
    },
    {
      "id": 18,
      "content": "<|reserved_15|>",
      "single_word": false,
      "lstrip": false,
      "rstrip": false,
      "normalized": false,
      "special": true
    },
    {
      "id": 19,
      "content": "<|reserved_16|>",
      "single_word": false,
      "lstrip": false,
      "rstrip": false,
      "normalized": false,
      "special": true
    },
    {
      "id": 20,
      "content": "<|reserved_17|>",
      "single_word": false,
      "lstrip": false,
      "rstrip": false,
      "normalized": false,
      "special": true
    },
    {
      "id": 21,
      "content": "<|reserved_18|>",
      "single_word": false,
      "lstrip": false,
      "rstrip": false,
      "normalized": false,
      "special": true
    },
    {
      "id": 22,
      "content": "<|reserved_19|>",
      "single_word": false,
      "lstrip": false,
      "rstrip": false,
      "normalized": false,
      "special": true
    },
    {
      "id": 23,
      "content": "<|reserved_20|>",
      "single_word": false,
      "lstrip": false,
      "rstrip": false,
      "normalized": false,
      "special": true
    },
    {
      "id": 24,
      "content": "<|reserved_21|>",
      "single_word": false,
      "lstrip": false,
      "rstrip": false,
      "normalized": false,
      "special": true
    },
    {
      "id": 25,
      "content": "<|reserved_22|>",
      "single_word": false,
      "lstrip": false,
      "rstrip": false,
      "normalized": false,
      "special": true
    },
    {
      "id": 26,
      "content": "<|reserved_23|>",
      "single_word": false,
      "lstrip": false,
      "rstrip": false,
      "normalized": false,
      "special": true
    },
    {
      "id": 27,
      "content": "<|reserved_24|>",
      "single_word": false,
      "lstrip": false,
      "rstrip": false,
      "normalized": false,
      "special": true
    },
    {
      "id": 28,
      "content": "<|reserved_25|>",
      "single_word": false,
      "lstrip": false,
      "rstrip": false,
      "normalized": false,
      "special": true
    },
    {
      "id": 29,
      "content": "<|reserved_26|>",
      "single_word": false,
      "lstrip": false,
      "rstrip": false,
      "normalized": false,
      "special": true
    },
    {
      "id": 30,
      "content": "<|reserved_27|>",
      "single_word": false,
      "lstrip": false,
      "rstrip": false,
      "normalized": false,
      "special": true
    },
    {
      "id": 31,
      "content": "<|reserved_28|>",
      "single_word": false,
      "lstrip": false,
      "rstrip": false,
      "normalized": false,
      "special": true
    },
    {
      "id": 32,
      "content": "<|reserved_29|>",
      "single_word": false,
      "lstrip": false,
      "rstrip": false,
      "normalized": false,
      "special": true
    },
    {
      "id": 33,
      "content": "<|reserved_30|>",
      "single_word": false,
      "lstrip": false,
      "rstrip": false,
      "normalized": false,
      "special": true
    },
    {
      "id": 34,
      "content": "<|reserved_31|>",
      "single_word": false,
      "lstrip": false,
      "rstrip": false,
      "normalized": false,
      "special": true
    },
    {
      "id": 35,
      "content": "<|reserved_32|>",
      "single_word": false,
      "lstrip": false,
      "rstrip": false,
      "normalized": false,
      "special": true
    },
    {
      "id": 36,
      "content": "<|reserved_33|>",
      "single_word": false,
      "lstrip": false,
      "rstrip": false,
      "normalized": false,
      "special": true
    },
    {
      "id": 37,
      "content": "<|reserved_34|>",
      "single_word": false,
      "lstrip": false,
      "rstrip": false,
      "normalized": false,
      "special": true
    },
    {
      "id": 38,
      "content": "<|reserved_35|>",
      "single_word": false,
      "lstrip": false,
      "rstrip": false,
      "normalized": false,
      "special": true
    },
    {
      "id": 39,
      "content": "<|reserved_36|>",
      "single_word": false,
      "lstrip": false,
      "rstrip": false,
      "normalized": false,
      "special": true
    },
    {
      "id": 40,
      "content": "<|reserved_37|>",
      "single_word": false,
      "lstrip": false,
      "rstrip": false,
      "normalized": false,
      "special": true
    },
    {
      "id": 41,
      "content": "<|reserved_38|>",
      "single_word": false,
      "lstrip": false,
      "rstrip": false,
      "normalized": false,
      "special": true
    },
    {
      "id": 42,
      "content": "<|reserved_39|>",
      "single_word": false,
      "lstrip": false,
      "rstrip": false,
      "normalized": false,
      "special": true
    },
    {
      "id": 43,
      "content": "<|reserved_40|>",
      "single_word": false,
      "lstrip": false,
      "rstrip": false,
      "normalized": false,
      "special": true
    },
    {
      "id": 44,
      "content": "<|reserved_41|>",
      "single_word": false,
      "lstrip": false,
      "rstrip": false,
      "normalized": false,
      "special": true
    },
    {
      "id": 45,
      "content": "<|reserved_42|>",
      "single_word": false,
      "lstrip": false,
      "rstrip": false,
      "normalized": false,
      "special": true
    },
    {
      "id": 46,
      "content": "<|reserved_43|>",
      "single_word": false,
      "lstrip": false,
      "rstrip": false,
      "normalized": false,
      "special": true
    },
    {
      "id": 47,
      "content": "<|reserved_44|>",
      "single_word": false,
      "lstrip": false,
      "rstrip": false,
      "normalized": false,
      "special": true
    },
    {
      "id": 48,
      "content": "<|reserved_45|>",
      "single_word": false,
      "lstrip": false,
      "rstrip": false,
      "normalized": false,
      "special": true
    },
    {
      "id": 49,
      "content": "<|reserved_46|>",
      "single_word": false,
      "lstrip": false,
      "rstrip": false,
      "normalized": false,
      "special": true
    },
    {
      "id": 50,
      "content": "<|reserved_47|>",
      "single_word": false,
      "lstrip": false,
      "rstrip": false,
      "normalized": false,
      "special": true
    },
    {
      "id": 51,
      "content": "<|reserved_48|>",
      "single_word": false,
      "lstrip": false,
      "rstrip": false,
      "normalized": false,
      "special": true
    },
    {
      "id": 52,
      "content": "<|reserved_49|>",
      "single_word": false,
      "lstrip": false,
      "rstrip": false,
      "normalized": false,
      "special": true
    },
    {
      "id": 53,
      "content": "<|reserved_50|>",
      "single_word": false,
      "lstrip": false,
      "rstrip": false,
      "normalized": false,
      "special": true
    },
    {
      "id": 54,
      "content": "<|reserved_51|>",
      "single_word": false,
      "lstrip": false,
      "rstrip": false,
      "normalized": false,
      "special": true
    },
    {
      "id": 55,
      "content": "<|reserved_52|>",
      "single_word": false,
      "lstrip": false,
      "rstrip": false,
      "normalized": false,
      "special": true
    },
    {
      "id": 56,
      "content": "<|reserved_53|>",
      "single_word": false,
      "lstrip": false,
      "rstrip": false,
      "normalized": false,
      "special": true
    },
    {
      "id": 57,
      "content": "<|reserved_54|>",
      "single_word": false,
      "lstrip": false,
      "rstrip": false,
      "normalized": false,
      "special": true
    },
    {
      "id": 58,
      "content": "<|reserved_55|>",
      "single_word": false,
      "lstrip": false,
      "rstrip": false,
      "normalized": false,
      "special": true
    },
    {
      "id": 59,
      "content": "<|reserved_56|>",
      "single_word": false,
      "lstrip": false,
      "rstrip": false,
      "normalized": false,
      "special": true
    },
    {
      "id": 60,
      "content": "<|reserved_57|>",
      "single_word": false,
      "lstrip": false,
      "rstrip": false,
      "normalized": false,
      "special": true
    },
    {
      "id": 61,
      "content": "<|reserved_58|>",
      "single_word": false,
      "lstrip": false,
      "rstrip": false,
      "normalized": false,
      "special": true
    },
    {
      "id": 62,
      "content": "<|reserved_59|>",
      "single_word": false,
      "lstrip": false,
      "rstrip": false,
      "normalized": false,
      "special": true
    },
    {
      "id": 63,
      "content": "<|reserved_60|>",
      "single_word": false,
      "lstrip": false,
      "rstrip": false,
      "normalized": false,
      "special": true
    },
    {
      "id": 64,
      "content": "<|reserved_61|>",
      "single_word": false,
      "lstrip": false,
      "rstrip": false,
      "normalized": false,
      "special": true
    },
    {
      "id": 65,
      "content": "<|reserved_62|>",
      "single_word": false,
      "lstrip": false,
      "rstrip": false,
      "normalized": false,
      "special": true
    },
    {
      "id": 66,
      "content": "<|reserved_63|>",
      "single_word": false,
      "lstrip": false,
      "rstrip": false,
      "normalized": false,
      "special": true
    }
  ],
  "normalizer": {
    "type": "Sequence",
    "normalizers": [
      {
        "type": "Replace",
        "pattern": {
          "Regex": "\\r\\n"
        },
        "content": "\n"
      },
      {
        "type": "Replace",
        "pattern": {
          "Regex": "\\r"
        },
        "content": "\n"
      },
      {
        "type": "Replace",
        "pattern": {
          "String": "﻿"
        },
        "content": ""
      },
      {
        "type": "NFC"
      }
    ]
  },
  "pre_tokenizer": {
    "type": "Sequence",
    "pretokenizers": [
      {
        "type": "Split",
        "pattern": {
          "Regex": " ?[\\p{L}\\p{M}‍‌]+| ?\\p{N}{1,3}| ?[^\\s\\p{L}\\p{M}\\p{N}‍‌]+|\\s+"
        },
        "behavior": "Isolated",
        "invert": false
      },
      {
        "type": "ByteLevel",
        "add_prefix_space": false,
        "trim_offsets": true,
        "use_regex": false
      }
    ]
  },
  "post_processor": null,
  "decoder": {
    "type": "ByteLevel",
    "add_prefix_space": true,
    "trim_offsets": true,
    "use_regex": true
  },
  "model": {
    "type": "Unigram",
    "unk_id": 3,
    "vocab": [
      [
        "<|bos|>",
        0.0
      ],
      [
        "<|eos|>",
        0.0
      ],
      [
        "<|pad|>",
        0.0
      ],
      [
        "<|reserved_0|>",
        0.0
      ],
      [
        "<|reserved_1|>",
        0.0
      ],
      [
        "<|reserved_2|>",
        0.0
      ],
      [
        "<|reserved_3|>",
        0.0
      ],
      [
        "<|reserved_4|>",
        0.0
      ],
      [
        "<|reserved_5|>",
        0.0
      ],
      [
        "<|reserved_6|>",
        0.0
      ],
      [
        "<|reserved_7|>",
        0.0
      ],
      [
        "<|reserved_8|>",
        0.0
      ],
      [
        "<|reserved_9|>",
        0.0
      ],
      [
        "<|reserved_10|>",
        0.0
      ],
      [
        "<|reserved_11|>",
        0.0
      ],
      [
        "<|reserved_12|>",
        0.0
      ],
      [
        "<|reserved_13|>",
        0.0
      ],
      [
        "<|reserved_14|>",
        0.0
      ],
      [
        "<|reserved_15|>",
        0.0
      ],
      [
        "<|reserved_16|>",
        0.0
      ],
      [
        "<|reserved_17|>",
        0.0
      ],
      [
        "<|reserved_18|>",
        0.0
      ],
      [
        "<|reserved_19|>",
        0.0
      ],
      [
        "<|reserved_20|>",
        0.0
      ],
      [
        "<|reserved_21|>",
        0.0
      ],
      [
        "<|reserved_22|>",
        0.0
      ],
      [
        "<|reserved_23|>",
        0.0
      ],
      [
        "<|reserved_24|>",
        0.0
      ],
      [
        "<|reserved_25|>",
        0.0
      ],
      [
        "<|reserved_26|>",
        0.0
      ],
      [
        "<|reserved_27|>",
        0.0
      ],
      [
        "<|reserved_28|>",
        0.0
      ],
      [
        "<|reserved_29|>",
        0.0
      ],
      [
        "<|reserved_30|>",
        0.0
      ],
      [
        "<|reserved_31|>",
        0.0
      ],
      [
        "<|reserved_32|>",
        0.0
      ],
      [
        "<|reserved_33|>",
        0.0
      ],
      [
        "<|reserved_34|>",
        0.0
      ],
      [
        "<|reserved_35|>",
        0.0
      ],
      [
        "<|reserved_36|>",
        0.0
      ],
      [
        "<|reserved_37|>",
        0.0
      ],
      [
        "<|reserved_38|>",
        0.0
      ],
      [
        "<|reserved_39|>",
        0.0
      ],
      [
        "<|reserved_40|>",
        0.0
      ],
      [
        "<|reserved_41|>",
        0.0
      ],
      [
        "<|reserved_42|>",
        0.0
      ],
      [
        "<|reserved_43|>",
        0.0
      ],
      [
        "<|reserved_44|>",
        0.0
      ],
      [
        "<|reserved_45|>",
        0.0
      ],
      [
        "<|reserved_46|>",
        0.0
      ],
      [
        "<|reserved_47|>",
        0.0
      ],
      [
        "<|reserved_48|>",
        0.0
      ],
      [
        "<|reserved_49|>",
        0.0
      ],
      [
        "<|reserved_50|>",
        0.0
      ],
      [
        "<|reserved_51|>",
        0.0
      ],
      [
        "<|reserved_52|>",
        0.0
      ],
      [
        "<|reserved_53|>",
        0.0
      ],
      [
        "<|reserved_54|>",
        0.0
      ],
      [
        "<|reserved_55|>",
        0.0
      ],
      [
        "<|reserved_56|>",
        0.0
      ],
      [
        "<|reserved_57|>",
        0.0
      ],
      [
        "<|reserved_58|>",
        0.0
      ],
      [
        "<|reserved_59|>",
        0.0
      ],
      [
        "<|reserved_60|>",
        0.0
      ],
      [
        "<|reserved_61|>",
        0.0
      ],
      [
        "<|reserved_62|>",
        0.0
      ],
      [
        "<|reserved_63|>",
        0.0
      ],
      [
        "Ġ",
        -2.372018357246832
      ],
      [
        "Ċ",
        -3.651046291341151
      ],
      [
        ".",
        -3.790397145880851
      ],
      [
        ",",
        -3.858498438873859
      ],
      [
        "s",
        -4.165082064874694
      ],
      [
        "Ġthe",
        -4.38624295057223
      ],
      [
        "Ġof",
        -5.047107112206332
      ],
      [
        "à¥¤",
        -5.0613182607476705
      ],
      [
        "Ġa",
        -5.132525594889401
      ],
      [
        "-",
        -5.188855001032756
      ],
      [
        "and",
        -5.203643478784361
      ],
      [
        "Ġto",
        -5.279060958268673
      ],
      [
        "Ġin",
        -5.331431761188604
      ],
      [
        "ed",
        -5.334477235767588
      ],
      [
        "t",
        -5.426709013370074
      ],
      [
        "y",
        -5.514852109061971
      ],
      [
        "ĠĠĠĠĠĠĠĠ",
        -5.523890437620896
      ],
      [
        "e",
        -5.534831728566482
      ],
      [
        "ing",
        -5.724916617297703
      ],
      [
        ")",
        -5.81236255987603
      ],
      [
        "Ġà¦",
        -5.812971292276341
      ],
      [
        "=",
        -5.8219227628990655
      ],
      [
        "'",
        -5.83063252000983
      ],
      [
        "Ġis",
        -5.935978466652239
      ],
      [
        "n",
        -5.945543184102121
      ],
      [
        "Ĥ",
        -5.955787484314682
      ],
      [
        "Ġbe",
        -5.969839309735615
      ],
      [
        "ĠĠĠĠ",
        -5.970940257208868
      ],
      [
        "Ġà¤",
        -6.002771762006857
      ],
      [
        ":",
        -6.011105044824054
      ],
      [
        "_",
        -6.099654381452938
      ],
      [
        "Ġ(",
        -6.126316251808731
      ],
      [
        "d",
        -6.133812474574135
      ],
      [
        "(",
        -6.137724366959054
      ],
      [
        "ly",
        -6.260623585737175
      ],
      [
        "Ġfor",
        -6.269792547903512
      ],
      [
        "Ġtha",
        -6.326566961481355
      ],
      [
        "ĠĠĠĠĠĠĠĠĠĠĠĠ",
        -6.377600382811808
      ],
      [
        "ĩ",
        -6.383520536959665
      ],
      [
        "m",
        -6.400776291392168
      ],
      [
        "\"",
        -6.444784150111715
      ],
      [
        "Ġon",
        -6.498283634335779
      ],
      [
        "à§°",
        -6.499031599682185
      ],
      [
        "Ġc",
        -6.568741277780804
      ],
      [
        "Ġwith",
        -6.57653965131683
      ],
      [
        "ĠĠĠĠĠĠĠĠĠĠĠĠĠĠĠĠ",
        -6.592241146296612
      ],
      [
        "Ġas",
        -6.592603964566525
      ],
      [
        "Ġà¤ķà¥ĩ",
        -6.60527030078223
      ],
      [
        "Ġà°",
        -6.625558252456871
      ],
      [
        "Ġ\"",
        -6.630310023463148
      ],
      [
        "1",
        -6.6432354796872115
      ],
      [
        "es",
        -6.648132689702267
      ],
      [
        "Ġà²",
        -6.671865767291033
      ],
      [
        "are",
        -6.686256133723566
      ],
      [
        "ĠĠĠĠĠĠĠĠĠĠ",
        -6.6969579493142675
      ],
      [
        "Ġà¬",
        -6.7056240335807935
      ],
      [
        "Ģ",
        -6.737735159247485
      ],
      [
        "Ġà®",
        -6.760929948943145
      ],
      [
        "Ġit",
        -6.775163275164703
      ],
      [
        "ĠThe",
        -6.775442826742134
      ],
      [
        "Ġp",
        -6.783010201577808
      ],
      [
        "Ġ2",
        -6.7976653864055105
      ],
      [
        "à§ĩ",
        -6.802106465240044
      ],
      [
        "à¬°àŃĩ",
        -6.82154838726307
      ],
      [
        "Ġby",
        -6.823014959278499
      ],
      [
        "0",
        -6.83109507938622
      ],
      [
        "Ġ1",
        -6.846042321002686
      ],
      [
        "Ġf",
        -6.854357164106949
      ],
      [
        "?",
        -6.875835212156469
      ],
      [
        "2",
        -6.888226205940466
      ],
      [
        "ĠàªĽà«ĩ",
        -6.90384622626104
      ],
      [
        "Ġà¥¤",
        -6.905399955775451
      ],
      [
        "r",
        -6.910070349722325
      ],
      [
        "Ġàª",
        -6.913743517740992
      ],
      [
        "Ġà¤¹à¥Ī",
        -6.928322727639264
      ],
      [
        "¨",
        -6.951391506461292
      ],
      [
        "Ġw",
        -6.969913806874596
      ],
      [
        "Ġà¨¹à©Ī",
        -6.972272425319289
      ],
      [
        "°",
        -6.986025368090058
      ],
      [
        "Ġà¤®à¥ĩà¤Ĥ",
        -6.995805492585198
      ],
      [
        "Ġà¨¦à©ĩ",
        -6.996596169947416
      ],
      [
        "f",
        -6.997663944476249
      ],
      [
        "er",
        -7.00534333027805
      ],
      [
        "Ġwas",
        -7.026045559390694
      ],
      [
        "al",
        -7.034719117371088
      ],
      [
        "Ġor",
        -7.036962431175567
      ],
      [
        "Ġà´",
        -7.052060914471841
      ],
      [
        "Ġyou",
        -7.0541899242897905
      ],
      [
        "Ġan",
        -7.057186563500842
      ],
      [
        "se",
        -7.063667971322044
      ],
      [
        "Ġ'",
        -7.095818794774868
      ],
      [
        "Ġnot",
        -7.099130993662888
      ],
      [
        "a",
        -7.0998298057266584
      ],
      [
        "à§ĩà¦°",
        -7.103558180007694
      ],
      [
        "ģ",
        -7.108321535031587
      ],
      [
        ";",
        -7.135243911049413
      ],
      [
        "¤",
        -7.163818887629322
      ],
      [
        "Ġà¤ķà¥Ģ",
        -7.167394670502921
      ],
      [
        "à¨¨à©Ĥà©°",
        -7.1810168987343825
      ],
      [
        "Ġat",
        -7.183300427061237
      ],
      [
        "ĠĠĠĠĠĠĠĠĠĠĠĠĠĠ",
        -7.185472282618317
      ],
      [
        "Ī",
        -7.189155047257092
      ],
      [
        "00",
        -7.199654398334806
      ],
      [
        "¿",
        -7.201434447777002
      ],
      [
        "Ġre",
        -7.218449194400405
      ],
      [
        "ĠA",
        -7.2332561868091325
      ],
      [
        "have",
        -7.237854496896974
      ],
      [
        "ĠI",
        -7.2498100366074
      ],
      [
        "ity",
        -7.263650438045074
      ],
      [
        "àª®àª¾àªĤ",
        -7.27559472744111
      ],
      [
        "Ġfro",
        -7.279704962661363
      ],
      [
        "²",
        -7.298764967379002
      ],
      [
        "!",
        -7.302234647695174
      ],
      [
        "w",
        -7.3030817960308045
      ],
      [
        "Ġthi",
        -7.30658416392712
      ],
      [
        "ch",
        -7.316540931708317
      ],
      [
        "Ġà¨¦à©Ģ",
        -7.318805863886732
      ],
      [
        "Ġm",
        -7.3216159432184735
      ],
      [
        "ķ",
        -7.322981439647593
      ],
      [
        "The",
        -7.325633494893443
      ],
      [
        "en",
        -7.329454534263407
      ],
      [
        "i",
        -7.329887590242819
      ],
      [
        "ĠĠĠĠĠĠ",
        -7.334349353683413
      ],
      [
        "ĠS",
        -7.334973498645141
      ],
      [
        "x",
        -7.350523752382287
      ],
      [
        "Ġcan",
        -7.351348882242588
      ],
      [
        "ir",
        -7.365401141694811
      ],
      [
        "/",
        -7.367784771577165
      ],
      [
        "âĢĻ",
        -7.374531610524091
      ],
      [
        "c",
        -7.376921485154517
      ],
      [
        "Ġà¤ķà¥ĭ",
        -7.379990116745221
      ],
      [
        "à¦¤",
        -7.388203135601074
      ],
      [
        "th",
        -7.398180318435555
      ],
      [
        "Ġhas",
        -7.405454727157204
      ],
      [
        "Ġà¤Ĩà¤¹à¥ĩ",
        -7.413727071343539
      ],
      [
        "àª¨à«Ģ",
        -7.428675797628225
      ],
      [
        "ĠC",
        -7.428893298994023
      ],
      [
        "à¦°",
        -7.456083504618968
      ],
      [
        "®",
        -7.482898925947287
      ],
      [
        "¦",
        -7.493842507214275
      ],
      [
        "\\",
        -7.496114286544749
      ],
      [
        "Ġà¤¸à¥ĩ",
        -7.500410868623629
      ],
      [
        "ers",
        -7.517952181653984
      ],
      [
        "{\\",
        -7.5281120726151265
      ],
      [
        "à¥Ģ",
        -7.5402725367838475
      ],
      [
        "à¬°",
        -7.54289255436448
      ],
      [
        "à¨ħà¨¤à©ĩ",
        -7.54663853776394
      ],
      [
        "àª¨àª¾",
        -7.547904472712107
      ],
      [
        "Ġà¤Ķà¤°",
        -7.549044099091338
      ],
      [
        "will",
        -7.550045401533341
      ],
      [
        "Ġà¨ķà¨¿",
        -7.554612898558036
      ],
      [
        "3",
        -7.565323665924009
      ],
      [
        "à©Ģ",
        -7.575663383330006
      ],
      [
        "if",
        -7.5840230930298755
      ],
      [
        "}",
        -7.585026044366979
      ],
      [
        "ĭ",
        -7.586522455532325
      ],
      [
        "Ġà¤ķà¤¾",
        -7.601126830570173
      ],
      [
        "à¦ĩ",
        -7.617245035385032
      ],
      [
        "¾",
        -7.627985608104327
      ],
      [
        "Ġàªħàª¨à«ĩ",
        -7.638039229781608
      ],
      [
        "5",
        -7.646612652336076
      ],
      [
        "other",
        -7.648918290337983
      ],
      [
        "in",
        -7.656765510930935
      ],
      [
        "b",
        -7.664774407960797
      ],
      [
        "à®®à¯į",
        -7.6661763109010845
      ],
      [
        "self",
        -7.669152672323582
      ],
      [
        "ion",
        -7.672676529656622
      ],
      [
        "à¥ĭà¤Ĥ",
        -7.673293805786782
      ],
      [
        "able",
        -7.6784807607836445
      ],
      [
        "Ġwhi",
        -7.678605822194221
      ],
      [
        "or",
        -7.6896267224080574
      ],
      [
        "A",
        -7.690527345592116
      ],
      [
        "à¦Ĩà§°à§ģ",
        -7.696107359303426
      ],
      [
        "¯",
        -7.722716541807953
      ],
      [
        "à¤¨à¥ĩ",
        -7.724254256007502
      ],
      [
        "ĠM",
        -7.724610052099052
      ],
      [
        "lso",
        -7.726652039656921
      ],
      [
        "\",",
        -7.728585192481196
      ],
      [
        "Ġà",
        -7.740608746664163
      ],
      [
        "àª¨à«ĩ",
        -7.742783038269282
      ],
      [
        "more",
        -7.745231917458886
      ],
      [
        "à¦¤à§ĩ",
        -7.748944946946963
      ],
      [
        "¨¾",
        -7.7534081586035555
      ],
      [
        "Ġàª¤à«ĩ",
        -7.764557974143244
      ],
      [
        "Ġdo",
        -7.767635576618046
      ],
      [
        "4",
        -7.770330976452868
      ],
      [
        "ı",
        -7.7724783657211205
      ],
      [
        "Ġà¤¯à¤¾",
        -7.77786021723645
      ],
      [
        "ould",
        -7.778548315770204
      ],
      [
        "¸",
        -7.778658891046041
      ],
      [
        "à¯ģà®®à¯į",
        -7.782702938912184
      ],
      [
        "Ł",
        -7.788467088122125
      ],
      [
        "µį",
        -7.790255315059785
      ],
      [
        "[",
        -7.792219925609697
      ],
      [
        "),",
        -7.793293287021566
      ],
      [
        "Ġhis",
        -7.7938468637993275
      ],
      [
        "à¨¾à¨Ĥ",
        -7.794630809608886
      ],
      [
        "ĠàªĨ",
        -7.794938752840318
      ],
      [
        "re",
        -7.795696054035261
      ],
      [
        "st",
        -7.803647238915486
      ],
      [
        "ies",
        -7.805492478183419
      ],
      [
        "were",
        -7.817500306959355
      ],
      [
        "Ġà¤ķà¤°",
        -7.820283507721426
      ],
      [
        "Ġà¤ķà¤¿",
        -7.820410910345293
      ],
      [
        "ĠIn",
        -7.821845106007661
      ],
      [
        "uch",
        -7.823104330758516
      ],
      [
        "à©ĩ",
        -7.82335355995556
      ],
      [
        "Ġhe",
        -7.83177196221612
      ],
      [
        "ĠP",
        -7.832358573777412
      ],
      [
        "Ġbut",
        -7.835482449802013
      ],
      [
        "Ġall",
        -7.8449222067604385
      ],
      [
        "à¬ķàŃģ",
        -7.851175967883371
      ],
      [
        "Ġà¤ªà¤°",
        -7.856022717841276
      ],
      [
        "Ġà¨¦à¨¾",
        -7.858361409626077
      ],
      [
        "value",
        -7.860731222649074
      ],
      [
        "Ġone",
        -7.86489411243066
      ],
      [
        "Ġà¦ıà¦ĩ",
        -7.86820117727852
      ],
      [
        "S",
        -7.880811392453117
      ],
      [
        "01",
        -7.881613007010021
      ],
      [
        "Ġwho",
        -7.884891932502837
      ],
      [
        "k",
        -7.891331200857605
      ],
      [
        "ĠB",
        -7.895971912292239
      ],
      [
        "Ġà¨ĩà¨¸",
        -7.8998679635176
      ],
      [
        "à¤¾",
        -7.90172661517534
      ],
      [
        "Ġup",
        -7.904175925570756
      ],
      [
        "]",
        -7.908206488727277
      ],
      [
        "p",
        -7.909122386382659
      ],
      [
        "Ġde",
        -7.911696983415727
      ],
      [
        "Ġb",
        -7.921048884302621
      ],
      [
        "Ġà¨¨à©ĩ",
        -7.925446797127028
      ],
      [
        "any",
        -7.927191674763806
      ],
      [
        "ĠF",
        -7.9279775749904715
      ],
      [
        "some",
        -7.9308912159435785
      ],
      [
        "à¦Ľà§ĩ",
        -7.946719112260071
      ],
      [
        "rom",
        -7.951024674094668
      ],
      [
        "def",
        -7.95126314639047
      ],
      [
        "ª",
        -7.9522438510680455
      ],
      [
        "style",
        -7.954962156638892
      ],
      [
        "Ġout",
        -7.9558131461783965
      ],
      [
        "Ġà¤ıà¤ķ",
        -7.956412561136734
      ],
      [
        "Ġun",
        -7.957134646081487
      ],
      [
        "our",
        -7.960612273633213
      ],
      [
        "20",
        -7.963270902500403
      ],
      [
        "#",
        -7.963842275773613
      ],
      [
        "à¥ĩ",
        -7.967625030684431
      ],
      [
        "8",
        -7.968901629078379
      ],
      [
        "6",
        -7.9760541464034205
      ],
      [
        ">",
        -7.977701772621023
      ],
      [
        "):",
        -7.9838621220807955
      ],
      [
        "Ġà¨ķà¨°",
        -7.989437752755553
      ],
      [
        "¬",
        -7.992368855112947
      ],
      [
        "à°²à±ĭ",
        -7.993906027608356
      ],
      [
        "à¤¤",
        -7.994760216180952
      ],
      [
        "Ġà¤¹à¥Īà¤Ĥ",
        -7.99768442456061
      ],
      [
        "Ġà¤¹à¥ĭ",
        -8.00357393875532
      ],
      [
        "Ġà¤¨",
        -8.008453770230421
      ],
      [
        "Ġà¤¤à¥įà¤¯à¤¾",
        -8.010482384957935
      ],
      [
        "ľ",
        -8.013379623652026
      ],
      [
        "à¨²à¨Ī",
        -8.014051214828855
      ],
      [
        "à¦ĵ",
        -8.015610114599284
      ],
      [
        "7",
        -8.016508125045489
      ],
      [
        "Ġà¨µà¨¿à©±à¨ļ",
        -8.017558050157005
      ],
      [
        "le",
        -8.02000558644774
      ],
      [
        "ation",
        -8.027278018692865
      ],
      [
        "ĠE",
        -8.033249193072193
      ],
      [
        "à¦ķ",
        -8.033335356250355
      ],
      [
        "10",
        -8.04514952904643
      ],
      [
        "§",
        -8.04589116005851
      ],
      [
        "P",
        -8.046523597201706
      ],
      [
        "à¦ķà§ĩ",
        -8.047206217880635
      ],
      [
        "day",
        -8.0479644416061
      ],
      [
        "o",
        -8.050808048896299
      ],
      [
        "Ġà¨",
        -8.055834621690353
      ],
      [
        "Ġex",
        -8.05911511614531
      ],
      [
        "ĠD",
        -8.060652704036743
      ],
      [
        "Ġà¦¨à¦¾",
        -8.060924041114298
      ],
      [
        "ive",
        -8.064070708501923
      ],
      [
        "Ġwe",
        -8.068637689893071
      ],
      [
        "+",
        -8.06961461626554
      ],
      [
        "9",
        -8.071160426143537
      ],
      [
        "à«ĩ",
        -8.073677426939055
      ],
      [
        "return",
        -8.075810241980008
      ],
      [
        "hat",
        -8.080683314398847
      ],
      [
        "bout",
        -8.080774096612455
      ],
      [
        "Ġà¨µà¨¿à¨ļ",
        -8.0841776678193
      ],
      [
        "age",
        -8.100666415654695
      ],
      [
        "à²¨à³įà²¨à³ģ",
        -8.102447439638043
      ],
      [
        "name",
        -8.106303124028281
      ],
      [
        "àª¥à«Ģ",
        -8.107625210712294
      ],
      [
        "Ġà¬ķà¬°à¬¿",
        -8.110292419877728
      ],
      [
        "|",
        -8.11329376082334
      ],
      [
        "Ġwhe",
        -8.116377937452016
      ],
      [
        "Ġtime",
        -8.119570935367921
      ],
      [
        "Ġover",
        -8.120284291687849
      ],
      [
        "Ġà¤¨à¥ĩ",
        -8.124187825906166
      ],
      [
        "à¤ļà¥įà¤¯à¤¾",
        -8.126646700217536
      ],
      [
        "âĢľ",
        -8.127983254632362
      ],
      [
        "Ġman",
        -8.130774761532681
      ],
      [
        "Ġà¤ĩà¤¸",
        -8.131437863524267
      ],
      [
        "ĠIndia",
        -8.133646618538368
      ],
      [
        "Ġà¨¨à¨¾à¨²",
        -8.13484653707632
      ],
      [
        "ĠR",
        -8.137015595992576
      ],
      [
        "à®ķà®³à¯į",
        -8.137120775112335
      ],
      [
        "Ġ3",
        -8.138794367899166
      ],
      [
        "C",
        -8.140826621013028
      ],
      [
        "ĠL",
        -8.145722082558423
      ],
      [
        "displa",
        -8.145803970644172
      ],
      [
        "Ġà¤ªà¥įà¤°à¤",
        -8.146140691515573
      ],
      [
        "(\"",
        -8.146785523195936
      ],
      [
        "à¤¤à¤¾",
        -8.14692413392873
      ],
      [
        "had",
        -8.148357288771043
      ],
      [
        "Ġl",
        -8.148640595356884
      ],
      [
        "à¤²à¤¾",
        -8.159160594853562
      ],
      [
        "¡",
        -8.161306285037586
      ],
      [
        "à³ģ",
        -8.16310673016928
      ],
      [
        "Ġso",
        -8.166752904906831
      ],
      [
        "ary",
        -8.171423282311979
      ],
      [
        "I",
        -8.172013231508766
      ],
      [
        "Ġàªķà«ĩ",
        -8.172741295663723
      ],
      [
        "Ġà¦¯à§ĩ",
        -8.173849009454754
      ],
      [
        "g",
        -8.175095729952492
      ],
      [
        "Ġno",
        -8.181597072821887
      ],
      [
        "may",
        -8.185623865587852
      ],
      [
        "ever",
        -8.185792978899588
      ],
      [
        ").",
        -8.186440286021448
      ],
      [
        "ĵ",
        -8.189525927853982
      ],
      [
        "out",
        -8.198409469160094
      ],
      [
        "Ġà¤Ĩà¤£à¤",
        -8.201980227368935
      ],
      [
        "Ġthere",
        -8.207672932723568
      ],
      [
        "Ġà¨¤à©ĭà¨",
        -8.208547193522138
      ],
      [
        "%",
        -8.208794168971064
      ],
      [
        "à°²à±ģ",
        -8.212420383832319
      ],
      [
        "µ",
        -8.214749364257782
      ],
      [
        "à®¤à¯ģ",
        -8.222096373771237
      ],
      [
        "on",
        -8.229601901857574
      ],
      [
        "Ġà¨¸à©Ģ",
        -8.231131480468832
      ],
      [
        "ĠIt",
        -8.231746822025796
      ],
      [
        "à¬ĻàŃįà¬ķ",
        -8.23263592533885
      ],
      [
        "ear",
        -8.23653206382209
      ],
      [
        "Ġà¨¹à¨¨",
        -8.237811489926665
      ],
      [
        "¹",
        -8.238117571722002
      ],
      [
        "most",
        -8.243838261440471
      ],
      [
        "©ĩ",
        -8.248598266013902
      ],
      [
        "à¬°àŃģ",
        -8.251331866456004
      ],
      [
        "à¤¤à¥ĩ",
        -8.268155205073509
      ],
      [
        "B",
        -8.268339924147579
      ],
      [
        "Ġà¦ķà¦°à§ĩ",
        -8.275260816669492
      ],
      [
        "à¤¨à¤¾",
        -8.276031583432056
      ],
      [
        "Ġà¦¹à¦¯à¦¼",
        -8.277027383123146
      ],
      [
        "than",
        -8.283520692948787
      ],
      [
        "Ġà¨¹à©ĭ",
        -8.284241177397567
      ],
      [
        "à¨¦à¨¾",
        -8.284773453185904
      ],
      [
        "ĠNon",
        -8.284977575097003
      ],
      [
        "Ġà¬ĵ",
        -8.285125441776392
      ],
      [
        "Ġdis",
        -8.287673287527715
      ],
      [
        "à¦",
        -8.289440895748742
      ],
      [
        "Ġà¤Ńà¥Ģ",
        -8.293633120366826
      ],
      [
        "à¤ķà¥ĩ",
        -8.2938730547286
      ],
      [
        "Ġ{",
        -8.29608396292655
      ],
      [
        "at",
        -8.297478377537459
      ],
      [
        "Ġà¨µà©Ģ",
        -8.300268186649078
      ],
      [
        "first",
        -8.301257291512503
      ],
      [
        "¥",
        -8.3029252502029
      ],
      [
        "Ġàª¹àª¤à«",
        -8.308439656979804
      ],
      [
        "result",
        -8.308880152186605
      ],
      [
        "assert",
        -8.311310879044866
      ],
      [
        "Ĩ",
        -8.31174990066969
      ],
      [
        "ĠW",
        -8.313642379800434
      ],
      [
        "h",
        -8.31656508020556
      ],
      [
        "Ĺ",
        -8.317508545055961
      ],
      [
        "à®",
        -8.324222024224925
      ],
      [
        "F",
        -8.32565865919277
      ],
      [
        "ĠThi",
        -8.326010073160864
      ],
      [
        "ĠT",
        -8.33038227159999
      ],
      [
        "Ġlike",
        -8.331625851087987
      ],
      [
        "eople",
        -8.340819878457564
      ],
      [
        "à²Ĺà²³",
        -8.340848066016514
      ],
      [
        "into",
        -8.341566072621795
      ],
      [
        "à²¦à²²à³įà²²à²¿",
        -8.348317279763037
      ],
      [
        "Ġà¦¸à¦",
        -8.348784947070788
      ],
      [
        "Ġà¦¹",
        -8.354323254327323
      ],
      [
        "à¤²à¤¿à¤ı",
        -8.354492382256215
      ],
      [
        "£",
        -8.356410577336828
      ],
      [
        "Ġàªľ",
        -8.358412355685491
      ],
      [
        "à¨¤à©ĩ",
        -8.35954710173335
      ],
      [
        "two",
        -8.36473613586452
      ],
      [
        "âĢĿ",
        -8.372623152571949
      ],
      [
        "à¬Ľà¬¿",
        -8.37350032610924
      ],
      [
        "()",
        -8.376005863237001
      ],
      [
        "«",
        -8.37845347473581
      ],
      [
        "Ġg",
        -8.383634925575686
      ],
      [
        "µģà´¨àµįà´¨àµģ",
        -8.3884446360377
      ],
      [
        "Ġuse",
        -8.392205077724398
      ],
      [
        "Ġpart",
        -8.392782637171331
      ],
      [
        "Ġhigh",
        -8.408368756006457
      ],
      [
        "_{",
        -8.412548411687444
      ],
      [
        "Ġàªªàª£",
        -8.416933771105132
      ],
      [
        "Ġà¤µ",
        -8.417624186617708
      ],
      [
        "à¦²",
        -8.421370027657394
      ],
      [
        "02",
        -8.42203569160965
      ],
      [
        "how",
        -8.425640578067448
      ],
      [
        "cause",
        -8.42615704745809
      ],
      [
        "Ġà¨ĩà¨¹",
        -8.427872177655434
      ],
      [
        "µģà´Ĥ",
        -8.43012070431666
      ],
      [
        "Ġ5",
        -8.430643818426297
      ],
      [
        "âĪ",
        -8.435581077147543
      ],
      [
        "à¤¹à¥Ģà¤Ĥ",
        -8.441045719166851
      ],
      [
        "\"\"\"",
        -8.44309571251112
      ],
      [
        "test",
        -8.44466548656965
      ],
      [
        "à°ķà±ģ",
        -8.445877139771824
      ],
      [
        "à«Ģ",
        -8.446128397836297
      ],
      [
        "change",
        -8.447263708201415
      ],
      [
        "à¦¬",
        -8.448379555313373
      ],
      [
        "Ġimport",
        -8.453497184377962
      ],
      [
        "In",
        -8.454809936801073
      ],
      [
        "used",
        -8.455460697392134
      ],
      [
        "Ġstud",
        -8.458735718693537
      ],
      [
        "ĠU",
        -8.459445638971411
      ],
      [
        "à²¦",
        -8.473174388212254
      ],
      [
        "à¨¾",
        -8.473420950664462
      ],
      [
        "à²Ĺà³Ĩ",
        -8.476214261916098
      ],
      [
        "ĠK",
        -8.477013968425984
      ],
      [
        "19",
        -8.481349470783128
      ],
      [
        "à®¯à®¿à®²à¯į",
        -8.48284178405484
      ],
      [
        "lick",
        -8.487239910751242
      ],
      [
        "Ġnew",
        -8.488134281398672
      ],
      [
        "à°¨à±ģ",
        -8.489416499326815
      ],
      [
        "rate",
        -8.48952525373689
      ],
      [
        "Ġà°ªà±įà°°à°",
        -8.495118290416316
      ],
      [
        "ĠO",
        -8.49535845933373
      ],
      [
        "Ġà¦ķà§°à¦¿",
        -8.497946389088131
      ],
      [
        "Ġà¤ħà¤",
        -8.498316673645316
      ],
      [
        "à²Ĺà²³à³ģ",
        -8.499438276920003
      ],
      [
        "l",
        -8.499682753939013
      ],
      [
        "à²®à²¤à³įà²¤à³ģ",
        -8.499983059148207
      ],
      [
        "Ġh",
        -8.50554976758382
      ],
      [
        "à¤¾à¤¤",
        -8.509567258411256
      ],
      [
        "®¿à®²à¯į",
        -8.509941720701818
      ],
      [
        "its",
        -8.511069186316504
      ],
      [
        "Ġtest",
        -8.51413465564164
      ],
      [
        "à°Ĺà°¾",
        -8.515392970584552
      ],
      [
        "à¦¯à¦¼",
        -8.515553207069056
      ],
      [
        "ears",
        -8.516914186866806
      ],
      [
        "ic",
        -8.517789231890482
      ],
      [
        "Ġunder",
        -8.52379653243582
      ],
      [
        "fore",
        -8.525485146120673
      ],
      [
        "à¬¥à¬¿à¬²àŃĩ",
        -8.525934798601611
      ],
      [
        "D",
        -8.5279884279953
      ],
      [
        "Ġà¤¹à¥Ģ",
        -8.53027421296144
      ],
      [
        "ample",
        -8.532219641803124
      ],
      [
        "`",
        -8.53248408887351
      ],
      [
        "Ġà²Ī",
        -8.533399962720395
      ],
      [
        "ĠG",
        -8.535261922233099
      ],
      [
        "know",
        -8.541158280731725
      ],
      [
        "ten",
        -8.541421219540752
      ],
      [
        "ally",
        -8.545106162982524
      ],
      [
        "through",
        -8.545838820783182
      ],
      [
        "Ġà¨ķà¨°à¨¨",
        -8.546391908315062
      ],
      [
        "twee",
        -8.547759833860363
      ],
      [
        "Ġà°Ī",
        -8.549465454425599
      ],
      [
        "Ġà¦ıà¦ķ",
        -8.551422354297106
      ],
      [
        "Ġà¦ĵ",
        -8.555545480104751
      ],
      [
        "...",
        -8.555819930938078
      ],
      [
        "³",
        -8.560321679565797
      ],
      [
        "make",
        -8.56086902608661
      ],
      [
        "à¬Ľà¬¨àŃįà¬¤à¬¿",
        -8.56300531315798
      ],
      [
        "Ġà¤Ĩ",
        -8.563300384693182
      ],
      [
        "data",
        -8.563378372337361
      ],
      [
        "Ġà¬¸àŃĩ",
        -8.56415550325012
      ],
      [
        "Ġafter",
        -8.571099979320056
      ],
      [
        "T",
        -8.571783406101122
      ],
      [
        "à¤",
        -8.572090454693594
      ],
      [
        "Ġr",
        -8.572384110884142
      ],
      [
        "E",
        -8.572534972033427
      ],
      [
        "X",
        -8.572879919653413
      ],
      [
        "@",
        -8.574027200304954
      ],
      [
        "R",
        -8.574165595338537
      ],
      [
        "Ġà¨¤à©ĩ",
        -8.575352919903207
      ],
      [
        "àŃĩ",
        -8.575745039346288
      ],
      [
        "{",
        -8.576656021573438
      ],
      [
        "Ġàªıàªķ",
        -8.577067600939106
      ],
      [
        "à²°à³ģ",
        -8.577802937604767
      ],
      [
        "àª¨à«ģàªĤ",
        -8.580553047461372
      ],
      [
        "Ġàªªàª°",
        -8.581183989937312
      ],
      [
        "ities",
        -8.581480240307368
      ],
      [
        "Ġwork",
        -8.582286140801465
      ],
      [
        "thing",
        -8.582327116701483
      ],
      [
        "Ġsee",
        -8.582587625800171
      ],
      [
        "Ġ4",
        -8.583873251432406
      ],
      [
        "\")",
        -8.58560442598839
      ],
      [
        "ĠN",
        -8.586467074229336
      ],
      [
        "Ġà¦ı",
        -8.589552755386205
      ],
      [
        "Ġneed",
        -8.59180530297944
      ],
      [
        "Ġà¤īà¤¸",
        -8.592576820117241
      ],
      [
        "*",
        -8.596591052254382
      ],
      [
        "à¦²à§Ī",
        -8.59719096642445
      ],
      [
        "Ġàª®àª¾àªŁà«ĩ",
        -8.600111755935723
      ],
      [
        "system",
        -8.603300077556568
      ],
      [
        "Ġà¨ĩà©±à¨ķ",
        -8.607766671884574
      ],
      [
        "Ġher",
        -8.60844873265923
      ],
      [
        "Ġcall",
        -8.61060849531308
      ],
      [
        "Ġà¬¹àŃĭà¬ĩ",
        -8.611676665810904
      ],
      [
        "app",
        -8.619456462334261
      ],
      [
        "put",
        -8.620245616901514
      ],
      [
        "Ġà®ĩà®°à¯ģà®",
        -8.6247429642914
      ],
      [
        "Ġà¤¤à¥ĭ",
        -8.62643608913783
      ],
      [
        "ment",
        -8.62738930593732
      ],
      [
        "50",
        -8.630870666016943
      ],
      [
        "à¦²à§ĩ",
        -8.63862827498567
      ],
      [
        "ions",
        -8.638959232901167
      ],
      [
        "ve",
        -8.641708083046854
      ],
      [
        "ĥ",
        -8.642875622419044
      ],
      [
        "Ġtake",
        -8.646101205398123
      ],
      [
        "M",
        -8.64677348974702
      ],
      [
        "¥ĩ",
        -8.647626607660474
      ],
      [
        "ĠJ",
        -8.652365564071344
      ],
      [
        "à¤ķà¤¿à¤¯à¤¾",
        -8.652935363441747
      ],
      [
        "Ġà¬ªàŃįà¬°",
        -8.654357380731959
      ],
      [
        "hich",
        -8.655692739759491
      ],
      [
        "ĠHe",
        -8.65841230425593
      ],
      [
        "à¬ĻàŃįà¬ķàŃģ",
        -8.65928084033727
      ],
      [
        "number",
        -8.659573914617464
      ],
      [
        "à¤¯à¤¾",
        -8.661086006712543
      ],
      [
        "N",
        -8.662121858058635
      ],
      [
        "ent",
        -8.662151574687485
      ],
      [
        "à¨¦à©ĩ",
        -8.663119770980996
      ],
      [
        "ther",
        -8.665254203774705
      ],
      [
        "way",
        -8.666200882024762
      ],
      [
        "à«ĭ",
        -8.666917326942379
      ],
      [
        "Ġà¦ķà§°à¦¾",
        -8.66778709305392
      ],
      [
        "àª¨à«ĭ",
        -8.669572126949923
      ],
      [
        "Ġper",
        -8.674347669849379
      ],
      [
        "ty",
        -8.674561750709415
      ],
      [
        "ade",
        -8.675801077441971
      ],
      [
        "ant",
        -8.677602238922688
      ],
      [
        "à¤¯à¤¹",
        -8.678533180600002
      ],
      [
        "Ġà¦ªà§°à¦¾",
        -8.678810647277484
      ],
      [
        "hould",
        -8.683573273414904
      ],
      [
        "ģàªĤ",
        -8.690083219863793
      ],
      [
        "Ġà¦¬à¦",
        -8.69060823007684
      ],
      [
        "well",
        -8.695009921011959
      ],
      [
        "Ġget",
        -8.697037783006152
      ],
      [
        "aid",
        -8.697882037664137
      ],
      [
        "Ġme",
        -8.699024706544076
      ],
      [
        "¤à¯įà®¤à®¿à®²à¯į",
        -8.699182915884183
      ],
      [
        "default",
        -8.702537210200925
      ],
      [
        "less",
        -8.703245293296913
      ],
      [
        "Ġag",
        -8.707358041243872
      ],
      [
        "Ġàªı",
        -8.70750323304776
      ],
      [
        "um",
        -8.707591490122523
      ],
      [
        "ļ",
        -8.710162224426277
      ],
      [
        "Ġà¨īà¨¹",
        -8.712730392918584
      ],
      [
        "Ġvari",
        -8.71370445133429
      ],
      [
        "V",
        -8.714222698045301
      ],
      [
        "¯ģà®ķà¯įà®ķà¯ģ",
        -8.71524157584371
      ],
      [
        "get",
        -8.719053992408453
      ],
      [
        "à¦¯à¦¼à§ĩ",
        -8.719971029169038
      ],
      [
        "Ġpre",
        -8.72312646886681
      ],
      [
        "à¨¨à¨¹à©Ģà¨",
        -8.724325792927026
      ],
      [
        "Ġà¦¸à§ĩà¦ĩ",
        -8.724984144891163
      ],
      [
        "à¬ªà¬¾à¬ĩà¬ģ",
        -8.725343630992334
      ],
      [
        "µģà´¨àµįà´¨",
        -8.725923402683469
      ],
      [
        "Ġàªľà«ĩ",
        -8.728225563773673
      ],
      [
        "Ġgo",
        -8.728477385430853
      ],
      [
        "ance",
        -8.731063633783899
      ],
      [
        "Ġàªķàª°àªµàª¾",
        -8.731471499657324
      ],
      [
        "¤à¯įà®¤à¯ģ",
        -8.734362802476141
      ],
      [
        "à²µà²¨à³įà²¨à³ģ",
        -8.734665144989176
      ],
      [
        "ĠH",
        -8.734908594532047
      ],
      [
        "à¨ļ",
        -8.737051122391808
      ],
      [
        "30",
        -8.741658230371858
      ],
      [
        "Ġà¨īà¨¸",
        -8.742858874339264
      ],
      [
        "Ĵ",
        -8.743031583362958
      ],
      [
        "Ġà¦¤à§ĩà¦ĵà¦ģ",
        -8.743233592831682
      ],
      [
        "99",
        -8.744696722036645
      ],
      [
        "Ġhelp",
        -8.746727708010823
      ],
      [
        "ous",
        -8.748716793559092
      ],
      [
        "à¦°à¦¾",
        -8.749390340594536
      ],
      [
        "àª¾",
        -8.751049683852727
      ],
      [
        "Ġà¨ķà©ĩ",
        -8.753208221806084
      ],
      [
        "12",
        -8.756069581810225
      ],
      [
        "Ġwhere",
        -8.756277486020283
      ],
      [
        "Ġà¦Ĩà¦°",
        -8.75629261836356
      ],
      [
        "ted",
        -8.75778298166501
      ],
      [
        "à®ªà¯į",
        -8.75807754772298
      ],
      [
        "Ġeven",
        -8.759651308308886
      ],
      [
        "option",
        -8.760891297829101
      ],
      [
        "à¨¿à¨Ĩ",
        -8.764829092489745
      ],
      [
        "G",
        -8.767016993734703
      ],
      [
        "Ġcon",
        -8.767302322996864
      ],
      [
        "Ġsai",
        -8.76740125506122
      ],
      [
        "Ġà¦ķà¦¥à¦¾",
        -8.76758661101619
      ],
      [
        "Ġbo",
        -8.768881925681818
      ],
      [
        "à²ķà³įà²ķà³Ĩ",
        -8.76892407099549
      ],
      [
        "â",
        -8.76904564790966
      ],
      [
        "15",
        -8.769459479009946
      ],
      [
        "government",
        -8.769471912709328
      ],
      [
        "Ġà¨ķà©Ģà¨¤à",
        -8.770252300079205
      ],
      [
        "case",
        -8.771550041297122
      ],
      [
        "ĠâĢ",
        -8.772896843980632
      ],
      [
        "à®ķà¯įà®ķà¯ģ",
        -8.773832422890669
      ],
      [
        "him",
        -8.77522348993403
      ],
      [
        "âĢ",
        -8.77599792436909
      ],
      [
        "Ġà´ħà´",
        -8.779536608360726
      ],
      [
        "__",
        -8.77954822732032
      ],
      [
        "à²",
        -8.78060421935076
      ],
      [
        "ame",
        -8.78336553595596
      ],
      [
        "¤¾",
        -8.783546022417145
      ],
      [
        "àªı",
        -8.7840491861701
      ],
      [
        "à´Ĥ",
        -8.784409847374704
      ],
      [
        "Ġà¤¹à¥ģà¤",
        -8.787955839986594
      ],
      [
        "Ġà¨ľà¨¾",
        -8.788229887917513
      ],
      [
        "Ġà¦ªà§įà¦°à¦",
        -8.789887168137327
      ],
      [
        "ial",
        -8.792101666584418
      ],
      [
        "à¤¹à¥Ģ",
        -8.79428183923367
      ],
      [
        "Indian",
        -8.796082443061804
      ],
      [
        "à²²à³įà²²à²¿",
        -8.796118780764775
      ],
      [
        "ĠHo",
        -8.796479488414116
      ],
      [
        "type",
        -8.797076947990922
      ],
      [
        "``",
        -8.802995184334257
      ],
      [
        "à©Ģà¨Ĩà¨Ĥ",
        -8.80428853060355
      ],
      [
        "à°¤à±ĭ",
        -8.806141494289491
      ],
      [
        "18",
        -8.8079078206428
      ],
      [
        "Ġà¬ıà¬¹à¬¿",
        -8.808253748171225
      ],
      [
        "ors",
        -8.809028590056553
      ],
      [
        "Ġà¬ı",
        -8.809066149941007
      ],
      [
        "one",
        -8.809248026292089
      ],
      [
        "Ġshow",
        -8.81070030138502
      ],
      [
        "give",
        -8.816475715606114
      ],
      [
        "large",
        -8.81663617442924
      ],
      [
        "¨¾à¨Ĥ",
        -8.81665039092194
      ],
      [
        "Ġal",
        -8.817271527073183
      ],
      [
        "z",
        -8.819472723699736
      ],
      [
        "Ġà®Ĵà®°à¯ģ",
        -8.819601239304465
      ],
      [
        "à¦Ľà¦¿à¦²",
        -8.820065420074581
      ],
      [
        "\":",
        -8.82115102590109
      ],
      [
        "à°Ĥ",
        -8.821442759748244
      ],
      [
        "Ġstr",
        -8.824223055628117
      ],
      [
        "Ġà¨Ĺà¨",
        -8.8254892264701
      ],
      [
        "Ġà¬®à¬§àŃįàŃŁ",
        -8.826707226307613
      ],
      [
        "Ġstate",
        -8.828153684243468
      ],
      [
        "an",
        -8.834437078849
      ],
      [
        "Ġà°ħà°",
        -8.83559397493628
      ],
      [
        "Ġà¦ħà¦",
        -8.83603554868885
      ],
      [
        "come",
        -8.836990746793083
      ],
      [
        "old",
        -8.83850154556428
      ],
      [
        "à¦¦à§ĩà¦°",
        -8.83961972388529
      ],
      [
        "ful",
        -8.840116070811373
      ],
      [
        "Ġthre",
        -8.840776880819806
      ],
      [
        "world",
        -8.84152633676492
      ],
      [
        "Ġà¨¹à©Ģ",
        -8.846517452193
      ],
      [
        "Ń",
        -8.849312785427646
      ],
      [
        "order",
        -8.853729653593419
      ],
      [
        "à¦¾",
        -8.855854909928972
      ],
      [
        "ĠFor",
        -8.856111003148198
      ],
      [
        "Ġ[",
        -8.857166507380994
      ],
      [
        "Ġà¨Ĺà¨¿à¨Ĩ",
        -8.858713229107222
      ],
      [
        "Ġjust",
        -8.862860729918932
      ],
      [
        "interest",
        -8.865931694176115
      ],
      [
        "Ġco",
        -8.866596543005468
      ],
      [
        "Ġà¦¥à§ĩà¦ķà§ĩ",
        -8.867596373245423
      ],
      [
        "ķà¦¿à¦¨à§įà¦¤à§ģ",
        -8.869420214516765
      ],
      [
        "Ġà¨īà¨¨à©įà¨¹à",
        -8.86957364989615
      ],
      [
        "Ġà²ªà³įà²°à²",
        -8.869829054328765
      ],
      [
        "Ġà¨Ĩ",
        -8.87064420620668
      ],
      [
        "Ġà¤¥à¤¾",
        -8.870742354856514
      ],
      [
        "à²µà²¾à²Ĺà²¿",
        -8.87266215250715
      ],
      [
        "Ġà¦Ĩà¦Ľà§ĩ",
        -8.872845191881177
      ],
      [
        "to",
        -8.875108892540812
      ],
      [
        "Ġà¤īà¤¨",
        -8.87606846788914
      ],
      [
        "Ġfunction",
        -8.87733446993755
      ],
      [
        "ĠRe",
        -8.877582879206326
      ],
      [
        "Ġmean",
        -8.87772377398614
      ],
      [
        "à¨Ĩà¨ªà¨£à©",
        -8.878945985979152
      ],
      [
        "Ġplay",
        -8.879521590353392
      ],
      [
        "each",
        -8.880307842630572
      ],
      [
        "us",
        -8.88049424964873
      ],
      [
        "follow",
        -8.880650976825862
      ],
      [
        "low",
        -8.881878604310476
      ],
      [
        "Ġmon",
        -8.882797744645904
      ],
      [
        "à§Ģ",
        -8.882857155343705
      ],
      [
        "à¤¤à¥Ģ",
        -8.886102122376151
      ],
      [
        "Ġà¤ľà¤¾",
        -8.888251353332011
      ],
      [
        "W",
        -8.888571080420315
      ],
      [
        "´¿à´¨àµįà´±àµĨ",
        -8.890969410163965
      ],
      [
        "à¤ķà¤°",
        -8.892409460402911
      ],
      [
        "ht",
        -8.89297572222584
      ],
      [
        "à¬¥à¬¿à¬¬à¬¾",
        -8.894016100230367
      ],
      [
        "¦à³įà²¦à²¾à²°à³Ĩ",
        -8.894415721632909
      ],
      [
        "Ġmarket",
        -8.895755701239338
      ],
      [
        "say",
        -8.898671649376805
      ],
      [
        "Ġà¦¹à¦¯à¦¼à§ĩ",
        -8.899403461997967
      ],
      [
        "à¤Ĥà¤ļà¥įà¤¯à¤¾",
        -8.906422894058613
      ],
      [
        "risk",
        -8.907385012988229
      ],
      [
        "Ġà¤¹à¥ĭà¤¤à¥",
        -8.908815498723717
      ],
      [
        "Ġbr",
        -8.910389576682986
      ],
      [
        "à´",
        -8.910824011051357
      ],
      [
        "Ġà¦¬à¦¾",
        -8.911179265688592
      ],
      [
        "Ġà®ĩà®¨à¯įà®¤",
        -8.91142310477316
      ],
      [
        "à¤¸à¥ĩ",
        -8.912044068269122
      ],
      [
        "Ġ6",
        -8.912429403355269
      ],
      [
        "à´¯àµģà´Ĥ",
        -8.913149046490847
      ],
      [
        "àª¶à«ĩ",
        -8.91391747852455
      ],
      [
        "expect",
        -8.915626950050537
      ],
      [
        "à²¯à²²à³įà²²à²¿",
        -8.91619309515308
      ],
      [
        "Ġà¤ķà¤°à¤¨à¥ĩ",
        -8.918981214025724
      ],
      [
        "ia",
        -8.919324589503427
      ],
      [
        "à¤ļ",
        -8.920262300740074
      ],
      [
        "Ġà¨ľà¨¾à¨Ĥ",
        -8.921561211585177
      ],
      [
        "Ġà¨¸à¨¿à©°à¨ĺ",
        -8.924354155391024
      ],
      [
        "à°¨à°¿",
        -8.925055520965682
      ],
      [
        "very",
        -8.926157925073706
      ],
      [
        "Ġà²İà²Ĥà²¦à³ģ",
        -8.926636344366534
      ],
      [
        "à¨¦à©Ģ",
        -8.927898181608747
      ],
      [
        "Ġà¨ªà©įà¨°",
        -8.928253799117964
      ],
      [
        "àªµà«Ģ",
        -8.928304592627326
      ],
      [
        "$",
        -8.929227601000349
      ],
      [
        "Ġwater",
        -8.929352069401643
      ],
      [
        "à°",
        -8.929601053020557
      ],
      [
        "now",
        -8.929635112242561
      ],
      [
        "Ġà¦ķà¦°à¦¾",
        -8.930394876589384
      ],
      [
        "âĢĶ",
        -8.930993349613374
      ],
      [
        "ct",
        -8.93245726311661
      ],
      [
        "ince",
        -8.93301519527602
      ],
      [
        "Ġàªķàª°à«Ģ",
        -8.934021463138333
      ],
      [
        "à¨£",
        -8.934406873841176
      ],
      [
        "the",
        -8.936931081168153
      ],
      [
        "round",
        -8.938757067669595
      ],
      [
        "Ġset",
        -8.941126198486671
      ],
      [
        "Ġback",
        -8.942226000956445
      ],
      [
        "àª¤àª¾",
        -8.942584788143726
      ],
      [
        "à¤ķà¤¾",
        -8.943612597075738
      ],
      [
        "Ġà¨ľà©ĭ",
        -8.946326059419519
      ],
      [
        "à¬¥à¬¿à¬²à¬¾",
        -8.953306945174479
      ],
      [
        "ī",
        -8.956442155193706
      ],
      [
        "à®Ļà¯įà®ķà®³à¯į",
        -8.956555703288279
      ],
      [
        "up",
        -8.95779410096669
      ],
      [
        "K",
        -8.966394369907455
      ],
      [
        "à¦Łà¦¾",
        -8.966553152500694
      ],
      [
        "à¤®à¤§à¥įà¤¯à¥ĩ",
        -8.968431857028126
      ],
      [
        "every",
        -8.968698864154188
      ],
      [
        "Ġmy",
        -8.969350418828299
      ],
      [
        "Ġà¤Ĺà¤",
        -8.971196170182388
      ],
      [
        "Ġà¦Ĩà¦®à¦¿",
        -8.978643788770277
      ],
      [
        "Ġà¬¬à¬¿",
        -8.979358601992967
      ],
      [
        "´¾à´£àµį",
        -8.981142384469976
      ],
      [
        "j",
        -8.982361080184937
      ],
      [
        "à®ķà¯į",
        -8.987697955137651
      ],
      [
        "11",
        -8.987885783218413
      ],
      [
        "à´ķàµįà´ķàµį",
        -8.98864404123113
      ],
      [
        "à°Ĥà°¦à°¿",
        -8.989397139114002
      ],
      [
        "is",
        -8.989660407844791
      ],
      [
        "Ŀ",
        -8.99059155864127
      ],
      [
        "ķà¯įà®ķà¯ģà®®à¯į",
        -8.99090622215133
      ],
      [
        "Ġà²ħà²",
        -8.991373225682466
      ],
      [
        "Ġà¦ķà¦¿",
        -8.992927367532346
      ],
      [
        "Ġà´ªàµįà´°à´",
        -8.993580806697178
      ],
      [
        "u",
        -8.994522405075216
      ],
      [
        "Ġhealth",
        -8.995494430112746
      ],
      [
        "Ġreport",
        -9.001927868443671
      ],
      [
        "There",
        -9.002413135494358
      ],
      [
        "Thi",
        -9.00488336034647
      ],
      [
        "group",
        -9.005645201031879
      ],
      [
        "Ġà¤ħà¤ªà¤¨à¥",
        -9.005672775948181
      ],
      [
        "Ġfe",
        -9.008314176827422
      ],
      [
        "Ġdifferent",
        -9.00912146202094
      ],
      [
        "à¤²à¥Ģ",
        -9.009195593755429
      ],
      [
        "set",
        -9.0106124610495
      ],
      [
        "à°ķà°¿",
        -9.010763211686584
      ],
      [
        "requir",
        -9.013327406965551
      ],
      [
        "ainst",
        -9.016984952319158
      ],
      [
        "\"]",
        -9.017179490571385
      ],
      [
        "Ġà¦Ĩà¦",
        -9.018380876556794
      ],
      [
        "own",
        -9.019021396030915
      ],
      [
        "à¦Ľà§ĩà¦¨",
        -9.020540412933636
      ],
      [
        "L",
        -9.022433700844752
      ],
      [
        "¶",
        -9.02286353975098
      ],
      [
        "à§ĭ",
        -9.023200565420709
      ],
      [
        "Y",
        -9.023710862430372
      ],
      [
        "Ġà¬¨",
        -9.026718521216477
      ],
      [
        "à¦¨",
        -9.027204088971633
      ],
      [
        "Ġà´Ĵà´°àµģ",
        -9.027367237291235
      ],
      [
        "Ġpolic",
        -9.027709980406318
      ],
      [
        "look",
        -9.028344058403807
      ],
      [
        "Ġlong",
        -9.029883193878234
      ],
      [
        "H",
        -9.03033804022013
      ],
      [
        "Ġàª¸àª¾àª¥à«ĩ",
        -9.030620922489783
      ],
      [
        "¨à±įà°¨à°¾à°°à±ģ",
        -9.034552708192333
      ],
      [
        "Ġmus",
        -9.035211157491378
      ],
      [
        "Ġà¤Ĩà¤ª",
        -9.037218683024776
      ],
      [
        "à¤ļà¤¾",
        -9.038824754832984
      ],
      [
        "Ġfound",
        -9.039563995412255
      ],
      [
        "source",
        -9.039815742416824
      ],
      [
        "à¦Łà¦¿",
        -9.04044253809605
      ],
      [
        "Ġà²ħà²µà²°",
        -9.04146992886935
      ],
      [
        "ry",
        -9.044978853782744
      ],
      [
        "Ġà¦¹à§Ī",
        -9.04607566389984
      ],
      [
        "hile",
        -9.046275846919174
      ],
      [
        "level",
        -9.047249302910343
      ],
      [
        "à²¦à³Ĩ",
        -9.047266988030465
      ],
      [
        "issue",
        -9.04758925835883
      ],
      [
        "25",
        -9.050479035022507
      ],
      [
        "à¤ļà¥ĩ",
        -9.050848444403055
      ],
      [
        "uring",
        -9.053061759177734
      ],
      [
        ".\"",
        -9.055055651421842
      ],
      [
        "Ġlife",
        -9.05519434293772
      ],
      [
        "ight",
        -9.055255371840833
      ],
      [
        "Ġreal",
        -9.05805260143717
      ],
      [
        "&",
        -9.058164006163357
      ],
      [
        "Ġlist",
        -9.058167031365755
      ],
      [
        "method",
        -9.060378514369557
      ],
      [
        "¨àµįà´¨àµį",
        -9.060505955438503
      ],
      [
        "est",
        -9.063693225264158
      ],
      [
        "Ġà¤ķà¤¾à¤°à¥įà¤¯",
        -9.065219931237404
      ],
      [
        "Ġà¤¨à¤¾à¤¹à¥Ģ",
        -9.06567163087476
      ],
      [
        "Ġà¦¬à¦¿",
        -9.066216868647212
      ],
      [
        "Ġtho",
        -9.068771517295087
      ],
      [
        "for",
        -9.069637914025503
      ],
      [
        "grow",
        -9.06970212325794
      ],
      [
        "·",
        -9.070765772143522
      ],
      [
        "Ġà®ħà®",
        -9.073007410507465
      ],
      [
        "16",
        -9.075904859757465
      ],
      [
        "ĠState",
        -9.076391109055951
      ],
      [
        "à¤²à¥įà¤¯à¤¾",
        -9.077100432790978
      ],
      [
        "àª¹àª¤àª¾",
        -9.079151024069702
      ],
      [
        "param",
        -9.079589822494992
      ],
      [
        "à¤ķà¥Ģ",
        -9.079672512476094
      ],
      [
        "Ġà¬ıà¬ķ",
        -9.080312517290452
      ],
      [
        "Ġright",
        -9.080464713665076
      ],
      [
        "Ġà°Ĩ",
        -9.080938063917959
      ],
      [
        "Ġus",
        -9.081000039278553
      ],
      [
        "ence",
        -9.081565909573648
      ],
      [
        "ries",
        -9.081773496365685
      ],
      [
        "à¬¿",
        -9.08241237203422
      ],
      [
        "Ġform",
        -9.082599653285612
      ],
      [
        "à®¾à®°à¯į",
        -9.084142176344042
      ],
      [
        "Ġshe",
        -9.084800587393893
      ],
      [
        "ents",
        -9.084849245661033
      ],
      [
        "¨à¯įà®¤à¯ģ",
        -9.084920607767554
      ],
      [
        "Ġà¤¦à¥ĩ",
        -9.085379998873352
      ],
      [
        "Ġà¬ķà¬°à¬¿à¬¬à¬¾",
        -9.086204590849029
      ],
      [
        "}}",
        -9.088425305727716
      ],
      [
        "word",
        -9.089260298036423
      ],
      [
        "Ġà¤ľà¥ĭ",
        -9.089987144277973
      ],
      [
        "Ġcreat",
        -9.092339389210986
      ],
      [
        "Ġà¨ªà¨°",
        -9.092355893468646
      ],
      [
        "Ġprocess",
        -9.093934218294665
      ],
      [
        "last",
        -9.094666795902791
      ],
      [
        "à´¯àµģà´ŁàµĨ",
        -9.097196675100928
      ],
      [
        "ĠOn",
        -9.09821834759142
      ],
      [
        "Ġcount",
        -9.099485039963069
      ],
      [
        "Â",
        -9.101084492392756
      ],
      [
        "Ġdi",
        -9.10405201025263
      ],
      [
        "à¦ķà§°à§ĩ",
        -9.104169852819798
      ],
      [
        "open",
        -9.105459616507664
      ],
      [
        "Ġà¤¹à¥ĩ",
        -9.10888184240738
      ],
      [
        "Ġà¤¸à¤ķ",
        -9.108927047682338
      ],
      [
        "Ġà¤¸à¤¾à¤¥",
        -9.109337900753392
      ],
      [
        "Ġ8",
        -9.110480624250446
      ],
      [
        "ĠAs",
        -9.111565954062176
      ],
      [
        "ations",
        -9.11183379146894
      ],
      [
        "Ġà¬ıà¬¹à¬¾",
        -9.112239423728386
      ],
      [
        "Ġplace",
        -9.114054210195643
      ],
      [
        "research",
        -9.11724808034546
      ],
      [
        "did",
        -9.119852887401965
      ],
      [
        "àŃį",
        -9.1200843418762
      ],
      [
        "led",
        -9.120668209404375
      ],
      [
        "using",
        -9.121980689449124
      ],
      [
        "à¤¸à¤¾à¤łà¥Ģ",
        -9.122398006937567
      ],
      [
        "à¨¹à¨¾",
        -9.123183268391994
      ],
      [
        "à¤Ĥ",
        -9.124667970421257
      ],
      [
        "Ġà¤µà¥",
        -9.124751092595755
      ],
      [
        "Ġà¨µà©±à¨",
        -9.125177356052705
      ],
      [
        "information",
        -9.12551292908466
      ],
      [
        "ĺ",
        -9.126270420098276
      ],
      [
        "Ġstart",
        -9.12772088645287
      ],
      [
        "price",
        -9.128350606418065
      ],
      [
        "Ġà¦¸à§ĩ",
        -9.13281678386408
      ],
      [
        "Ġpower",
        -9.133049763787529
      ],
      [
        "crease",
        -9.134403632284714
      ],
      [
        "¨à¯įà®¤",
        -9.134502538099479
      ],
      [
        "à¤ļà¥Ģ",
        -9.136100112174155
      ],
      [
        "àª¨àª¥à«Ģ",
        -9.136199286922214
      ],
      [
        "ash",
        -9.137719784106856
      ],
      [
        "be",
        -9.137846125651873
      ],
      [
        "Ġà´İà´¨àµįà´¨",
        -9.138139925115162
      ],
      [
        "et",
        -9.138994993343784
      ],
      [
        "à¤¿à¤¤",
        -9.140530854561316
      ],
      [
        "long",
        -9.141159609656583
      ],
      [
        "with",
        -9.141951508130475
      ],
      [
        "Ġà¤ªà¥įà¤°",
        -9.143129841151202
      ],
      [
        "Ġà®®à®±à¯įà®±",
        -9.143205571411833
      ],
      [
        "ĠBu",
        -9.14427430185382
      ],
      [
        "tp",
        -9.144853647945459
      ],
      [
        "Ġà¤ħ",
        -9.15072972872807
      ],
      [
        "Ġà¤¸à¤°à¤ķà¤¾à¤°",
        -9.151334769746096
      ],
      [
        "url",
        -9.153943754117243
      ],
      [
        "à§°à§ĩ",
        -9.154848577610169
      ],
      [
        "ce",
        -9.157878928404978
      ],
      [
        "Ġà¨¸à¨ķà¨¦à",
        -9.15851065580432
      ],
      [
        "ma",
        -9.161374158261154
      ],
      [
        "Ġàªªà«įàª°",
        -9.162172295000426
      ],
      [
        "left",
        -9.165261831587507
      ],
      [
        "Ġen",
        -9.166434148509685
      ],
      [
        "à¬",
        -9.166777000631454
      ],
      [
        "Ġà¦ªà¦°",
        -9.167124217128038
      ],
      [
        "Ġbank",
        -9.167203682004384
      ],
      [
        "´¿àµ½",
        -9.16790104657186
      ],
      [
        "team",
        -9.16817214800474
      ],
      [
        "Ġà¤¹à¥ĭà¤¤à¤¾",
        -9.169038082707987
      ],
      [
        "17",
        -9.17196223788968
      ],
      [
        "Ġàª¨",
        -9.174592315198721
      ],
      [
        "ĠUni",
        -9.174977489493603
      ],
      [
        "ways",
        -9.175593784935968
      ],
      [
        "Ġà¦¤à¦¿à¦¨à¦¿",
        -9.177626521776325
      ],
      [
        "Ġcomp",
        -9.177931018135325
      ],
      [
        ".\\",
        -9.17953870048773
      ],
      [
        "Ġ7",
        -9.182831464102936
      ],
      [
        "à¤²à¥ĩ",
        -9.18313120309612
      ],
      [
        "Ġà®īà®³à¯įà®³",
        -9.183297032260464
      ],
      [
        "à§ĩà¦ĩ",
        -9.183420599158143
      ],
      [
        "Ġà¨¤à¨¾à¨Ĥ",
        -9.183885890184353
      ],
      [
        "Ġà¦¦à¦¿à¦¯à¦¼à§ĩ",
        -9.184486978817969
      ],
      [
        "14",
        -9.186913186377687
      ],
      [
        "cluding",
        -9.187443341856241
      ],
      [
        "Ġrece",
        -9.191099557221648
      ],
      [
        "à¨£à¨¾",
        -9.19208007969474
      ],
      [
        "à¦¨à¦¿",
        -9.194379177781533
      ],
      [
        "Ġà¬ķà¬",
        -9.195298641433741
      ],
      [
        "à¤Ī",
        -9.195863413230239
      ],
      [
        "clude",
        -9.19676547203289
      ],
      [
        "point",
        -9.19704904668398
      ],
      [
        "it",
        -9.197082539027184
      ],
      [
        "view",
        -9.19798757980649
      ],
      [
        "Î",
        -9.198090547357667
      ],
      [
        "à",
        -9.198114899958679
      ],
      [
        "à¤ı",
        -9.198476011139796
      ],
      [
        "ember",
        -9.198577895698808
      ],
      [
        "Ġà¦¬à¦¾à¦¬à§ĩ",
        -9.199979791111213
      ],
      [
        "à¦²à§ĩà¦¨",
        -9.200530857134801
      ],
      [
        "^{",
        -9.200705402279425
      ],
      [
        "second",
        -9.200810870819918
      ],
      [
        "à¦¿",
        -9.203069172857399
      ],
      [
        "Ġà¤Ĺà¤¯",
        -9.204166517651391
      ],
      [
        "ms",
        -9.206558264802595
      ],
      [
        "à²¿à²Ĺà³Ĩ",
        -9.207486499013143
      ],
      [
        "ĠY",
        -9.20769342056601
      ],
      [
        "lead",
        -9.208339291083364
      ],
      [
        "à¤£à¥įà¤¯à¤¾à¤¤",
        -9.2103151366899
      ],
      [
        "à©ĭà¨Ĥ",
        -9.212704466818604
      ],
      [
        "ice",
        -9.213618682558492
      ],
      [
        "Ġfinanc",
        -9.214593835770327
      ],
      [
        "Ġàªħàª",
        -9.21502192192569
      ],
      [
        "à¬®à¬¾à¬¨àŃĩ",
        -9.21509875797765
      ],
      [
        "à®¤à¯į",
        -9.217072351322546
      ],
      [
        "ure",
        -9.218476286521799
      ],
      [
        "current",
        -9.220287672171374
      ],
      [
        "à¨Ĩà¨Ĥ",
        -9.22488996066231
      ],
      [
        "Ġà¦ķà§°à¦¿à¦¬",
        -9.226215255684954
      ],
      [
        "Ġà¦ıà¦Łà¦¾",
        -9.22705315492319
      ],
      [
        "me",
        -9.229189779707575
      ],
      [
        "à§Ģà¦¯à¦¼",
        -9.229418648094164
      ],
      [
        "Ġà¦ıà¦¬à¦",
        -9.230613591940404
      ],
      [
        "à¦¿à¦¯à¦¼à§ĩ",
        -9.230640518402975
      ],
      [
        "Ġà¨ĩà¨ķ",
        -9.231328339322161
      ],
      [
        "Ġà¦¹à§Īà¦Ľà§ĩ",
        -9.231816406341437
      ],
      [
        "ķà¯įà®ķ",
        -9.231944344986942
      ],
      [
        "frac",
        -9.233242334397364
      ],
      [
        "à®©à®°à¯į",
        -9.233995994088417
      ],
      [
        "Ġend",
        -9.234321917426493
      ],
      [
        "support",
        -9.235302368600571
      ],
      [
        "Ġoff",
        -9.235845625825238
      ],
      [
        "Ġà¨ķà©Ģà¨¤à©Ģ",
        -9.236897264361811
      ],
      [
        "Ġà¦ķ",
        -9.237084321767725
      ],
      [
        "à´¤àµį",
        -9.237536267206867
      ],
      [
        "Ġà¨ķà©ĭà¨",
        -9.237611628484858
      ],
      [
        "Ġà¤¸à¤°à¥įà¤µ",
        -9.238893309211445
      ],
      [
        "als",
        -9.241815998798906
      ],
      [
        "13",
        -9.242369351760619
      ],
      [
        "Ġdevelop",
        -9.242428115534981
      ],
      [
        "Ġà¤ķà¤¹à¤¾",
        -9.242547557277867
      ],
      [
        "Ġà¦¨à¦¾à¦ĩ",
        -9.245062791409026
      ],
      [
        "Ġsmall",
        -9.245156261327857
      ],
      [
        "ĸ",
        -9.24563135443476
      ],
      [
        "end",
        -9.246916059563112
      ],
      [
        "Ġà®İà®©",
        -9.247581513113257
      ],
      [
        "Ġà¦Ĩ",
        -9.2489659629901
      ],
      [
        "Ġà¤¤à¤°",
        -9.249564935484464
      ],
      [
        "Ġ``",
        -9.250432039530654
      ],
      [
        "Ġà®İà®©à¯įà®±à¯ģ",
        -9.251370485595505
      ],
      [
        "sis",
        -9.251652562197464
      ],
      [
        "Ġapp",
        -9.251888551142825
      ],
      [
        "site",
        -9.251890587536085
      ],
      [
        "à¤Ĺà¤¾",
        -9.252694287181857
      ],
      [
        "Ġà¤¸à¤Ĥ",
        -9.252884058221095
      ],
      [
        "ory",
        -9.253932203464876
      ],
      [
        "Ġ\\",
        -9.256064814266836
      ],
      [
        "ģà´¨àµįà´¨à´¤àµį",
        -9.258352815094662
      ],
      [
        "cent",
        -9.2591837467862
      ],
      [
        "Ġdown",
        -9.259976153803336
      ],
      [
        "ĠAn",
        -9.261328658587756
      ],
      [
        "ĠTo",
        -9.26251696847118
      ],
      [
        "Ġà¨¨à¨¾",
        -9.264693940607884
      ],
      [
        "à®ķà®¿à®±à®¤à¯ģ",
        -9.266090346416362
      ],
      [
        "Ġà¦¬à§ģà¦²à¦¿",
        -9.269212793368535
      ],
      [
        "ized",
        -9.26930665986588
      ],
      [
        "Ġsub",
        -9.271007630345906
      ],
      [
        "Ġplan",
        -9.271614820452365
      ],
      [
        "ical",
        -9.271712059949692
      ],
      [
        "ar",
        -9.273971034012806
      ],
      [
        "son",
        -9.27493462682897
      ],
      [
        "à°Ĥà°Ĺà°¾",
        -9.275829496311038
      ],
      [
        "Ġà¨¸",
        -9.27629805467388
      ],
      [
        "angu",
        -9.276417046541091
      ],
      [
        "Ġà¤²à¥ĩ",
        -9.276933185427655
      ],
      [
        "à¬¬àŃĩ",
        -9.27731049059765
      ],
      [
        "An",
        -9.277524636736024
      ],
      [
        "à°°à±ģ",
        -9.279672413642201
      ],
      [
        "ian",
        -9.280086269453733
      ],
      [
        "40",
        -9.280252928272997
      ],
      [
        "million",
        -9.2807710217315
      ],
      [
        "text",
        -9.28132136986952
      ],
      [
        "Ġà¦īà¦",
        -9.282454786751668
      ],
      [
        "],",
        -9.282658660611778
      ],
      [
        "land",
        -9.284266227391658
      ],
      [
        "à¨²",
        -9.287426253693257
      ],
      [
        "Ġterm",
        -9.287891681767295
      ],
      [
        "¥Ģ",
        -9.291037212935137
      ],
      [
        "Ġà¦¯à¦¾à¦¯à¦¼",
        -9.291146071043926
      ],
      [
        "Ġprovid",
        -9.291273627056182
      ],
      [
        "class",
        -9.292677087078324
      ],
      [
        "Ġà°Ĵà°ķ",
        -9.293406257946582
      ],
      [
        "à¤®à¥ģà¤³à¥ĩ",
        -9.293724667003847
      ],
      [
        "roblem",
        -9.294246126645728
      ],
      [
        "à¬ªà¬°àŃĩ",
        -9.296390805328132
      ],
      [
        "Ġà¦ķà§ĭà¦¨à§ĭ",
        -9.296986509429642
      ],
      [
        "à¤¯à¤¾à¤Ĥà¤¨à¥Ģ",
        -9.297486868278863
      ],
      [
        "Ġà¦¤à¦¾à¦°",
        -9.298607058732724
      ],
      [
        "Ġà¤ľà¤¿à¤¸",
        -9.30045327368749
      ],
      [
        "Ġà¦ªà§įà¦°",
        -9.300502249787709
      ],
      [
        "want",
        -9.300975069554193
      ],
      [
        "©",
        -9.301169314947595
      ],
      [
        "allow",
        -9.301259850659829
      ],
      [
        "µ»",
        -9.303210183977484
      ],
      [
        "à¥Ĥà¤¨",
        -9.304209564515622
      ],
      [
        "still",
        -9.304944364300692
      ],
      [
        "à¦¿à¦¤",
        -9.305090705759763
      ],
      [
        "ĠNew",
        -9.305154121437287
      ],
      [
        "side",
        -9.305304398354512
      ],
      [
        "³ģ",
        -9.305630604574993
      ],
      [
        "hildren",
        -9.307519662699146
      ],
      [
        "²²à³ģ",
        -9.309667991392374
      ],
      [
        "à´¯à´¾à´£àµį",
        -9.310280391331986
      ],
      [
        "find",
        -9.311274563504224
      ],
      [
        "Ġschool",
        -9.311362859679175
      ],
      [
        "ability",
        -9.311742298277828
      ],
      [
        "Ġgoo",
        -9.31197331895769
      ],
      [
        "ury",
        -9.313548532391483
      ],
      [
        "Ġà¦ªà§įà§°",
        -9.314794972929905
      ],
      [
        "cording",
        -9.315461113210528
      ],
      [
        "98",
        -9.316021368430555
      ],
      [
        "à²¯à²¨à³įà²¨à³ģ",
        -9.31956976287508
      ],
      [
        "Ġàª¥àª",
        -9.32006753335608
      ],
      [
        "Ġà²Ĩ",
        -9.32046964797955
      ],
      [
        "Ġà¦ıà¦ĸà¦¨",
        -9.321609325000011
      ],
      [
        "gain",
        -9.322290654725077
      ],
      [
        "Ġsam",
        -9.322550244630678
      ],
      [
        "Ġà¬ıà¬¬à¬",
        -9.324876783735396
      ],
      [
        "Ġconsider",
        -9.32623952452752
      ],
      [
        "à¤µà¤°",
        -9.327340526132716
      ],
      [
        "O",
        -9.32937672151104
      ],
      [
        "Ġmo",
        -9.33237293848379
      ],
      [
        "context",
        -9.33272654230975
      ],
      [
        "tter",
        -9.336088834088695
      ],
      [
        "Ġà¤µà¤¹",
        -9.336323031856331
      ],
      [
        "[\"",
        -9.337455763271084
      ],
      [
        "Ġà¨²à©ĭà¨ķ",
        -9.337750846934604
      ],
      [
        "à¨¤à¨¾",
        -9.337791924964346
      ],
      [
        "´¿à´²àµį",
        -9.33840177545133
      ],
      [
        "Ġfami",
        -9.34063732110896
      ],
      [
        "à¨ķ",
        -9.341430374726581
      ],
      [
        "à¤¾à¤ļà¥įà¤¯à¤¾",
        -9.342547501254899
      ],
      [
        "©įà¨¹à¨¾à¨Ĥ",
        -9.342831340822148
      ],
      [
        "right",
        -9.344501552703612
      ],
      [
        "raise",
        -9.345551247471803
      ],
      [
        "Ġà¦ķà¦¿à¦Ľà§ģ",
        -9.347275781276913
      ],
      [
        "It",
        -9.349152886116535
      ],
      [
        "ish",
        -9.34929256127497
      ],
      [
        "uture",
        -9.349648325763269
      ],
      [
        "Ġdr",
        -9.351055748595936
      ],
      [
        "el",
        -9.351689420392413
      ],
      [
        "Ġà®İà®©à¯įà®±",
        -9.351727394335587
      ],
      [
        "Ġ9",
        -9.35245453531946
      ],
      [
        "limit",
        -9.352971479024822
      ],
      [
        "à®¯à¯ģà®®à¯į",
        -9.353437190938049
      ],
      [
        "provide",
        -9.356613608669187
      ],
      [
        "member",
        -9.356909499987841
      ],
      [
        "Ġgeneral",
        -9.357406872709063
      ],
      [
        "à°¨à±ĩ",
        -9.358325991538507
      ],
      [
        "ces",
        -9.359462534969499
      ],
      [
        "à²µà³ģ",
        -9.362262134592719
      ],
      [
        "Ġà®µà¯ĩà®£à¯įà®Ł",
        -9.363523533519901
      ],
      [
        "Ġà¦¨à¦¿à¦¯à¦¼à§ĩ",
        -9.366246449576614
      ],
      [
        "ĠAnd",
        -9.367855917290498
      ],
      [
        "da",
        -9.37147242256767
      ],
      [
        "à¨¦à©Ģà¨Ĩà¨Ĥ",
        -9.371734443406433
      ],
      [
        "ze",
        -9.372388076532793
      ],
      [
        "Ġlaw",
        -9.372797356151297
      ],
      [
        "Ġà®ħà®µà®°à¯į",
        -9.375717590933675
      ],
      [
        "Ġà¦ķà¦°",
        -9.376279858934922
      ],
      [
        "į",
        -9.376699733842742
      ],
      [
        "à¦¾à¦°",
        -9.37745892524877
      ],
      [
        "ªà¯įà®ªà¯ģ",
        -9.378433895198244
      ],
      [
        "service",
        -9.378762111857096
      ],
      [
        "Ġhuman",
        -9.379417363551084
      ],
      [
        "à®ķà®³à¯Ī",
        -9.379629668370683
      ],
      [
        "Ġobject",
        -9.38046959410349
      ],
      [
        "Ġà¬¯àŃĩ",
        -9.38169252739776
      ],
      [
        "body",
        -9.381708723921635
      ],
      [
        "Ġà¦ªà§įà¦°à¦¤à¦¿",
        -9.385521458170892
      ],
      [
        "Ġà¦¹à¦¬à§ĩ",
        -9.385703739771692
      ],
      [
        "à¦Łà§ĭ",
        -9.38656996955173
      ],
      [
        "Ġeffect",
        -9.387359182381832
      ],
      [
        "Ġà¤Ĩà¤",
        -9.388200992200428
      ],
      [
        "version",
        -9.388723862012707
      ],
      [
        "Ġfund",
        -9.3897701434145
      ],
      [
        "à¦ĥ",
        -9.390691653204186
      ],
      [
        "Ġhand",
        -9.390854963485499
      ],
      [
        "Ġà¦ľà¦¨à§įà¦¯",
        -9.391241516049645
      ],
      [
        "Ġà¦¬à¦¿à¦·à¦¯à¦¼",
        -9.391831358499491
      ],
      [
        "ajor",
        -9.392145478706569
      ],
      [
        "Ġà¨¹à©ĭà¨",
        -9.392553299159252
      ],
      [
        "early",
        -9.392914717492857
      ],
      [
        "¤à³įà²¤à²¦à³Ĩ",
        -9.393586335388987
      ],
      [
        "à¤¥à¥Ģ",
        -9.394364660552503
      ],
      [
        "Ġà¤¬à¤¾à¤¦",
        -9.394790581114217
      ],
      [
        "ountry",
        -9.39547460085732
      ],
      [
        "Ġà¦ªà§įà§°à¦",
        -9.396614735434492
      ],
      [
        "Ġpass",
        -9.396819819232228
      ],
      [
        "Ġà¤Ĺ",
        -9.397027227134505
      ],
      [
        "Ġadd",
        -9.397420483815846
      ],
      [
        "à¤¦à¤¿à¤¯à¤¾",
        -9.398887968280828
      ],
      [
        "path",
        -9.398990361071961
      ],
      [
        "omen",
        -9.399594728346749
      ],
      [
        "Ġàªķàª°",
        -9.400078799156553
      ],
      [
        "ate",
        -9.40028296067445
      ],
      [
        "®¿à®©à¯į",
        -9.400669680241059
      ],
      [
        "try",
        -9.401852715743853
      ],
      [
        "Ġnon",
        -9.403450075133794
      ],
      [
        "cy",
        -9.403907927486957
      ],
      [
        "Ġà¨¸à¨¨",
        -9.404174234651416
      ],
      [
        "à¦¬à¦¾à¦°",
        -9.404764227541527
      ],
      [
        "file",
        -9.405110394776703
      ],
      [
        "Ġà¬¸à¬",
        -9.405839102611509
      ],
      [
        "read",
        -9.406213510914972
      ],
      [
        "à¤ķ",
        -9.407909133441336
      ],
      [
        "||",
        -9.407964736825129
      ],
      [
        "à§ĩà¦¨",
        -9.408348988524928
      ],
      [
        "Ġà¨ľà¨¾à¨£",
        -9.408725786489551
      ],
      [
        "}{",
        -9.408755905852047
      ],
      [
        "°¾à°°à±ģ",
        -9.409287130592752
      ],
      [
        "à¤¾à¤¨à¥ĩ",
        -9.41118095942955
      ],
      [
        "ness",
        -9.411253416812237
      ],
      [
        "à¤¨",
        -9.414201249827116
      ],
      [
        "à®°à¯į",
        -9.415552798323443
      ],
      [
        "Error",
        -9.41599716141937
      ],
      [
        "Ġpublic",
        -9.41662062325253
      ],
      [
        "à²¯",
        -9.417540214290021
      ],
      [
        "Ġmin",
        -9.419008930706156
      ],
      [
        "Ġperson",
        -9.41904113555471
      ],
      [
        "Ġà²¸à²",
        -9.421212095547837
      ],
      [
        "Ġà¦¨à¦¿",
        -9.421806450515074
      ],
      [
        "arg",
        -9.422409805371549
      ],
      [
        "Ġcommon",
        -9.422594989325262
      ],
      [
        "Ġà¤¸à¥",
        -9.423973897576978
      ],
      [
        "Ġà¦ħ",
        -9.424184785312914
      ],
      [
        "Ġactiv",
        -9.424844907213668
      ],
      [
        "ages",
        -9.424955832857112
      ],
      [
        "times",
        -9.425046468277273
      ],
      [
        "Ġà¤¹à¤¾",
        -9.426052602549365
      ],
      [
        "cli",
        -9.428455894902559
      ],
      [
        "Ġà¨°à¨¹à©",
        -9.428753202051407
      ],
      [
        "Ġàª¹à«ĭàª",
        -9.43059734269499
      ],
      [
        "à°¾à°²à±ģ",
        -9.431617939255387
      ],
      [
        "Ġcent",
        -9.432852412613943
      ],
      [
        "ĠV",
        -9.433772597307513
      ],
      [
        "Ġà¤¨à¤",
        -9.434282334846914
      ],
      [
        "Ġà¦ħà¦¨à§ģ",
        -9.434904836244177
      ],
      [
        "Ġà¦®à¦",
        -9.434960286750009
      ],
      [
        "id",
        -9.43595369234811
      ],
      [
        "ite",
        -9.436287288212752
      ],
      [
        "à¥ĭ",
        -9.436513063760643
      ],
      [
        "remain",
        -9.437803177008403
      ],
      [
        "Ġà¤°à¤¾à¤ľà¥įà¤¯",
        -9.438557465478965
      ],
      [
        "proper",
        -9.439125601208442
      ],
      [
        "ĠTru",
        -9.439479125787877
      ],
      [
        "ĠAl",
        -9.439859798524118
      ],
      [
        "à¥ĩà¤Ĥ",
        -9.44016981642908
      ],
      [
        "Ġà¬ħà¬",
        -9.440939951897118
      ],
      [
        "Ġà¦ªà§įà§°à¦¤à¦¿",
        -9.441519238155582
      ],
      [
        "U",
        -9.441776580462747
      ],
      [
        "à§Ģà¦¯à¦¼à¦¾",
        -9.442525388896284
      ],
      [
        "avail",
        -9.443350246007515
      ],
      [
        "à¨ĩà¨Ĩ",
        -9.443903966694583
      ],
      [
        "à®µà¯ģà®®à¯į",
        -9.444084329139745
      ],
      [
        "Ġproduct",
        -9.445517656835829
      ],
      [
        "ĠNo",
        -9.445535941861966
      ],
      [
        "Ġà¬°à¬¹à¬¿",
        -9.445551752147553
      ],
      [
        "Ġà´Ī",
        -9.44574862282312
      ],
      [
        "Ġà¦¬à¦²à§ĩ",
        -9.446006302340486
      ],
      [
        "ªà¯įà®ªà®Łà¯įà®Ł",
        -9.44627014852784
      ],
      [
        "Ġà²®à²¾à²¡à",
        -9.447135319660346
      ],
      [
        "distribution",
        -9.447930536497264
      ],
      [
        "Ġstandard",
        -9.448451208114282
      ],
      [
        "red",
        -9.448465085076684
      ],
      [
        "Ġperiod",
        -9.449189770211126
      ],
      [
        "Ġà°®à°°à°¿à°¯à±",
        -9.449869344761698
      ],
      [
        "à¦¯à¦¦à¦¿",
        -9.449992934766602
      ],
      [
        "item",
        -9.450240434523748
      ],
      [
        "ĠPa",
        -9.450718979122644
      ],
      [
        "ward",
        -9.45348225567421
      ],
      [
        "com",
        -9.454455454873475
      ],
      [
        "Ġaccount",
        -9.454651681838701
      ],
      [
        "Ġpresent",
        -9.454922786706465
      ],
      [
        "Ġà¦¦à¦¿",
        -9.457341477917527
      ],
      [
        "à¦¤à¦¾",
        -9.460885540819863
      ],
      [
        "date",
        -9.460997546994204
      ],
      [
        "due",
        -9.46285007016745
      ],
      [
        "Ġà¨¬à¨¹à©ģà¨¤",
        -9.463352102055095
      ],
      [
        "flag",
        -9.463682721392544
      ],
      [
        "à¤¿à¤¯à¥ĭà¤Ĥ",
        -9.464323072228204
      ],
      [
        "time",
        -9.464334220755564
      ],
      [
        "model",
        -9.464645986710478
      ],
      [
        "error",
        -9.466009923883316
      ],
      [
        "Ġcare",
        -9.466961889644736
      ],
      [
        "ied",
        -9.4669890536832
      ],
      [
        "line",
        -9.46771443428435
      ],
      [
        "24",
        -9.468455578734167
      ],
      [
        "Ġà¤¯à¥ĩ",
        -9.468747317310982
      ],
      [
        "à®ķà®³à®¿à®²à¯į",
        -9.471195361682167
      ],
      [
        "J",
        -9.472102715580544
      ],
      [
        "à¦ķà§Ī",
        -9.473218903838013
      ],
      [
        "ĠWe",
        -9.473750885673336
      ],
      [
        "match",
        -9.474180161278927
      ],
      [
        "ated",
        -9.474947600061274
      ],
      [
        "ĠBe",
        -9.47750674380576
      ],
      [
        "Ġà¦ķà¦°à¦¤à§ĩ",
        -9.478247795663512
      ],
      [
        "âģł",
        -9.479366942286973
      ],
      [
        "ĠYou",
        -9.479608849315698
      ],
      [
        "Ġà¤ķ",
        -9.479722012848098
      ],
      [
        "ok",
        -9.479821769551656
      ],
      [
        "v",
        -9.481381457371114
      ],
      [
        "Ġv",
        -9.481390850160295
      ],
      [
        "index",
        -9.483121697526276
      ],
      [
        "à¬Łà¬¿",
        -9.483239988279736
      ],
      [
        "Ï",
        -9.484197513097522
      ],
      [
        "ng",
        -9.48504013521004
      ],
      [
        "ased",
        -9.4858189195285
      ],
      [
        "Ġdirect",
        -9.487890224307803
      ],
      [
        "Ġà¨ľà¨¿à¨¸",
        -9.487952307171804
      ],
      [
        "equest",
        -9.488881491244479
      ],
      [
        "à¤²",
        -9.489348325488981
      ],
      [
        "amount",
        -9.489701630940129
      ],
      [
        "Ġà¤°à¤¾à¤ľ",
        -9.489763919125814
      ],
      [
        "American",
        -9.491437091428786
      ],
      [
        "til",
        -9.492819488281146
      ],
      [
        "Ġplant",
        -9.493798332906904
      ],
      [
        "event",
        -9.493875252150827
      ],
      [
        "Ġhere",
        -9.494937012468723
      ],
      [
        "Ġcost",
        -9.494965133478171
      ],
      [
        "Ġàª¤à«ĭ",
        -9.496744028280554
      ],
      [
        "game",
        -9.497002096746492
      ],
      [
        "àŃĢ",
        -9.497088611576961
      ],
      [
        "--",
        -9.499493323804277
      ],
      [
        "ield",
        -9.499742982252279
      ],
      [
        "rea",
        -9.500048199937835
      ],
      [
        "Ġà¦Ĩà¦Ľà¦¿à¦²",
        -9.500090258645262
      ],
      [
        "Ġà¤¤à¥ĩ",
        -9.500856719169839
      ],
      [
        "ł",
        -9.501010988990771
      ],
      [
        "Ġpro",
        -9.501350270907409
      ],
      [
        "Ġà¤Ńà¤¾à¤°à¤¤",
        -9.503135750061482
      ],
      [
        "Ġtax",
        -9.50350418584655
      ],
      [
        "à¤°",
        -9.50359408321459
      ],
      [
        "mong",
        -9.505030022220698
      ],
      [
        "ease",
        -9.505440323024335
      ],
      [
        "ĠAct",
        -9.5062591891863
      ],
      [
        "Ġhome",
        -9.508027301157595
      ],
      [
        "Ġgre",
        -9.509321381585284
      ],
      [
        "Ġlea",
        -9.510288052681162
      ],
      [
        "Ġcell",
        -9.510378833619264
      ],
      [
        "Ġac",
        -9.510561697313992
      ],
      [
        "Ġàª¤",
        -9.51125752539593
      ],
      [
        "de",
        -9.511471714161384
      ],
      [
        "els",
        -9.511495699840536
      ],
      [
        "à¦¿à¦¯à¦¼à¦¾",
        -9.51150534583331
      ],
      [
        "à¦®à¦§à§įà¦¯à§ĩ",
        -9.513644364464415
      ],
      [
        "Ġà¬¤à¬¾à¬ĻàŃįà¬ķ",
        -9.515629491885408
      ],
      [
        "measure",
        -9.515758484449835
      ],
      [
        "ĠJu",
        -9.51575949311707
      ],
      [
        "Tru",
        -9.516878118061687
      ],
      [
        "Ġwh",
        -9.517944990150493
      ],
      [
        "à¥",
        -9.5188033304456
      ],
      [
        "lot",
        -9.51888780073445
      ],
      [
        "Ġà°ķà±Ĥà°¡à°¾",
        -9.519837325615372
      ],
      [
        "Ġfree",
        -9.52046151292349
      ],
      [
        "development",
        -9.52103680241176
      ],
      [
        "Ġclose",
        -9.521735845267758
      ],
      [
        "population",
        -9.522976935859077
      ],
      [
        "à¦¤à§ĭ",
        -9.52311578364042
      ],
      [
        "sible",
        -9.523842759815542
      ],
      [
        "à®©à¯į",
        -9.524315331214867
      ],
      [
        "Ġà²¬à²",
        -9.524707325283408
      ],
      [
        "à¯ģà®³à¯įà®³",
        -9.524913088311514
      ],
      [
        "Ġproject",
        -9.525598014907683
      ],
      [
        "Ġà¤µà¤¿",
        -9.526146462329272
      ],
      [
        "à¬¬àŃĩà¬³àŃĩ",
        -9.52618695024546
      ],
      [
        "Ġà¤ķà¤®",
        -9.526615680382926
      ],
      [
        "no",
        -9.527404031106744
      ],
      [
        "à¤®à¥ĩà¤Ĥ",
        -9.528552445692252
      ],
      [
        "à¤¥à¥ĩ",
        -9.528574483587224
      ],
      [
        "Ġà®µà®",
        -9.52980843196811
      ],
      [
        "il",
        -9.530473833608529
      ],
      [
        "range",
        -9.530693300294327
      ],
      [
        "Ġà¤ªà¥įà¤°à¤¤à¤¿",
        -9.532262705600964
      ],
      [
        "Ġà¤°à¥Ĥà¤ª",
        -9.532554257781776
      ],
      [
        "à¦¿à¦ķ",
        -9.532836979694306
      ],
      [
        "Ġà¬¦àŃĩà¬ĩ",
        -9.533125452021594
      ],
      [
        "not",
        -9.533215504847185
      ],
      [
        "',",
        -9.533352726688602
      ],
      [
        "97",
        -9.53519101828027
      ],
      [
        "à¬ĻàŃįà¬ķà¬°",
        -9.535687236359951
      ],
      [
        "ail",
        -9.536691541963828
      ],
      [
        "à¦¤à§įà¦¬",
        -9.53675448195673
      ],
      [
        "Ġà¦¸à¦®à¦¯à¦¼",
        -9.536770947719322
      ],
      [
        "Ġà¦ªà§",
        -9.536887773620943
      ],
      [
        "à³į",
        -9.537243121372008
      ],
      [
        "Ġà¦ħà¦¸à¦®",
        -9.538738111623651
      ],
      [
        "Ġrun",
        -9.5393016076717
      ],
      [
        "à¤¿à¤ķ",
        -9.539375258008738
      ],
      [
        "à±ģ",
        -9.539595115080257
      ],
      [
        "¨àµįà´¨àµģà´Ĥ",
        -9.540054091358499
      ],
      [
        "World",
        -9.541029856389738
      ],
      [
        "ĠJe",
        -9.541139710413589
      ],
      [
        "ur",
        -9.541999312122945
      ],
      [
        "py",
        -9.543086355787937
      ],
      [
        "Ġà¨¦à¨¿à©±à¨¤à",
        -9.543468499135367
      ],
      [
        "runner",
        -9.543882772057334
      ],
      [
        "Ġread",
        -9.54423315840566
      ],
      [
        "Ġà¤°à¤¹à¥ĩ",
        -9.54434578752478
      ],
      [
        "Ġreduc",
        -9.545434431410676
      ],
      [
        "Ġdon",
        -9.545851844459932
      ],
      [
        "à¬¾",
        -9.545943049746022
      ],
      [
        "exist",
        -9.546828698714183
      ],
      [
        "Ġà¤ķà¤¾à¤®",
        -9.547621026381787
      ],
      [
        "key",
        -9.54890070761179
      ],
      [
        "str",
        -9.548963154443454
      ],
      [
        "Ġbusiness",
        -9.550121398997154
      ],
      [
        "à¦¬à¦²à§Ī",
        -9.550903134964845
      ],
      [
        "Ġdesign",
        -9.55375068645331
      ],
      [
        "hi",
        -9.554084954844011
      ],
      [
        "àª¤àª¾àªĤ",
        -9.555942864101162
      ],
      [
        "Ġà²¹à²¾à²Ĺà³",
        -9.55639527172416
      ],
      [
        "think",
        -9.556483675834595
      ],
      [
        "21",
        -9.557051913719345
      ],
      [
        "Ġà¤¤à¤ķ",
        -9.55830201298811
      ],
      [
        "à¦¾à¦¯à¦¼",
        -9.559067062747042
      ],
      [
        "field",
        -9.559077284463832
      ],
      [
        "Ġà¬ħ",
        -9.55961518467895
      ],
      [
        "Ġeducation",
        -9.56165058998592
      ],
      [
        "à¦¬à§ĩ",
        -9.562022121210635
      ],
      [
        "economic",
        -9.562857465760885
      ],
      [
        "Ġà´ĩà´",
        -9.56394647204991
      ],
      [
        "reas",
        -9.564230632249537
      ],
      [
        "Ġà¤¹à¤®",
        -9.566204640925037
      ],
      [
        "ix",
        -9.566565502095036
      ],
      [
        "ism",
        -9.567191129398216
      ],
      [
        "ĠWh",
        -9.568058338389328
      ],
      [
        "à¥¤\"",
        -9.568812573763761
      ],
      [
        "ĠMar",
        -9.569760353884803
      ],
      [
        "à¨µà©ĩà¨Ĥ",
        -9.570117705585815
      ],
      [
        "Ġlive",
        -9.570466260677351
      ],
      [
        "Ġà¬ªàŃįà¬°à¬¤à¬¿",
        -9.573549995367724
      ],
      [
        "rgs",
        -9.574265078722862
      ],
      [
        "Ġim",
        -9.576478466988597
      ],
      [
        "Ġcommun",
        -9.576840818605014
      ],
      [
        "Ġad",
        -9.576992499344293
      ],
      [
        "60",
        -9.577009398540742
      ],
      [
        "à¨¿à¨Ĩà¨Ĥ",
        -9.577153294808596
      ],
      [
        "Ġà¨ª",
        -9.577848891595046
      ],
      [
        "math",
        -9.577953734286705
      ],
      [
        "Ġbu",
        -9.578542513030415
      ],
      [
        "respons",
        -9.578651581399757
      ],
      [
        "Ġà¤¸",
        -9.578783244860821
      ],
      [
        "à¬®à¬¾à¬¨",
        -9.579146104451592
      ],
      [
        "credit",
        -9.579434810390685
      ],
      [
        "Ġà¦¤à¦¾à§°",
        -9.580105960823062
      ],
      [
        "à¨°à©Ģ",
        -9.580295312976947
      ],
      [
        "àªµà«ģàªĤ",
        -9.58038121996601
      ],
      [
        "position",
        -9.580948451975036
      ],
      [
        "Ġà¦¸à¦®à§įà¦",
        -9.581037175780503
      ],
      [
        "rule",
        -9.583008211019319
      ],
      [
        "control",
        -9.583563838340135
      ],
      [
        "àµį",
        -9.584406400827344
      ],
      [
        "Ġà¤¦à¥ĩà¤ĸ",
        -9.585004475031996
      ],
      [
        "ĠSo",
        -9.585102167493226
      ],
      [
        "ting",
        -9.585536592932142
      ],
      [
        "move",
        -9.586104598798833
      ],
      [
        "Ġtoo",
        -9.5865912829766
      ],
      [
        "Ġà¦¥à¦ķà¦¾",
        -9.587104685012154
      ],
      [
        "Ġlo",
        -9.58719657170752
      ],
      [
        "certain",
        -9.58794737404865
      ],
      [
        "Ġfile",
        -9.588583333321758
      ],
      [
        "Ġà¦¤à§ĩà¦ĵà¦ģà§°",
        -9.590387730062668
      ],
      [
        "à¯ģ",
        -9.591097662681994
      ],
      [
        "Ġàªķàª°à«ĩ",
        -9.593224509869927
      ],
      [
        "à¤¾à¤Ĥ",
        -9.593651513610835
      ],
      [
        "://",
        -9.593734758695014
      ],
      [
        "Ġà¤ķà¥ĩà¤²à¥ĩ",
        -9.594034157815251
      ],
      [
        "µ½",
        -9.594433680346775
      ],
      [
        "¦à¥įà¤µà¤¾à¤°à¤¾",
        -9.595011739863711
      ],
      [
        "rv",
        -9.595981191961357
      ],
      [
        "à¦®",
        -9.597052314464666
      ],
      [
        "Ġà®ļà¯Ĩà®¯à¯įà®¯",
        -9.597067492197569
      ],
      [
        "Ġland",
        -9.598283941381819
      ],
      [
        "as",
        -9.599917674448465
      ],
      [
        "à¤¾à¤¤à¥Ģà¤²",
        -9.600643899129963
      ],
      [
        "ĠUS",
        -9.601921100540343
      ],
      [
        "Ġà¨¸à¨°à¨ķà¨¾à¨°",
        -9.602093958531531
      ],
      [
        "Ġà¦Ĩà¦®à¦¾à¦°",
        -9.602376454322712
      ],
      [
        "Ġinter",
        -9.603393211126933
      ],
      [
        "Ġà¤ľà¤¾à¤¤à¤¾",
        -9.603804823232547
      ],
      [
        "=\"",
        -9.604849213806917
      ],
      [
        "ĠMan",
        -9.606030391164003
      ],
      [
        "±",
        -9.606559426885052
      ],
      [
        "Ġsp",
        -9.606821286029556
      ],
      [
        "Ġà¦¯à¦¾",
        -9.606926529481676
      ],
      [
        "Ġàªľà«ĭ",
        -9.607329747196172
      ],
      [
        "command",
        -9.607813227413839
      ],
      [
        "Ġpos",
        -9.60919780685225
      ],
      [
        "à¤°à¥Ģ",
        -9.609542690788103
      ],
      [
        "Ġà¨°à¨¿à¨¹à¨¾",
        -9.609794562511901
      ],
      [
        "agement",
        -9.6135192631982
      ],
      [
        "Ġmone",
        -9.614864710107268
      ],
      [
        "à²°à³Ĩ",
        -9.61608822623215
      ],
      [
        "king",
        -9.616297327838515
      ],
      [
        "Ġprogram",
        -9.61660061042188
      ],
      [
        "Ġshare",
        -9.617022059268413
      ],
      [
        "\"),",
        -9.617093077914891
      ],
      [
        "Ġindividual",
        -9.617638503933314
      ],
      [
        "Ġà¤Ŀà¤¾à¤²à¥ĩ",
        -9.617881360807928
      ],
      [
        "Ġà¬ķà¬°àŃģ",
        -9.618759555276547
      ],
      [
        "On",
        -9.619136065871905
      ],
      [
        "à²°",
        -9.619249675961214
      ],
      [
        "Ġàª¤à«ĩàª¨àª¾",
        -9.619555409582567
      ],
      [
        "pe",
        -9.61985078053273
      ],
      [
        "With",
        -9.620102800430361
      ],
      [
        "Ġtr",
        -9.620108913434382
      ],
      [
        "ĠCo",
        -9.620570773955032
      ],
      [
        "keep",
        -9.621618559806588
      ],
      [
        "Ġfactor",
        -9.623662630969685
      ],
      [
        "Ġclass",
        -9.623744921485324
      ],
      [
        "occur",
        -9.624334511392568
      ],
      [
        "Ġà¦¸à¦¬",
        -9.624784230399918
      ],
      [
        "ood",
        -9.625142768039483
      ],
      [
        "Ġlocal",
        -9.625397670117131
      ],
      [
        "Ġhistor",
        -9.626580366588154
      ],
      [
        "à®¤à¯įà®¤à¯Ī",
        -9.628333065242273
      ],
      [
        "Ġà²®à²¾à²¡à²¿",
        -9.628842189259478
      ],
      [
        "Some",
        -9.629942210692901
      ],
      [
        "ĠUnivers",
        -9.630578064741247
      ],
      [
        "ķàµįà´ķà",
        -9.63092950604731
      ],
      [
        "à®¯à¯Ī",
        -9.631296478453496
      ],
      [
        "though",
        -9.631622853884585
      ],
      [
        "resident",
        -9.631647723776336
      ],
      [
        "Ġcome",
        -9.63214996772119
      ],
      [
        "offer",
        -9.632593234056028
      ],
      [
        "week",
        -9.632819016271249
      ],
      [
        "Ġrecord",
        -9.634121119111366
      ],
      [
        "à«įàª¯àª¾",
        -9.63485412594544
      ],
      [
        "ists",
        -9.635684362292452
      ],
      [
        "Ġabo",
        -9.635696365854631
      ],
      [
        "ts",
        -9.635818181861557
      ],
      [
        "les",
        -9.63786772926165
      ],
      [
        "Ġà¦¤à§ĭ",
        -9.638558432734872
      ],
      [
        "lask",
        -9.6400486083628
      ],
      [
        "ĠàªĨàªµà«ĩ",
        -9.640084351598926
      ],
      [
        "urther",
        -9.640757152136953
      ],
      [
        "ħ",
        -9.640904098655161
      ],
      [
        "Ġà¤ķà¥ĩà¤²à¥Ģ",
        -9.641674816594621
      ],
      [
        "Ġà¬¨à¬¾à¬¹à¬¿à¬ģ",
        -9.64204656155476
      ],
      [
        "Ġà®ļà¯Ĩà®¯à¯įà®¤",
        -9.643785888175264
      ],
      [
        "Ġà¦¦à§ĩà¦ĸà¦¾",
        -9.64384764217547
      ],
      [
        "Ġà¨ķà©Ģ",
        -9.644153931617117
      ],
      [
        "Ġà¤°à¤¹à¤¾",
        -9.644449350069404
      ],
      [
        "Ġà²Ĵà²Ĥà²¦à³ģ",
        -9.644746472786114
      ],
      [
        "ware",
        -9.646344449438802
      ],
      [
        "22",
        -9.647297086307876
      ],
      [
        "lower",
        -9.648138701011218
      ],
      [
        "particular",
        -9.648263764894855
      ],
      [
        "à¤¾à¤Ĥà¤¨à¤¾",
        -9.64854155422793
      ],
      [
        "Ġnews",
        -9.649096655337049
      ],
      [
        "Ġà¨ķà©ģà¨",
        -9.649203353141097
      ],
      [
        "à¨¨",
        -9.6494135353695
      ],
      [
        "à´ļàµĨà´¯àµįà´¯à",
        -9.649604901309312
      ],
      [
        "ĠDe",
        -9.64979476641956
      ],
      [
        "à¤¦à¤¾",
        -9.650943593320205
      ],
      [
        "Ġà¨¸à¨¾à¨°",
        -9.6512557067987
      ],
      [
        "à¬¿à¬¤",
        -9.651416069061252
      ],
      [
        "à´¯à´¿àµ½",
        -9.651633518553265
      ],
      [
        "©Ģ",
        -9.652056305220228
      ],
      [
        "ine",
        -9.652129164613365
      ],
      [
        "wide",
        -9.652545471817827
      ],
      [
        "ties",
        -9.654544278798642
      ],
      [
        "Bank",
        -9.656981588073641
      ],
      [
        "load",
        -9.657257481080812
      ],
      [
        "learn",
        -9.657769489652075
      ],
      [
        "For",
        -9.65803198642957
      ],
      [
        "à²¨",
        -9.658711483700063
      ],
      [
        "à®¤à®¾à®©à¯į",
        -9.659357148208802
      ],
      [
        "Ġà¬¬àŃĭà¬²à¬¿",
        -9.659415525427466
      ],
      [
        "à¤ķà¥ĭ",
        -9.659848558521263
      ],
      [
        "action",
        -9.660783652188822
      ],
      [
        "full",
        -9.661337351707406
      ],
      [
        "à¨°",
        -9.661596916001091
      ],
      [
        "¤à¯įà®¤",
        -9.662097183288855
      ],
      [
        "Ġàª°àª¹à«ĩ",
        -9.662517157100481
      ],
      [
        "ĠLo",
        -9.662801242204962
      ],
      [
        "Ġà¨¤à©ģà¨¹à¨¾à¨",
        -9.663038713935276
      ],
      [
        "à¨ķà©ĩ",
        -9.663467391679065
      ],
      [
        "à¦¸à¦Ļà§įà¦Ĺà§ĩ",
        -9.665135690923941
      ],
      [
        "Ġmain",
        -9.666014301940503
      ],
      [
        "film",
        -9.66707967301269
      ],
      [
        "nex",
        -9.668328102758931
      ],
      [
        "à²ĥ",
        -9.668431562911671
      ],
      [
        "all",
        -9.668632352284991
      ],
      [
        "à¨¸à©ĩ",
        -9.668715247586531
      ],
      [
        "<",
        -9.669914641311756
      ],
      [
        "ĠNational",
        -9.6701423296485
      ],
      [
        "Ġtru",
        -9.670186923831679
      ],
      [
        "ically",
        -9.670566223562927
      ],
      [
        "child",
        -9.670657526299477
      ],
      [
        "Ġpost",
        -9.671473761588082
      ],
      [
        "Ġshort",
        -9.673287286647817
      ],
      [
        "ĠEng",
        -9.673557251656616
      ],
      [
        "Ġsh",
        -9.673953280708506
      ],
      [
        "code",
        -9.674387952772511
      ],
      [
        "à¦ĸà¦¨",
        -9.677194287034034
      ],
      [
        "à°¾à°¨à±įà°¨à°¿",
        -9.677328857995146
      ],
      [
        "à°ªà±Ī",
        -9.677432801905194
      ],
      [
        "treatment",
        -9.680804612818992
      ],
      [
        "à¤ķà¤°à¤¤à¥ĩ",
        -9.6823528009091
      ],
      [
        "Ġà¦¨à¦¿à¦°à§įà¦",
        -9.682500834212208
      ],
      [
        "light",
        -9.683497676097094
      ],
      [
        "Ġauthor",
        -9.683684302455397
      ],
      [
        "23",
        -9.683866182952187
      ],
      [
        "à®Ļà¯įà®ķà®³à",
        -9.684321512603036
      ],
      [
        "Ġà¤Ĩà¤ľ",
        -9.684443553762572
      ],
      [
        "region",
        -9.684579691201186
      ],
      [
        "µģà´³àµįà´³",
        -9.68470276277245
      ],
      [
        "Ġà¬¬à¬¾",
        -9.684921126837231
      ],
      [
        "Ġquestion",
        -9.68496465431747
      ],
      [
        "Ĥà°¦à°¿",
        -9.685325350259376
      ],
      [
        "à§įà¦¯",
        -9.68610052564546
      ],
      [
        "¼",
        -9.686777770692835
      ],
      [
        "Ġà¨¹à©ĭà¨£",
        -9.688248178545162
      ],
      [
        "Ġdea",
        -9.688412270540763
      ],
      [
        "head",
        -9.688905044867752
      ],
      [
        "usu",
        -9.68932281609449
      ],
      [
        "Ġà¬ľà¬£",
        -9.690324804759822
      ],
      [
        "ying",
        -9.690920526253928
      ],
      [
        "à¤¾à¤ļà¥Ģ",
        -9.692802573449073
      ],
      [
        "claim",
        -9.692999171018641
      ],
      [
        "Ġà¦Ĺ",
        -9.693156189213711
      ],
      [
        "imilar",
        -9.694711199353765
      ],
      [
        "oil",
        -9.695494611688773
      ],
      [
        "àªķ",
        -9.697405981970777
      ],
      [
        "à°®à±ģ",
        -9.697445910725849
      ],
      [
        "user",
        -9.697679642443859
      ],
      [
        "man",
        -9.698178717087231
      ],
      [
        "à®ļà¯į",
        -9.699432671480958
      ],
      [
        "Ġà¨Ĩà¨ª",
        -9.699756602464042
      ],
      [
        "Ġà¬¸à¬¹",
        -9.701155051445951
      ],
      [
        "Ġà¤¸à¤¾à¤",
        -9.701178982744164
      ],
      [
        "Ġà¬¹àŃĩà¬¬",
        -9.701622147268132
      ],
      [
        "Ġà¤ħà¤¸à¥ĩ",
        -9.701798313536404
      ],
      [
        "Ġtechnolog",
        -9.702111856263944
      ],
      [
        "Ġhead",
        -9.703249182314167
      ],
      [
        "àª",
        -9.704150024631499
      ],
      [
        "ĠFal",
        -9.704386016216828
      ],
      [
        "ely",
        -9.70501255741775
      ],
      [
        "à´¯à´¿à´²àµį",
        -9.705261651674123
      ],
      [
        "going",
        -9.705484329625822
      ],
      [
        "specific",
        -9.705831647607537
      ],
      [
        "official",
        -9.706454976288349
      ],
      [
        "àª¨àª¾àªĤ",
        -9.70707088916181
      ],
      [
        "link",
        -9.707359961870004
      ],
      [
        "Ġà¤¬à¥Īà¤Ĥà¤ķ",
        -9.707594790948278
      ],
      [
        "Ġà¤ķà¤°à¤¤à¤¾",
        -9.707701185847942
      ],
      [
        "Ġà¤ħà¤§à¤¿à¤ķ",
        -9.708203012545308
      ],
      [
        "Ġà¦¤à¦¾",
        -9.708742308646983
      ],
      [
        "exception",
        -9.709410602740153
      ],
      [
        "Ġà¤ķà¥",
        -9.709540474121319
      ],
      [
        "Ġà¬¨à¬¿à¬ľ",
        -9.70961435244406
      ],
      [
        "à®ªà¯įà®ªà®Łà¯ģ",
        -9.710030284012753
      ],
      [
        "ety",
        -9.711091291862832
      ],
      [
        "Ġà¦¬à¦¿à¦¶à§įà¦¬",
        -9.711896700339235
      ],
      [
        "Ġà¨ħ",
        -9.712032254545425
      ],
      [
        "Ġfar",
        -9.712443284593736
      ],
      [
        "payment",
        -9.712577321776449
      ],
      [
        "reason",
        -9.71312553126747
      ],
      [
        "))",
        -9.713906787689062
      ],
      [
        "ĠX",
        -9.714240414441003
      ],
      [
        "ought",
        -9.714441460474125
      ],
      [
        "size",
        -9.714457186705326
      ],
      [
        "Ġà¦®à¦¨à§ĩ",
        -9.715564761512507
      ],
      [
        "loss",
        -9.715988374154062
      ],
      [
        "Ġà¦¯à¦¿",
        -9.716243775332234
      ],
      [
        "¤àµįà´¤à",
        -9.71663626033859
      ],
      [
        "³ģà²¤à³įà²¤",
        -9.716709024926113
      ],
      [
        "Ġsimpl",
        -9.718225549088572
      ],
      [
        "ĠRa",
        -9.718562654140683
      ],
      [
        "à°Ĥà°²à±ĭ",
        -9.718594996735593
      ],
      [
        "à¨ķà©°à¨®",
        -9.718754368297407
      ],
      [
        "ground",
        -9.718828491569422
      ],
      [
        "ector",
        -9.719046409693163
      ],
      [
        "experienc",
        -9.719675309989043
      ],
      [
        "Ġcontain",
        -9.720685019357905
      ],
      [
        "content",
        -9.721950166524412
      ],
      [
        "Ġà¦®à¦¾à¦¨à§ģà¦¹",
        -9.722903968636034
      ],
      [
        "Ġkey",
        -9.724009981259579
      ],
      [
        "à°¨",
        -9.724525631074581
      ],
      [
        "Ġà¦ķà§°à¦¿à¦Ľà§ĩ",
        -9.725043962894684
      ],
      [
        "ants",
        -9.727907992346896
      ],
      [
        "ĠLa",
        -9.728216026608724
      ],
      [
        "making",
        -9.728384659103812
      ],
      [
        "à¨¤",
        -9.72854003783541
      ],
      [
        "Ġinvest",
        -9.728703330909239
      ],
      [
        "per",
        -9.729150922895588
      ],
      [
        "à²¨à²²à³įà²²à²¿",
        -9.729254284695402
      ],
      [
        "à¬ķ",
        -9.729315496616081
      ],
      [
        "global",
        -9.729387535740809
      ],
      [
        "à®ªà®Łà¯įà®Łà¯ģ",
        -9.729999305378701
      ],
      [
        "ĠLe",
        -9.730261340609328
      ],
      [
        "à¦¨à¦¾",
        -9.73043819748228
      ],
      [
        "à°²à°¨à±ģ",
        -9.730784441417793
      ],
      [
        "Ġà¬¬àŃįàŃŁ",
        -9.73117097427528
      ],
      [
        "actual",
        -9.73140392651609
      ],
      [
        "ĠAt",
        -9.731555962653777
      ],
      [
        "ercent",
        -9.733610729984452
      ],
      [
        "à¤¯à¥ĩ",
        -9.73465420078452
      ],
      [
        "à¦¬à§ĭà§°",
        -9.734767079995596
      ],
      [
        "80",
        -9.735074891243375
      ],
      [
        "®à¤Ĥà¤¤à¥įà¤°à¥Ģ",
        -9.735650755717078
      ],
      [
        "season",
        -9.735860172272407
      ],
      [
        "à®®à®¾à®ķ",
        -9.736890039552954
      ],
      [
        "Ġtotal",
        -9.73689694785449
      ],
      [
        "investment",
        -9.739344797076688
      ],
      [
        "à®³à¯įà®³à®¤à¯ģ",
        -9.739539043227431
      ],
      [
        "Ġà¤Ĳà¤¸à",
        -9.73974056932965
      ],
      [
        "Ġà¤ħà¤¸à¤",
        -9.740343206731431
      ],
      [
        "Ġsecur",
        -9.740871782168465
      ],
      [
        "à¤¾à¤ļà¤¾",
        -9.740875100688003
      ],
      [
        "cross",
        -9.741343084096886
      ],
      [
        "vious",
        -9.742073382207863
      ],
      [
        "Ġà¨ľà¨¿",
        -9.742375368257001
      ],
      [
        "dom",
        -9.742485700539532
      ],
      [
        "à¤ķà¥ģà¤Ľ",
        -9.742538005195202
      ],
      [
        "der",
        -9.743142654242426
      ],
      [
        "à¬²àŃĩ",
        -9.743330799880546
      ],
      [
        "¥įà¤¯à¤¾",
        -9.743426313636753
      ],
      [
        "à¥įà¤¯à¤¾",
        -9.74375562766972
      ],
      [
        "Ġnormal",
        -9.74453944049562
      ],
      [
        "appear",
        -9.745337994327748
      ],
      [
        "àª¤à«Ģ",
        -9.745365927078133
      ],
      [
        "¿à°Ĥà°ļà°¾à°°à±ģ",
        -9.745427461893525
      ],
      [
        "Ġseri",
        -9.745434339358951
      ],
      [
        "Ġà¨ªà©°à¨ľà¨¾à¨¬",
        -9.746875995829253
      ],
      [
        "à°¾à°¨à°¿à°ķà°¿",
        -9.747089930701765
      ],
      [
        "à´ķàµįà´ķà",
        -9.747471843657168
      ],
      [
        "comes",
        -9.747904562189913
      ],
      [
        "ived",
        -9.748451691928988
      ],
      [
        "Ġturn",
        -9.749163152285064
      ],
      [
        "Ġà¦¸à¦¾à¦",
        -9.750154451862105
      ],
      [
        "stead",
        -9.750370231670558
      ],
      [
        "Ġà¦®à¦ĩ",
        -9.750374322305515
      ],
      [
        "Ġcondition",
        -9.75121747991439
      ],
      [
        "}\\",
        -9.75164849942501
      ],
      [
        "àªĵ",
        -9.752160599192909
      ],
      [
        "àª¥àª¾àª¯",
        -9.752558332490942
      ],
      [
        "à²ķà³Ĭà²³à³įà²³à",
        -9.752915794708954
      ],
      [
        "instance",
        -9.75367204047322
      ],
      [
        "Ġà¨¹à©ĭà¨°",
        -9.754009623330555
      ],
      [
        "ither",
        -9.754733730822997
      ],
      [
        "à¥Ģà¤¯",
        -9.755868465081297
      ],
      [
        "à¦®à¦¾à¦¨",
        -9.755968969541382
      ],
      [
        "Ġspace",
        -9.75609571585967
      ],
      [
        "Ġà¦ıà¦¨à§ĩ",
        -9.756233479110744
      ],
      [
        "Ĩà²¦à²°à³Ĩ",
        -9.756672689710303
      ],
      [
        "àª®àª¨à«ĩ",
        -9.757518595146147
      ],
      [
        "verage",
        -9.757691753592812
      ],
      [
        "Ġà¦¦à¦¿à¦¯à¦¼à¦¾",
        -9.75782006189694
      ],
      [
        "Ġanaly",
        -9.75881949355464
      ],
      [
        "Ġbas",
        -9.759745301184243
      ],
      [
        "Ġsta",
        -9.761436360463527
      ],
      [
        "by",
        -9.761563951806938
      ],
      [
        "ĠSouth",
        -9.761822181206188
      ],
      [
        "28",
        -9.764500722779166
      ],
      [
        "ments",
        -9.7649956307229
      ],
      [
        "26",
        -9.765444411363381
      ],
      [
        "Ġà¦Ĩà¦¨",
        -9.766149080798854
      ],
      [
        "Ġà®ªà®²",
        -9.766887341093495
      ],
      [
        "ization",
        -9.767840062193471
      ],
      [
        "role",
        -9.768100169279897
      ],
      [
        "iter",
        -9.768757325096015
      ],
      [
        "Ġà¤µà¤°à¥įà¤·",
        -9.76927976391202
      ],
      [
        "Ġsocial",
        -9.769311616347192
      ],
      [
        "Ġà¤¦à¥ĩà¤¶",
        -9.76941662981981
      ],
      [
        "lient",
        -9.769655145998314
      ],
      [
        "ist",
        -9.770071291792963
      ],
      [
        "à¤°à¤¹à¥Ģ",
        -9.770105260771789
      ],
      [
        "ĠàªªàªĽà«Ģ",
        -9.770171873380278
      ],
      [
        "session",
        -9.770741116204317
      ],
      [
        "lish",
        -9.770794049604145
      ],
      [
        "Ġàªħ",
        -9.77165903469082
      ],
      [
        "Ġà¤¹à¥ĭà¤¤",
        -9.773031008545159
      ],
      [
        "Ġsign",
        -9.773048383732675
      ],
      [
        "à®µà®°à¯į",
        -9.773108973680841
      ],
      [
        "à¥Ģà¤²",
        -9.773156965258261
      ],
      [
        "à¨µà¨¾à¨Ĥ",
        -9.773245834633709
      ],
      [
        "àªµàª¾",
        -9.773882248709238
      ],
      [
        "³ģà²µà³ģà²¦à³ģ",
        -9.7739198098267
      ],
      [
        "Ġà¤ķà¤¾à¤°à¤£",
        -9.775334656390909
      ],
      [
        "à¤¾à¤Ĥà¤¨à¥Ģ",
        -9.775547484478949
      ],
      [
        "matri",
        -9.775565153746282
      ],
      [
        "à®¿à®°à¯ģà®",
        -9.776655324813738
      ],
      [
        "Ġà¬²àŃĭà¬ķ",
        -9.77671003010952
      ],
      [
        "Ġla",
        -9.777013058876193
      ],
      [
        "Ġà¤¸à¤",
        -9.778030864774887
      ],
      [
        "®à¯į",
        -9.778255762832186
      ],
      [
        "Ġcho",
        -9.778742893983782
      ],
      [
        "Whe",
        -9.778908232399262
      ],
      [
        "Ġà¤ªà¤£",
        -9.779053359925499
      ],
      [
        "lim",
        -9.779082256582779
      ],
      [
        "à´¤àµįà´¤à",
        -9.780345429077187
      ],
      [
        "¿à´ļàµįà´ļàµģ",
        -9.78086605300764
      ],
      [
        "Ġà¦ªà§°à¦¿",
        -9.780984333017646
      ],
      [
        "Ġà¦¦à¦¿à¦¨",
        -9.781714150295647
      ],
      [
        "ll",
        -9.783097605610237
      ],
      [
        "Ġpay",
        -9.783332194875756
      ],
      [
        "Ġfact",
        -9.78334918735522
      ],
      [
        "Ġà¤ķà¤¾à¤¹à¥Ģ",
        -9.784730177983374
      ],
      [
        "join",
        -9.784950623066258
      ],
      [
        "import",
        -9.786266274803914
      ],
      [
        "à°¸à±į",
        -9.786973816818076
      ],
      [
        "ĠGod",
        -9.787425243121088
      ],
      [
        "à¦¦à¦¿à¦¨",
        -9.787524623102453
      ],
      [
        "Ġà¦¥à¦¾à¦ķà§ĩ",
        -9.787813066303467
      ],
      [
        "Ġà¦®à§ĭà§°",
        -9.787850924217919
      ],
      [
        "Ġseve",
        -9.79030345572391
      ],
      [
        "à¤µà¤¾",
        -9.79079298679082
      ],
      [
        "Ġà¨ªà¨¹à¨¿à¨²",
        -9.792010054631824
      ],
      [
        "Ġà¬ķà¬¹à¬¿",
        -9.792613747749613
      ],
      [
        "27",
        -9.792934810647123
      ],
      [
        "course",
        -9.793047991861823
      ],
      [
        "insurance",
        -9.79449824122279
      ],
      [
        "Ġà¦Ĩà¦®",
        -9.794707350504009
      ],
      [
        "ern",
        -9.79485322118341
      ],
      [
        "mission",
        -9.795592101942642
      ],
      [
        "Ġàª¸",
        -9.79606623565267
      ],
      [
        "à¤¾à¤²à¤¯",
        -9.796772465624349
      ],
      [
        "var",
        -9.79698395109704
      ],
      [
        "ept",
        -9.797073796172612
      ],
      [
        "ĠEuro",
        -9.798157382213141
      ],
      [
        "Ġcompar",
        -9.79820083634897
      ],
      [
        "96",
        -9.7983544454073
      ],
      [
        "Ġà¤īà¤¨à¥įà¤¹à",
        -9.798405937738686
      ],
      [
        "Ġà®ħà®¨à¯įà®¤",
        -9.799584399673298
      ],
      [
        "Ġtop",
        -9.800194847296751
      ],
      [
        "ĠChin",
        -9.800964427759213
      ],
      [
        "Ġestablish",
        -9.800966000050849
      ],
      [
        "ago",
        -9.801440272289883
      ],
      [
        "ool",
        -9.802222412605982
      ],
      [
        "à¤¾à¤ļà¥ĩ",
        -9.803737113882988
      ],
      [
        "robability",
        -9.803766971766647
      ],
      [
        "foo",
        -9.80384516710976
      ],
      [
        "90",
        -9.803925950423316
      ],
      [
        "à²µà²¾à²¦",
        -9.804387556929314
      ],
      [
        "à¤¾à¤²à¤¾",
        -9.804529637011038
      ],
      [
        "Ġà¤¸à¥ģ",
        -9.8046906573148
      ],
      [
        "Ġà°ħà°¨à°¿",
        -9.80554044579703
      ],
      [
        "Ġà°ļà±ĩà°¶à°¾",
        -9.805551004720925
      ],
      [
        "Ġà¦Ĩà¦¸",
        -9.805651931453777
      ],
      [
        "à¦ķà§°à¦¾à§°",
        -9.805706110536462
      ],
      [
        "later",
        -9.80643391327731
      ],
      [
        "hold",
        -9.807867016450412
      ],
      [
        "Ġà¤²à¥ĭà¤ķ",
        -9.807977744167633
      ],
      [
        "Ġàª¥",
        -9.808442427792137
      ],
      [
        "à¤¨à¤Ĥà¤¤à¤°",
        -9.808469371275882
      ],
      [
        "tain",
        -9.810592022019762
      ],
      [
        "Ġà²ĩà²¦à³ģ",
        -9.81354157600223
      ],
      [
        "à¨ķà¨¾à¨°",
        -9.81572690675539
      ],
      [
        "Ġà¦ķà¦¾à§°à§įà¦¯",
        -9.817971792229407
      ],
      [
        "Ġà°ļà±Ĩà°ªà±įà°ª",
        -9.818622696009015
      ],
      [
        "Ġà¤¹à¥ĭà¤¨à¥ĩ",
        -9.819041856467022
      ],
      [
        "ough",
        -9.819332505819101
      ],
      [
        "à¤ĥ",
        -9.819660028625607
      ],
      [
        "à®¿à®¯",
        -9.820181343418486
      ],
      [
        "Ġàª¹",
        -9.82050742264313
      ],
      [
        "Ġà¦¨à¦¾à¦®",
        -9.820953320208643
      ],
      [
        "fter",
        -9.821393549112091
      ],
      [
        "application",
        -9.821813520235725
      ],
      [
        "à¦Ńà¦¾à¦¬à§ĩ",
        -9.82237484639105
      ],
      [
        "We",
        -9.822453024244192
      ],
      [
        "ning",
        -9.822619010816439
      ],
      [
        "à®¯à®¾à®ķ",
        -9.823541323893611
      ],
      [
        "²¿à²¨",
        -9.824333114866572
      ],
      [
        "Ġna",
        -9.825980528647904
      ],
      [
        "ring",
        -9.826469703901775
      ],
      [
        "Ġà¨ķà¨",
        -9.826712314761728
      ],
      [
        "Ġà¨®à©Įà¨",
        -9.826808390409973
      ],
      [
        "ET",
        -9.8271357654031
      ],
      [
        "ling",
        -9.827336152039724
      ],
      [
        "Ġidea",
        -9.82741139373546
      ],
      [
        "Ġà¤¶à¤¾",
        -9.827499740671263
      ],
      [
        "Ġbi",
        -9.828072281894844
      ],
      [
        "ke",
        -9.828361581247902
      ],
      [
        "tory",
        -9.829174250440037
      ],
      [
        "Ġâ",
        -9.830124952905587
      ],
      [
        "east",
        -9.83034351476909
      ],
      [
        "Ġà¤¬à¤¤à¤¾",
        -9.830514257106094
      ],
      [
        "´",
        -9.830913653231379
      ],
      [
        "Ġfinal",
        -9.831185775461394
      ],
      [
        "bar",
        -9.831673606457917
      ],
      [
        "àª¤àª®à«ĩ",
        -9.832137976656451
      ],
      [
        "Ġimprov",
        -9.832466855046727
      ],
      [
        "Ġà®ķà¯Ĭà®£à¯įà®Ł",
        -9.832701295628814
      ],
      [
        "àª¶àªķà«ĩ",
        -9.833009695980884
      ],
      [
        "Ġà¨¤à©±à¨",
        -9.83337210633032
      ],
      [
        "Ġà¤ĺà¤°",
        -9.833857867074752
      ],
      [
        "à¤Ĥà¤¨à¥Ģ",
        -9.836362569771996
      ],
      [
        "approach",
        -9.83657429757335
      ],
      [
        "days",
        -9.836876183973274
      ],
      [
        "à²¿à²¦à³įà²¦",
        -9.837590206570258
      ],
      [
        "à®²à¯į",
        -9.837604168431305
      ],
      [
        "voke",
        -9.837760956838435
      ],
      [
        "à¦¹à§ĩ",
        -9.837917285548802
      ],
      [
        "94",
        -9.838028821214397
      ],
      [
        "Ġbenefi",
        -9.838052836894434
      ],
      [
        "Ġà°µà±įà°¯à°",
        -9.838155135502664
      ],
      [
        "Ġàª²à«ĭàªķà«ĭ",
        -9.838464612559433
      ],
      [
        "Ġbasi",
        -9.83861024663421
      ],
      [
        "Ġà¦ªà¦°à¦¿à¦",
        -9.838652368601903
      ],
      [
        "Ġà¦¦à§ĩà¦ĸà¦¿",
        -9.838771853631735
      ],
      [
        "seen",
        -9.838820533093362
      ],
      [
        "à¤¸",
        -9.83893275528061
      ],
      [
        "à°¦à°¿",
        -9.83905932850784
      ],
      [
        "Ġà¦¦à§ĩà¦ĸ",
        -9.840689555481092
      ],
      [
        "ya",
        -9.841046028253317
      ],
      [
        "nergy",
        -9.841814863301861
      ],
      [
        "ave",
        -9.842008359609528
      ],
      [
        "à¤£à¥įà¤¯à¤¾",
        -9.842124869425586
      ],
      [
        "includ",
        -9.842138703307375
      ],
      [
        "95",
        -9.842199625435406
      ],
      [
        "Ġhouse",
        -9.842467061413402
      ],
      [
        "Ġàª¸à«ģàª§à«Ģ",
        -9.842827523217299
      ],
      [
        "Ġwar",
        -9.842953495159243
      ],
      [
        "sure",
        -9.843004967555967
      ],
      [
        "à¦²à¦Ĺà¦¤",
        -9.843223618766366
      ],
      [
        "à¥įà¤¸",
        -9.84366821816474
      ],
      [
        "à¦¾à§°",
        -9.843706817003213
      ],
      [
        "Ġà°¸à°",
        -9.844028182847442
      ],
      [
        "ile",
        -9.844256980728685
      ],
      [
        "à¤ķà¤¿à¤¨",
        -9.844777847084922
      ],
      [
        "Ġk",
        -9.845858231154477
      ],
      [
        "ĠAf",
        -9.846283448702906
      ],
      [
        "Ġà¤Ĩà¤²à¥ĩ",
        -9.846475928796343
      ],
      [
        "Ġà¤ķà¤¿à¤¸à¥Ģ",
        -9.847149927597439
      ],
      [
        "Ġà¤ľà¤¬",
        -9.847477171896058
      ],
      [
        "near",
        -9.847589005783039
      ],
      [
        "un",
        -9.848454460598905
      ],
      [
        "Ġaccess",
        -9.848804391278307
      ],
      [
        "Ġà¤°à¤¹",
        -9.849056580617974
      ],
      [
        "Ġà²¨à²¿à²°à³įà²",
        -9.849612682796511
      ],
      [
        "Ġbase",
        -9.850022134413955
      ],
      [
        "à¦¦à¦¿à¦ķà§ĩ",
        -9.850212665376844
      ],
      [
        "Ġà¤¸à¤¬",
        -9.850997501816398
      ],
      [
        "Ġà°¤à°¨",
        -9.851305955828135
      ],
      [
        "à©ĭ",
        -9.85212651217465
      ],
      [
        "à¨¬à¨¾à¨ħà¨",
        -9.85216390073851
      ],
      [
        "Ġà¬¨àŃĩà¬ĩ",
        -9.852440063123879
      ],
      [
        "Ġà¬¤à¬¾",
        -9.852916759760127
      ],
      [
        "Ġà®ĩà®",
        -9.854048958647528
      ],
      [
        "Ġstock",
        -9.854098350891395
      ],
      [
        "à°²",
        -9.85423145128396
      ],
      [
        "ned",
        -9.855222377756409
      ],
      [
        "à¨¹à¨¾à¨Ĥ",
        -9.855497035238567
      ],
      [
        "à®¾à®²à¯į",
        -9.856669005654648
      ],
      [
        "à«įàª¯à«ģàªĤ",
        -9.85724680027441
      ],
      [
        "Ġà¦¨à¦¿à§°à§įà¦",
        -9.857644869188924
      ],
      [
        "Ġdeci",
        -9.857836861939647
      ],
      [
        "mark",
        -9.858272472159436
      ],
      [
        "ĠMus",
        -9.859052857697375
      ],
      [
        "others",
        -9.859553877438607
      ],
      [
        "à¦¤à¦¾à¦¦à§ĩà¦°",
        -9.860617247523109
      ],
      [
        "rgument",
        -9.86082675399799
      ],
      [
        "à¤¨à¥Ģ",
        -9.86139985795236
      ],
      [
        "à¨¨à¨¾à¨Ĥ",
        -9.862749407829817
      ],
      [
        "à°¨à±ģà°Ĥà°ļà°¿",
        -9.86281983708676
      ],
      [
        "Ġà¤ªà¤¹à¤²à¥",
        -9.863350458915793
      ],
      [
        "Ġcontract",
        -9.863687693929688
      ],
      [
        "Wha",
        -9.864093345750401
      ],
      [
        "à®¯à®¿à®©à¯į",
        -9.86557659021433
      ],
      [
        "à¬¬à¬¾",
        -9.865959780525479
      ],
      [
        "ths",
        -9.866366242211823
      ],
      [
        "Ġà¨¸à¨Ń",
        -9.866549966967423
      ],
      [
        "à²°à³ģà²µ",
        -9.866614969357572
      ],
      [
        "func",
        -9.866665545863508
      ],
      [
        "idence",
        -9.867039434067202
      ],
      [
        "iving",
        -9.867294579214697
      ],
      [
        "special",
        -9.870369877463439
      ],
      [
        "aving",
        -9.870952186677012
      ],
      [
        "Ġdem",
        -9.872318530825059
      ],
      [
        "Ġclear",
        -9.872392685256028
      ],
      [
        "na",
        -9.872695641035751
      ],
      [
        "Ġà¦ıà¦ķà¦Łà¦¿",
        -9.87337455232428
      ],
      [
        "Ġà®ķà¯ģà®±à®¿à®",
        -9.87451075059163
      ],
      [
        "à¦¬à¦¾",
        -9.874845336866915
      ],
      [
        "Ġàª°à«Ģàª¤à«ĩ",
        -9.875003026818188
      ],
      [
        "à¤ĵà¤Ĥ",
        -9.875275151404972
      ],
      [
        "Ġà¤¬à¤¨à¤¾",
        -9.875290416330074
      ],
      [
        "pass",
        -9.875511876970332
      ],
      [
        "à²¿à²¦à³Ĩ",
        -9.87733482336061
      ],
      [
        "Ġob",
        -9.878007967994574
      ],
      [
        "Ġbill",
        -9.879649107740164
      ],
      [
        "Ġà¦ķà¦°à§ĩà¦¨",
        -9.880029014849228
      ],
      [
        "Type",
        -9.880099333260311
      ],
      [
        "wards",
        -9.88049355493471
      ],
      [
        "eign",
        -9.880604209081307
      ],
      [
        "Ġhard",
        -9.88081418804487
      ],
      [
        "Ġà¤®à¥ģà¤ĸà¥įà¤¯",
        -9.88082213409425
      ],
      [
        "dur",
        -9.881497208653897
      ],
      [
        "ĠUn",
        -9.881549787721932
      ],
      [
        "Ġà¬°à¬¾à¬ľàŃįàŃŁ",
        -9.882246671979482
      ],
      [
        "Ġà¤ĩà¤¨",
        -9.882664792955989
      ],
      [
        "Ġspecial",
        -9.882666720652221
      ],
      [
        "Ġà¦¹à¦¿à¦ļà¦¾à¦ª",
        -9.883110131799619
      ],
      [
        "Ġà¨¸à¨¾",
        -9.88557848245732
      ],
      [
        "related",
        -9.885673941489157
      ],
      [
        "Ġà®ĩà®¤à¯ģ",
        -9.886200548243455
      ],
      [
        "over",
        -9.886260619551361
      ],
      [
        "Ġà¨ªà©Ī",
        -9.886312454948971
      ],
      [
        "help",
        -9.886425973370981
      ],
      [
        "ddition",
        -9.886427107349922
      ],
      [
        "To",
        -9.88651789427951
      ],
      [
        "cookie",
        -9.8896514178053
      ],
      [
        "Ġà¨ªà¨¾",
        -9.891081522449538
      ],
      [
        "Ġà¦ķà¦¾à¦ľ",
        -9.891160783289536
      ],
      [
        "gan",
        -9.891623223778733
      ],
      [
        "Ġbook",
        -9.891668185472522
      ],
      [
        "à¤¤à¥ĭ",
        -9.891944539698713
      ],
      [
        "à²¦à²¿à²Ĥà²¦",
        -9.892171419671751
      ],
      [
        "Ġà¤¸à¤®à¤¯",
        -9.89360582929709
      ],
      [
        "coming",
        -9.894356999294395
      ],
      [
        "lies",
        -9.895274686164981
      ],
      [
        "Ġweb",
        -9.895292056685978
      ],
      [
        "ļàµįà´ļàµį",
        -9.895927324956714
      ],
      [
        "Q",
        -9.896524969703659
      ],
      [
        "Ġpo",
        -9.896630432255844
      ],
      [
        "à¨²à©Ģ",
        -9.89869817196886
      ],
      [
        "Ġà¨¬à¨£",
        -9.899540274603346
      ],
      [
        "Ġi",
        -9.899576941386147
      ],
      [
        "Ġà®µà®¨à¯įà®¤",
        -9.899768929454611
      ],
      [
        "à¤µà¤¾à¤²à¥ĩ",
        -9.900511816561856
      ],
      [
        "«Ģ",
        -9.901460817156778
      ],
      [
        "Ġà¦¸à§ģ",
        -9.901902743790398
      ],
      [
        "Ġcomplete",
        -9.902084957435768
      ],
      [
        "Ġà¤¬",
        -9.902336456364043
      ],
      [
        "Ġà¦Ĩà¦¹à¦¿",
        -9.90267856441227
      ],
      [
        "Ġpast",
        -9.902704977814134
      ],
      [
        "Ġà¦ķà§ĭà¦¨",
        -9.903510887522131
      ],
      [
        ".âĢĿ",
        -9.90368224421653
      ],
      [
        "Ġnatural",
        -9.903805654241939
      ],
      [
        "Ġconcer",
        -9.904149654434438
      ],
      [
        "à®ªà¯ĭà®¤à¯ģ",
        -9.904474183687839
      ],
      [
        "Ġà¤ħà¤¨à¥ĩà¤ķ",
        -9.904479266830357
      ],
      [
        "Ġà¨¤à©ģà",
        -9.904868194582374
      ],
      [
        "fix",
        -9.904987599010486
      ],
      [
        "ld",
        -9.905784187443304
      ],
      [
        "Ġmaterial",
        -9.907078660242467
      ],
      [
        "Ġpressur",
        -9.907885695414562
      ],
      [
        "µģà´£àµįà´Łàµį",
        -9.909092274103514
      ],
      [
        "à¨¸à¨®à©ĩà¨",
        -9.909935655579122
      ],
      [
        "templat",
        -9.911622877522143
      ],
      [
        "à¬¤à¬¾",
        -9.911907722972757
      ],
      [
        "Ġà®ªà®¾à®°à¯įà®",
        -9.912304791099624
      ],
      [
        "Ho",
        -9.912500560032717
      ],
      [
        "Ġcontinu",
        -9.912710084631371
      ],
      [
        "As",
        -9.913051626795802
      ],
      [
        "q",
        -9.913184889834099
      ],
      [
        "Ġà¤¦à¤°",
        -9.91323172714074
      ],
      [
        "ner",
        -9.913243263109322
      ],
      [
        "Ġnational",
        -9.914054672532105
      ],
      [
        "ingle",
        -9.91481719344862
      ],
      [
        "ªà¥įà¤°à¤ķà¤¾à¤°",
        -9.914888786254576
      ],
      [
        "Ġà¤ķà¥ĩà¤²à¤¾",
        -9.915013308614384
      ],
      [
        "Ġproduc",
        -9.9153407658609
      ],
      [
        "ĠBo",
        -9.915791442308072
      ],
      [
        "Ġà¤²à¤Ĺà¤¾",
        -9.91585358877758
      ],
      [
        "Ġdevi",
        -9.915874863681275
      ],
      [
        "à°¾",
        -9.91593400108561
      ],
      [
        "à¨¨à¨¾",
        -9.916063195122387
      ],
      [
        "²¬à³ĩà²ķà³ģ",
        -9.916141754497094
      ],
      [
        "Ġà¤¦à¥ĭà¤¨",
        -9.916589204036715
      ],
      [
        "compani",
        -9.916904778599466
      ],
      [
        "à¬īà¬ªà¬°àŃĩ",
        -9.917647468861151
      ],
      [
        "Ĺà³įà²Ĺà³Ĩ",
        -9.920356747021312
      ],
      [
        "70",
        -9.920482394560484
      ],
      [
        "¿à´ķàµįà´ķà",
        -9.92095119445425
      ],
      [
        "Ġà¤¬à¤¾à¤¤",
        -9.921611088912243
      ],
      [
        "ians",
        -9.921678352034395
      ],
      [
        "ship",
        -9.921701396095386
      ],
      [
        "Ġair",
        -9.922942040876174
      ],
      [
        "Ġà²ķà²¾à²°à³įà²¯",
        -9.923514721587502
      ],
      [
        "ªà±įà°ªà±ģà°¡à±ģ",
        -9.92387533800679
      ],
      [
        "à¦¤à¦¿",
        -9.924096809650932
      ],
      [
        "Ġà¦¸à¦ķà¦²à§ĭ",
        -9.924315143006591
      ],
      [
        "Ġà²µà³įà²¯à²",
        -9.924672060881695
      ],
      [
        "Ġside",
        -9.924807784172147
      ],
      [
        "lease",
        -9.92492182578301
      ],
      [
        "Ġeconom",
        -9.9252599000448
      ],
      [
        "Ġà¦Ńà¦¾à¦²",
        -9.925767221157955
      ],
      [
        "àªĤ",
        -9.926238232358685
      ],
      [
        "Ġfee",
        -9.927323613957471
      ],
      [
        "¾à¬°àŃįà¬¯àŃįàŃŁ",
        -9.927334422093457
      ],
      [
        "Ġlight",
        -9.928339683825179
      ],
      [
        "weight",
        -9.929247764395603
      ],
      [
        "Ġtrans",
        -9.92987385527431
      ],
      [
        "Ġstep",
        -9.930005346933825
      ],
      [
        "Ġà¤¦à¤¿à¤¨",
        -9.930145098164996
      ],
      [
        "31",
        -9.930509452054277
      ],
      [
        "à¤Ĺà¥Ģ",
        -9.930829894537425
      ],
      [
        "Ġà¤ħà¤¨à¥ģ",
        -9.931101051824726
      ],
      [
        "paper",
        -9.931148806952537
      ],
      [
        "¤àµįà´¤àµį",
        -9.931289464688764
      ],
      [
        "àª¤à«ĩàª¨à«ĩ",
        -9.931516130504516
      ],
      [
        "Ġà°ĩà°",
        -9.9321245168856
      ],
      [
        "lines",
        -9.932511341826334
      ],
      [
        "Ġobserv",
        -9.932562809470495
      ],
      [
        "Ġà¤¨à¤¿à¤",
        -9.933017438563915
      ],
      [
        "Ġev",
        -9.933206746895575
      ],
      [
        "ize",
        -9.933825664836993
      ],
      [
        "force",
        -9.934735028909394
      ],
      [
        "à¨ķà¨¿",
        -9.935482100060124
      ],
      [
        "Ġà¤®à¤¿à¤²",
        -9.935987017020386
      ],
      [
        "affect",
        -9.936388338998587
      ],
      [
        "Ġindustr",
        -9.936550929568124
      ],
      [
        "ĠEx",
        -9.93655145763539
      ],
      [
        "Ġà®¤à¯Ĩà®°à®¿à®",
        -9.937414359561775
      ],
      [
        "à²¦à³įà²¦à³ģ",
        -9.937502374713391
      ],
      [
        "ĠDr",
        -9.937773055928389
      ],
      [
        "ton",
        -9.93818280453442
      ],
      [
        "à´¿à´Łàµįà´Łà",
        -9.938223424123255
      ],
      [
        "Ġà¨ľ",
        -9.938570877670255
      ],
      [
        "29",
        -9.939924841901263
      ],
      [
        "ĠShe",
        -9.939975932564282
      ],
      [
        "à²Ĺà²³à²¿à²Ĺà³Ĩ",
        -9.940069360044546
      ],
      [
        "¥ĭà¤Ĥà¤¨à¥ĩ",
        -9.941902056077405
      ],
      [
        "like",
        -9.942196159049765
      ],
      [
        "à¦¤à¦¿à¦¯à¦¼à¦¾",
        -9.942770843404638
      ],
      [
        "Ġà²İà²Ĥà²¬",
        -9.943798185284809
      ],
      [
        "Ġtrain",
        -9.945463105511546
      ],
      [
        "Ġart",
        -9.947756616442023
      ],
      [
        "Ġà´¨à´¿à´",
        -9.947926872978215
      ],
      [
        "¤àµįà´¤à´¿à´²àµį",
        -9.94799551802695
      ],
      [
        "grea",
        -9.948078550418423
      ],
      [
        "Ġà¬®à¬",
        -9.948392526645765
      ],
      [
        "Ġà¦²à§ĭà¦ķ",
        -9.9492784784624
      ],
      [
        "Ġà¨®à¨¾",
        -9.949473439942729
      ],
      [
        "à®ķà®³à®¿à®©à¯į",
        -9.95032023975645
      ],
      [
        "form",
        -9.950622451665513
      ],
      [
        "Ġà¦®à¦¾à¦¨à§ģà¦·",
        -9.950622835185717
      ],
      [
        "Ġà¦ıà¦ķà¦Łà¦¾",
        -9.951107526811377
      ],
      [
        "Ġdu",
        -9.952104035500977
      ],
      [
        "ĠAll",
        -9.954032143364142
      ],
      [
        "àª¿àªķ",
        -9.95463874205295
      ],
      [
        "Ġà¦ķà¦¾à¦®",
        -9.954764687753954
      ],
      [
        "image",
        -9.954837881552201
      ],
      [
        "35",
        -9.956653681849161
      ],
      [
        "Ġà¦¬à¦¾à¦Ĥà¦²à¦¾",
        -9.957038225555511
      ],
      [
        "¿à¦Ńà¦¿à¦¨à§įà¦¨",
        -9.95711936212782
      ],
      [
        "Ã",
        -9.957752257324529
      ],
      [
        "àŃģ",
        -9.957790585629176
      ],
      [
        "à¦²à§ĭà¦ķà§°",
        -9.957945264086156
      ],
      [
        "Ġà°°à°¾à°",
        -9.957978632019977
      ],
      [
        "Ġprim",
        -9.95850672036216
      ],
      [
        "Ġà¤ħà¤¨à¥įà¤¯",
        -9.95874906773128
      ],
      [
        "reach",
        -9.95915640348162
      ],
      [
        "Ġà°®à°¾",
        -9.95938660570124
      ],
      [
        "central",
        -9.959405660187816
      ],
      [
        "à¬®àŃģà¬ģ",
        -9.959978021596893
      ],
      [
        "Ġline",
        -9.960232332523717
      ],
      [
        "Ġmen",
        -9.96096994414411
      ],
      [
        "Ġà¬¸à¬°à¬ķà¬¾à¬°",
        -9.961397546075261
      ],
      [
        "Ġà¦ĩà¦¯à¦¼à¦¾à§°",
        -9.961476226339869
      ],
      [
        "Ġcapital",
        -9.961654938357412
      ],
      [
        "Ńà¤¾à¤°à¤¤à¥Ģà¤¯",
        -9.961785162858824
      ],
      [
        "Ġà¨ľà©ĩ",
        -9.962018803640884
      ],
      [
        "ĠàªĨàªª",
        -9.963102501264341
      ],
      [
        "ĠNe",
        -9.963616565463173
      ],
      [
        "à¨¤à©Ģ",
        -9.964227355596222
      ],
      [
        "Ġà¬¸à¬®àŃŁ",
        -9.965062184846044
      ],
      [
        "Ġà°īà°",
        -9.965869816570784
      ],
      [
        "Ġà°īà°¨à±įà°¨",
        -9.966008689358414
      ],
      [
        "à¥įà¤°à¥Ģà¤¯",
        -9.966116583114406
      ],
      [
        "inning",
        -9.966325872446864
      ],
      [
        "Ġhal",
        -9.966659127231043
      ],
      [
        "Ġàª¤à«ĩàª®",
        -9.966892937550677
      ],
      [
        "Ġcomput",
        -9.967718174652934
      ],
      [
        "Ġà¦¸à§įà¦¬à¦",
        -9.968115443481135
      ],
      [
        "Ġqual",
        -9.968234868448084
      ],
      [
        "Ġà¦¤à¦¾à¦ĩ",
        -9.969388996094938
      ],
      [
        "ancer",
        -9.969956969679068
      ],
      [
        "echo",
        -9.970259135458555
      ],
      [
        "Ġàªīàªªàª°",
        -9.97050725319415
      ],
      [
        "You",
        -9.97077468699541
      ],
      [
        "strong",
        -9.971241257441847
      ],
      [
        "à¤ķà¤°à¥Ĥà¤¨",
        -9.972042307905385
      ],
      [
        "à°¾à°°à±ģ",
        -9.972277748843618
      ],
      [
        "¡à°¾à°¨à°¿à°ķà°¿",
        -9.972286623746841
      ],
      [
        "ran",
        -9.97321482773599
      ],
      [
        "ating",
        -9.973261151560756
      ],
      [
        "Ġà¦¹à§ĭà§±à¦¾",
        -9.974205207400082
      ],
      [
        "Ġà¦īà¦ª",
        -9.97524233869316
      ],
      [
        "Į",
        -9.975519275976632
      ],
      [
        "à¦ķà¦¾à¦°",
        -9.97603788260467
      ],
      [
        "env",
        -9.97729352113408
      ],
      [
        "types",
        -9.977787403162957
      ],
      [
        "à¨£à©Ģ",
        -9.978324979635612
      ],
      [
        "ask",
        -9.97842760492922
      ],
      [
        "Ġà¦¬à§°",
        -9.978804103271155
      ],
      [
        "Ġà¨Ĺà©±à¨²",
        -9.979657593004944
      ],
      [
        "}^{",
        -9.980125066853391
      ],
      [
        "Ġà¤¤à¤¥à¤¾",
        -9.980619885961158
      ],
      [
        "Ġà¬¹àŃĩà¬ī",
        -9.980768629306755
      ],
      [
        "Ġà´ªà´",
        -9.980831829825522
      ],
      [
        "Ġblood",
        -9.980921043610362
      ],
      [
        "Ġmultipl",
        -9.981664412133242
      ],
      [
        "Ġà¨¬",
        -9.98238211982392
      ],
      [
        "Ġà°¨à°¿à°°à±įà°",
        -9.982409711927637
      ],
      [
        "II",
        -9.982509228076102
      ],
      [
        "Ġye",
        -9.98286051978502
      ],
      [
        "])",
        -9.98344319832136
      ],
      [
        "route",
        -9.98372348415198
      ],
      [
        "Ġsafe",
        -9.984230216013778
      ],
      [
        "page",
        -9.984276902666487
      ],
      [
        "¿à´ļàµįà´ļ",
        -9.985021797511859
      ],
      [
        "ible",
        -9.985184102000634
      ],
      [
        "Ġfall",
        -9.985622203848807
      ],
      [
        "Ġà®¤à¯Ĭà®Łà®°à¯į",
        -9.987180709994544
      ],
      [
        "effective",
        -9.987739818546821
      ],
      [
        "Ġà´¤à´¨àµįà´¨àµĨ",
        -9.988087772996028
      ],
      [
        "à¨¸",
        -9.988740636253777
      ],
      [
        "Ġab",
        -9.9892479268883
      ],
      [
        "ocus",
        -9.989461241929007
      ],
      [
        "Ġà°µà°¿à°",
        -9.989794788884693
      ],
      [
        "Ġà¦Ĺà§Ī",
        -9.99021738803129
      ],
      [
        "oon",
        -9.990640867451276
      ],
      [
        "ta",
        -9.991623327110096
      ],
      [
        "Ġàªķà«ĭàªĪ",
        -9.991727668007648
      ],
      [
        "à¤ľà¥Ģ",
        -9.992006885237037
      ],
      [
        "²¬à²¹à³ģà²¦à³ģ",
        -9.993217148210778
      ],
      [
        "Ġà¦ħà¦¨à§įà¦¯",
        -9.993568457394357
      ],
      [
        "45",
        -9.994071760041798
      ],
      [
        "Government",
        -9.994111467183277
      ],
      [
        "veral",
        -9.995026440611158
      ],
      [
        "Ġà¤Ŀà¤¾à¤²à¥",
        -9.995430554531211
      ],
      [
        "Ġdec",
        -9.995610001555757
      ],
      [
        "ignificant",
        -9.995662661773576
      ],
      [
        "¦à«įàªµàª¾àª°àª¾",
        -9.996436572643823
      ],
      [
        "à¤¿à¤Ĥà¤Ĺ",
        -9.99667701677237
      ],
      [
        "ittle",
        -9.996689171713388
      ],
      [
        "¤àµįà´¤àµĨ",
        -9.996780264275998
      ],
      [
        "Ġàªµàª°à«įàª·",
        -9.997711984212941
      ],
      [
        "publish",
        -9.99827086126296
      ],
      [
        "Ġà¦¦à¦²",
        -9.998455790086922
      ],
      [
        "Ġà¤īà¤ª",
        -9.998474568429272
      ],
      [
        "Ġà¦ªà¦¾à¦°à§ĩ",
        -9.99856404078183
      ],
      [
        "¾à¤·à¥įà¤Łà¥įà¤°",
        -9.998778234386933
      ],
      [
        "ĠNews",
        -9.99914487211382
      ],
      [
        "Ġsu",
        -9.999310801657721
      ],
      [
        "Ġà´¸à´Ĥà´",
        -10.000280552098051
      ],
      [
        "mu",
        -10.000328220795652
      ],
      [
        "à¤ķà¤¿",
        -10.000358495467616
      ],
      [
        "ut",
        -10.000395025162453
      ],
      [
        "jar",
        -10.000647448742493
      ],
      [
        "Ġà¬ķà¬¿",
        -10.000964609361386
      ],
      [
        "use",
        -10.000992996405802
      ],
      [
        "Ġà²µà²¿à²",
        -10.001001330858376
      ],
      [
        "dependent",
        -10.001015568918064
      ],
      [
        "happ",
        -10.00118033133818
      ],
      [
        "Ġàª²àª",
        -10.00119389841042
      ],
      [
        "àªľ",
        -10.001476842301326
      ],
      [
        "ab",
        -10.0018176445751
      ],
      [
        "à¦¦à§°à§ĩ",
        -10.001981085675627
      ],
      [
        "strict",
        -10.002403777196152
      ],
      [
        "ĠMay",
        -10.002633609844214
      ],
      [
        "àª²àª¾",
        -10.003488058619219
      ],
      [
        "suggest",
        -10.003517977354006
      ],
      [
        "Ġà¦ħà¦¨à§ĩà¦ķ",
        -10.00369448584967
      ],
      [
        "Ġà¦¯à§ĩà¦¨",
        -10.003928077311045
      ],
      [
        "toge",
        -10.004004745953603
      ],
      [
        "solution",
        -10.004327152012467
      ],
      [
        "ĠNorth",
        -10.004850413925226
      ],
      [
        "à²µà²°à³ģ",
        -10.005046619421993
      ],
      [
        "à¬¬à¬¾à¬ķàŃģ",
        -10.006368177366294
      ],
      [
        "à´¯àµĨ",
        -10.007292737343409
      ],
      [
        "Ġà¦¬à¦²à§ĩà¦¨",
        -10.00779959470965
      ],
      [
        "Ġà¦ĺà¦Łà¦¨à¦¾",
        -10.008291490984707
      ],
      [
        "Ġà¨²à©Ī",
        -10.008360295256777
      ],
      [
        "¨¸à©Ģà¨Ĥ",
        -10.009026187128182
      ],
      [
        "necess",
        -10.009823612137442
      ],
      [
        "big",
        -10.00995533618531
      ],
      [
        "Ġà¤µà¥ĩ",
        -10.010579667925983
      ],
      [
        "à¦¾à¦ĩ",
        -10.01063682747103
      ],
      [
        "à®°à¯įà®ķà®³à¯į",
        -10.010816986273166
      ],
      [
        "Ġcolor",
        -10.011052076558592
      ],
      [
        "àµ»",
        -10.011551392048183
      ],
      [
        "late",
        -10.01234223484813
      ],
      [
        "ter",
        -10.012466427164425
      ],
      [
        "Ġstor",
        -10.013407794503852
      ],
      [
        "Ġà¨¸à©°",
        -10.013479805832008
      ],
      [
        "Ġàªķ",
        -10.013567900806521
      ],
      [
        "à¨¹à©ģà¨£",
        -10.014397902419727
      ],
      [
        "uple",
        -10.014590795599048
      ],
      [
        "Ġinternational",
        -10.015862909764586
      ],
      [
        "Ġà¨ľà©Ģ",
        -10.016141723180798
      ],
      [
        "Ġà¨¦à©ĭ",
        -10.016263133190144
      ],
      [
        "ĠAp",
        -10.016654844602265
      ],
      [
        "Ġà¬ķà¬¿à¬Ľà¬¿",
        -10.016832649891509
      ],
      [
        "à´ªàµįà´ªàµĨà´Łà",
        -10.01708407982313
      ],
      [
        "à¨µà©ĩà¨Ĺà¨¾",
        -10.017528847630718
      ],
      [
        "à²¦à³įà²¦à²°à³ģ",
        -10.017550355887927
      ],
      [
        "Ġcar",
        -10.019392105721966
      ],
      [
        "opt",
        -10.019860315012739
      ],
      [
        "Ġà¤¬à¤¾à¤°",
        -10.019939559636802
      ],
      [
        "wish",
        -10.020127242682612
      ],
      [
        "Ġà¦¨à¦¤à§ģà¦¨",
        -10.020245417992587
      ],
      [
        "working",
        -10.020380256228254
      ],
      [
        "Ġsuccess",
        -10.02183525799253
      ],
      [
        "Ġà²®à³ĩà²²à³Ĩ",
        -10.022220007653583
      ],
      [
        "Ġà¦Ĩà¦®à¦¾à§°",
        -10.022363219658219
      ],
      [
        "Ġà¨¦à¨¿à¨¨",
        -10.022421181307863
      ],
      [
        "visit",
        -10.022637921104987
      ],
      [
        "of",
        -10.024264918205684
      ],
      [
        "Ġà¬ķàŃ",
        -10.024673650769234
      ],
      [
        "à¤¤à¤°à¥Ģ",
        -10.024702437256312
      ],
      [
        "Ġàª°àª¹à«įàª¯",
        -10.0247914898953
      ],
      [
        "à¤Ĥà¤¨à¤¾",
        -10.024956169870618
      ],
      [
        "once",
        -10.026686934276398
      ],
      [
        "Ġàª¸àªĤ",
        -10.026999875593305
      ],
      [
        "à¦ľà¦¨",
        -10.027292842750558
      ],
      [
        "à°ĥ",
        -10.027487773333227
      ],
      [
        "Ġà°°à±Ĥ",
        -10.027802620610363
      ],
      [
        "Ġà°ķà°¾",
        -10.027864250761066
      ],
      [
        "ather",
        -10.02888178337157
      ],
      [
        "Ġà¦ľà¦¨",
        -10.029144523276459
      ],
      [
        "Ġequal",
        -10.029623889310642
      ],
      [
        "mon",
        -10.030701239596166
      ],
      [
        "ĠKo",
        -10.030728952887662
      ],
      [
        "Ġà¤¤à¥įà¤¯à¤¾à¤Ĥ",
        -10.032021056409963
      ],
      [
        "à¦²à§ĭ",
        -10.03230561765734
      ],
      [
        "Ġrepresent",
        -10.032619874431397
      ],
      [
        "Ġexpress",
        -10.032718001117225
      ],
      [
        "Ĩà¦®à¦¾à¦¦à§ĩà¦°",
        -10.033119907726277
      ],
      [
        "Ġenti",
        -10.033405710366758
      ],
      [
        "ex",
        -10.033922546569851
      ],
      [
        "Ġà²¨à²¿à²",
        -10.034941955040345
      ],
      [
        "à¨µà¨¾à¨²à©ĩ",
        -10.035113383529904
      ],
      [
        "Ġà¨®à©Īà¨Ĥ",
        -10.036724879953201
      ],
      [
        "à¨ĥ",
        -10.036751802911402
      ],
      [
        "Ġsubject",
        -10.037492487245125
      ],
      [
        "Ġà¤«à¤¿à¤°",
        -10.038388447775286
      ],
      [
        "ol",
        -10.038533313360418
      ],
      [
        "map",
        -10.038932956272856
      ],
      [
        "Ġà¤®à¥įà¤¹à¤£",
        -10.038961025262
      ],
      [
        "Ġà¨¹à¨°",
        -10.039141375130885
      ],
      [
        "Ġprivat",
        -10.03972344277697
      ],
      [
        "la",
        -10.039925741094748
      ],
      [
        "Ġà¦ķà§ĩà¦",
        -10.039983994547356
      ],
      [
        "Ġtrade",
        -10.04000305381308
      ],
      [
        "Ġà°¸à±įà°",
        -10.040406096734598
      ],
      [
        "length",
        -10.041524112540564
      ],
      [
        "ctor",
        -10.041797939955195
      ],
      [
        "à¬¨àŃįà¬¤àŃģ",
        -10.041910640430089
      ],
      [
        "à¤¾à¤Ĥà¤ļà¥Ģ",
        -10.042716407162068
      ],
      [
        "Ġjo",
        -10.042735854668873
      ],
      [
        "ĠTa",
        -10.042979442215984
      ],
      [
        "Ġà¦¨à¦¹à¦¯à¦¼",
        -10.043960959791853
      ],
      [
        "Ġà¨¹à©ģà©°à¨¦à",
        -10.04472621017888
      ],
      [
        "Ġparent",
        -10.04481212187719
      ],
      [
        "Ġà¨ħà©±à¨",
        -10.044906603880213
      ],
      [
        "Ġà¬Ĩà¬",
        -10.045455131647149
      ],
      [
        "ositive",
        -10.045722879426247
      ],
      [
        "Ġdescri",
        -10.046123825577727
      ],
      [
        "Ġà¤¤",
        -10.046264415039854
      ],
      [
        "Fal",
        -10.047310972454886
      ],
      [
        "§à¥įà¤¯à¤ķà¥įà¤·",
        -10.0474332921271
      ],
      [
        "à¤®à¤¾à¤¤à¥įà¤°",
        -10.049116767320301
      ],
      [
        "Ġcomplex",
        -10.04926535284332
      ],
      [
        "Ġà§°à¦¾à¦ľ",
        -10.049416837568465
      ],
      [
        "etting",
        -10.05009855954717
      ],
      [
        "à²°à³Ĥ",
        -10.050449703898405
      ],
      [
        "à°µ",
        -10.050515054337215
      ],
      [
        "Ġoperation",
        -10.05117446095289
      ],
      [
        "±ģà°²à±ģ",
        -10.051705475932309
      ],
      [
        "Ġà¤¨à¤¿",
        -10.051918834356655
      ],
      [
        "SE",
        -10.052007133291664
      ],
      [
        "Ġà¦¬à¦¿à¦¶à§ĩà¦·",
        -10.05234781058556
      ],
      [
        "Ġà¤ľà¤¾à¤¨",
        -10.053158973111804
      ],
      [
        "random",
        -10.053481919057766
      ],
      [
        "Ġà¦®à¦¾",
        -10.053767266063382
      ],
      [
        "Ġenvironment",
        -10.05403920565967
      ],
      [
        "Ġà¤ħà¤¬",
        -10.054100006008607
      ],
      [
        "Ġsuppl",
        -10.054517805613662
      ],
      [
        "Ġrele",
        -10.055413584190779
      ],
      [
        "Ġwon",
        -10.055710729737644
      ],
      [
        "32",
        -10.05605412934845
      ],
      [
        "Ġà¤®à¤¹à¤¾",
        -10.056263896310913
      ],
      [
        "NA",
        -10.056355457643313
      ],
      [
        "sequence",
        -10.057468606010566
      ],
      [
        "bin",
        -10.057494526133784
      ],
      [
        "Ġcard",
        -10.057617437492247
      ],
      [
        "à¦¸",
        -10.057794961758471
      ],
      [
        "à¦¸à¦ķà¦²à§°",
        -10.05792585939799
      ],
      [
        "Ġà¦²à§Ī",
        -10.058063669096896
      ],
      [
        "ķà¬°à¬¾à¬¯à¬¾à¬ĩ",
        -10.058688767648949
      ],
      [
        "ĠZ",
        -10.05878568048917
      ],
      [
        "face",
        -10.059100998094289
      ],
      [
        "´¾àµ»",
        -10.059163375506033
      ],
      [
        "Ġà¦ķà§Ģ",
        -10.059924823418566
      ],
      [
        "inister",
        -10.06012439655743
      ],
      [
        "ife",
        -10.0602957193992
      ],
      [
        "Ġba",
        -10.060319310305566
      ],
      [
        "Ġport",
        -10.060959327073142
      ],
      [
        "taking",
        -10.061159312869307
      ],
      [
        "àª°",
        -10.061200547849673
      ],
      [
        "ĠFe",
        -10.061722603078888
      ],
      [
        "Ġà¬¸àŃģ",
        -10.062374125402476
      ],
      [
        "Ġà¬ª",
        -10.063320064362587
      ],
      [
        "¢",
        -10.06391201431499
      ],
      [
        "love",
        -10.064130502258717
      ],
      [
        "à®¨à¯įà®¤à¯ģ",
        -10.064158769868458
      ],
      [
        "à±ģà°²à±ģ",
        -10.065440737283872
      ],
      [
        "potential",
        -10.065503505034098
      ],
      [
        "ology",
        -10.065851901852593
      ],
      [
        "Ġà¤¨à¤¾à¤®",
        -10.066067376845693
      ],
      [
        "à¦Ĺà§ģà¦²à§ĭ",
        -10.066537807777383
      ],
      [
        "?\"",
        -10.06790518280178
      ],
      [
        "practice",
        -10.068292833552931
      ],
      [
        "Ļàµįà´Ļàµ¾",
        -10.068797359211079
      ],
      [
        "Ġà¤²à¥ĭà¤Ĺà¥ĭà¤Ĥ",
        -10.069061156533758
      ],
      [
        "Ġà¤°à¤",
        -10.069097616633892
      ],
      [
        "ĳ",
        -10.069188505859845
      ],
      [
        "back",
        -10.069646685557867
      ],
      [
        "Ġà¬¸àŃĩà¬®à¬¾à¬¨",
        -10.069996265941818
      ],
      [
        "Ġà¤¦à¥Ģ",
        -10.07049840779944
      ],
      [
        "Ġà¤¦à¥ĭ",
        -10.070637554643152
      ],
      [
        "mail",
        -10.070992107729804
      ],
      [
        "Ġà¤¸à¤¾à¤²",
        -10.07120920307564
      ],
      [
        "Ġà®¨à®¿à®²à¯Ī",
        -10.071253770245875
      ],
      [
        "matter",
        -10.071513368130631
      ],
      [
        "Ġà¦²",
        -10.072394438682576
      ],
      [
        "operat",
        -10.072399083898027
      ],
      [
        "à¤ªà¤¾à¤¸à¥Ĥà¤¨",
        -10.072532826646441
      ],
      [
        "µģà´¨àµįà´¨à´¤à",
        -10.074451015479458
      ],
      [
        "ĠàªĨàªµà«",
        -10.07523275345947
      ],
      [
        "Ġà¤¸à¤Ńà¥",
        -10.075412091070433
      ],
      [
        "ifficult",
        -10.075686393743506
      ],
      [
        "where",
        -10.075982450334507
      ],
      [
        "Ġà®İà®©à¯įà®©",
        -10.076012955208407
      ],
      [
        "BI",
        -10.076120900865448
      ],
      [
        "Ġà®ħà®®à¯Īà®",
        -10.076208057739791
      ],
      [
        "´¿à´²àµĨ",
        -10.076593842660326
      ],
      [
        "µģà´ŁàµĨ",
        -10.076601271241476
      ],
      [
        "ug",
        -10.076636419340792
      ],
      [
        "ater",
        -10.077813082113206
      ],
      [
        "legal",
        -10.078537121890506
      ],
      [
        "¤à¯įà®¤à¯ģà®ķà¯į",
        -10.078632041921237
      ],
      [
        "Ġà¤Ńà¤°",
        -10.078968834810642
      ],
      [
        "Ġsent",
        -10.079197022959521
      ],
      [
        "à¬¨àŃįà¬¤à¬¿",
        -10.079422858100527
      ],
      [
        "believe",
        -10.07945353050357
      ],
      [
        "friend",
        -10.079657131740136
      ],
      [
        "ķà¯Ĭà®£à¯įà®Łà¯ģ",
        -10.080197028678892
      ],
      [
        "à¤®à¥Īà¤Ĥ",
        -10.080257900986659
      ],
      [
        "ricket",
        -10.08055240741941
      ],
      [
        "àª¥àª¾",
        -10.081617259128482
      ],
      [
        "li",
        -10.081869148022623
      ],
      [
        "them",
        -10.081954842669383
      ],
      [
        "add",
        -10.082322770761964
      ],
      [
        "Ġstar",
        -10.083677425382863
      ],
      [
        "Ĭ",
        -10.083797070883154
      ],
      [
        "Ġà¦Ĩà¦Ĺà§ĩ",
        -10.084104723225272
      ],
      [
        "production",
        -10.084156558174293
      ],
      [
        "à¦¬à¦¿",
        -10.084277743481746
      ],
      [
        "à°ķà±ĭà°¸à°Ĥ",
        -10.084468937649994
      ],
      [
        "done",
        -10.084815925663591
      ],
      [
        "Ġà¤ķà¤",
        -10.085121852146194
      ],
      [
        "election",
        -10.085606090652629
      ],
      [
        "ĠJan",
        -10.085757409425504
      ],
      [
        "ley",
        -10.086031206753297
      ],
      [
        "ji",
        -10.086359799046047
      ],
      [
        "Ġcover",
        -10.087175333000658
      ],
      [
        "stream",
        -10.088827936381342
      ],
      [
        "à²¿à²°à³ģà²µ",
        -10.08908435165235
      ],
      [
        "ĠBrit",
        -10.089687378547577
      ],
      [
        "Ġà²ħà²¦",
        -10.089844003179604
      ],
      [
        "kwa",
        -10.090415355533025
      ],
      [
        "à®²à®¾à®®à¯į",
        -10.090683220100386
      ],
      [
        "Ġàªµàª§à«ģ",
        -10.09140577800413
      ],
      [
        "Ġà®®à¯ģà®",
        -10.091469175908859
      ],
      [
        "handle",
        -10.09163858169752
      ],
      [
        "Ġà¨¸à¨¿à©±à¨ĸ",
        -10.091658037527719
      ],
      [
        "Ġà¬¹àŃĩà¬¬à¬¾",
        -10.092018926243025
      ],
      [
        "Ġà¨µà¨¿",
        -10.092066520992436
      ],
      [
        "Ġà²¤à²®à³įà²®",
        -10.092360302415344
      ],
      [
        "à«įàª¯àª¾àª°à«ĩ",
        -10.092577070441454
      ],
      [
        "Ġà§¨à§¦à§",
        -10.09318325635785
      ],
      [
        "Ġà¨ªà©Ĥà¨°",
        -10.093370991287541
      ],
      [
        "ks",
        -10.093575092177183
      ],
      [
        "address",
        -10.093575895813412
      ],
      [
        "rompt",
        -10.093913373156944
      ],
      [
        "Ġà¨¦à©±à¨¸",
        -10.094897467102186
      ],
      [
        "Ġappli",
        -10.095495028454627
      ],
      [
        "building",
        -10.09576685784226
      ],
      [
        "à¬¥à¬¾à¬ı",
        -10.095849012886703
      ],
      [
        "¤à¯įà®¤à®¿à®©à¯į",
        -10.095929358894043
      ],
      [
        "à²¨à³ģ",
        -10.096424677619574
      ],
      [
        "¤àµįà´¤à´¿àµ½",
        -10.096470796922693
      ],
      [
        "Ĩà®©à®¾à®²à¯į",
        -10.096922497671926
      ],
      [
        "Ġà¤ľà¤¾à¤ı",
        -10.098619990493834
      ],
      [
        "Ġà¤ķà¤¾à¤",
        -10.099164609476407
      ],
      [
        "²à¥ĩ",
        -10.099639782618869
      ],
      [
        "ĠPar",
        -10.09966695450398
      ],
      [
        "à¤ľà¥ĩ",
        -10.099963908188307
      ],
      [
        "¨à©Ĥà©°",
        -10.100024999343153
      ],
      [
        "board",
        -10.100204559799092
      ],
      [
        "Ġà¦ķà¦°à¦¿",
        -10.101282938907097
      ],
      [
        "Ġà¬¦à¬¿à¬¨",
        -10.102261817101812
      ],
      [
        "Ġà¨ļà¨¾à¨¹à©Ģ",
        -10.102352210878156
      ],
      [
        "75",
        -10.102703477356442
      ],
      [
        "à¤¾à¤Ĥà¤¤",
        -10.102942393610462
      ],
      [
        "Ġflow",
        -10.103332290478242
      ],
      [
        "points",
        -10.10379529248178
      ],
      [
        "Ġàªµàª¾àª¤",
        -10.103836933955238
      ],
      [
        "ake",
        -10.103987260810491
      ],
      [
        "à®®à®¾à®©",
        -10.10401709804189
      ],
      [
        "Ġà´Ĩ",
        -10.104161552068184
      ],
      [
        "launch",
        -10.104286641651925
      ],
      [
        "ril",
        -10.104433581741226
      ],
      [
        "àªĤàª¤à«ģ",
        -10.104501616473573
      ],
      [
        "Ġàª¬à«ĩ",
        -10.104815092322657
      ],
      [
        "ĠHis",
        -10.105303949153246
      ],
      [
        "Ġà¦¸à¦¿",
        -10.105339701033468
      ],
      [
        "à¨Ĺà©ĩ",
        -10.106011327382435
      ],
      [
        "Ġà¦¬à¦²",
        -10.106133577258554
      ],
      [
        "ork",
        -10.107227024194405
      ],
      [
        "ow",
        -10.107232333937251
      ],
      [
        "Ġà°ĩà°¦à°¿",
        -10.10745296469618
      ],
      [
        "Ġà¬¸à¬®à¬¸àŃįà¬¤",
        -10.108451552163988
      ],
      [
        "bed",
        -10.108477357996872
      ],
      [
        "´¿à´¨àµį",
        -10.108834450295324
      ],
      [
        "Ġ[\"",
        -10.109062809643088
      ],
      [
        "Ġwin",
        -10.109160276971725
      ],
      [
        "Ġprevent",
        -10.110045652604317
      ],
      [
        "mp",
        -10.110159641831444
      ],
      [
        "ĠCh",
        -10.110533963217447
      ],
      [
        "Ġequ",
        -10.110862599564078
      ],
      [
        "He",
        -10.11089096944
      ],
      [
        "à¨Ńà¨¾à¨°à¨¤",
        -10.110907854329781
      ],
      [
        "Ġà¨²à©±à¨Ĺ",
        -10.11212169347225
      ],
      [
        "len",
        -10.112229441963478
      ],
      [
        "à¨¬à¨¾à¨°à©ĩ",
        -10.112359871974892
      ],
      [
        "tell",
        -10.112376238922366
      ],
      [
        "Ġàªķàª¾àª®",
        -10.112495502336305
      ],
      [
        "à¤®",
        -10.112923689991867
      ],
      [
        "Ġanti",
        -10.113145339670652
      ],
      [
        "ral",
        -10.113270467956118
      ],
      [
        "Ġeff",
        -10.11352913212173
      ],
      [
        "regard",
        -10.113529312692357
      ],
      [
        "Ġà²¤à²¨à³įà²¨",
        -10.113871127909004
      ],
      [
        "à®µà¯Ī",
        -10.114125320074457
      ],
      [
        "Ġà¬ħà¬¨àŃįàŃŁ",
        -10.114460014928788
      ],
      [
        "Ġà¦¬à§įà¦¯à§±à¦",
        -10.11457894846791
      ],
      [
        "PI",
        -10.115210445908204
      ],
      [
        "write",
        -10.115470233515577
      ],
      [
        "Ġreli",
        -10.115886781652865
      ],
      [
        "Ġà¬ķ",
        -10.11713391733713
      ],
      [
        "àª®àª¾àªĤàª¥à«Ģ",
        -10.117793438879264
      ],
      [
        "ge",
        -10.118114586401871
      ],
      [
        "Ġwrit",
        -10.118149662241702
      ],
      [
        "Ġà¤Ĩà¤¤à¤¾",
        -10.118810801086738
      ],
      [
        "urface",
        -10.118881081133441
      ],
      [
        "Ġve",
        -10.1189974818265
      ],
      [
        "Health",
        -10.119147559334746
      ],
      [
        "thought",
        -10.11942109961986
      ],
      [
        "à²¦à³įà²¦",
        -10.119698398107145
      ],
      [
        "ĠNa",
        -10.120373201840389
      ],
      [
        "à¨ľà¨¦à©ĭà¨",
        -10.121180645137528
      ],
      [
        "£à¥įà¤¯à¤¾à¤ļà¥Ģ",
        -10.121742733125775
      ],
      [
        "parameter",
        -10.122327044296977
      ],
      [
        "ier",
        -10.122377888881415
      ],
      [
        "ĠRo",
        -10.122951829626174
      ],
      [
        "Ġà®®à¯ģà®¤à®²à¯į",
        -10.123321753875938
      ],
      [
        "Ġà¤ķà¤¹",
        -10.123345246024012
      ],
      [
        "Ġà¤®à¥ĩ",
        -10.123836170766332
      ],
      [
        "ĠDi",
        -10.123854217808649
      ],
      [
        "ĠSt",
        -10.12386936979506
      ],
      [
        "sets",
        -10.124381558493923
      ],
      [
        "target",
        -10.12445927567685
      ],
      [
        "Ġà¦Ĩà¦ľà¦¿",
        -10.124686666538171
      ],
      [
        "Ġà°¤à±Ĩà°²à°¿à°",
        -10.124783127390405
      ],
      [
        "Ġà®µà®°à¯ģ",
        -10.124903397841255
      ],
      [
        "Ġà¨ķà¨¾à¨°à¨¨",
        -10.12560858589276
      ],
      [
        "à¦¤à¦¬à§ĩ",
        -10.126205782202065
      ],
      [
        "ĠBi",
        -10.126348073551789
      ],
      [
        "har",
        -10.126919367577415
      ],
      [
        "Ġà´¸àµ",
        -10.127501708580773
      ],
      [
        "section",
        -10.127924961211242
      ],
      [
        "te",
        -10.127936959921481
      ],
      [
        "´²àµģà´Ĥ",
        -10.128249182417912
      ],
      [
        "à¤¾à¤µà¤°",
        -10.128928200096677
      ],
      [
        "quest",
        -10.128963036112006
      ],
      [
        "server",
        -10.129296236832595
      ],
      [
        "ĠJo",
        -10.13027313159062
      ],
      [
        "sum",
        -10.131326960178875
      ],
      [
        "à¨¸à¨¼à©ģà¨°à©",
        -10.131425895507876
      ],
      [
        "atient",
        -10.131854600443363
      ],
      [
        "Ġàª¸àª®àª¯",
        -10.131880199623485
      ],
      [
        "à²¾",
        -10.132403130113957
      ],
      [
        "Ġtreat",
        -10.132422144229654
      ],
      [
        "term",
        -10.133152676693609
      ],
      [
        "ĠMin",
        -10.133481719968369
      ],
      [
        "à¤Ĭà¤¨",
        -10.133780575865623
      ],
      [
        "away",
        -10.13404360585563
      ],
      [
        "science",
        -10.136603821248547
      ],
      [
        "à´Ļàµįà´Ļà´³à",
        -10.136711050504955
      ],
      [
        "¦à¤¿à¤²à¥įà¤²à¥Ģ",
        -10.137378799080393
      ],
      [
        "Ġà¦ļà¦¾à¦ĩ",
        -10.13777534780148
      ],
      [
        "ST",
        -10.13821378468409
      ],
      [
        "am",
        -10.138928713538679
      ],
      [
        "tail",
        -10.139212936727827
      ],
      [
        "Ġà¦¨à¦¯à¦¼",
        -10.140085222304846
      ],
      [
        "Ġkind",
        -10.140392145252367
      ],
      [
        "àª¿àª¤",
        -10.140824977398395
      ],
      [
        "manage",
        -10.141201178687298
      ],
      [
        "à§į",
        -10.141368808946225
      ],
      [
        "µà®¿à®²à¯įà®²à¯Ī",
        -10.141560913943609
      ],
      [
        "Ġà¦ıà¦°",
        -10.141772958431973
      ],
      [
        "void",
        -10.141842290977223
      ],
      [
        "Ġà¬ķà¬°",
        -10.14230461089123
      ],
      [
        "tion",
        -10.142540703405693
      ],
      [
        "à´¨àµį",
        -10.143150636795568
      ],
      [
        "Ġcontribut",
        -10.143268953207706
      ],
      [
        "Ġà¦¬à¦¹à§ģ",
        -10.143528565795421
      ],
      [
        "Ġà¬ķà¬¥à¬¾",
        -10.143962146435726
      ],
      [
        "original",
        -10.144413353064678
      ],
      [
        "ables",
        -10.144479589659785
      ],
      [
        "à§¦",
        -10.144644281896689
      ],
      [
        "Ġà²ķà²",
        -10.144705116864255
      ],
      [
        "lier",
        -10.144764332278996
      ],
      [
        "Ġà¤¸à¤Ĥà¤¬à¤Ĥà¤§",
        -10.144943758135753
      ],
      [
        "ĠWar",
        -10.145088571109314
      ],
      [
        "Ġà¤¬à¥Ģà¤®à¤¾",
        -10.14532051553747
      ],
      [
        "Ġà¬¸àŃĩà¬¹à¬¿",
        -10.14577676103226
      ],
      [
        "à¤°à¤¾",
        -10.146027735402924
      ],
      [
        "Ġpath",
        -10.146414328616244
      ],
      [
        "Ġà¦®à¦¨",
        -10.146721451713255
      ],
      [
        "Ġà¬Ĩà¬ªà¬£",
        -10.147059583067751
      ],
      [
        "emperature",
        -10.147173358308681
      ],
      [
        "Ġimplement",
        -10.147489416504921
      ],
      [
        "à¤²à¤¿à¤¯à¤¾",
        -10.14796920698161
      ],
      [
        "à²¿",
        -10.14798772679357
      ],
      [
        "register",
        -10.1483531395045
      ],
      [
        "à¨ķà¨¾à¨°à©Ģ",
        -10.149572197441902
      ],
      [
        "ĠMe",
        -10.14969373319377
      ],
      [
        "Wh",
        -10.1502393178273
      ],
      [
        "à¦¨à§ĩà¦ĩ",
        -10.150459097324312
      ],
      [
        "vision",
        -10.15069146862973
      ],
      [
        "´¾à´¯à´¿",
        -10.150833765063222
      ],
      [
        "Ġà¤¬à¤¨",
        -10.152529507607085
      ],
      [
        "ĠTha",
        -10.152713317973994
      ],
      [
        "à¨¸à¨¾à¨²",
        -10.153504661554235
      ],
      [
        "Ġà®¨à®¾à®©à¯į",
        -10.154402958972318
      ],
      [
        "à°¨à±į",
        -10.154816756639
      ],
      [
        "ĩà¬¨àŃįà¬¦àŃįà¬°",
        -10.155400991031463
      ],
      [
        "got",
        -10.156250694892137
      ],
      [
        "àªĹàª¯àª¾",
        -10.156273521174452
      ],
      [
        "Ġà¦¶à§ĩà¦·",
        -10.157582198535561
      ],
      [
        "Ġintegr",
        -10.15767330116472
      ],
      [
        "Ġarticle",
        -10.158170029675247
      ],
      [
        "²à©ĭà¨Ĥ",
        -10.158172127848598
      ],
      [
        "Ġregulat",
        -10.158243506452582
      ],
      [
        "Ġà²ĩà²¦",
        -10.158322615601026
      ],
      [
        "Ġà¦ªà¦¾",
        -10.158886030671718
      ],
      [
        "ans",
        -10.159028562063316
      ],
      [
        "à¬łà¬¾à¬°àŃģ",
        -10.159770501613236
      ],
      [
        "Non",
        -10.160297336811565
      ],
      [
        "Ġsea",
        -10.160400661838285
      ],
      [
        "speak",
        -10.16053792746045
      ],
      [
        "former",
        -10.160789069420751
      ],
      [
        "à¬ĥ",
        -10.160794095872816
      ],
      [
        "attr",
        -10.161016122282042
      ],
      [
        "à¤¨à¥ģà¤¸à¤¾à¤°",
        -10.161065775058631
      ],
      [
        "attack",
        -10.16161295309752
      ],
      [
        "Ġà¦Ľà¦¿à¦²",
        -10.16182987054405
      ],
      [
        "Ġà¤µà¤¿à¤Ńà¤¾à¤Ĺ",
        -10.162384493934432
      ],
      [
        "µ¼",
        -10.162500511634097
      ],
      [
        "à«įàª¯à«ĭ",
        -10.162757621489288
      ],
      [
        "Research",
        -10.16279407989559
      ],
      [
        "my",
        -10.163552674644343
      ],
      [
        "Ġà¦®à§ģà¦ĸ",
        -10.163975478636813
      ],
      [
        "Ġà¤µà¤¿à¤¶à¥įà¤µ",
        -10.164247810515427
      ],
      [
        "à²¹à³Ĩà²ļà³įà²ļà",
        -10.164486812746487
      ],
      [
        "¥įà¤¯à¤¾à¤¤",
        -10.16489167657535
      ],
      [
        "Ġà¨¤à¨°à",
        -10.164906708542327
      ],
      [
        "Ġma",
        -10.165044174447868
      ],
      [
        "search",
        -10.165860882322768
      ],
      [
        "location",
        -10.166044440645944
      ],
      [
        "Ġà¨¨",
        -10.166262643889603
      ],
      [
        "Ġà²¨à³Ģà²µ",
        -10.166280654403174
      ],
      [
        "Ġà®ªà®¿à®°à®",
        -10.166467890520053
      ],
      [
        "Ġà®İà®©à¯į",
        -10.166484475285213
      ],
      [
        "à¤¤à¤°à¤¹",
        -10.166847081822816
      ],
      [
        "¨àµįà´¤àµįà´°à´¿",
        -10.167216546449461
      ],
      [
        "à´ķàµįà´ķàµģà´Ĥ",
        -10.167757066455604
      ],
      [
        "volve",
        -10.169207120163719
      ],
      [
        "à²Ĥà²¤à³Ĩ",
        -10.169841665437424
      ],
      [
        "prox",
        -10.169860885583127
      ],
      [
        "nimal",
        -10.169993935768503
      ],
      [
        "Ġmedia",
        -10.17067438896727
      ],
      [
        "Ġà¤¸à¤Ĥà¤",
        -10.170683299819487
      ],
      [
        "Ġà¤¸à¤¿à¤Ĥà¤¹",
        -10.171117056363265
      ],
      [
        "à¬²à¬¾",
        -10.171330718639329
      ],
      [
        "à¥įà¤¹à¥ĩà¤Ĥ",
        -10.171366270235964
      ],
      [
        "Ġà¦¹à§Īà¦Ľà¦¿à¦²",
        -10.171477769438075
      ],
      [
        "Ġà°ķà°¾à°°à±įà°¯",
        -10.172397400486531
      ],
      [
        "variance",
        -10.172724051356253
      ],
      [
        "ĵà¬¡à¬¼à¬¿à¬¶à¬¾",
        -10.172830985176445
      ],
      [
        "Ġà¤µà¤",
        -10.173310072866022
      ],
      [
        "Ġperform",
        -10.173664039403226
      ],
      [
        "àª®àª¾",
        -10.174850634121718
      ],
      [
        "mind",
        -10.17589863251283
      ],
      [
        "call",
        -10.176507050734106
      ],
      [
        "Ġà¤Ŀà¤¾à¤²à¤¾",
        -10.177017403175839
      ],
      [
        "deal",
        -10.177304227854755
      ],
      [
        "charge",
        -10.177834149990296
      ],
      [
        "à°®à±Īà°¨",
        -10.178121107225593
      ],
      [
        "ĠMa",
        -10.178931814440709
      ],
      [
        "Ġà´ªàµįà´°à´¤à´¿",
        -10.179356425163721
      ],
      [
        "à¨¿à¨ķ",
        -10.179421752734344
      ],
      [
        "à¦¨à§ĩ",
        -10.179588567243767
      ],
      [
        "Ġà®ħà®¤à®¿à®ķ",
        -10.179889565388342
      ],
      [
        "à¬ªà¬°à¬¿",
        -10.179895463550315
      ],
      [
        "IT",
        -10.180144134413855
      ],
      [
        "à¦Ľà¦¿",
        -10.180174688605394
      ],
      [
        "Ġcourt",
        -10.180246748768099
      ],
      [
        "ka",
        -10.180976755055212
      ],
      [
        "Ġdefin",
        -10.181157768609474
      ],
      [
        "hief",
        -10.181722964055407
      ],
      [
        "nia",
        -10.18253831419492
      ],
      [
        "Ġimpa",
        -10.182830072492916
      ],
      [
        "Ġà®¤à®¿à®°à¯ģ",
        -10.182883710066005
      ],
      [
        "bility",
        -10.183482493159437
      ],
      [
        "ederal",
        -10.183485955773381
      ],
      [
        "¯į",
        -10.183600190830356
      ],
      [
        "Ġexpos",
        -10.184148311976779
      ],
      [
        "à´ķàµ¾",
        -10.184905993875027
      ],
      [
        "kill",
        -10.18514136635159
      ],
      [
        "Value",
        -10.185381701530092
      ],
      [
        "Ġà¦¥à¦¾à¦ķ",
        -10.185586673743652
      ],
      [
        "Ġà¬¯à¬¾à¬¹à¬¾",
        -10.185732058582637
      ],
      [
        "à°¡à±ģ",
        -10.185924523146817
      ],
      [
        "sig",
        -10.186111789224926
      ],
      [
        "Ġà°ļà±ĩà°¯à°",
        -10.186235299497497
      ],
      [
        "33",
        -10.18635333535138
      ],
      [
        "discuss",
        -10.186380760343539
      ],
      [
        "Ġà¦¤à§ģà¦®à¦¿",
        -10.186445769492718
      ],
      [
        "à¤¾à¤¸",
        -10.187248781509286
      ],
      [
        "à²¦à³ĩ",
        -10.187369045139441
      ],
      [
        "Ġà¦Ńà¦¾à§°à¦¤",
        -10.187887526213201
      ],
      [
        "ĠDec",
        -10.187990275064903
      ],
      [
        "Ġà¤ķà¤°à¤¤",
        -10.188544606691902
      ],
      [
        "Ġà®İà®©à¯įà®ª",
        -10.188814419407581
      ],
      [
        "à°²à±įà°²à±ĭ",
        -10.189090570826384
      ],
      [
        "cientist",
        -10.189105347522606
      ],
      [
        "Ġà¤®à¤",
        -10.189294095987325
      ],
      [
        "Ġà®ªà®",
        -10.18965167735465
      ],
      [
        "àŃĢàŃŁ",
        -10.189859151743317
      ],
      [
        "Ġpolitic",
        -10.190409510982263
      ],
      [
        "kistan",
        -10.190808997596045
      ],
      [
        "Ġà´¸à",
        -10.19090426367016
      ],
      [
        "à®ķà®³à",
        -10.191961753015448
      ],
      [
        "phone",
        -10.192072645927562
      ],
      [
        "Ġà®ķà¯Ĭà®Łà¯ģà®",
        -10.192208269414525
      ],
      [
        "Ġà¦²à¦¾à¦Ń",
        -10.19283351414267
      ],
      [
        "Ġdeb",
        -10.1933325017717
      ],
      [
        "}}\\",
        -10.193489614633323
      ],
      [
        "àªĨ",
        -10.193604600736467
      ],
      [
        "à§ĩà¦ĵ",
        -10.193790342758483
      ],
      [
        "Ġà¬¸",
        -10.193841001970924
      ],
      [
        "erformance",
        -10.194318774005454
      ],
      [
        "Ġà¦ħà¦¬",
        -10.194359789029203
      ],
      [
        "Ġà¦¸à§įà¦¥à¦¾à¦¨",
        -10.194799730671662
      ],
      [
        "Ġfo",
        -10.195043664341142
      ],
      [
        "įà¤·à¥ĩà¤¤à¥įà¤°",
        -10.19507676867968
      ],
      [
        "Ġà¦ħà¦¤à¦¿",
        -10.195856447470886
      ],
      [
        "à®ªà¯įà®ªà®",
        -10.196137995281248
      ],
      [
        "ID",
        -10.196166151336758
      ],
      [
        "ĠCentr",
        -10.196812625223107
      ],
      [
        "Ġàª°àª¹à«Ģ",
        -10.1986006325068
      ],
      [
        "Ġà¦¦à§ģà¦ĩ",
        -10.198612948671126
      ],
      [
        "olio",
        -10.199299109636414
      ],
      [
        "à¨°à¨¹à©Ģ",
        -10.199478061165909
      ],
      [
        "42",
        -10.200148063797034
      ],
      [
        "actions",
        -10.200580021593968
      ],
      [
        "German",
        -10.200752100800557
      ],
      [
        "Ġà®İà®Łà¯ģà®",
        -10.200964343068502
      ],
      [
        "Ġàªªàª¡",
        -10.201197738163737
      ],
      [
        "Ġà¤ľà¥įà¤¯à¤¾",
        -10.2012485382121
      ],
      [
        "Ġà¦¦à§ĩà¦¶",
        -10.201495689795134
      ],
      [
        "³ģà²¤à³įà²¤à²¿",
        -10.201717619309019
      ],
      [
        "Ġà¬ªà¬",
        -10.201885945788758
      ],
      [
        "¯ģà®®à¯į",
        -10.202029147402868
      ],
      [
        "Ġà°īà°Ĥà°¦à°",
        -10.202428851223193
      ],
      [
        "Ġcustom",
        -10.204917913984271
      ],
      [
        "Ġindicat",
        -10.204960131523757
      ],
      [
        "Ġà®ħà®¤à¯ģ",
        -10.205401761166842
      ],
      [
        "à´¯à´¾à´¯à´¿à´°à",
        -10.205855193083782
      ],
      [
        "ķàª¹à«įàª¯à«ģàªĤ",
        -10.205972202944213
      ],
      [
        "Ġà¤µà¤¿à¤ļà¤¾à¤°",
        -10.206942481202558
      ],
      [
        "Ġà¬ªà¬°à¬¿",
        -10.207084567340772
      ],
      [
        "inflation",
        -10.207111577433757
      ],
      [
        "Ġà¦¦à§ģ",
        -10.20755506272064
      ],
      [
        "thus",
        -10.20779293406041
      ],
      [
        "Ľ",
        -10.20851666325234
      ],
      [
        "Ġsal",
        -10.208550932088485
      ],
      [
        "ķà®¿à®±à®¾à®°à¯į",
        -10.208897041346864
      ],
      [
        "story",
        -10.20966068658247
      ],
      [
        "à®Ļà¯įà®ķà®³à¯Ī",
        -10.209670353691164
      ],
      [
        "Ġà¤¤à¥Ģà¤¨",
        -10.210062373515445
      ],
      [
        "Ġà¨®à¨¿à¨²",
        -10.210152176174498
      ],
      [
        "Ġmodern",
        -10.210345468768102
      ],
      [
        "à¬¤àŃĩà¬¬àŃĩ",
        -10.21041229887096
      ],
      [
        "Ġà¦ªà§įà¦°à¦¥à¦®",
        -10.210423549005778
      ],
      [
        "à°²à±ĭà°¨à°¿",
        -10.21049635951538
      ],
      [
        "à®¾à®®à®²à¯į",
        -10.210853627970895
      ],
      [
        "Ġcro",
        -10.211028866206421
      ],
      [
        "à®ªà¯įà®ªà®Ł",
        -10.211130409447431
      ],
      [
        "Ġà¦¤à¦ĸà¦¨",
        -10.211186125981122
      ],
      [
        "part",
        -10.211259148989992
      ],
      [
        "Ġà¨®à©ģ",
        -10.21138038771507
      ],
      [
        "ķà¬¿à¬¨àŃįà¬¤àŃģ",
        -10.211426917594327
      ],
      [
        "à¤®à¤¿à¤²",
        -10.212146114197008
      ],
      [
        "à«Ģàª¨à«ĩ",
        -10.212408012338294
      ],
      [
        "ķà¯įà®ķà®ªà¯į",
        -10.213200288578069
      ],
      [
        "wise",
        -10.213383325032009
      ],
      [
        "Ġàª¹à«ģàªĤ",
        -10.213481159584713
      ],
      [
        "ls",
        -10.214190653249219
      ],
      [
        "co",
        -10.2146584439716
      ],
      [
        "ement",
        -10.214974755463682
      ],
      [
        "àª¶à«ģàªĤ",
        -10.215068479018772
      ],
      [
        "epartment",
        -10.215818374909084
      ],
      [
        "Ġà¬Ĩà¬ī",
        -10.215968617388244
      ],
      [
        "Ġà¤¹à¤ľà¤¾à¤°",
        -10.216773446177541
      ],
      [
        "structure",
        -10.216788175359564
      ],
      [
        "Ġà¬¤à¬¾à¬¹à¬¾",
        -10.217097676190065
      ],
      [
        "ga",
        -10.217690182819332
      ],
      [
        "etc",
        -10.218179991899277
      ],
      [
        "Ġà¬¸à¬¬àŃģ",
        -10.218814199307712
      ],
      [
        "Ġà°ªà°°à°¿à°",
        -10.2188592971562
      ],
      [
        "Ġà¤ľà¤¨",
        -10.219160427756314
      ],
      [
        "teach",
        -10.21928842354448
      ],
      [
        "continue",
        -10.219374166717028
      ],
      [
        "àªĥ",
        -10.219558540030887
      ],
      [
        "Ġà¦¨à§ĩ",
        -10.219680343106127
      ],
      [
        "ĠHa",
        -10.220226678077475
      ],
      [
        "electric",
        -10.220296285293664
      ],
      [
        "93",
        -10.220508725442798
      ],
      [
        "à¦¦à§ĩà¦¶à§ĩà¦°",
        -10.22051699336248
      ],
      [
        "Ġà¬Ĩ",
        -10.221043246383308
      ],
      [
        "Ġconduct",
        -10.22203156058297
      ],
      [
        "Ġcritic",
        -10.222604835199146
      ],
      [
        "à²¯à³ĩ",
        -10.22314158537231
      ],
      [
        "¤à«įàª¯àª¾àª°à«ĩ",
        -10.223340829290281
      ],
      [
        "Ġà¤ħà¤¸à¤¾",
        -10.223480202945453
      ],
      [
        "Ġ--",
        -10.223695625130102
      ],
      [
        "accept",
        -10.224160429221355
      ],
      [
        "Ġà²ªà³įà²°à²¤à²¿",
        -10.224434274997176
      ],
      [
        "ium",
        -10.225155620554325
      ],
      [
        "Ġà¤¯à¥ĩà¤¤",
        -10.225463829612927
      ],
      [
        "Ġà¬°à¬¾à¬ľ",
        -10.225798833495602
      ],
      [
        "que",
        -10.22589519928749
      ],
      [
        "Ġà§°à¦¾à¦ľà§įà¦¯",
        -10.226339758694477
      ],
      [
        "Ġà°ļà°¾à°²à°¾",
        -10.226484112703996
      ],
      [
        "à´¸àµį",
        -10.226715759589624
      ],
      [
        "¤à§ĩ",
        -10.226738565054788
      ],
      [
        "patch",
        -10.226928319492199
      ],
      [
        "ĠIr",
        -10.227039801054321
      ],
      [
        "medical",
        -10.227244867428787
      ],
      [
        "Ġunderstand",
        -10.229238949213848
      ],
      [
        "Ġà´ļàµĨà´¯àµįà´¤",
        -10.230071782212702
      ],
      [
        "àª¤à«ģàªĤ",
        -10.23009429722146
      ],
      [
        "à´®à´¾à´¯à´¿",
        -10.230580586587976
      ],
      [
        "à´¯àµįà´ķàµįà´ķà",
        -10.231343232590277
      ],
      [
        "Ġàªıàª®",
        -10.231364695200082
      ],
      [
        "Ġà¤¬à¤¹à¥ģà¤¤",
        -10.23188810978548
      ],
      [
        "ĠTh",
        -10.232225681807389
      ],
      [
        "Ġà¬¹àŃĩà¬²àŃĩ",
        -10.23237058553293
      ],
      [
        "Ġà´®à",
        -10.232496762257423
      ],
      [
        "à®¿",
        -10.23250485438697
      ],
      [
        "derivative",
        -10.232760398704212
      ],
      [
        "etwork",
        -10.23318200519909
      ],
      [
        "ra",
        -10.233206784527397
      ],
      [
        "¨àŃįà¬¤àŃįà¬°àŃĢ",
        -10.233274633639368
      ],
      [
        "Ġà¦¤à¦¾à¦ģà¦°",
        -10.233469211077587
      ],
      [
        "}}}",
        -10.233797145712607
      ],
      [
        "mitted",
        -10.234268477323205
      ],
      [
        "int",
        -10.234615531854349
      ],
      [
        "Ġà¤®à¥ģà¤",
        -10.234624320008205
      ],
      [
        "à¬ķà¬¾à¬°",
        -10.235205512462539
      ],
      [
        "Ġfoo",
        -10.235278517919545
      ],
      [
        "itizen",
        -10.235328910184064
      ],
      [
        "ªàµįà´ªàµĨà´Łà",
        -10.235449866624306
      ],
      [
        "ances",
        -10.235685225960607
      ],
      [
        "Ġà®®à¯ģà®Łà®¿à®¯",
        -10.23583611705589
      ],
      [
        "Ġà¨¦à¨¿à©±à¨¤à©Ģ",
        -10.235911511136829
      ],
      [
        "ļàµįà´ļàµģ",
        -10.23610882298703
      ],
      [
        "Ġà¨«à¨¿à¨°",
        -10.236277664361248
      ],
      [
        "room",
        -10.236661444056644
      ],
      [
        "Ġtext",
        -10.23692561063671
      ],
      [
        "Ġà¤ļà¤¾à¤¹à¤¿",
        -10.236983196330092
      ],
      [
        "Ġthough",
        -10.237060418824587
      ],
      [
        "Ġdeliver",
        -10.237119943833811
      ],
      [
        "Ġà¦Ĺà¦¿à¦¯à¦¼à§ĩ",
        -10.237187433479985
      ],
      [
        "Ġà¦ħà¦°à§įà¦¥",
        -10.238241595144892
      ],
      [
        "à²¯à²¾à²Ĺà²¿",
        -10.23904868803323
      ],
      [
        "Ġà°ı",
        -10.23997189920955
      ],
      [
        "Ġà¦ķà¦¾à§°à¦£à§ĩ",
        -10.24007795536213
      ],
      [
        "à¨ķà¨°à¨¨à¨¾",
        -10.24039817031555
      ],
      [
        "Ġà¤ľà¤¾à¤¨à¥ĩ",
        -10.240549185063273
      ],
      [
        "ĠPr",
        -10.240690174365913
      ],
      [
        "ķà§°à¦¿à¦¬à¦²à§Ī",
        -10.240715190864645
      ],
      [
        "Ġà²®à³Ĥà²²à²ķ",
        -10.240875825850697
      ],
      [
        "à¨¦à©ģà¨Ĩà¨°à¨¾",
        -10.240883731039867
      ],
      [
        "Ġprotect",
        -10.241293235168905
      ],
      [
        "Ġà¨¸à¨¾à¨¹à¨¿à¨¬",
        -10.241352298818853
      ],
      [
        "ach",
        -10.24159324517725
      ],
      [
        "ĠJoh",
        -10.242165358078914
      ],
      [
        "ªà¥įà¤°à¤¦à¥ĩà¤¶",
        -10.24226943337891
      ],
      [
        "à¤¦à¥Ģ",
        -10.242475575197012
      ],
      [
        "Ġj",
        -10.242513819245595
      ],
      [
        "¤àµįà´¤à´¿à´¨àµį",
        -10.242744094931906
      ],
      [
        "à±ģà°¡à±ģ",
        -10.243103632874627
      ],
      [
        "à¤Īà¤²",
        -10.24317392224292
      ],
      [
        "ell",
        -10.243668058272588
      ],
      [
        "´¾à´¯à´¿à´°à",
        -10.244126587500546
      ],
      [
        "Ġà¦²à¦Ĺ",
        -10.244286800012183
      ],
      [
        "«ĩ",
        -10.244589402291922
      ],
      [
        "Ġà®ıà®±à¯įà®ªà®",
        -10.245069540747444
      ],
      [
        "cision",
        -10.24510349767885
      ],
      [
        "ª¾",
        -10.245336533251166
      ],
      [
        "ĠSun",
        -10.245467954919858
      ],
      [
        "à¨¤à©Įà¨",
        -10.245568418171697
      ],
      [
        "Ġoperat",
        -10.245979666257018
      ],
      [
        "Ġà²ļà²¿à²¤à³įà²°",
        -10.246899846717714
      ],
      [
        "Ġà¤ıà¤ķà¤¾",
        -10.247285242197156
      ],
      [
        "Ġunit",
        -10.247453031133858
      ],
      [
        "Ġà¤¦à¥Įà¤",
        -10.24783709488294
      ],
      [
        "Ġà¨ªà©ģà¨²",
        -10.24807538675488
      ],
      [
        "à¦²à¦¾à¦®",
        -10.248574193481119
      ],
      [
        "Ġà°®à±Ģ",
        -10.248774904068389
      ],
      [
        "Ġà¦¨à¦¿à¦ľà§ĩ",
        -10.24904229019217
      ],
      [
        "Ġcli",
        -10.249541564883746
      ],
      [
        "Ġnorth",
        -10.24973033556066
      ],
      [
        "Ġvol",
        -10.249780821011388
      ],
      [
        "dot",
        -10.249952088040105
      ],
      [
        "Ġà²ľà²¨",
        -10.250535459547155
      ],
      [
        "ĠMo",
        -10.250761739856657
      ],
      [
        "Ġà¤ª",
        -10.250862900740703
      ],
      [
        "base",
        -10.250938432137314
      ],
      [
        "Ġà¦Łà¦¾à¦ķà¦¾",
        -10.251118266623564
      ],
      [
        "Ġà¤µà¤¿à¤¶à¥ĩà¤·",
        -10.25162578833006
      ],
      [
        "Ġpopular",
        -10.252103970705456
      ],
      [
        "Ġà°ªà",
        -10.252971761448533
      ],
      [
        "à®ķà®³à¯ģà®®à¯į",
        -10.253251260409371
      ],
      [
        "ĠMon",
        -10.253262468453176
      ],
      [
        "à¤Ńà¥Ģ",
        -10.253841570520128
      ],
      [
        "Ġdepend",
        -10.25406597598976
      ],
      [
        "Ġà°¨",
        -10.254140633509902
      ],
      [
        "creasing",
        -10.254511117723771
      ],
      [
        "ĠSing",
        -10.254574389076112
      ],
      [
        "Ġcri",
        -10.254593911220514
      ],
      [
        "à®¤à®¾à®²à¯į",
        -10.254724005669107
      ],
      [
        "active",
        -10.254762572116269
      ],
      [
        "ĠVi",
        -10.254885511939788
      ],
      [
        "havior",
        -10.255423751664292
      ],
      [
        "Ġà®ªà®ķà¯ģà®¤à®¿",
        -10.25551130380171
      ],
      [
        "Z",
        -10.255849259085064
      ],
      [
        "Bu",
        -10.256188446533592
      ],
      [
        "à©±à¨¥à©ĩ",
        -10.256353560848943
      ],
      [
        "¨à¯įà®¤à®¤à¯ģ",
        -10.256650477158782
      ],
      [
        "divid",
        -10.25686411892314
      ],
      [
        "Ġà¦ªà¦¾à¦ĩ",
        -10.257200051092724
      ],
      [
        "oor",
        -10.257371309294054
      ],
      [
        "Ġà¦¹à¦²à§ĩ",
        -10.25765846984008
      ],
      [
        "net",
        -10.257731787962621
      ],
      [
        "Ġà¤¸à¥ģà¤°à¥Ĥ",
        -10.257772782038558
      ],
      [
        "Ġà®¨à¯Ģ",
        -10.257792523361918
      ],
      [
        "Ġà¤ıà¤µà¤",
        -10.257839644990145
      ],
      [
        "à®µà®¤à¯ģ",
[...]
