{
  "version": "1.0",
  "truncation": null,
  "padding": null,
  "added_tokens": [
    {
      "id": 0,
      "content": "<|bos|>",
      "single_word": false,
      "lstrip": false,
      "rstrip": false,
      "normalized": false,
      "special": true
    },
    {
      "id": 1,
      "content": "<|eos|>",
      "single_word": false,
      "lstrip": false,
      "rstrip": false,
      "normalized": false,
      "special": true
    },
    {
      "id": 2,
      "content": "<|pad|>",
      "single_word": false,
      "lstrip": false,
      "rstrip": false,
      "normalized": false,
      "special": true
    },
    {
      "id": 3,
      "content": "<|reserved_0|>",
      "single_word": false,
      "lstrip": false,
      "rstrip": false,
      "normalized": false,
      "special": true
    },
    {
      "id": 4,
      "content": "<|reserved_1|>",
      "single_word": false,
      "lstrip": false,
      "rstrip": false,
      "normalized": false,
      "special": true
    },
    {
      "id": 5,
      "content": "<|reserved_2|>",
      "single_word": false,
      "lstrip": false,
      "rstrip": false,
      "normalized": false,
      "special": true
    },
    {
      "id": 6,
      "content": "<|reserved_3|>",
      "single_word": false,
      "lstrip": false,
      "rstrip": false,
      "normalized": false,
      "special": true
    },
    {
      "id": 7,
      "content": "<|reserved_4|>",
      "single_word": false,
      "lstrip": false,
      "rstrip": false,
      "normalized": false,
      "special": true
    },
    {
      "id": 8,
      "content": "<|reserved_5|>",
      "single_word": false,
      "lstrip": false,
      "rstrip": false,
      "normalized": false,
      "special": true
    },
    {
      "id": 9,
      "content": "<|reserved_6|>",
      "single_word": false,
      "lstrip": false,
      "rstrip": false,
      "normalized": false,
      "special": true
    },
    {
      "id": 10,
      "content": "<|reserved_7|>",
      "single_word": false,
      "lstrip": false,
      "rstrip": false,
      "normalized": false,
      "special": true
    },
    {
      "id": 11,
      "content": "<|reserved_8|>",
      "single_word": false,
      "lstrip": false,
      "rstrip": false,
      "normalized": false,
      "special": true
    },
    {
      "id": 12,
      "content": "<|reserved_9|>",
      "single_word": false,
      "lstrip": false,
      "rstrip": false,
      "normalized": false,
      "special": true
    },
    {
      "id": 13,
      "content": "<|reserved_10|>",
      "single_word": false,
      "lstrip": false,
      "rstrip": false,
      "normalized": false,
      "special": true
    },
    {
      "id": 14,
      "content": "<|reserved_11|>",
      "single_word": false,
      "lstrip": false,
      "rstrip": false,
      "normalized": false,
      "special": true
    },
    {
      "id": 15,
      "content": "<|reserved_12|>",
      "single_word": false,
      "lstrip": false,
      "rstrip": false,
      "normalized": false,
      "special": true
    },
    {
      "id": 16,
      "content": "<|reserved_13|>",
      "single_word": false,
      "lstrip": false,
      "rstrip": false,
      "normalized": false,
      "special": true
    },
    {
      "id": 17,
      "content": "<|reserved_14|>",
      "single_word": false,
      "lstrip": false,
      "rstrip": false,
      "normalized": false,
      "special": true
    },
    {
      "id": 18,
      "content": "<|reserved_15|>",
      "single_word": false,
      "lstrip": false,
      "rstrip": false,
      "normalized": false,
      "special": true
    },
    {
      "id": 19,
      "content": "<|reserved_16|>",
      "single_word": false,
      "lstrip": false,
      "rstrip": false,
      "normalized": false,
      "special": true
    },
    {
      "id": 20,
      "content": "<|reserved_17|>",
      "single_word": false,
      "lstrip": false,
      "rstrip": false,
      "normalized": false,
      "special": true
    },
    {
      "id": 21,
      "content": "<|reserved_18|>",
      "single_word": false,
      "lstrip": false,
      "rstrip": false,
      "normalized": false,
      "special": true
    },
    {
      "id": 22,
      "content": "<|reserved_19|>",
      "single_word": false,
      "lstrip": false,
      "rstrip": false,
      "normalized": false,
      "special": true
    },
    {
      "id": 23,
      "content": "<|reserved_20|>",
      "single_word": false,
      "lstrip": false,
      "rstrip": false,
      "normalized": false,
      "special": true
    },
    {
      "id": 24,
      "content": "<|reserved_21|>",
      "single_word": false,
      "lstrip": false,
      "rstrip": false,
      "normalized": false,
      "special": true
    },
    {
      "id": 25,
      "content": "<|reserved_22|>",
      "single_word": false,
      "lstrip": false,
      "rstrip": false,
      "normalized": false,
      "special": true
    },
    {
      "id": 26,
      "content": "<|reserved_23|>",
      "single_word": false,
      "lstrip": false,
      "rstrip": false,
      "normalized": false,
      "special": true
    },
    {
      "id": 27,
      "content": "<|reserved_24|>",
      "single_word": false,
      "lstrip": false,
      "rstrip": false,
      "normalized": false,
      "special": true
    },
    {
      "id": 28,
      "content": "<|reserved_25|>",
      "single_word": false,
      "lstrip": false,
      "rstrip": false,
      "normalized": false,
      "special": true
    },
    {
      "id": 29,
      "content": "<|reserved_26|>",
      "single_word": false,
      "lstrip": false,
      "rstrip": false,
      "normalized": false,
      "special": true
    },
    {
      "id": 30,
      "content": "<|reserved_27|>",
      "single_word": false,
      "lstrip": false,
      "rstrip": false,
      "normalized": false,
      "special": true
    },
    {
      "id": 31,
      "content": "<|reserved_28|>",
      "single_word": false,
      "lstrip": false,
      "rstrip": false,
      "normalized": false,
      "special": true
    },
    {
      "id": 32,
      "content": "<|reserved_29|>",
      "single_word": false,
      "lstrip": false,
      "rstrip": false,
      "normalized": false,
      "special": true
    },
    {
      "id": 33,
      "content": "<|reserved_30|>",
      "single_word": false,
      "lstrip": false,
      "rstrip": false,
      "normalized": false,
      "special": true
    },
    {
      "id": 34,
      "content": "<|reserved_31|>",
      "single_word": false,
      "lstrip": false,
      "rstrip": false,
      "normalized": false,
      "special": true
    },
    {
      "id": 35,
      "content": "<|reserved_32|>",
      "single_word": false,
      "lstrip": false,
      "rstrip": false,
      "normalized": false,
      "special": true
    },
    {
      "id": 36,
      "content": "<|reserved_33|>",
      "single_word": false,
      "lstrip": false,
      "rstrip": false,
      "normalized": false,
      "special": true
    },
    {
      "id": 37,
      "content": "<|reserved_34|>",
      "single_word": false,
      "lstrip": false,
      "rstrip": false,
      "normalized": false,
      "special": true
    },
    {
      "id": 38,
      "content": "<|reserved_35|>",
      "single_word": false,
      "lstrip": false,
      "rstrip": false,
      "normalized": false,
      "special": true
    },
    {
      "id": 39,
      "content": "<|reserved_36|>",
      "single_word": false,
      "lstrip": false,
      "rstrip": false,
      "normalized": false,
      "special": true
    },
    {
      "id": 40,
      "content": "<|reserved_37|>",
      "single_word": false,
      "lstrip": false,
      "rstrip": false,
      "normalized": false,
      "special": true
    },
    {
      "id": 41,
      "content": "<|reserved_38|>",
      "single_word": false,
      "lstrip": false,
      "rstrip": false,
      "normalized": false,
      "special": true
    },
    {
      "id": 42,
      "content": "<|reserved_39|>",
      "single_word": false,
      "lstrip": false,
      "rstrip": false,
      "normalized": false,
      "special": true
    },
    {
      "id": 43,
      "content": "<|reserved_40|>",
      "single_word": false,
      "lstrip": false,
      "rstrip": false,
      "normalized": false,
      "special": true
    },
    {
      "id": 44,
      "content": "<|reserved_41|>",
      "single_word": false,
      "lstrip": false,
      "rstrip": false,
      "normalized": false,
      "special": true
    },
    {
      "id": 45,
      "content": "<|reserved_42|>",
      "single_word": false,
      "lstrip": false,
      "rstrip": false,
      "normalized": false,
      "special": true
    },
    {
      "id": 46,
      "content": "<|reserved_43|>",
      "single_word": false,
      "lstrip": false,
      "rstrip": false,
      "normalized": false,
      "special": true
    },
    {
      "id": 47,
      "content": "<|reserved_44|>",
      "single_word": false,
      "lstrip": false,
      "rstrip": false,
      "normalized": false,
      "special": true
    },
    {
      "id": 48,
      "content": "<|reserved_45|>",
      "single_word": false,
      "lstrip": false,
      "rstrip": false,
      "normalized": false,
      "special": true
    },
    {
      "id": 49,
      "content": "<|reserved_46|>",
      "single_word": false,
      "lstrip": false,
      "rstrip": false,
      "normalized": false,
      "special": true
    },
    {
      "id": 50,
      "content": "<|reserved_47|>",
      "single_word": false,
      "lstrip": false,
      "rstrip": false,
      "normalized": false,
      "special": true
    },
    {
      "id": 51,
      "content": "<|reserved_48|>",
      "single_word": false,
      "lstrip": false,
      "rstrip": false,
      "normalized": false,
      "special": true
    },
    {
      "id": 52,
      "content": "<|reserved_49|>",
      "single_word": false,
      "lstrip": false,
      "rstrip": false,
      "normalized": false,
      "special": true
    },
    {
      "id": 53,
      "content": "<|reserved_50|>",
      "single_word": false,
      "lstrip": false,
      "rstrip": false,
      "normalized": false,
      "special": true
    },
    {
      "id": 54,
      "content": "<|reserved_51|>",
      "single_word": false,
      "lstrip": false,
      "rstrip": false,
      "normalized": false,
      "special": true
    },
    {
      "id": 55,
      "content": "<|reserved_52|>",
      "single_word": false,
      "lstrip": false,
      "rstrip": false,
      "normalized": false,
      "special": true
    },
    {
      "id": 56,
      "content": "<|reserved_53|>",
      "single_word": false,
      "lstrip": false,
      "rstrip": false,
      "normalized": false,
      "special": true
    },
    {
      "id": 57,
      "content": "<|reserved_54|>",
      "single_word": false,
      "lstrip": false,
      "rstrip": false,
      "normalized": false,
      "special": true
    },
    {
      "id": 58,
      "content": "<|reserved_55|>",
      "single_word": false,
      "lstrip": false,
      "rstrip": false,
      "normalized": false,
      "special": true
    },
    {
      "id": 59,
      "content": "<|reserved_56|>",
      "single_word": false,
      "lstrip": false,
      "rstrip": false,
      "normalized": false,
      "special": true
    },
    {
      "id": 60,
      "content": "<|reserved_57|>",
      "single_word": false,
      "lstrip": false,
      "rstrip": false,
      "normalized": false,
      "special": true
    },
    {
      "id": 61,
      "content": "<|reserved_58|>",
      "single_word": false,
      "lstrip": false,
      "rstrip": false,
      "normalized": false,
      "special": true
    },
    {
      "id": 62,
      "content": "<|reserved_59|>",
      "single_word": false,
      "lstrip": false,
      "rstrip": false,
      "normalized": false,
      "special": true
    },
    {
      "id": 63,
      "content": "<|reserved_60|>",
      "single_word": false,
      "lstrip": false,
      "rstrip": false,
      "normalized": false,
      "special": true
    },
    {
      "id": 64,
      "content": "<|reserved_61|>",
      "single_word": false,
      "lstrip": false,
      "rstrip": false,
      "normalized": false,
      "special": true
    },
    {
      "id": 65,
      "content": "<|reserved_62|>",
      "single_word": false,
      "lstrip": false,
      "rstrip": false,
      "normalized": false,
      "special": true
    },
    {
      "id": 66,
      "content": "<|reserved_63|>",
      "single_word": false,
      "lstrip": false,
      "rstrip": false,
      "normalized": false,
      "special": true
    }
  ],
  "normalizer": null,
  "pre_tokenizer": {
    "type": "Sequence",
    "pretokenizers": [
      {
        "type": "Digits",
        "individual_digits": true
      },
      {
        "type": "Split",
        "pattern": {
          "Regex": " ?[\\p{L}\\p{M}]+| ?[^\\s\\p{L}\\p{M}\\p{N}]+|\\s+"
        },
        "behavior": "Isolated",
        "invert": false
      },
      {
        "type": "ByteLevel",
        "add_prefix_space": false,
        "trim_offsets": true,
        "use_regex": false
      }
    ]
  },
  "post_processor": null,
  "decoder": {
    "type": "ByteLevel",
    "add_prefix_space": true,
    "trim_offsets": true,
    "use_regex": true
  },
  "model": {
    "type": "BPE",
    "dropout": null,
    "unk_token": null,
    "continuing_subword_prefix": null,
    "end_of_word_suffix": null,
    "fuse_unk": false,
    "byte_fallback": false,
    "ignore_merges": false,
    "vocab": {
      "<|bos|>": 0,
      "<|eos|>": 1,
      "<|pad|>": 2,
      "<|reserved_0|>": 3,
      "<|reserved_1|>": 4,
      "<|reserved_2|>": 5,
      "<|reserved_3|>": 6,
      "<|reserved_4|>": 7,
      "<|reserved_5|>": 8,
      "<|reserved_6|>": 9,
      "<|reserved_7|>": 10,
      "<|reserved_8|>": 11,
      "<|reserved_9|>": 12,
      "<|reserved_10|>": 13,
      "<|reserved_11|>": 14,
      "<|reserved_12|>": 15,
      "<|reserved_13|>": 16,
      "<|reserved_14|>": 17,
      "<|reserved_15|>": 18,
      "<|reserved_16|>": 19,
      "<|reserved_17|>": 20,
      "<|reserved_18|>": 21,
      "<|reserved_19|>": 22,
      "<|reserved_20|>": 23,
      "<|reserved_21|>": 24,
      "<|reserved_22|>": 25,
      "<|reserved_23|>": 26,
      "<|reserved_24|>": 27,
      "<|reserved_25|>": 28,
      "<|reserved_26|>": 29,
      "<|reserved_27|>": 30,
      "<|reserved_28|>": 31,
      "<|reserved_29|>": 32,
      "<|reserved_30|>": 33,
      "<|reserved_31|>": 34,
      "<|reserved_32|>": 35,
      "<|reserved_33|>": 36,
      "<|reserved_34|>": 37,
      "<|reserved_35|>": 38,
      "<|reserved_36|>": 39,
      "<|reserved_37|>": 40,
      "<|reserved_38|>": 41,
      "<|reserved_39|>": 42,
      "<|reserved_40|>": 43,
      "<|reserved_41|>": 44,
      "<|reserved_42|>": 45,
      "<|reserved_43|>": 46,
      "<|reserved_44|>": 47,
      "<|reserved_45|>": 48,
      "<|reserved_46|>": 49,
      "<|reserved_47|>": 50,
      "<|reserved_48|>": 51,
      "<|reserved_49|>": 52,
      "<|reserved_50|>": 53,
      "<|reserved_51|>": 54,
      "<|reserved_52|>": 55,
      "<|reserved_53|>": 56,
      "<|reserved_54|>": 57,
      "<|reserved_55|>": 58,
      "<|reserved_56|>": 59,
      "<|reserved_57|>": 60,
      "<|reserved_58|>": 61,
      "<|reserved_59|>": 62,
      "<|reserved_60|>": 63,
      "<|reserved_61|>": 64,
      "<|reserved_62|>": 65,
      "<|reserved_63|>": 66,
      "!": 67,
      "\"": 68,
      "#": 69,
      "$": 70,
      "%": 71,
      "&": 72,
      "'": 73,
      "(": 74,
      ")": 75,
      "*": 76,
      "+": 77,
      ",": 78,
      "-": 79,
      ".": 80,
      "/": 81,
      "0": 82,
      "1": 83,
      "2": 84,
      "3": 85,
      "4": 86,
      "5": 87,
      "6": 88,
      "7": 89,
      "8": 90,
      "9": 91,
      ":": 92,
      ";": 93,
      "<": 94,
      "=": 95,
      ">": 96,
      "?": 97,
      "@": 98,
      "A": 99,
      "B": 100,
      "C": 101,
      "D": 102,
      "E": 103,
      "F": 104,
      "G": 105,
      "H": 106,
      "I": 107,
      "J": 108,
      "K": 109,
      "L": 110,
      "M": 111,
      "N": 112,
      "O": 113,
      "P": 114,
      "Q": 115,
      "R": 116,
      "S": 117,
      "T": 118,
      "U": 119,
      "V": 120,
      "W": 121,
      "X": 122,
      "Y": 123,
      "Z": 124,
      "[": 125,
      "\\": 126,
      "]": 127,
      "^": 128,
      "_": 129,
      "`": 130,
      "a": 131,
      "b": 132,
      "c": 133,
      "d": 134,
      "e": 135,
      "f": 136,
      "g": 137,
      "h": 138,
      "i": 139,
      "j": 140,
      "k": 141,
      "l": 142,
      "m": 143,
      "n": 144,
      "o": 145,
      "p": 146,
      "q": 147,
      "r": 148,
      "s": 149,
      "t": 150,
      "u": 151,
      "v": 152,
      "w": 153,
      "x": 154,
      "y": 155,
      "z": 156,
      "{": 157,
      "|": 158,
      "}": 159,
      "~": 160,
      "¡": 161,
      "¢": 162,
      "£": 163,
      "¤": 164,
      "¥": 165,
      "¦": 166,
      "§": 167,
      "¨": 168,
      "©": 169,
      "ª": 170,
      "«": 171,
      "¬": 172,
      "®": 173,
      "¯": 174,
      "°": 175,
      "±": 176,
      "²": 177,
      "³": 178,
      "´": 179,
      "µ": 180,
      "¶": 181,
      "·": 182,
      "¸": 183,
      "¹": 184,
      "º": 185,
      "»": 186,
      "¼": 187,
      "½": 188,
      "¾": 189,
      "¿": 190,
      "À": 191,
      "Á": 192,
      "Â": 193,
      "Ã": 194,
      "Ä": 195,
      "Å": 196,
      "Æ": 197,
      "Ç": 198,
      "È": 199,
      "É": 200,
      "Ê": 201,
      "Ë": 202,
      "Ì": 203,
      "Í": 204,
      "Î": 205,
      "Ï": 206,
      "Ð": 207,
      "Ñ": 208,
      "Ò": 209,
      "Ó": 210,
      "Ô": 211,
      "Õ": 212,
      "Ö": 213,
      "×": 214,
      "Ø": 215,
      "Ù": 216,
      "Ú": 217,
      "Û": 218,
      "Ü": 219,
      "Ý": 220,
      "Þ": 221,
      "ß": 222,
      "à": 223,
      "á": 224,
      "â": 225,
      "ã": 226,
      "ä": 227,
      "å": 228,
      "æ": 229,
      "ç": 230,
      "è": 231,
      "é": 232,
      "ê": 233,
      "ë": 234,
      "ì": 235,
      "í": 236,
      "î": 237,
      "ï": 238,
      "ð": 239,
      "ñ": 240,
      "ò": 241,
      "ó": 242,
      "ô": 243,
      "õ": 244,
      "ö": 245,
      "÷": 246,
      "ø": 247,
      "ù": 248,
      "ú": 249,
      "û": 250,
      "ü": 251,
      "ý": 252,
      "þ": 253,
      "ÿ": 254,
      "Ā": 255,
      "ā": 256,
      "Ă": 257,
      "ă": 258,
      "Ą": 259,
      "ą": 260,
      "Ć": 261,
      "ć": 262,
      "Ĉ": 263,
      "ĉ": 264,
      "Ċ": 265,
      "ċ": 266,
      "Č": 267,
      "č": 268,
      "Ď": 269,
      "ď": 270,
      "Đ": 271,
      "đ": 272,
      "Ē": 273,
      "ē": 274,
      "Ĕ": 275,
      "ĕ": 276,
      "Ė": 277,
      "ė": 278,
      "Ę": 279,
      "ę": 280,
      "Ě": 281,
      "ě": 282,
      "Ĝ": 283,
      "ĝ": 284,
      "Ğ": 285,
      "ğ": 286,
      "Ġ": 287,
      "ġ": 288,
      "Ģ": 289,
      "ģ": 290,
      "Ĥ": 291,
      "ĥ": 292,
      "Ħ": 293,
      "ħ": 294,
      "Ĩ": 295,
      "ĩ": 296,
      "Ī": 297,
      "ī": 298,
      "Ĭ": 299,
      "ĭ": 300,
      "Į": 301,
      "į": 302,
      "İ": 303,
      "ı": 304,
      "Ĳ": 305,
      "ĳ": 306,
      "Ĵ": 307,
      "ĵ": 308,
      "Ķ": 309,
      "ķ": 310,
      "ĸ": 311,
      "Ĺ": 312,
      "ĺ": 313,
      "Ļ": 314,
      "ļ": 315,
      "Ľ": 316,
      "ľ": 317,
      "Ŀ": 318,
      "ŀ": 319,
      "Ł": 320,
      "ł": 321,
      "Ń": 322,
      "Ġà": 323,
      "ĠĠ": 324,
      "à®": 325,
      "à²": 326,
      "à°": 327,
      "à´": 328,
      "à¦": 329,
      "à¤": 330,
      "à¯": 331,
      "ĠĠĠĠ": 332,
      "àµ": 333,
      "à³": 334,
      "à±": 335,
      "à¯į": 336,
      "àª": 337,
      "à¨": 338,
      "à§": 339,
      "à¥": 340,
      "Ġt": 341,
      "à¬": 342,
      "Ġà®": 343,
      "Ġà¤": 344,
      "àµį": 345,
      "Ġà¦": 346,
      "à¯įà®": 347,
      "Ġà²": 348,
      "Ġa": 349,
      "he": 350,
      "ĠĠĠĠĠĠĠĠ": 351,
      "Ġà°": 352,
      "in": 353,
      "àµįà´": 354,
      "Ġà´": 355,
      "re": 356,
      "à³į": 357,
      "on": 358,
      "à¯ģ": 359,
      "Ġà¨": 360,
      "à³įà²": 361,
      "à®¿": 362,
      "Ġthe": 363,
      "à±į": 364,
      "er": 365,
      "à²¿": 366,
      "à®¿à®": 367,
      "à«": 368,
      "à©": 369,
      "à¦¾": 370,
      "at": 371,
      "à¤¾": 372,
      "à±įà°": 373,
      "Ġo": 374,
      "Ġàª": 375,
      "Ġs": 376,
      "à´¿": 377,
      "à°¿": 378,
      "en": 379,
      "àŃ": 380,
      "es": 381,
      "à¯ģà®": 382,
      "à²¿à²": 383,
      "à±ģ": 384,
      "is": 385,
      "Ġc": 386,
      "à°¾": 387,
      "an": 388,
      "or": 389,
      "it": 390,
      "à³ģ": 391,
      "al": 392,
      "à´¿à´": 393,
      "à¦¾à¦": 394,
      "à§ĩ": 395,
      "à²¾": 396,
      "à®¾": 397,
      "à¤¾à¤": 398,
      "ed": 399,
      "Ġw": 400,
      "à²¾à²": 401,
      "Ġp": 402,
      "Ġà¬": 403,
      "à°¾à°": 404,
      "à®¾à®": 405,
      "Ġf": 406,
      "à¦¿": 407,
      "nd": 408,
      "ar": 409,
      "Ġof": 410,
      "Ġb": 411,
      "à§į": 412,
      "Ġin": 413,
      "àµģ": 414,
      "à§įà¦": 415,
      "à°¿à°": 416,
      "à¥į": 417,
      "à¥įà¤": 418,
      "ion": 419,
      "à³Ĩ": 420,
      "ing": 421,
      "à¥ĩ": 422,
      "Ĥà°": 423,
      "à´¾": 424,
      "ic": 425,
      "àµģà´": 426,
      "àª¾": 427,
      "Ġm": 428,
      "ro": 429,
      "à´¾à´": 430,
      "Ġto": 431,
      "Ġand": 432,
      "à¦¿à¦": 433,
      "Ġd": 434,
      "à¯įà®ķ": 435,
      "à®°": 436,
      "le": 437,
      "à²°": 438,
      "as": 439,
      "à¯Ī": 440,
      "à®¤": 441,
      "à±ģà°": 442,
      "à§°": 443,
      "à²¦": 444,
      "à¯įà®¤": 445,
      "à¨¾": 446,
      "ou": 447,
      "àª¾àª": 448,
      "ent": 449,
      "à¥Ģ": 450,
      "à§ĩà¦": 451,
      "à¤¿": 452,
      "st": 453,
      "ct": 454,
      "à®©": 455,
      "à«ĩ": 456,
      "Ġh": 457,
      "à¤°": 458,
      "Ġre": 459,
      "à¬¾": 460,
      "àŃį": 461,
      "Ġth": 462,
      "à®Ł": 463,
      "Ġe": 464,
      "om": 465,
      "il": 466,
      "àµĨ": 467,
      "à²µ": 468,
      "Ġà¤ķ": 469,
      "ĠĠĊ": 470,
      "à¬°": 471,
      "à¨¾à¨": 472,
      "à¤¿à¤": 473,
      "®à¯į": 474,
      "Ġn": 475,
      "à²¨": 476,
      "à°¨": 477,
      "à²²": 478,
      "Ġl": 479,
      "el": 480,
      "à°Ĥà°": 481,
      "et": 482,
      "à¬¿": 483,
      "ĠĠĠĠĠĠĠĠĠĠĠĠ": 484,
      "¨àµįà´": 485,
      "à²Ĥ": 486,
      "à°°": 487,
      "à´¤": 488,
      "à±ĩ": 489,
      "à®³": 490,
      "à²¤": 491,
      "Ġis": 492,
      "à¯įà®ª": 493,
      "à±ĭ": 494,
      "Ġà®ª": 495,
      "à¥¤": 496,
      "à¤Ĥ": 497,
      "¯à¦": 498,
      "ur": 499,
      "à©Ģ": 500,
      "ation": 501,
      "am": 502,
      "à©ĩ": 503,
      "im": 504,
      "ĠT": 505,
      "ķàµįà´": 506,
      "à¯Īà®": 507,
      "à§ģ": 508,
      "ķà¯įà®ķ": 509,
      "à¦¨": 510,
      "à¨¿": 511,
      "ut": 512,
      "Ġà®ķ": 513,
      "ol": 514,
      "à®²": 515,
      "à«Ģ": 516,
      "à²Ĺ": 517,
      "Ġà®µ": 518,
      "à«į": 519,
      "à¯įà®Ł": 520,
      "à«įàª": 521,
      "à¥ĭ": 522,
      "ce": 523,
      "ve": 524,
      "id": 525,
      "àŃįà¬": 526,
      "¯à¦¼": 527,
      "à¤¨": 528,
      "Ġg": 529,
      "à¤¤": 530,
      "à¨°": 531,
      "Ġ(": 532,
      "se": 533,
      "à°²": 534,
      "ch": 535,
      "ĠĠĠĠĠĠĠĠĠĠĠĠĠĠĠĠ": 536,
      "à´°": 537,
      "ly": 538,
      "ot": 539,
      "Ġà¦ķ": 540,
      "à²ķ": 541,
      "Ġà®®": 542,
      "Ġbe": 543,
      "ĠI": 544,
      "à²³": 545,
      "à¯ĩ": 546,
      "ĠA": 547,
      "Ġfor": 548,
      "à¦¤": 549,
      "à®¿à®²": 550,
      "à¬¾à¬": 551,
      "ul": 552,
      "àŃĩ": 553,
      "à¤ķ": 554,
      "à®µ": 555,
      "ver": 556,
      "ay": 557,
      "ķàµįà´ķ": 558,
      "ĠS": 559,
      "Ġà²®": 560,
      "ig": 561,
      "¨àµįà´¨": 562,
      "à±Ģ": 563,
      "à³ĩ": 564,
      "à¦°": 565,
      "à¬¿à¬": 566,
      "à§ĭ": 567,
      "Ġà®ħ": 568,
      "Ġà®¤": 569,
      "ra": 570,
      "à°ķ": 571,
      "à¦ķ": 572,
      "àª¨": 573,
      "ow": 574,
      "Ġà²¸": 575,
      "à¦²": 576,
      "Ġst": 577,
      "Ġu": 578,
      "ĠC": 579,
      "Ġon": 580,
      "à¥įà¤¯": 581,
      "à¯ģà®®à¯į": 582,
      "Ġà®ļ": 583,
      "Ġà°ª": 584,
      "à®¿à®¯": 585,
      "Ġà¦¬": 586,
      "Ġà¤¸": 587,
      "à¯Ĩ": 588,
      "à´¯": 589,
      "est": 590,
      "à°¾à°°": 591,
      "Ġthat": 592,
      "âĢ": 593,
      "àµįà´¤": 594,
      "àª°": 595,
      "Ġà¦ª": 596,
      "Ġà¦¸": 597,
      "¨à¯įà®¤": 598,
      "Ġas": 599,
      "à¤²": 600,
      "Ġà´ª": 601,
      "à±įà°°": 602,
      "ad": 603,
      "Ġà²ķ": 604,
      "ith": 605,
      "à±Ĩ": 606,
      "àµĭ": 607,
      "ir": 608,
      "à³įà²²": 609,
      "à±ĩà°": 610,
      "à¨¿à¨": 611,
      "Ġà®ĩ": 612,
      "if": 613,
      "à³įà²°": 614,
      "ªà¯įà®ª": 615,
      "à´Ł": 616,
      "à²¿à²¦": 617,
      "à®±": 618,
      "Ġà°ķ": 619,
      "à²¡": 620,
      "Ġpro": 621,
      "ment": 622,
      "à³įà²¤": 623,
      "à´Ĥ": 624,
      "Ġà®¨": 625,
      "à³įà²¨": 626,
      "Ġcon": 627,
      "à¯įà®±": 628,
      "Ġà°µ": 629,
      "ĠM": 630,
      "Ġà¤¹": 631,
      "à®®": 632,
      "Ġà°®": 633,
      "Ġ\"": 634,
      "à²¾à²°": 635,
      "Ġan": 636,
      "ist": 637,
      "Ġà¤®": 638,
      "à§Ģ": 639,
      "Ġà²¨": 640,
      "à¦®": 641,
      "à¤¸": 642,
      "Ġà´ķ": 643,
      "od": 644,
      "à¯ĭ": 645,
      "ab": 646,
      "Ġà¤ª": 647,
      "àµĩ": 648,
      "à®£": 649,
      "Ġà¦Ĩ": 650,
      "her": 651,
      "àµįà´Ł": 652,
      "à´¿à´²": 653,
      "ag": 654,
      "Ġà²ħ": 655,
      "Ġwith": 656,
      "Ġà°¸": 657,
      "à«ĭ": 658,
      "ĠP": 659,
      "à¥ģ": 660,
      "Ġit": 661,
      "à®ķ": 662,
      "Ġare": 663,
      "à´®": 664,
      "Ġ=": 665,
      "pp": 666,
      "Ġà¨¦": 667,
      "à®¿à®²à¯į": 668,
      "Ġà®İ": 669,
      "Ġde": 670,
      "àŃģ": 671,
      "ate": 672,
      "qu": 673,
      "Ġà°ħ": 674,
      "ers": 675,
      "à°®": 676,
      "à¨¤": 677,
      "à²¾à²Ĺ": 678,
      "Ġor": 679,
      "Ġal": 680,
      "à²²à³įà²²": 681,
      "à®¤à¯įà®¤": 682,
      "Ġà¨ķ": 683,
      "à®¤à¯ģ": 684,
      "ri": 685,
      "à®¿à®°": 686,
      "ĠThe": 687,
      "à¯įà®ķà®³": 688,
      "Ġwh": 689,
      "op": 690,
      "Ġà¨¸": 691,
      "Ġex": 692,
      "and": 693,
      "àµģà´Ĥ": 694,
      "nt": 695,
      "à²¸": 696,
      "Ġà²ª": 697,
      "à³įà²¯": 698,
      "à³Ĥ": 699,
      "à¤¹": 700,
      "ĠB": 701,
      "à°¤": 702,
      "à²¯": 703,
      "à²¨à³įà²¨": 704,
      "Ġy": 705,
      "à¤¾à¤°": 706,
      "à°Ĥ": 707,
      "Ġv": 708,
      "Ġà²¹": 709,
      "à©°": 710,
      "res": 711,
      "ort": 712,
      "Ġà´µ": 713,
      "Ġà´¸": 714,
      "à¯Īà®¯": 715,
      "ĠN": 716,
      "à´³": 717,
      "à¥įà¤°": 718,
      "à®¾à®°": 719,
      "Ġr": 720,
      "à±įà°¯": 721,
      "ect": 722,
      "à¦¬": 723,
      "à¦¾à¦°": 724,
      "à´¤àµįà´¤": 725,
      "à®¯": 726,
      "à´¿à´¯": 727,
      "à¦¯à¦¼": 728,
      "um": 729,
      "à®®à¯į": 730,
      "rom": 731,
      "ity": 732,
      "Ġby": 733,
      "à¯Ĭ": 734,
      "ere": 735,
      "à®¿à®©": 736,
      "ies": 737,
      "Ġà¦®": 738,
      "Ġà¨¹": 739,
      "àµįà´°": 740,
      "à±įà°¨": 741,
      "à³Ģ": 742,
      "un": 743,
      "à¤®": 744,
      "ess": 745,
      "à³Ĭ": 746,
      "th": 747,
      "à¯ģà®¤": 748,
      "Ġcom": 749,
      "à©ĭ": 750,
      "à²¿à²¸": 751,
      "ĠĠĠĠĠĠĠĠĊ": 752,
      "àª¤": 753,
      "ill": 754,
      "àª¿": 755,
      "à´µ": 756,
      "à°¿à°Ĥà°": 757,
      "em": 758,
      "iv": 759,
      "à²¤à³įà²¤": 760,
      "Ġà²¬": 761,
      "os": 762,
      "us": 763,
      "à®Łà¯įà®Ł": 764,
      "Ġà°ļ": 765,
      "à¨¸": 766,
      "ter": 767,
      "à²Ĥà²¦": 768,
      "à«ģ": 769,
      "à°µ": 770,
      "Ġà¦¨": 771,
      "à³ĭ": 772,
      "Ġà´ħ": 773,
      "pl": 774,
      "à´£": 775,
      "ore": 776,
      "Ġà´¨": 777,
      "àª®": 778,
      "Ġà°¨": 779,
      "à¨¨": 780,
      "ĠH": 781,
      "à©±": 782,
      "à´¸": 783,
      "Ġà´®": 784,
      "ĠR": 785,
      "à¯ģà®ķà¯įà®ķ": 786,
      "de": 787,
      "àªµ": 788,
      "à´¨": 789,
      "ĠF": 790,
      "à´±": 791,
      "à®Ļ": 792,
      "à´²": 793,
      "à°¾à°²": 794,
      "Ġà¦¹": 795,
      "à±įà°²": 796,
      "ue": 797,
      "à²®": 798,
      "à°¸": 799,
      "ac": 800,
      "ĠĠĠĠĠĠĠĠĠĠĊ": 801,
      "à°¦": 802,
      "à®°à¯į": 803,
      "àµįà´ª": 804,
      "à®¨à¯įà®¤": 805,
      "à±įà°¤": 806,
      "Ġsu": 807,
      "à¥Ī": 808,
      "Ġàªķ": 809,
      "Ġà¤Ĩ": 810,
      "Ġà¦ı": 811,
      "à¦¾à¦¨": 812,
      "Ġà¦¦": 813,
      "ld": 814,
      "ain": 815,
      "ke": 816,
      "à¤µ": 817,
      "Ġà¤µ": 818,
      "àªķ": 819,
      "Ġà¨¨": 820,
      "à®¾à®ķ": 821,
      "ĠE": 822,
      "à¨ķ": 823,
      "àŃĩà¬": 824,
      "à´¨àµįà´¨": 825,
      "pt": 826,
      "Ġhe": 827,
      "Ġà¤ħ": 828,
      "Ġà²µ": 829,
      "àµįà´¯": 830,
      "àªĤ": 831,
      "à®¾à®©": 832,
      "Ġat": 833,
      "à®¿à®±": 834,
      "à´ª": 835,
      "àµĢ": 836,
      "Ġ-": 837,
      "ĠD": 838,
      "Ġà°¤": 839,
      "à´¾à´¯": 840,
      "ive": 841,
      "à¦¾à§°": 842,
      "Ġnot": 843,
      "oc": 844,
      "à¨¹": 845,
      "àµģà´¨àµįà´¨": 846,
      "àµįà´ļ": 847,
      "à³ģà²µ": 848,
      "à°ª": 849,
      "Ġfrom": 850,
      "Ġà¤¨": 851,
      "à¨¦": 852,
      "à¦¸": 853,
      "ult": 854,
      "à°¡": 855,
      "Ġà¦¤": 856,
      "ht": 857,
      "à²Ĺà²³": 858,
      "Ġàªª": 859,
      "cl": 860,
      "à±ģà°²": 861,
      "pe": 862,
      "à¤ª": 863,
      "ass": 864,
      "à°Ł": 865,
      "ial": 866,
      "ant": 867,
      "à®ļ": 868,
      "à§įà¦¤": 869,
      "Ġwas": 870,
      "àµ½": 871,
      "à²¨à³įà²¨à³ģ": 872,
      "à®ªà¯įà®ª": 873,
      "à³įà²¦": 874,
      "à§įà¦°": 875,
      "à¥Ĥ": 876,
      "Ġà¨µ": 877,
      "à²¿à²¯": 878,
      "ure": 879,
      "à°¾à°¨": 880,
      "à§įà¦¯": 881,
      "à¤£": 882,
      "Ġse": 883,
      "àµ¼": 884,
      "à§ĩà¦°": 885,
      "à¨Ĥ": 886,
      "à°¿à°¨": 887,
      "à°¯": 888,
      "==": 889,
      "à²²à³įà²²à²¿": 890,
      "our": 891,
      "Ġha": 892,
      "à¤ļ": 893,
      "à²°à³ģ": 894,
      "Ļàµįà´": 895,
      "à©ģ": 896,
      "à¯Ģ": 897,
      "à¬¨": 898,
      "à²ª": 899,
      "à´ķ": 900,
      "ew": 901,
      "ĠW": 902,
      "à¯ģà®ķ": 903,
      "Ġà¤¬": 904,
      "à²¿à²Ĺ": 905,
      "à±Ĥà°": 906,
      "à¯Ĥ": 907,
      "à²¬": 908,
      "àª¾àªĤ": 909,
      "Ġà²Ĩ": 910,
      "Ġà¤ľ": 911,
      "à¤¦": 912,
      "ĠG": 913,
      "ĠĠĠĠĊ": 914,
      "ĠĠĠĠĠĠĊ": 915,
      "Ġà¤¤": 916,
      "à²Ł": 917,
      "à¨¼": 918,
      "à¥įà¤¯à¤¾à¤": 919,
      "end": 920,
      "..": 921,
      "Ġà²¤": 922,
      "Ġà¤ķà¥ĩ": 923,
      "à©Ī": 924,
      "Ġà¦ħ": 925,
      "Ġà®ī": 926,
      "à¨²": 927,
      "Ġ'": 928,
      "Ġà¬ķ": 929,
      "à°¿à°ķ": 930,
      "Ġà®İà®©": 931,
      "art": 932,
      "à¤Ĺ": 933,
      "all": 934,
      "à¯įà®ļ": 935,
      "à´¿à´ķàµįà´ķ": 936,
      "Ġà¤¦": 937,
      "à¦ª": 938,
      "ia": 939,
      "à©Ĥ": 940,
      "à±įà°Ł": 941,
      "Ġà¬¸": 942,
      "Ġà²ĩ": 943,
      "Ġàª¸": 944,
      "àµįà´±": 945,
      "à±Ī": 946,
      "ions": 947,
      "à´ķàµįà´ķ": 948,
      "à´¾à´£": 949,
      "ex": 950,
      "ļàµįà´ļ": 951,
      "Ġà°°": 952,
      "à¯ģà®µ": 953,
      "à®¾à®²": 954,
      "à¨¾à¨Ĥ": 955,
      "à¥ĩà¤Ĥ": 956,
      "Ġch": 957,
      "Ġsh": 958,
      "Ġàª¤": 959,
      "one": 960,
      "Ġcan": 961,
      "à¯įà®³": 962,
      "à§ģà¦": 963,
      "ud": 964,
      "à³Ĩà²¯": 965,
      "{\\": 966,
      "ĠL": 967,
      "à®¿à®ķ": 968,
      "à³įà²ķ": 969,
      "à³įà²Ł": 970,
      "à°Ĥà°¦": 971,
      "à²¹": 972,
      "à±ģà°¨": 973,
      "ical": 974,
      "Ġà¬ª": 975,
      "ge": 976,
      "Ġà¥": 977,
      "à®¿à®Ł": 978,
      "à®©à¯į": 979,
      "à´¨àµįà´": 980,
      "à¬ķ": 981,
      "The": 982,
      "ĠU": 983,
      "à²¿à²ķ": 984,
      "à´Ļàµįà´": 985,
      "Ġà´¤": 986,
      "du": 987,
      "à«ĩàª": 988,
      "Ġà¥¤": 989,
      "àŃŁ": 990,
      "Ġhave": 991,
      "à®´": 992,
      "ert": 993,
      "ear": 994,
      "Ġint": 995,
      "age": 996,
      "Ġà¤¹à¥Ī": 997,
      "àª¾àª°": 998,
      "),": 999,
      "Ġàª®": 1000,
      "Ġà¨ª": 1001,
      "og": 1002,
      "ich": 1003,
      "ated": 1004,
      "à®¿à®¤": 1005,
      "Ġà²İ": 1006,
      "à´¿à´°": 1007,
      "ame": 1008,
      "à¤°à¥įà¤": 1009,
      "Ġim": 1010,
      "rou": 1011,
      "ard": 1012,
      "Ġthis": 1013,
      "ight": 1014,
      "à¯įà®ķà®³à¯į": 1015,
      "Ġle": 1016,
      "ost": 1017,
      "ĠĊ": 1018,
      "à¦¹": 1019,
      "ĠĠĠĠĠĠĠĠĠĠĠĠĠĠĠĠĠĠĠĠ": 1020,
      "ple": 1021,
      "à²¿à²¦à³įà²¦": 1022,
      "à°¾à°°à±ģ": 1023,
      "Ġà´İ": 1024,
      "out": 1025,
      "à±Ĭ": 1026,
      "à²£": 1027,
      "à¦¿à¦¯à¦¼": 1028,
      "àµĤ": 1029,
      "à°Ĺ": 1030,
      "àŃģà¬": 1031,
      "à®ķà¯įà®ķ": 1032,
      "Ġà¨ľ": 1033,
      "Ġà®Ĩ": 1034,
      "à°¿à°Ĥà°ļ": 1035,
      "à¤¯": 1036,
      "à´¿à´¨": 1037,
      "à©±à¨": 1038,
      "à±ģà°Ĥà°": 1039,
      "à¤¾à¤¨": 1040,
      "Ġà¤°": 1041,
      "ian": 1042,
      "Ġà¤¯": 1043,
      "à¬¾à¬°": 1044,
      "à®ª": 1045,
      "ther": 1046,
      "ould": 1047,
      "à®£à¯įà®Ł": 1048,
      "\",": 1049,
      "able": 1050,
      "à¯įà®²": 1051,
      "à²¿à²°": 1052,
      "à²¿à²Ĥ": 1053,
      "Ġà°ªà±įà°°": 1054,
      "port": 1055,
      "Ġus": 1056,
      "Ġres": 1057,
      "à¦¦": 1058,
      "ĠJ": 1059,
      "à«įàª¯": 1060,
      "red": 1061,
      "Ġà¨ħ": 1062,
      "Ġà®ļà¯Ĩ": 1063,
      "à¦Ĺ": 1064,
      "ome": 1065,
      "Ġà¤²": 1066,
      "ak": 1067,
      "ĠO": 1068,
      "iz": 1069,
      "Ġà¬¬": 1070,
      "àŃįà¬°": 1071,
      "Ġà°Ĩ": 1072,
      "ff": 1073,
      "à¦¿à¦²": 1074,
      "à¨®": 1075,
      "elf": 1076,
      "à¦Ł": 1077,
      "à¤¾à¤Ĥ": 1078,
      "à²¿à²¨": 1079,
      "Ġà¦ľ": 1080,
      "à´¾à´£àµį": 1081,
      "à§±": 1082,
      "Ġcont": 1083,
      "ell": 1084,
      "Ġwhich": 1085,
      "à¦¾à¦²": 1086,
      "à°¨à°¿": 1087,
      "àª¨à«ĩ": 1088,
      "ust": 1089,
      "à®±à¯įà®±": 1090,
      "à²¿à²¤": 1091,
      "àµģà´Ł": 1092,
      "à¨¾à¨°": 1093,
      "Ġàªľ": 1094,
      "\"\"": 1095,
      "à±ģà°ķ": 1096,
      "Ġab": 1097,
      "à®¿à®ķà¯įà®ķ": 1098,
      "à°°à±įà°": 1099,
      "à¥ĩà¤": 1100,
      "Ġà²°": 1101,
      "à´¿à´ļàµįà´ļ": 1102,
      "cc": 1103,
      "ap": 1104,
      "à§Ī": 1105,
      "Ġcl": 1106,
      "à¦¿à¦¤": 1107,
      "ĠàªĽ": 1108,
      "orm": 1109,
      "act": 1110,
      "def": 1111,
      "à²°à³įà²": 1112,
      "ast": 1113,
      "à´¾à´°": 1114,
      "à¦¿à¦ķ": 1115,
      "Ġàªħ": 1116,
      "à´¿àµ½": 1117,
      "Ġk": 1118,
      "Ġà´ĩ": 1119,
      "**": 1120,
      "à´Ļàµįà´Ļ": 1121,
      "à«įàª°": 1122,
      "Ġà¨¤": 1123,
      "ount": 1124,
      "Ġwor": 1125,
      "à§įà§°": 1126,
      "à¯įà®µ": 1127,
      "Ġhas": 1128,
      "à¤¾à¤¤": 1129,
      "ĠàªĨ": 1130,
      "ary": 1131,
      "Ġà¨®": 1132,
      "ations": 1133,
      "à¯ģà®®": 1134,
      "à³ģà²¦": 1135,
      "Ġà²®à²¾à²": 1136,
      "Ġà²ªà³įà²°": 1137,
      "ance": 1138,
      "Ġà¦ļ": 1139,
      "à®¾à®¤": 1140,
      "ine": 1141,
      "con": 1142,
      "àµĩà´": 1143,
      "àŃįà¬¤": 1144,
      "à®¿à®©à¯į": 1145,
      "Ġà¦Ĺ": 1146,
      "Ġpl": 1147,
      "à§ĩà¦¨": 1148,
      "âĢĻ": 1149,
      "à¯ģà®¤à¯įà®¤": 1150,
      "àŃĭ": 1151,
      "àª²": 1152,
      "à§įà¦¬": 1153,
      "Ġall": 1154,
      "Ġà´ļ": 1155,
      "Ġen": 1156,
      "Ġyou": 1157,
      "urn": 1158,
      "àµ»": 1159,
      "Ġà¨ĩ": 1160,
      "ĠInd": 1161,
      "Ġà¦¯": 1162,
      "à¯ģà®³": 1163,
      "Ġwhe": 1164,
      "à¦¿à¦¨": 1165,
      "àµįà´²": 1166,
      "à³ģà²¤à³įà²¤": 1167,
      "ric": 1168,
      "àµģà´ķ": 1169,
      "ĠIn": 1170,
      "ib": 1171,
      "Ġtheir": 1172,
      "à¨£": 1173,
      "à¦ĩ": 1174,
      "Ġàªµ": 1175,
      "Ġà´Ĩ": 1176,
      "Ġà¤ķà¤°": 1177,
      "ans": 1178,
      "à¤¡": 1179,
      "à±įà°ª": 1180,
      "à®²à¯į": 1181,
      "à¬°àŃĩ": 1182,
      "à¦¾à¦ķ": 1183,
      "Ġà°¦": 1184,
      "à¦¾à¦ĩ": 1185,
      "Ġapp": 1186,
      "à´¤àµį": 1187,
      "à¬®": 1188,
      "à¯ģà®Ł": 1189,
      "so": 1190,
      "oo": 1191,
      "à´¾à´¨": 1192,
      "Ġwe": 1193,
      "ual": 1194,
      "Ġà¦ķà¦°": 1195,
      "Ġà¨¦à©ĩ": 1196,
      "Ġà²ľ": 1197,
      "à²¶": 1198,
      "):": 1199,
      "Ġad": 1200,
      "ĠàªĽà«ĩ": 1201,
      "ong": 1202,
      "Ġper": 1203,
      "Ġà²Ĺ": 1204,
      "Ġà°ĩ": 1205,
      "à¦¾à¦¤": 1206,
      "à±įà°µ": 1207,
      "ous": 1208,
      "à¤¾à¤²": 1209,
      "à²¿à²¦à³Ĩ": 1210,
      "ĠâĢ": 1211,
      "à¤¿à¤ķ": 1212,
      "ks": 1213,
      "Ġà°ī": 1214,
      "à®¾à®°à¯į": 1215,
      "Ġà¨²": 1216,
      "Ġà°Ĺ": 1217,
      "Ġwill": 1218,
      "à®¾à®Ł": 1219,
      "à²Ĥà²¤": 1220,
      "à©°à¨": 1221,
      "à²ļ": 1222,
      "ction": 1223,
      "Ġà°ļà±ĩà°": 1224,
      "Ġà°¬": 1225,
      "Ġà°²": 1226,
      "à¦¾à¦¯à¦¼": 1227,
      "à¥įà¤¯à¤¾": 1228,
      "Ġà²¦": 1229,
      "are": 1230,
      "ide": 1231,
      "ru": 1232,
      "ase": 1233,
      "Ġàª¹": 1234,
      "Ġdis": 1235,
      "ĠĠĠĠĠĠĠĠĠĠĠĠĊ": 1236,
      "à²¾à²¨": 1237,
      "à´¿à´ķ": 1238,
      "Ġà¦¶": 1239,
      "Ġà¨¹à©Ī": 1240,
      "ry": 1241,
      "vel": 1242,
      "gh": 1243,
      "alue": 1244,
      ").": 1245,
      "Ġà¤®à¥ĩà¤Ĥ": 1246,
      "Ľà§ĩ": 1247,
      "àŃĢ": 1248,
      "àŃįàŃŁ": 1249,
      "à¥ĭà¤Ĥ": 1250,
      "àµ¾": 1251,
      "à¬¤": 1252,
      "à®Ļà¯įà®ķ": 1253,
      "à¤§": 1254,
      "à®¿à®µ": 1255,
      "Ġexp": 1256,
      "à¥įà¤¤": 1257,
      "à´ªàµįà´ª": 1258,
      "ip": 1259,
      "ĠĠĠĠĠĠĠĠĠĠ": 1260,
      "à¤ľ": 1261,
      "à°Ĥà°Ł": 1262,
      "à´Łàµįà´Ł": 1263,
      "yle": 1264,
      "Ġà¬®": 1265,
      "à²¾à²¦": 1266,
      "à¦£": 1267,
      "Ġà®ĩà®°": 1268,
      "àª¾àª¨": 1269,
      "à¤¿à¤¯": 1270,
      "ĠK": 1271,
      "Ġgo": 1272,
      "à°¨à±įà°¨": 1273,
      "Ġà¤ªà¥įà¤°": 1274,
      "àª¿àª": 1275,
      "àµĨà´¯": 1276,
      "Ġà¦²": 1277,
      "Ġmore": 1278,
      "à®¿à®¤à¯įà®¤": 1279,
      "àµĬ": 1280,
      "Ĺà°¾": 1281,
      "à°ķà±įà°": 1282,
      "à©į": 1283,
      "Ġwere": 1284,
      "ext": 1285,
      "ĠĠĠĠĠĠĠĠĠĠĠĠĠĠĊ": 1286,
      "ile": 1287,
      "¦à°¿": 1288,
      "à²Ĥà²¦à³ģ": 1289,
      "àµĭà´": 1290,
      "ign": 1291,
      "ime": 1292,
      "Ġà¤Ĺ": 1293,
      "à°¾à°¯": 1294,
      "à¯ģà®±": 1295,
      "Ġà¦ķà§°": 1296,
      "Ġà¦Ń": 1297,
      "à°¿à°¤": 1298,
      "à²¿à²Ĺà³Ĩ": 1299,
      "Ġother": 1300,
      "à¤¬": 1301,
      "à©Ģà¨": 1302,
      "à¤¿à¤¤": 1303,
      "Ġà¤ī": 1304,
      "Ġman": 1305,
      "ĠĠĠĠĠĠĠĠĠĠĠĠĠĠĠĠĊ": 1306,
      "à¬¹": 1307,
      "Ġcomp": 1308,
      "style": 1309,
      "ang": 1310,
      "à®²à¯įà®²": 1311,
      "à¦ľ": 1312,
      "Ġà¨¬": 1313,
      "à«ģàªĤ": 1314,
      "Ġ.": 1315,
      "à¤Ł": 1316,
      "ĠTh": 1317,
      "à²ķà³įà²ķ": 1318,
      "ress": 1319,
      "Ġne": 1320,
      "Ġun": 1321,
      "}}": 1322,
      "àª¹": 1323,
      "à¯įà®©": 1324,
      "ence": 1325,
      "à²°à³Ĩ": 1326,
      "self": 1327,
      "Ġthey": 1328,
      "Ġar": 1329,
      "ind": 1330,
      "Ġalso": 1331,
      "Ġme": 1332,
      "à³įà²®": 1333,
      "Ġàª¨": 1334,
      "Ġdo": 1335,
      "à®©à¯įà®±": 1336,
      "Ġbut": 1337,
      "ord": 1338,
      "Ġà°ľ": 1339,
      "à¤¨à¥ĩ": 1340,
      "play": 1341,
      "à®¾à®²à¯į": 1342,
      "dis": 1343,
      "à«Ģàª": 1344,
      "Ġà´ªàµįà´°": 1345,
      "ach": 1346,
      "ick": 1347,
      "à°¿à°¯": 1348,
      "à«ĭàª": 1349,
      "à©Ĥà©°": 1350,
      "Ġà®Ĵ": 1351,
      "¸à±įà°¤": 1352,
      "à¨¤à©ĩ": 1353,
      "Ġone": 1354,
      "ire": 1355,
      "à¦¾à¦®": 1356,
      "ath": 1357,
      "Ġà¤ķà¥Ģ": 1358,
      "Ġà¤Ń": 1359,
      "àª£": 1360,
      "à±ģà°¨à±įà°¨": 1361,
      "à´¿à´²àµį": 1362,
      "àµģà´®": 1363,
      "ub": 1364,
      "ates": 1365,
      "Ġj": 1366,
      "à®³à¯į": 1367,
      "turn": 1368,
      "int": 1369,
      "ens": 1370,
      "à¨¿à¨Ĩ": 1371,
      "Ġà¤ķà¥ĭ": 1372,
      "ors": 1373,
      "ory": 1374,
      "ition": 1375,
      "à°¿à°²": 1376,
      "à°ļ": 1377,
      "ack": 1378,
      "ber": 1379,
      "Ġàª°": 1380,
      "Ġà®ķà¯Ĭ": 1381,
      "à³įà²µ": 1382,
      "à¨µ": 1383,
      "Ġà¦¬à¦¿à¦": 1384,
      "¡à±ģ": 1385,
      "Ġinf": 1386,
      "display": 1387,
      "ater": 1388,
      "displaystyle": 1389,
      "Ġpart": 1390,
      "Ġà¦ī": 1391,
      "à¦¾à¦¬": 1392,
      "com": 1393,
      "à°Ĥà°¤": 1394,
      "àŃĭà¬": 1395,
      "ely": 1396,
      "Ġà®ļà¯Ĩà®¯": 1397,
      "à´£àµįà´Ł": 1398,
      "Ġà°İ": 1399,
      "arg": 1400,
      "àµģà´¤": 1401,
      "à±ģà°¤": 1402,
      "av": 1403,
      "Ġout": 1404,
      "à¯ģà®³à¯įà®³": 1405,
      "Ġsc": 1406,
      "ose": 1407,
      "ĻàŃįà¬": 1408,
      "à²¾à²Ĺà²¿": 1409,
      "à¬¬": 1410,
      "à²¿à²Ĥà²¦": 1411,
      "àªª": 1412,
      "à´¦": 1413,
      "(\"": 1414,
      "à²·": 1415,
      "ark": 1416,
      "Ġà¨ī": 1417,
      "Ġà¤¹à¥ĭ": 1418,
      "Ġ{": 1419,
      "Ġev": 1420,
      "à²¾à²¯": 1421,
      "à³Ī": 1422,
      "ĠSt": 1423,
      "Ġà®ħà®µ": 1424,
      "à¯ģà®¨à¯įà®¤": 1425,
      "``": 1426,
      "Ġcomm": 1427,
      "ace": 1428,
      "ep": 1429,
      "à²¾à²µ": 1430,
      "à¬¸": 1431,
      "ail": 1432,
      "Ġà¨°": 1433,
      "ĠĠĠĠĠĠĠĠĠĠĠĠĠĠ": 1434,
      "à®Ļà¯įà®ķà®³": 1435,
      "vers": 1436,
      "à²Ĥà²¡": 1437,
      "Ġ==": 1438,
      "à¨¾à¨²": 1439,
      "à°ľ": 1440,
      "ake": 1441,
      "au": 1442,
      "àª¨àª¾": 1443,
      "à¦¼": 1444,
      "ice": 1445,
      "Ġag": 1446,
      "à¨ª": 1447,
      "ite": 1448,
      "Ġà¬ħ": 1449,
      "àª¸": 1450,
      "Ġà¤¶": 1451,
      "Ġàªķàª°": 1452,
      "à®¾à®µ": 1453,
      "à®³à¯įà®³": 1454,
      "ments": 1455,
      "à§įà¦·": 1456,
      "Ġà´¬": 1457,
      "à´¿à´Ł": 1458,
      "Ġà®ªà¯ĭ": 1459,
      "à¦¨à§įà¦": 1460,
      "Ġits": 1461,
      "Ġà¨¨à©Ĥà©°": 1462,
      "Ġà²®à²¾à²¡": 1463,
      "ie": 1464,
      "per": 1465,
      "à²ľ": 1466,
      "Ġà¨Ĺ": 1467,
      "àª®àª¾àªĤ": 1468,
      "ish": 1469,
      "ient": 1470,
      "ild": 1471,
      "ces": 1472,
      "à°ķà±ģ": 1473,
      "Ġà²Ī": 1474,
      "Ġà®µà®°": 1475,
      "à´ķàµįà´": 1476,
      "Ġà²¶": 1477,
      "Ġà¬¨": 1478,
      "àª¾àª®": 1479,
      "àµĨà´¨àµįà´¨": 1480,
      "à°¨à±ģ": 1481,
      "rib": 1482,
      "Ġà¬ı": 1483,
      "ĠNone": 1484,
      "Ġàª¤à«ĩ": 1485,
      "àµįà´³": 1486,
      "ĠV": 1487,
      "à®¾à®³": 1488,
      "à²§": 1489,
      "Ġà®ħà®¤": 1490,
      "Ġà´°": 1491,
      "Ġsp": 1492,
      "à¯ģà®ķà¯įà®ķà¯ģ": 1493,
      "nder": 1494,
      "à±ģà°²à±ģ": 1495,
      "à±įà°ļ": 1496,
      "à²Ĺà³Ĩ": 1497,
      "àµģà´ŁàµĨ": 1498,
      "à¨ľ": 1499,
      "Ġhis": 1500,
      "àªĤàª": 1501,
      "Ġpre": 1502,
      "à²¾à²²": 1503,
      "Ġà²ħà²µ": 1504,
      "à±Ĩà°²": 1505,
      "Ġà¨¦à©Ģ": 1506,
      "à§įà¦Ł": 1507,
      "Ġso": 1508,
      "lo": 1509,
      "Ġà°µà°¿à°": 1510,
      "Ġthan": 1511,
      "à®¾à®©à¯į": 1512,
      "Ġup": 1513,
      "Ġyear": 1514,
      "à¥ģà¤": 1515,
      "à¦¿à¦¬": 1516,
      "à¬¾à¬¨": 1517,
      "ĠCh": 1518,
      "à¦ļ": 1519,
      "--": 1520,
      "à²¿à²²": 1521,
      "own": 1522,
      "à¯Īà®ķ": 1523,
      "Ġwho": 1524,
      "à³įà²·": 1525,
      "Ġàª¬": 1526,
      "Ġmay": 1527,
      "ĩà¬": 1528,
      "à§Ĥ": 1529,
      "à²¤à³įà²¤à³ģ": 1530,
      "ject": 1531,
      "±àµĨ": 1532,
      "ree": 1533,
      "Ġà´Ĵ": 1534,
      "quest": 1535,
      "Ġà¤ı": 1536,
      "à«Ĥ": 1537,
      "pec": 1538,
      "assert": 1539,
      "à¤¾à¤¹": 1540,
      "Ġtra": 1541,
      "Ġà¬¹": 1542,
      "à¨Ĺ": 1543,
      "à¬¿à¬¬": 1544,
      "Ġà¬¦": 1545,
      "Ġà¤ĩ": 1546,
      "Ġbeen": 1547,
      "à¨Ł": 1548,
      "Ġà¦ªà§įà¦°": 1549,
      "Ġover": 1550,
      "Ġà¨ķà¨°": 1551,
      "à°ªà±įà°ª": 1552,
      "ities": 1553,
      "Ġsy": 1554,
      "à°¿à°°": 1555,
      "à¦¶": 1556,
      "ational": 1557,
      "à§ĥ": 1558,
      "Ġà¤ļ": 1559,
      "à¬£": 1560,
      "à²Ń": 1561,
      "à²¿à²µ": 1562,
      "à¤¤à¤¾": 1563,
      "low": 1564,
      "àµģà´¨àµįà´¨àµģ": 1565,
      "Ġà¤¸à¥ĩ": 1566,
      "¡à¦¼": 1567,
      "à°Ĥà°¡": 1568,
      "app": 1569,
      "à®¾à®¯": 1570,
      "erv": 1571,
      "à§ĩà¦ĩ": 1572,
      "à¦Ĥ": 1573,
      "very": 1574,
      "à¤¹à¥ĩ": 1575,
      "fere": 1576,
      "à°¹": 1577,
      "à²¦à²²à³įà²²à²¿": 1578,
      "à¦¤à§ĩ": 1579,
      "à°²à±ģ": 1580,
      "à±įà°¸": 1581,
      "à¨Ī": 1582,
      "à¤¾à¤µ": 1583,
      "àµģà´³": 1584,
      "aram": 1585,
      "ĻàŃįà¬ķ": 1586,
      "Ġàªı": 1587,
      "Ġif": 1588,
      "cre": 1589,
      "Ġtr": 1590,
      "à´¾à´¤": 1591,
      "à°¿à°ª": 1592,
      "ĠIndia": 1593,
      "àµĪ": 1594,
      "ound": 1595,
      "à¦¾à¦ľ": 1596,
      "Ġà¬ķà¬°": 1597,
      "Ġro": 1598,
      "à¯ģà®ªà¯įà®ª": 1599,
      "à°°à±į": 1600,
      "Ġthere": 1601,
      "Ġinv": 1602,
      "à´¾à´¯à´¿": 1603,
      "hed": 1604,
      "_{": 1605,
      "Ġacc": 1606,
      "Ġabout": 1607,
      "ms": 1608,
      "à±įà°®": 1609,
      "Ġà®İà®©à¯įà®±": 1610,
      "Ġà¬Ĩ": 1611,
      "à°¿à°ķà°¿": 1612,
      "à®¿à®ªà¯įà®ª": 1613,
      "wo": 1614,
      "Ġte": 1615,
      "Ġdef": 1616,
      "à´±àµįà´±": 1617,
      "à²²à³ģ": 1618,
      "à¤¾à¤¸": 1619,
      "Ġà¦°": 1620,
      "à¯Ĩà®°": 1621,
      "à¤¶": 1622,
      "irst": 1623,
      "âĪ": 1624,
      "à´¿à´¨àµįà´": 1625,
      "à¦¾à¦¸": 1626,
      "Ġà´ī": 1627,
      "Ġà²Ń": 1628,
      "Ġà²ļ": 1629,
      "reat": 1630,
      "Ġ[": 1631,
      "Ġpe": 1632,
      "Ġà²¯": 1633,
      "rit": 1634,
      "\"\"\"": 1635,
      "Ġà¤ªà¤°": 1636,
      "Ġà²®à²¤à³įà²¤à³ģ": 1637,
      "Ġà¦¸à¦®": 1638,
      "Ġà²ī": 1639,
      "Ġà²Ĵ": 1640,
      "à¦Ń": 1641,
      "àª¨à«Ģ": 1642,
      "à´Ļàµįà´Ļà´³": 1643,
      "Ġtime": 1644,
      "à®¿à®Łà¯įà®Ł": 1645,
      "ility": 1646,
      "cept": 1647,
      "à®ªà¯įà®ªà®Łà¯įà®Ł": 1648,
      "old": 1649,
      "²à±ĭ": 1650,
      "ook": 1651,
      "ays": 1652,
      "Ġtest": 1653,
      "Ġàª¦": 1654,
      "Ġà´µà´¿à´": 1655,
      "à¤¾à¤¯": 1656,
      "à¤¿à¤²": 1657,
      "ool": 1658,
      "à¯Īà®¯à®¿à®²à¯į": 1659,
      "à¤¾à¤®": 1660,
      "ings": 1661,
      "ari": 1662,
      "à²¾à²¸": 1663,
      "ĠIt": 1664,
      "ents": 1665,
      "à°Ĥà°²à±ĭ": 1666,
      "Ġà²¸à²Ĥ": 1667,
      "Ġsuch": 1668,
      "à¤¨à¤¾": 1669,
      "à§ģà¦²": 1670,
      "Ġsome": 1671,
      "Ġcons": 1672,
      "à°¾à°¤": 1673,
      "we": 1674,
      "à®¾à®®": 1675,
      "à¬°àŃįà¬": 1676,
      "àµįà´®": 1677,
      "à®¤à¯įà®¤à®¿à®²à¯į": 1678,
      "à¦§": 1679,
      "à¦¾à¦¦": 1680,
      "à²¦à³Ĩ": 1681,
      "Ġbet": 1682,
      "à§°à§ģ": 1683,
      "à³įà²ª": 1684,
      "lic": 1685,
      "Ġli": 1686,
      "Ġwhen": 1687,
      "ĠThis": 1688,
      "row": 1689,
      "âĢĿ": 1690,
      "à¤ķà¥įà¤": 1691,
      "ally": 1692,
      "Ġà´ľ": 1693,
      "Ġà®µà¯ĩ": 1694,
      "Ġà¨Ĩ": 1695,
      "ph": 1696,
      "à²¦à³ģ": 1697,
      "à´Ĥà´": 1698,
      "cess": 1699,
      "ĠĠĠĠĠĠĠĠĠĠĠĠĠĠĠĠĠĠĊ": 1700,
      "à¦¾à¦¹": 1701,
      "Ġà¤Ķ": 1702,
      "ative": 1703,
      "Ġyour": 1704,
      "à´¨àµįà´¤": 1705,
      "ution": 1706,
      "à¦ģ": 1707,
      "Ġà°Ī": 1708,
      "à§įà¦¯à¦": 1709,
      "Ġunder": 1710,
      "ific": 1711,
      "à²¾à²Ĥ": 1712,
      "ype": 1713,
      "olog": 1714,
      "à¥įà¤µ": 1715,
      "à°¾à°Ĥà°": 1716,
      "eth": 1717,
      "ove": 1718,
      "Ġà¤Ĩà¤¹à¥ĩ": 1719,
      "Ġnew": 1720,
      "Ġà®Ĵà®°": 1721,
      "Ġimport": 1722,
      "Ġinto": 1723,
      "Ġ:": 1724,
      "à²¾à²°à³Ĩ": 1725,
      "Ġem": 1726,
      "Ġass": 1727,
      "Ġgen": 1728,
      "lect": 1729,
      "Ġstr": 1730,
      "Ġhad": 1731,
      "à°¾à°®": 1732,
      "Ġà®°": 1733,
      "Ġreg": 1734,
      "Ľà¦¿à¦²": 1735,
      "¥à«Ģ": 1736,
      "à°£": 1737,
      "Ġam": 1738,
      "anc": 1739,
      "ange": 1740,
      "ĠĠĠĠĠĠĠĠĠĠĠĠĠĠĠĠĠĠ": 1741,
      "\")": 1742,
      "àµģà´µ": 1743,
      "Ġany": 1744,
      "get": 1745,
      "à®Łà¯ģà®¤à¯įà®¤": 1746,
      "Ġà°¶": 1747,
      "Ġà¨µà¨¿à¨": 1748,
      "à¯įà®®": 1749,
      "ern": 1750,
      "Ġincl": 1751,
      "à©įà¨°": 1752,
      "à§ĩà¦ķ": 1753,
      "ys": 1754,
      "Ġsa": 1755,
      "ŀàµįà´": 1756,
      "Ġact": 1757,
      "Ġà¦¥": 1758,
      "Ġà´İà´¨àµįà´¨": 1759,
      "Ġdif": 1760,
      "Ġob": 1761,
      "à²¾à²®": 1762,
      "à¨¾à¨¨": 1763,
      "Ġà¤Ķà¤°": 1764,
      "àµģà´³àµįà´³": 1765,
      "àµįà´µ": 1766,
      "Ġstud": 1767,
      "Ġà¬°": 1768,
      "ise": 1769,
      "à´¾à´²": 1770,
      "ons": 1771,
      "à´´": 1772,
      "Ġdes": 1773,
      "à¬ª": 1774,
      "à§įà¦¥": 1775,
      "ren": 1776,
      "à¤²à¥ĩ": 1777,
      "vern": 1778,
      "Ġà¨ħà¨¤à©ĩ": 1779,
      "Ġprov": 1780,
      "ft": 1781,
      "ata": 1782,
      "te": 1783,
      "à²Łà³įà²Ł": 1784,
      "Ġàª¶": 1785,
      "Ġbec": 1786,
      "ĠUn": 1787,
      "à°¾à°Ł": 1788,
      "à§ĩà¦²": 1789,
      "à³ĩà²ķ": 1790,
      "stem": 1791,
      "à¬¿à¬²": 1792,
      "****": 1793,
      "Ġàªħàª¨à«ĩ": 1794,
      "à´¿à´¤": 1795,
      "Ġno": 1796,
      "Ġàª²": 1797,
      "()": 1798,
      "Ġà¦ıà¦ķ": 1799,
      "à¯Īà®ķà¯įà®ķ": 1800,
      "Ġinter": 1801,
      "Ġhig": 1802,
      "Ġpol": 1803,
      "Ġwould": 1804,
      "à°§": 1805,
      "Ġà²¨à³Ģ": 1806,
      "velop": 1807,
      "Ġfirst": 1808,
      "Ġvalue": 1809,
      "Ġresult": 1810,
      "à¤¼": 1811,
      "Ġrec": 1812,
      "fter": 1813,
      "à¯ĩà®°": 1814,
      "à°Ĥà°Ĺà°¾": 1815,
      "Ġused": 1816,
      "à§Ģà¦¯à¦¼": 1817,
      "à°¬": 1818,
      "ople": 1819,
      "Ġà®ĩà®¨à¯įà®¤": 1820,
      "Ġthese": 1821,
      "Ġuse": 1822,
      "Ġà¦ĵ": 1823,
      "à²Ĺà²³à³ģ": 1824,
      "Ġkn": 1825,
      "oss": 1826,
      "ault": 1827,
      "Ġà¨¹à©ĭ": 1828,
      "à¦ĸ": 1829,
      "Ġà¤ķà¤¾": 1830,
      "Ġwork": 1831,
      "ax": 1832,
      "Ġà®¨à®Ł": 1833,
      "à¨¸à¨¼": 1834,
      "ªàµįà´ª": 1835,
      "Ġà§": 1836,
      "à¦¥": 1837,
      "Ġà°Ń": 1838,
      "rough": 1839,
      "ied": 1840,
      "return": 1841,
      "__": 1842,
      "à²Ĥà²¬": 1843,
      "à®®à¯įà®ª": 1844,
      "ŀàµįà´ŀ": 1845,
      "àª°à«įàª": 1846,
      "Ġqu": 1847,
      "àª¯": 1848,
      "In": 1849,
      "à±Ĥ": 1850,
      "à®Ļà¯įà®ķà®³à¯į": 1851,
      "Ġsub": 1852,
      "à°Łà±įà°Ł": 1853,
      "ĠY": 1854,
      "lp": 1855,
      "Ġtwo": 1856,
      "à±ģà°°": 1857,
      "Ġco": 1858,
      "Ġprodu": 1859,
      "erm": 1860,
      "als": 1861,
      "à¦¿à¦°": 1862,
      "Ġform": 1863,
      "à°Ń": 1864,
      "Ġoff": 1865,
      "à±įà°²à±ĭ": 1866,
      "Ġthem": 1867,
      "Ġcount": 1868,
      "pro": 1869,
      "à¥įà¤¹": 1870,
      "à¥įà¤Ł": 1871,
      "à°ļà±įà°ļ": 1872,
      "à¤¾à¤ľ": 1873,
      "Ġonly": 1874,
      "à°¨à±į": 1875,
      "à©ĭà¨Ĥ": 1876,
      "Ġà°¯": 1877,
      "à²ķà³įà²ķà³Ĩ": 1878,
      "à§įà¦®": 1879,
      "ased": 1880,
      "Ġà®µà®¿à®": 1881,
      "Ġà®¤à¯Ĭ": 1882,
      "à¨¿à©±à¨": 1883,
      "Ġà¦¹à¦¯à¦¼": 1884,
      "Ġnum": 1885,
      "à²µà³ģ": 1886,
      "Ġà§°": 1887,
      "Ġmost": 1888,
      "Ġrel": 1889,
      "Ġà¦¦à§ĩà¦": 1890,
      "ause": 1891,
      "form": 1892,
      "les": 1893,
      "à³įà²¸": 1894,
      "à³ģà²µà³ģà²¦": 1895,
      "Ġà¦ªà§°": 1896,
      "àµģà´£": 1897,
      "à°ķà±įà°ķ": 1898,
      "ĠâĢľ": 1899,
      "à²ķà³įà²·": 1900,
      "ll": 1901,
      "ict": 1902,
      "Ġra": 1903,
      "à®±à¯įà®ķ": 1904,
      "Ġà´¶": 1905,
      "gr": 1906,
      "Ġeff": 1907,
      "à¤¤à¥Ģ": 1908,
      "Ġspec": 1909,
      "à¥Ĥà¤¨": 1910,
      "ics": 1911,
      "à«ģàª": 1912,
      "à´¶": 1913,
      "à¤¿à¤¸": 1914,
      "à¤Ń": 1915,
      "à°²à±ĭ": 1916,
      "à³ĥ": 1917,
      "iss": 1918,
      "àµįà´ķàµįà´ķ": 1919,
      "ced": 1920,
      "à±ģà°µ": 1921,
      "Ġà²µà²¿à²": 1922,
      "Ġà´²": 1923,
      "à¤¹à¥Ģ": 1924,
      "ures": 1925,
      "Ġà²®à³ģ": 1926,
      "...": 1927,
      "Ġmod": 1928,
      "Ġà¤¸à¤Ĥ": 1929,
      "Ġcall": 1930,
      "Ġà¦ıà¦ĩ": 1931,
      "Ġdist": 1932,
      "Ġcol": 1933,
      "à´¿à´¨àµįà´±àµĨ": 1934,
      "Ġà¬ľ": 1935,
      "à²µà²¨à³įà²¨à³ģ": 1936,
      "ob": 1937,
      "ix": 1938,
      "Ġà¦Ĩà¦®": 1939,
      "à¬³": 1940,
      "Ġà¦Ĩà§°à§ģ": 1941,
      "ĠRe": 1942,
      "ank": 1943,
      "à´¾à´ķàµįà´ķ": 1944,
      "à¬¨àŃįà¬¤": 1945,
      "Ġà¦ĸ": 1946,
      "à°¾à°µ": 1947,
      "à¤¿à¤¨": 1948,
      "Ġà®ı": 1949,
      "Ġpeople": 1950,
      "Ġfun": 1951,
      "und": 1952,
      "à²¿à²²à³įà²²": 1953,
      "Ġprob": 1954,
      "à®µà®°": 1955,
      "àª¾àªµ": 1956,
      "à°¾à°²à±ģ": 1957,
      "à¤¾à¤ļ": 1958,
      "à¯ģà®ª": 1959,
      "Ġà¦ĩ": 1960,
      "à¬ĻàŃįà¬ķ": 1961,
      "ract": 1962,
      "à¦¾à¦ª": 1963,
      "Ġadd": 1964,
      "ond": 1965,
      "alth": 1966,
      "ov": 1967,
      "à®¸": 1968,
      "ating": 1969,
      "à®ªà¯įà®ªà®Ł": 1970,
      "à©Ģà¨Ĩ": 1971,
      "à²¿à²Ĺà²³": 1972,
      "à¯Īà®¤à¯įà®¤": 1973,
      "ample": 1974,
      "à´²àµįà´²": 1975,
      "uring": 1976,
      "à´¿à´²àµĨ": 1977,
      "à¦¾à¦Ĺ": 1978,
      "à³įà²Ĺ": 1979,
      "à´¾à´Ł": 1980,
      "ular": 1981,
      "ner": 1982,
      "àµįà´¥": 1983,
      "Ġà¬ªàŃįà¬°": 1984,
      "Ġà´Ĵà´°": 1985,
      "à¨¦à¨¾": 1986,
      "Ġ===": 1987,
      "ween": 1988,
      "àµįà´¸": 1989,
      "à®¾à®®à¯į": 1990,
      "à±Īà°¨": 1991,
      "name": 1992,
      "Ġ,": 1993,
      "à²¨à³Ĩ": 1994,
      "Ġà®µà¯Ĩ": 1995,
      "à¤¤à¥ĩ": 1996,
      "Ġà¦ªà§įà§°": 1997,
      "Ġthrough": 1998,
      "à¬¿à¬ķ": 1999,
      "à¦¿à§°": 2000,
      "Ġhow": 2001,
      "à²¨à³ģ": 2002,
      "ĠAs": 2003,
      "Ġ|": 2004,
      "à´¿à´²àµįà´²": 2005,
      "à¯ģà®°": 2006,
      "Ġpo": 2007,
      "à³įà²¥": 2008,
      "à´¿à´µ": 2009,
      "text": 2010,
      "Ġà®ķà¯Ĥ": 2011,
      "à²¿à²®": 2012,
      "Ġdevelop": 2013,
      "Ġfin": 2014,
      "ited": 2015,
      "Ġinst": 2016,
      "à²°à³į": 2017,
      "àµĭà´Ł": 2018,
      "hen": 2019,
      "à¦²à§ĩ": 2020,
      "à±ģà°Ĺ": 2021,
      "Ġà¬¯": 2022,
      "Ġà¤ıà¤ķ": 2023,
      "àµĨà´Ł": 2024,
      "ues": 2025,
      "ĠàªĹ": 2026,
      "fore": 2027,
      "Ġvari": 2028,
      "Ġbetween": 2029,
      "à¦¿à¦¯à¦¼à§ĩ": 2030,
      "aw": 2031,
      "uc": 2032,
      "à°¾à°¦": 2033,
      "mer": 2034,
      "Ġmat": 2035,
      "^{": 2036,
      "ror": 2037,
      "round": 2038,
      "à´¸àµį": 2039,
      "Ġ\\": 2040,
      "à¨¬": 2041,
      "à¤¨à¥Ģ": 2042,
      "\":": 2043,
      "ever": 2044,
      "à¯Īà®µ": 2045,
      "Ġsystem": 2046,
      "à°¿à°Ĺ": 2047,
      "à°³": 2048,
      "à±įà°ķ": 2049,
      "à¯ģà®ķà®¿à®±": 2050,
      "Ġset": 2051,
      "Ġà¨¦à¨¾": 2052,
      "àµģà´£àµįà´Ł": 2053,
      "à´¹": 2054,
      "Ġdiffere": 2055,
      "Ġàª¹àª¤": 2056,
      "test": 2057,
      "Ġà¬Ĺ": 2058,
      "à´¿à´°àµģà´¨àµįà´¨àµģ": 2059,
      "à©ľ": 2060,
      "yp": 2061,
      "à°¿à°Ĥà°¦à°¿": 2062,
      "Ġà¤ħà¤¸": 2063,
      "Ġneed": 2064,
      "oy": 2065,
      "Ġà¤µà¤¿à¤": 2066,
      "à¤¿à¤¯à¤¾": 2067,
      "Ġà°¹": 2068,
      "vernment": 2069,
      "ock": 2070,
      "à°¿à°µ": 2071,
      "à§ĩà¦ĵ": 2072,
      "ible": 2073,
      "à²¨à³į": 2074,
      "Ġmany": 2075,
      "ered": 2076,
      "à²¿à²¦à³įà²¦à²¾à²°à³Ĩ": 2077,
      "iel": 2078,
      "à¤Ĥà¤¤": 2079,
      "oth": 2080,
      "àµĩà´°": 2081,
      "à¨¿à¨¸": 2082,
      "ning": 2083,
      "vi": 2084,
      "Ġmark": 2085,
      "à°ķà±įà°·": 2086,
      "à±ĩà°¦": 2087,
      "à¤²à¤¾": 2088,
      "Ġà´¨à´¿à´": 2089,
      "Ġshould": 2090,
      "Ġà°Ĵ": 2091,
      "ĠHe": 2092,
      "à¬²": 2093,
      "Ġatt": 2094,
      "Ġà°®à°°": 2095,
      "Ġrem": 2096,
      "arch": 2097,
      "àªĹ": 2098,
      "Ġyears": 2099,
      "àª¦": 2100,
      "àªľ": 2101,
      "à®®à®¾à®ķ": 2102,
      "à±ģà°Ĥà°¦à°¿": 2103,
      "its": 2104,
      "à³Ĭà²³": 2105,
      "Ġà¨ĩà¨¸": 2106,
      "Ġà®īà®³à¯įà®³": 2107,
      "Ġcent": 2108,
      "Ġac": 2109,
      "à³ĩà²¶": 2110,
      "],": 2111,
      "ected": 2112,
      "rue": 2113,
      "à±ĥ": 2114,
      "Ġà²²": 2115,
      "Ġph": 2116,
      "à®©à¯įà®©": 2117,
      "cy": 2118,
      "Ġpr": 2119,
      "à¦Ľà§ĩ": 2120,
      "à²¡à³Ĩ": 2121,
      "à±įà°²à±ģ": 2122,
      "à²¾à²ľ": 2123,
      "àª¡": 2124,
      "à¯įà®¯": 2125,
      "à´¾à´µ": 2126,
      "à§ĭà§±": 2127,
      "à¬¦": 2128,
      "Ġà°ı": 2129,
      "à´¾àµ»": 2130,
      "Ġà¨ķà¨¿": 2131,
      "Ġà®ªà¯Ĩ": 2132,
      "Ġfl": 2133,
      "Ġcur": 2134,
      "Ġà¬¤": 2135,
      "à´¡": 2136,
      "à¤°à¥Ģ": 2137,
      "à¯Īà®ª": 2138,
      "Ġà¤ĸ": 2139,
      "Ġà¦«": 2140,
      "Ġà®ĩà®¤": 2141,
      "Ġà®Ĵà®°à¯ģ": 2142,
      "ower": 2143,
      "Ġgener": 2144,
      "ten": 2145,
      "io": 2146,
      "àµģà´±": 2147,
      "à²¾à²Ĺà²¿à²¦à³Ĩ": 2148,
      "cent": 2149,
      "à©įà¨¹": 2150,
      "Ġwhere": 2151,
      "Ġà®®à¯ģà®": 2152,
      "Ġà¨¨à©ĩ": 2153,
      "click": 2154,
      "Ġtrans": 2155,
      "à³įà²ļ": 2156,
      "ator": 2157,
      "à°¾à°ķ": 2158,
      "à²®à³įà²®": 2159,
      "Ġsupp": 2160,
      "ne": 2161,
      "âģ": 2162,
      "à³įà²³": 2163,
      "ood": 2164,
      "à°¿à°¸à±įà°¤": 2165,
      "àª¾àª¯": 2166,
      "Ġà¬Ń": 2167,
      "à¤¾à¤Ĺ": 2168,
      "Ġins": 2169,
      "irect": 2170,
      "pr": 2171,
      "Ġget": 2172,
      "Ġris": 2173,
      "Ġà®ħà®°": 2174,
      "Ġà¦ħà¦¨": 2175,
      "ident": 2176,
      "put": 2177,
      "hes": 2178,
      "à§įà¦ª": 2179,
      "Ġmon": 2180,
      "Ġà¤«": 2181,
      "à¯įà®¤à¯įà®¤": 2182,
      "Ġà®®à®±à¯įà®±": 2183,
      "à±Ģà°¸": 2184,
      "à§ģà¦°": 2185,
      "à²·à³įà²Ł": 2186,
      "Ġà¨ļ": 2187,
      "Ġpres": 2188,
      "erest": 2189,
      "Ġà®¤à¯ĩ": 2190,
      "à´¿à´ķàµįà´ķàµģà´¨àµįà´¨": 2191,
      "à¤²à¥Ģ": 2192,
      "gan": 2193,
      "roup": 2194,
      "à²Ĺà²³à²¨à³įà²¨à³ģ": 2195,
      "à´°àµį": 2196,
      "param": 2197,
      "ield": 2198,
      "ough": 2199,
      "à´ļàµįà´ļ": 2200,
      "à¦ķà§įà¦·": 2201,
      "Ġàª®àª¾àª": 2202,
      "Ġfe": 2203,
      "âĢį": 2204,
      "conom": 2205,
      "Ġincre": 2206,
      "à³Ĩà²²": 2207,
      "àµģà´¤àµįà´¤": 2208,
      "ars": 2209,
      "uch": 2210,
      "à´·": 2211,
      "hem": 2212,
      "à®±à¯įà®ª": 2213,
      "à©Ģà¨Ĩà¨Ĥ": 2214,
      "à®©à®°à¯į": 2215,
      "Ġafter": 2216,
      "à¥ĩà¤¶": 2217,
      "à§ĩà¦¤": 2218,
      "à´¿à´¨àµį": 2219,
      "à®¾à®Łà¯įà®Ł": 2220,
      "value": 2221,
      "Ġà°ļà±Ĩ": 2222,
      "à¦·": 2223,
      "à´¿à´Łàµįà´Ł": 2224,
      "Ġà®Ł": 2225,
      "à®¿à®´": 2226,
      "à°Ĥà°¦à°¿": 2227,
      "à´ķàµįà´·": 2228,
      "ists": 2229,
      "à¨¦à©ĩ": 2230,
      "âĪĴ": 2231,
      "à´¿à´ªàµįà´ª": 2232,
      "Ġsur": 2233,
      "ife": 2234,
      "Ġthen": 2235,
      "Ġind": 2236,
      "à¯įà®¨à¯įà®¤": 2237,
      "Ġà²İà²Ĥà²¦à³ģ": 2238,
      "à²¿à²°à³ģà²µ": 2239,
      "wn": 2240,
      "à´ķàµįà´ķàµį": 2241,
      "Ġà¨µà¨¿à¨ļ": 2242,
      "à°¾à°Ĺ": 2243,
      "Ġhelp": 2244,
      "à¤ķà¥įà¤·": 2245,
      "à°¾à°¸": 2246,
      "ask": 2247,
      "ĠCom": 2248,
      "à±Ĥà°¡": 2249,
      "à±Ĥà°°": 2250,
      "àª³": 2251,
      "ins": 2252,
      "ĠàªĨàªµ": 2253,
      "Ġà°¡": 2254,
      "à²¾à²ķ": 2255,
      "à³ĩà²³": 2256,
      "Ġà®¤à®¿à®°": 2257,
      "Ġlike": 2258,
      "ption": 2259,
      "Ġà¤¤à¥įà¤¯à¤¾à¤": 2260,
      "Ġà¦§": 2261,
      "ute": 2262,
      "Ġwhat": 2263,
      "à²ĸ": 2264,
      "Ġà´¦": 2265,
      "Ġà¤¹à¥Īà¤Ĥ": 2266,
      "Ġcould": 2267,
      "Ġà²¹à³Ĩ": 2268,
      "Ġà²¹à³Ĭ": 2269,
      "Th": 2270,
      "à°¶": 2271,
      "Ġà¤ĩà¤¸": 2272,
      "Ġà´Ĺ": 2273,
      "à´¾àµ¼": 2274,
      "ollow": 2275,
      "Ġà¤ĺ": 2276,
      "à¯įà®£": 2277,
      "à°Ĥà°Ĺ": 2278,
      "à°¤à±įà°¤": 2279,
      "===": 2280,
      ".\"": 2281,
      "Ġke": 2282,
      "à¥įà¤¥": 2283,
      "ful": 2284,
      "à¤¾à¤¦": 2285,
      "Ġinclud": 2286,
      "Ġbu": 2287,
      "à¤¿à¤ı": 2288,
      "rac": 2289,
      "à¦ķà§ĩ": 2290,
      "à±įà°¥": 2291,
      "à°¦à±įà°": 2292,
      "ade": 2293,
      "à¦¡à¦¼": 2294,
      "Ġà°¤à±Ĩà°²": 2295,
      "Ġà´ļàµĨà´¯": 2296,
      "ives": 2297,
      "à¨ļ": 2298,
      "à´¾à´¸": 2299,
      "à®¨": 2300,
      "Ġà®ķà®Ł": 2301,
      "Ġà¤¨à¥ĩ": 2302,
      "à°·": 2303,
      "àµģà´ķàµįà´ķ": 2304,
      "Ġsaid": 2305,
      "à¬¾à¬ĩà¬": 2306,
      "à§ĩà¦¶": 2307,
      "à¨¤à¨¾": 2308,
      "à¬¿à¬¤": 2309,
      "à´¬": 2310,
      "à®¿à®®": 2311,
      "àª¥à«Ģ": 2312,
      "à®¿à®ļ": 2313,
      "ĠSe": 2314,
      "ah": 2315,
      "à¯Īà®¯à¯ģà®®à¯į": 2316,
      "à«ĩàª²": 2317,
      "Ġà®®à¯ĩ": 2318,
      "illion": 2319,
      "à®¾à®£": 2320,
      "à®°à¯įà®ķà®³à¯į": 2321,
      "ages": 2322,
      "ts": 2323,
      "à¨¤à©Ģ": 2324,
      "à³Ĭà²Ĥà²¡": 2325,
      "Ġear": 2326,
      "à²°à²¿à²¸": 2327,
      "Ġà®ļà¯Ĩà®¯à¯įà®¤": 2328,
      "Ġresp": 2329,
      "ural": 2330,
      "à¬¼": 2331,
      "ines": 2332,
      "Ġself": 2333,
      "à«įàªŁ": 2334,
      "Ġà¨²à¨Ī": 2335,
      "Ġchild": 2336,
      "Ġà¦ĺ": 2337,
      "Ġinterest": 2338,
      "ode": 2339,
      "iter": 2340,
      "Ġinvest": 2341,
      "Ġà®µà®¾à®": 2342,
      "Ġed": 2343,
      "à°¿à°¸": 2344,
      "Ġà°ªà°°": 2345,
      "Ġàªªà«įàª°": 2346,
      "à®¤à¯į": 2347,
      "à¬¾à¬¹": 2348,
      "ink": 2349,
      "à²¾à²¤": 2350,
      "à³ĩà²µ": 2351,
      "uth": 2352,
      "Ġequ": 2353,
      "Ġà°Ł": 2354,
      "Ġàªī": 2355,
      "ĠIndian": 2356,
      "Ġà°ķà±Ĭ": 2357,
      "Ġà¦ªà¦°": 2358,
      "àªµàª¾": 2359,
      "à¤ļà¥įà¤¯à¤¾": 2360,
      "à°¾à°¯à°¿": 2361,
      "à²µà²¾à²Ĺà²¿": 2362,
      "Ġà²ķà²¾à²°": 2363,
      "à®¿à®©à¯įà®±": 2364,
      "ically": 2365,
      "ethod": 2366,
      "à¤¿à¤µ": 2367,
      "à°¾à°¨à°¿à°ķà°¿": 2368,
      "ash": 2369,
      "à§ĭà¦¨": 2370,
      "Ġest": 2371,
      "Ġmarket": 2372,
      "à«įàª¤": 2373,
      "Ľà¬¿": 2374,
      "à´¾à´±": 2375,
      "Ġà²ĩà²¦": 2376,
      "ually": 2377,
      "Ġour": 2378,
      "ized": 2379,
      "àµįà´±àµįà´±": 2380,
      "mand": 2381,
      "ĠĠĠĠĠĠĠĠĠĠĠĠĠĠĠĠĠĠĠĠĊ": 2382,
      "Ġà°«": 2383,
      "à®¿à®ķà®³": 2384,
      "àµģà´ķà´³": 2385,
      "Ġàª¥": 2386,
      "Ġreturn": 2387,
      "Ġwell": 2388,
      "à±ģà°¡à±ģ": 2389,
      "Ġà°ļà±ĩà°¸": 2390,
      "ily": 2391,
      "Ġhigh": 2392,
      ">>": 2393,
      "à©Į": 2394,
      "Ġbl": 2395,
      "Ġà®®à®±à¯įà®±à¯ģà®®à¯į": 2396,
      "à¯Īà®ªà¯įà®ª": 2397,
      "up": 2398,
      "à²¬à³ĩà²ķ": 2399,
      "à¦Ľ": 2400,
      "à²ļà³įà²ļ": 2401,
      "Ġdisc": 2402,
      "Ġsame": 2403,
      "ĠPro": 2404,
      "à§§": 2405,
      "Ġnumber": 2406,
      "Ġdep": 2407,
      "Ġàªķà«ĩ": 2408,
      "à³ģà²¤à³įà²¤à²¦à³Ĩ": 2409,
      "Ġà¦¨à¦¿à¦": 2410,
      "àª¾àª®àª¾àªĤ": 2411,
      "Ġà¤¯à¤¾": 2412,
      "Ġà®ķà¯ģà®±": 2413,
      "ability": 2414,
      "Ġdec": 2415,
      "Ġà°ħà°¨": 2416,
      "à¥ĥ": 2417,
      "ants": 2418,
      "à¤ķà¤¾à¤°": 2419,
      "à³Į": 2420,
      "ital": 2421,
      "Ġà¨ķà©Ģ": 2422,
      "à´Ļàµįà´ķ": 2423,
      "Ġà°¸à°Ĥà°": 2424,
      "à¥ī": 2425,
      "ĠDe": 2426,
      "à±Ģà°°": 2427,
      "Ġà®ĩà®°à¯ģà®ķà¯įà®ķ": 2428,
      "à¦¾à¦Ł": 2429,
      "chn": 2430,
      "other": 2431,
      "Ġà´¨à´Ł": 2432,
      "à°¿à°®": 2433,
      "à±ĩà°¶": 2434,
      "Ļà¯įà®ķ": 2435,
      "ug": 2436,
      "Ġdet": 2437,
      "à¬§": 2438,
      "ases": 2439,
      "à¨¾à¨¹": 2440,
      "Ġà°Ĵà°ķ": 2441,
      "à§įà¦¦": 2442,
      "str": 2443,
      "Ġinform": 2444,
      "Ġàªļ": 2445,
      "à§įà¦§": 2446,
      "Ġàªĸ": 2447,
      "ral": 2448,
      "li": 2449,
      "Ġà°¸à°®": 2450,
      "Ġsm": 2451,
      "à¤Ī": 2452,
      "à§įà¦Ĺ": 2453,
      "Ġà°ªà±Ĩ": 2454,
      "Ġà°ķà±ĭ": 2455,
      "aj": 2456,
      "ward": 2457,
      "Ġà¬¶": 2458,
      "à´®àµįà´®": 2459,
      "Ġà¨¸à¨¼": 2460,
      "ize": 2461,
      "à¦ĵ": 2462,
      "à¨¿à©±à¨ļ": 2463,
      "à°¾à°ľ": 2464,
      "Ġdifferent": 2465,
      "Ġà¦Ł": 2466,
      "Ġfollow": 2467,
      "ivers": 2468,
      "à®¿à®²à¯įà®²": 2469,
      "Ġà®ªà®¿à®°": 2470,
      "Ġfunction": 2471,
      "any": 2472,
      "Ġdata": 2473,
      "Ġeach": 2474,
      "ruct": 2475,
      "Ġà²Ĩà²¦": 2476,
      "Ġeffect": 2477,
      "aking": 2478,
      "from": 2479,
      "Ġà¨ĸ": 2480,
      "Ġ``": 2481,
      "à¤ĸ": 2482,
      "à¯ģà®®à¯įà®ª": 2483,
      "ology": 2484,
      "Ġà¨ªà©įà¨°": 2485,
      "Ġà¨µà¨¿à©±à¨ļ": 2486,
      "Ġà®¯": 2487,
      "ng": 2488,
      "Ġà¦¨à¦¾": 2489,
      "Ġà´«": 2490,
      "alse": 2491,
      "à¦²à§Ī": 2492,
      "Ġappro": 2493,
      "à¥ģà¤°": 2494,
      "Ġà¤¥": 2495,
      "ted": 2496,
      "à®¾à®±": 2497,
      "àª¶": 2498,
      "Ġà¤¸à¤®": 2499,
      "ting": 2500,
      "Ġfact": 2501,
      "Ġà´ħà´µ": 2502,
      "ĠFor": 2503,
      "Ġà´Ĵà´°àµģ": 2504,
      "¥à¬¿à¬²": 2505,
      "Ġloc": 2506,
      "à©Ģà¨Ĥ": 2507,
      "à´Ń": 2508,
      "Ġà´ªà´±": 2509,
      "Ġsim": 2510,
      "Ġà¦¬à¦²": 2511,
      "à®°à¯įà®ķà®³": 2512,
      "Ġà´ªà´°": 2513,
      "Ġgovernment": 2514,
      "à§įà¦ķ": 2515,
      "iron": 2516,
      "à°¦à°¿": 2517,
      "Ġcor": 2518,
      "Ġà®ķà¯Ĭà®£à¯įà®Ł": 2519,
      "Ġexample": 2520,
      "à´Ĺ": 2521,
      "à²¸à³į": 2522,
      "àµĩà´·": 2523,
      "Ġworld": 2524,
      "à®¿à®¯à®¿à®²à¯į": 2525,
      "Ġthose": 2526,
      "à¤¿à¤Ĥ": 2527,
      "Ġà¨¨à¨¾à¨²": 2528,
      "Ġhealth": 2529,
      "',": 2530,
      "ined": 2531,
      "Ġà®ĩà®°à¯ģà®¨à¯įà®¤": 2532,
      "read": 2533,
      "ices": 2534,
      "Ġmake": 2535,
      "à¨Ĩ": 2536,
      "à§ģà§°": 2537,
      "Ġrese": 2538,
      "à¬¡": 2539,
      "Ġà®ªà®Ł": 2540,
      "à¥Į": 2541,
      "Ġher": 2542,
      "Ġent": 2543,
      "Ġlong": 2544,
      "Ġbeing": 2545,
      "Ġrate": 2546,
      "ĠàªŃ": 2547,
      "Ġpub": 2548,
      "Ġà®µà®´": 2549,
      "à®¿à®°à¯ģà®¨à¯įà®¤": 2550,
      "Ġà®¤à¯Ĩà®°": 2551,
      "led": 2552,
      "à¦¾à¦ģ": 2553,
      "à§ģà¦ķ": 2554,
      "Ġpers": 2555,
      "chool": 2556,
      "Ġà²¨à³Ģà²¡": 2557,
      "à¤£à¥įà¤¯à¤¾à¤": 2558,
      "à¨¿à¨¹": 2559,
      "fl": 2560,
      "àª¾àª¤": 2561,
      "à±įà°¡": 2562,
      "à³Ĥà²°": 2563,
      "à²¿à²¸à²¿à²¦": 2564,
      "à®©à¯įà®±à¯ģ": 2565,
      "eng": 2566,
      "ĠNew": 2567,
      "àµĥ": 2568,
      "à±ĩà°ķ": 2569,
      "à±Ģà°": 2570,
      "tp": 2571,
      "Ġser": 2572,
      "à´ŀàµįà´ŀ": 2573,
      "à¬Ĥ": 2574,
      "Ġà´Ł": 2575,
      "à©±à¨ķ": 2576,
      "à¥ĩà¤¤": 2577,
      "Ġpop": 2578,
      "Ġeconom": 2579,
      "à§ģà¦¨": 2580,
      "Ġbecause": 2581,
      "à°¾à°ª": 2582,
      "imes": 2583,
      "à´¿à´¸": 2584,
      "Ġmed": 2585,
      "àŃĤ": 2586,
      "Ġend": 2587,
      "tern": 2588,
      "Ġwater": 2589,
      "Ġà¨Ń": 2590,
      "à¤¸à¥ĩ": 2591,
      "Ġrisk": 2592,
      "à®ªà¯į": 2593,
      "Ġprocess": 2594,
      "args": 2595,
      "à¦Ļ": 2596,
      "à°¾à°¡à±ģ": 2597,
      "àµģà´ª": 2598,
      "Ġà®µà®¨à¯įà®¤": 2599,
      "à±ģà°Ĥà°¡": 2600,
      "Ġrep": 2601,
      "ivid": 2602,
      "ont": 2603,
      "Ġstate": 2604,
      "der": 2605,
      "Ġà´±": 2606,
      "Ġà®®à¯ģà®Ł": 2607,
      "Ġà®ħà®®": 2608,
      "Ġ?": 2609,
      "ved": 2610,
      "land": 2611,
      "à®¿à®ķà®³à¯į": 2612,
      "for": 2613,
      "Ġsign": 2614,
      "à²¾à²ª": 2615,
      "à³ĭà²Ĺ": 2616,
      "ince": 2617,
      "ork": 2618,
      "ok": 2619,
      "Ġrequ": 2620,
      "à³Ĩà²Ĺà³Ĩ": 2621,
      "à²µà²°": 2622,
      "à´¨àµį": 2623,
      "Ġà¤ķà¤¿": 2624,
      "àŃĩà¬¬": 2625,
      "ude": 2626,
      "àª§": 2627,
      "à³įà²¬": 2628,
      "Ġà®İà®©à¯įà®±à¯ģ": 2629,
      "à²¾à²£": 2630,
      "ck": 2631,
      "à¦¨à§įà¦¦": 2632,
      "à²¾à²¡": 2633,
      "oci": 2634,
      "àµĩà´¶": 2635,
      "à§ĭà¦Ĺ": 2636,
      "à®ļà¯įà®ļ": 2637,
      "Ġeven": 2638,
      "à´¾à´®": 2639,
      "à¨°à©Ģ": 2640,
      "Ġcalled": 2641,
      "the": 2642,
      "Ġfound": 2643,
      "à§ĩà¦Ľà§ĩ": 2644,
      "Ġà¦Ľ": 2645,
      "rent": 2646,
      "Ġjust": 2647,
      "Ġmin": 2648,
      "à¦¿à¦¯à¦¼à¦¾": 2649,
      "àª¿àªķ": 2650,
      "Ġext": 2651,
      "Ġbel": 2652,
      "Ġpric": 2653,
      "cur": 2654,
      "Ġà®ªà¯Ĭ": 2655,
      "ection": 2656,
      "Ġcomple": 2657,
      "Ġà´¯": 2658,
      "à¤¾à¤ª": 2659,
      "ĠIf": 2660,
      "à©°à¨¦": 2661,
      "à¬Ĺ": 2662,
      "à´¿à´ķà´³": 2663,
      "viron": 2664,
      "ism": 2665,
      "iven": 2666,
      "ature": 2667,
      "Ġlist": 2668,
      "ĠâĢĵ": 2669,
      "Ġà¬ĵ": 2670,
      "à¨¿à©°à¨": 2671,
      "à§ĭà§°": 2672,
      "Ġpartic": 2673,
      "ven": 2674,
      "Ġgrow": 2675,
      "Ġ->": 2676,
      "Ġagain": 2677,
      "Ġàªªàª°": 2678,
      "à®©à¯Ī": 2679,
      "à°Ĺà°¾": 2680,
      "Ġstand": 2681,
      "à´¾à´Ĥ": 2682,
      "Ġduring": 2683,
      "Ġà´ªàµĭ": 2684,
      "à´¾à´¯à´¿à´°àµģà´¨àµįà´¨àµģ": 2685,
      "Ġà®İà®©à¯įà®ª": 2686,
      "Ġà²ħà²µà²°": 2687,
      "ss": 2688,
      "Ġà¤Ńà¥Ģ": 2689,
      "Ġà¬ī": 2690,
      "Ġà°¨à°¿à°°": 2691,
      "àµģà´ķà´¯": 2692,
      "Ġà¬²": 2693,
      "Ġà°µà±įà°¯": 2694,
      "vent": 2695,
      "à²µà²¾à²Ĺ": 2696,
      "à°¾à°¡": 2697,
      "ĠAn": 2698,
      "à¯Īà®ķà®³": 2699,
      "à³įà²§": 2700,
      "à¥įà¤ª": 2701,
      "Ġà®¨à®¿à®²": 2702,
      "Ġà²¨à²¿à²°": 2703,
      "àµĤà´Ł": 2704,
      "à¯ģà®³à¯įà®³à®¤à¯ģ": 2705,
      "ared": 2706,
      "à¦¤à¦¿": 2707,
      "à¦¨à§ĩ": 2708,
      "à±įà°¨à°¿": 2709,
      "Ġà´Ń": 2710,
      "ished": 2711,
      "Ġà®ķà¯ĭ": 2712,
      "à°²à±į": 2713,
      "Ġinformation": 2714,
      "Ġà¤Ĩà¤£": 2715,
      "Ġ_": 2716,
      "erg": 2717,
      "à´°àµįà´": 2718,
      "ene": 2719,
      "Ġà¨«": 2720,
      "Ġà²ªà²°": 2721,
      "Ġdoes": 2722,
      "gram": 2723,
      "à²Ĥà²¤à³Ĩ": 2724,
      "Ġà¨¹à¨¨": 2725,
      "àµĨà´Łàµįà´Ł": 2726,
      "meric": 2727,
      "à´ľ": 2728,
      "ĠAl": 2729,
      "àµĨà´¨àµįà´¨àµį": 2730,
      "ulation": 2731,
      "à¦¨à§įà¦¤": 2732,
      "Ġà¨¸à©Ģ": 2733,
      "Ġà®µà¯ĩà®£à¯įà®Ł": 2734,
      "à§¦": 2735,
      "Ġback": 2736,
      "Ġsee": 2737,
      "Ġcre": 2738,
      "Ġinde": 2739,
      "ght": 2740,
      "àŃįà¬·": 2741,
      "Ġprovid": 2742,
      "Ġà®¤à¯Ĭà®Ł": 2743,
      "à±ĭà°Ĺ": 2744,
      "à´£à´Ĥ": 2745,
      "Ġà¦¹à§Ī": 2746,
      "Ġ!": 2747,
      "frac": 2748,
      "ĠĠĠĠĠĠĠĠĠĠĠĠĠĠĠĠĠĠĠĠĠĠĊ": 2749,
      "à§¨": 2750,
      "Ġà®ħà®Ł": 2751,
      "Ġà¨¤à©ĭà¨Ĥ": 2752,
      "à°¿à°¯à±ģ": 2753,
      "à´ķà´°": 2754,
      "à¤ı": 2755,
      "Ġboth": 2756,
      "àª¾àª¸": 2757,
      "à¥ĭà¤Ĺ": 2758,
      "à®¿à®±à¯įà®ķ": 2759,
      "à©ģà¨°": 2760,
      "with": 2761,
      "à®µà¯ĩ": 2762,
      "à¦Łà¦¾": 2763,
      "à²ķà²°": 2764,
      "Ġà²¹à²¾à²Ĺ": 2765,
      "Ġright": 2766,
      "Ġà®¨à¯Ģ": 2767,
      "Ġà°µà±Ĩ": 2768,
      "à¬¿à¬¬à¬¾": 2769,
      "arm": 2770,
      "Ġà®ªà®¾à®°": 2771,
      "Ġevery": 2772,
      "à¤ķà¥ĩ": 2773,
      "Ġà¨µà©Ģ": 2774,
      "à®¿à®ª": 2775,
      "à¦ĸà¦¨": 2776,
      "Ġdistrib": 2777,
      "Ġav": 2778,
      "Ġà²¡": 2779,
      "à¯įà®ķà¯įà®ķ": 2780,
      "Ġà²ħà²¦": 2781,
      "Ġshow": 2782,
      "url": 2783,
      "Ġà¦¡": 2784,
      "à²¥": 2785,
      "à°Ĥà°ļ": 2786,
      "Ġà´¡": 2787,
      "à¦²à§ĭ": 2788,
      "hip": 2789,
      "Ġway": 2790,
      "cond": 2791,
      "Ġpay": 2792,
      "àŃįà¬Ł": 2793,
      "à¬¾à¬ķ": 2794,
      "à¤³": 2795,
      "att": 2796,
      "à¤ķà¤°": 2797,
      "ĠEx": 2798,
      "Ġà´ħà´¤": 2799,
      "à¬¿à¬¨": 2800,
      "à¤¾à¤°à¥Ģ": 2801,
      "à²²à³Ĩ": 2802,
      "àŃįà¬¬": 2803,
      "Ġrun": 2804,
      "à©įà¨¹à¨¾à¨Ĥ": 2805,
      "Ġfam": 2806,
      "ets": 2807,
      "Ġmem": 2808,
      "Ġà®µà¯Ģ": 2809,
      "à¨¿à¨²": 2810,
      "Ġà²¸à²®": 2811,
      "This": 2812,
      "ci": 2813,
      "Ġmade": 2814,
      "à®£à¯įà®£": 2815,
      "Ġown": 2816,
      "Ġbefore": 2817,
      "àª¬": 2818,
      "à´Ļàµįà´Ļàµ¾": 2819,
      "Ġcap": 2820,
      "à¯ģà®ķà®³": 2821,
      "à«įàªµ": 2822,
      "àŃĥ": 2823,
      "Ġà²¬à³Ĩ": 2824,
      "Ġà¬¸à¬®": 2825,
      "à¥Ģà¤²": 2826,
      "à¦¬à§ĩ": 2827,
      "Ġà¤ķà¤¾à¤°": 2828,
      "Ġprop": 2829,
      "ially": 2830,
      "à§Ģà§°": 2831,
      "à¨¾à¨µ": 2832,
      "ather": 2833,
      "ĠHow": 2834,
      "à´¾à´§": 2835,
      "Ġusing": 2836,
      "à®¿à®¤à¯įà®¤à¯ģ": 2837,
      "********": 2838,
      "àªŁ": 2839,
      "âĢĵ": 2840,
      "Ġwhile": 2841,
      "default": 2842,
      "ries": 2843,
      "àª¤àª¾": 2844,
      "Ġreport": 2845,
      "ĠAmeric": 2846,
      "à±ĩà°¸": 2847,
      "class": 2848,
      "Ġknow": 2849,
      "Ġfund": 2850,
      "Ġà²®à³Ĥ": 2851,
      "Ġca": 2852,
      "à¥įà¤°à¥Ģ": 2853,
      "Ġà¤Ł": 2854,
      "à®¤à®¾à®ķ": 2855,
      "Ġref": 2856,
      "à®¤à¯įà®¤à¯Ī": 2857,
      "à°¤à°¿": 2858,
      "ified": 2859,
      "Ġiss": 2860,
      "Ġà¦¸à¦Ĥ": 2861,
      "à®¾à®ļ": 2862,
      "à®¿à®°à¯ģà®ķà¯įà®ķ": 2863,
      "Ġlevel": 2864,
      "Ġserv": 2865,
      "à¦¿à¦®": 2866,
      "à¨¾à¨Ī": 2867,
      "Ġà²ı": 2868,
      "Ġà°ļà±ĩà°¯": 2869,
      "àµĭà´Ĺ": 2870,
      "à³Ĭà²³à³įà²³": 2871,
      "nce": 2872,
      "Ġà¬ıà¬¹": 2873,
      "Ġhum": 2874,
      "Ġval": 2875,
      "à¨ĸ": 2876,
      "arge": 2877,
      "opt": 2878,
      "à¨¾à¨¸": 2879,
      "à¨§": 2880,
      "àµģà´°": 2881,
      "à¤¾à¤£": 2882,
      "à²¾à²§": 2883,
      "à°Ĥà°¤à±ĭ": 2884,
      "à°¤à±ĭ": 2885,
      "Ġà¤Ĩà¤£à¤¿": 2886,
      "to": 2887,
      "val": 2888,
      "à®µà¯ģà®®à¯į": 2889,
      "Ġà²¸à²°": 2890,
      "à¦«": 2891,
      "Ġart": 2892,
      ",\"": 2893,
      "Ġà®ħà®©": 2894,
      "à¬¶": 2895,
      "à¦¾à¦ĵ": 2896,
      "à®¿à®¨à¯įà®¤": 2897,
      "\"]": 2898,
      "à²²à³į": 2899,
      "Ġà´¹": 2900,
      "Ġocc": 2901,
      "à´¿à´ļàµįà´ļàµģ": 2902,
      "à§ģà¦®": 2903,
      "Ġgroup": 2904,
      "osed": 2905,
      "Ġpoint": 2906,
      "à¦¾à¦§": 2907,
      "à³įà²¤à³ģ": 2908,
      "Ġtechn": 2909,
      "pre": 2910,
      "à¯ģà®Łà®©à¯į": 2911,
      "ĠInt": 2912,
      "ĠAr": 2913,
      "Ġà²¹à³ĩà²³": 2914,
      "à°¿à°¨à°¿": 2915,
      "Ġà®ľ": 2916,
      "Ġà¦ķà¦°à§ĩ": 2917,
      "hat": 2918,
      "à´§": 2919,
      "Ġmuch": 2920,
      "à±ĩà°°": 2921,
      "Ġà®ªà®²": 2922,
      "ury": 2923,
      "Ġà¦¯à§ĩ": 2924,
      "à§İ": 2925,
      "à°¾à°§": 2926,
      "Ġpat": 2927,
      "àª¾àª²": 2928,
      "ancial": 2929,
      "à§įà¦²": 2930,
      "à²¾à²Ł": 2931,
      "Ġmethod": 2932,
      "Ġà°ķà°¾à°°": 2933,
      "à°¸à±įà°¤": 2934,
      "Er": 2935,
      "Ġà¤²à¤¿à¤ı": 2936,
      "right": 2937,
      "à´«": 2938,
      "à®¿à®¯à®¾à®ķ": 2939,
      "à±ĩà°Ł": 2940,
      "àµģà´¨àµįà´¨à´¤àµį": 2941,
      "angu": 2942,
      "Ġdi": 2943,
      "Ġvery": 2944,
      "Ġà®ªà®¯": 2945,
      "Ġname": 2946,
      "à¬¾à¬®": 2947,
      "à´µàµģà´Ĥ": 2948,
      "à§įà¦ļ": 2949,
      "Ġà®ħà®±": 2950,
      "à®Łà®¿": 2951,
      "à¯Īà®ļ": 2952,
      "à¯ĩà®ļ": 2953,
      "à§įà¦¨": 2954,
      "à¬Ń": 2955,
      "Ġà®ļà¯Ĭ": 2956,
      "))": 2957,
      "Ġfil": 2958,
      "à´¤àµįà´¤àµĨ": 2959,
      "Ġà¤ħà¤¨": 2960,
      "à¦ł": 2961,
      "à¤¾à¤¨à¥ĩ": 2962,
      "Ġà¦Ĩà¦°": 2963,
      "ĠĠĠĠĠĠĠĠĠĠĠĠĠĠĠĠĠĠĠĠĠĠ": 2964,
      "à´¿à´²àµģà´Ĥ": 2965,
      "Ġà¦¦à§ĩà¦ĸ": 2966,
      "An": 2967,
      "air": 2968,
      "à¥įà¤®": 2969,
      "Ġhand": 2970,
      "à´ļ": 2971,
      "Ġà´ĵ": 2972,
      "onse": 2973,
      "à³ģà²°": 2974,
      "à¦¿à¦¸": 2975,
      "ession": 2976,
      "à°¦à±įà°¦": 2977,
      "Ġà¤ħà¤ª": 2978,
      "à¤¹à¥Ģà¤Ĥ": 2979,
      "Ġarg": 2980,
      "à¬Ł": 2981,
      "àµįà´ķ": 2982,
      "Ġàªªàª£": 2983,
      "Ġimp": 2984,
      "Ġà¨ķà¨°à¨¨": 2985,
      "à´¿à´®": 2986,
      "à¤¾à¤ķ": 2987,
      "à¤¾à¤¹à¥Ģ": 2988,
      "ma": 2989,
      "Ġà¬¬à¬¿à¬": 2990,
      "Error": 2991,
      "iod": 2992,
      "à¯ĭà®¤à¯ģ": 2993,
      "à§ĩà¦ĵà¦ģ": 2994,
      "Ġà°®à°°à°¿à°¯à±ģ": 2995,
      "bers": 2996,
      "Ġnow": 2997,
      "Ġop": 2998,
      "à²¤à³įà²¯": 2999,
      "Ġcontin": 3000,
      "à³ģà²µà³ģà²¦à³ģ": 3001,
      "Ġà¦®à¦¾à¦¨": 3002,
      "Ġà¦ľà¦¨": 3003,
      "Ġlife": 3004,
      "à¨¿à¨°": 3005,
      "à¦¾à¦ļ": 3006,
      "Ġthree": 3007,
      "Ġà°ħà°µ": 3008,
      "Ġoften": 3009,
      "Ġvi": 3010,
      "Ġmust": 3011,
      "à§ĩà¦·": 3012,
      "Ġsmall": 3013,
      "à¬ľ": 3014,
      "à¯įà®°": 3015,
      "àª¿àª¤": 3016,
      "Ġcommun": 3017,
      "à¤ķà¥įà¤¤": 3018,
      "Ġà®¨à®¿à®±": 3019,
      "à´¦àµįà´": 3020,
      "Ġà®µà¯Ĩà®³": 3021,
      "Łà«ĩ": 3022,
      "Ġshe": 3023,
      "à¤¿à¤°": 3024,
      "ĠRes": 3025,
      "à°¾à°¨à±įà°¨à°¿": 3026,
      "Ġà°ķà±Ĥà°¡": 3027,
      "àª¿àª¯": 3028,
      "orth": 3029,
      "à³įà²£": 3030,
      "à³ģà²ķ": 3031,
      "à±ģà°ª": 3032,
      "Ġà²Ĩà²Ĺ": 3033,
      "ination": 3034,
      "Ġà¨¤à©ĩ": 3035,
      "Ġdirect": 3036,
      "à®ĩ": 3037,
      "Ġà¨ĩà¨¹": 3038,
      "à§ĥà¦¤": 3039,
      "Ġ_{": 3040,
      "Ġgiven": 3041,
      "Ġà²ľà²¨": 3042,
      "ired": 3043,
      "Ġclass": 3044,
      "àªļ": 3045,
      "Ġgra": 3046,
      "à©±à¨²": 3047,
      "day": 3048,
      "Ġà¤¡": 3049,
      "Ġreal": 3050,
      "Ġredu": 3051,
      "àŃįà¬¦": 3052,
      "rol": 3053,
      "ream": 3054,
      "à¬¥": 3055,
      "Ġà¦¤à§ĩà¦ĵà¦ģ": 3056,
      "à±ģà°¨à±įà°¨à°¾à°°à±ģ": 3057,
      "Ġà¦īà¦ª": 3058,
      "be": 3059,
      "à²ĥ": 3060,
      "Ġà´Ī": 3061,
      "Ġposs": 3062,
      "Ġà®®à®©": 3063,
      "à°¿à°Ĥà°Ĺ": 3064,
      "à³įà²Ĺà³Ĩ": 3065,
      "ving": 3066,
      "à²°à³Ĥ": 3067,
      "Ġlo": 3068,
      "ains": 3069,
      "à¤·": 3070,
      "à±Ģà°µ": 3071,
      "à±įà°°à°®": 3072,
      "Ġallow": 3073,
      "Ġobject": 3074,
      "[\"": 3075,
      "à§Į": 3076,
      "ploy": 3077,
      "Ġlead": 3078,
      "py": 3079,
      "Ġconst": 3080,
      "à®®à®¾à®©": 3081,
      "Ġpolic": 3082,
      "Ġhim": 3083,
      "à²¤à²¿": 3084,
      "à¬¾à¬¸": 3085,
      "à§įà¦¡": 3086,
      "uss": 3087,
      "à¨ľà¨¼": 3088,
      "à®ķà¯į": 3089,
      ":`": 3090,
      "Ġàªıàªķ": 3091,
      "ran": 3092,
      "à²µà²¾à²¦": 3093,
      "Ġà®®à¯Ĥ": 3094,
      "Ġmeas": 3095,
      "Ġtype": 3096,
      "à°¿à°Ł": 3097,
      "Ġà®®à¯ģà®¤": 3098,
      "àª°à«Ģ": 3099,
      "àµĭà´³": 3100,
      "Ġà´ķàµĬ": 3101,
      "à¤¡à¤¼": 3102,
      "}\\": 3103,
      "ale": 3104,
      "à³ģà²¦à³ģ": 3105,
      ".\\": 3106,
      "Ġer": 3107,
      "Ġà´¸à´Ĥà´": 3108,
      "à¬ķàŃģ": 3109,
      "à®²à¯Ī": 3110,
      "Ġà¤ħà¤§": 3111,
      "man": 3112,
      "à¦¾à¦¶": 3113,
      "Ġà¤¹à¥Ģ": 3114,
      "à¤ļà¥Ģ": 3115,
      "à¯ĩà®©à¯į": 3116,
      "à±ĩà°µ": 3117,
      "Ġà°ħà°Ĥà°¦": 3118,
      "à°¡à°Ĥ": 3119,
      "Ġschool": 3120,
      "à§ĩà¦Ł": 3121,
      "ness": 3122,
      "à²¿à²Ł": 3123,
      "à§Ģà¦°": 3124,
      "à²¿à²¸à²¿": 3125,
      "Ġà®ļà¯Ĩà®¯à¯įà®¯": 3126,
      "à±įà°¸à±į": 3127,
      "à¨¾à¨£": 3128,
      "eral": 3129,
      "à®¾à®ķà¯įà®ķ": 3130,
      "à±ĭà°µ": 3131,
      "Ġà¬¹àŃĭà¬": 3132,
      "Ġinfl": 3133,
      "Ġà¬¦àŃĩà¬": 3134,
      "à´¾à´ķ": 3135,
      "à´¾à´ľ": 3136,
      "à¯ģà®ķà¯į": 3137,
      "à²Łà³į": 3138,
      "Ġincluding": 3139,
      "Ġpercent": 3140,
      "à®©à®¾à®²à¯į": 3141,
      "à¥Īà¤Ĥ": 3142,
      "atic": 3143,
      "Ġà´µàµĢ": 3144,
      "à¯Īà®ªà¯į": 3145,
      "Ġcar": 3146,
      "à¦¾à¦¡à¦¼": 3147,
      "à§ĩà¦Ľ": 3148,
      "Ġlim": 3149,
      "Ġmy": 3150,
      "à¤Ĥà¤¦": 3151,
      "itive": 3152,
      "à°¿à°Ĥà°ļà°¾à°°à±ģ": 3153,
      "à¦¾à¦¬à§ĩ": 3154,
      "ody": 3155,
      "Ġgood": 3156,
      "à®ķà¯ģà®¤": 3157,
      "Ġà°īà°¨à±įà°¨": 3158,
      "Ġàª«": 3159,
      "à¬¨àŃįà¬¤à¬¿": 3160,
      "inal": 3161,
      "à®®à®¿à®´": 3162,
      "àµįà´¯à´®": 3163,
      "Ġà¤¦à¥ĩ": 3164,
      "à§ĩà¦ĸ": 3165,
      "ĠĠĠĠĠĠĠĠĠĠĠĠĠĠĠĠĠĠĠĠĠĠĠĠ": 3166,
      "vironment": 3167,
      "à±ģà°ķà±ģ": 3168,
      "à®¿à®²à¯įà®²à¯Ī": 3169,
      "Ġmain": 3170,
      "à°¾à°°à°Ĥ": 3171,
      "Ġconf": 3172,
      "Ġà´ªàµįà´°à´¤": 3173,
      "Ġx": 3174,
      "Ġàªľà«ĩ": 3175,
      "Ġimportant": 3176,
      "à¯įà®¨": 3177,
      "ety": 3178,
      "Ġà®ªà®°": 3179,
      "âģł": 3180,
      "à¦¿à¦ļ": 3181,
      "Ġactiv": 3182,
      "à¯ģà®£": 3183,
      "Ġproduct": 3184,
      "à¥ĩà¤²": 3185,
      "Ġà²®à³ĩ": 3186,
      "Ġprogram": 3187,
      "à´²àµį": 3188,
      "à´¾à´¨àµį": 3189,
      "Ġà¬ļ": 3190,
      "ertain": 3191,
      "Ġpower": 3192,
      "Ġexpl": 3193,
      "Ġproble": 3194,
      "Ġcommon": 3195,
      "Ġconsid": 3196,
      "à¦¿à¦Ľ": 3197,
      "à±ģà°¡": 3198,
      "Ġà°ķà°²": 3199,
      "à¯įà®ļà®¿": 3200,
      "à´¿à´¨àµĨ": 3201,
      "ception": 3202,
      "ency": 3203,
      "Ġpri": 3204,
      "à¦¸à§įà¦¥": 3205,
      "Ġà²ķà³Ĭ": 3206,
      "Ļàµįà´Ļ": 3207,
      "àµģà´£àµįà´Łàµį": 3208,
      "Ġrequest": 3209,
      "Ġà¤®à¤¹": 3210,
      "Ġfind": 3211,
      "à°¾à°£": 3212,
      "Ġà²µà³įà²¯": 3213,
      "Ġdefault": 3214,
      "Ġà®®à¯ģà®©": 3215,
      "Ġà®ħà®¤à®¿à®ķ": 3216,
      "Ġsupport": 3217,
      "à¨¡": 3218,
      "àª¨à«įàª": 3219,
      "ĠThey": 3220,
      "Ġà¦¥à¦¾à¦ķ": 3221,
      "request": 3222,
      "Ġpass": 3223,
      "Ġà°²à±ĭ": 3224,
      "SE": 3225,
      "Ġsol": 3226,
      "Ġcell": 3227,
      "à¬¾à¬°àŃĩ": 3228,
      "à²¤à³įà²°": 3229,
      "Ġà¨Ĩà¨ª": 3230,
      "Ġà®ħà®°à®ļ": 3231,
      "dition": 3232,
      "à±ģà°®": 3233,
      "à°¨à±ĩ": 3234,
      "à°®à±įà°®": 3235,
      "à³Ĩà²¯à²²à³įà²²à²¿": 3236,
      "Ġorgan": 3237,
      "Ġexper": 3238,
      "Ġread": 3239,
      "Ġà°ķà±Ĥà°¡à°¾": 3240,
      "à§ģà¦ĸ": 3241,
      "iversity": 3242,
      "Ġtyp": 3243,
      "Ġdown": 3244,
      "ization": 3245,
      "Ġagainst": 3246,
      "ision": 3247,
      "à°¿à°·": 3248,
      "à²¤à³Ĩ": 3249,
      "Ġstandard": 3250,
      "Ġtreat": 3251,
      "ave": 3252,
      "Ġ{\\": 3253,
      "Ġà¤¸à¤¾à¤": 3254,
      "Ġà²Ł": 3255,
      "à²¿à²³": 3256,
      "à¦¨à¦¾": 3257,
      "à²¬à³įà²¬": 3258,
      "Ġà²¹à³Ĩà²ļà³įà²ļ": 3259,
      "à²ªà³įà²ª": 3260,
      ".,": 3261,
      "mon": 3262,
      "Ġà²«": 3263,
      "Ġà®®à¯Ģ": 3264,
      "Ġcase": 3265,
      "à¬°àŃģ": 3266,
      "à²¾à²¹": 3267,
      "ik": 3268,
      "à«įàª¯àª¾": 3269,
      "=\"": 3270,
      "à²¾à²°à²¿": 3271,
      "Ġeduc": 3272,
      "Ġless": 3273,
      "à¬¾à¬¬": 3274,
      "version": 3275,
      "path": 3276,
      "Ġà´ı": 3277,
      "à¯ģà®ļ": 3278,
      "à¯Īà®¨à¯įà®¤": 3279,
      "Ġà´¸àµįà´µ": 3280,
      "Ġà¤¤à¥ĭ": 3281,
      "Ġ*": 3282,
      "Ġà¨ķà©ĩ": 3283,
      "àªŃ": 3284,
      "Ġtem": 3285,
      "Ġinc": 3286,
      "Ġhist": 3287,
      "eter": 3288,
      "Ġknown": 3289,
      "à¨¾à¨ĩ": 3290,
      "Ġà®ķà¯ĩ": 3291,
      "Ġann": 3292,
      "Ġà¤Ĩà¤ª": 3293,
      "gg": 3294,
      "Ġà°²à±ĩà°¦": 3295,
      "à±įà°Ĺ": 3296,
      "à´¾à´³": 3297,
      "Ġstart": 3298,
      "à¯ģà®ķà®¿à®±à®¤à¯ģ": 3299,
      "----": 3300,
      "à³įà²¡": 3301,
      "à³ĩà²°": 3302,
      "Ġà²¸à³ģ": 3303,
      "Ġà°ħà°¯": 3304,
      "àªµàª¾àª¨": 3305,
      "à¬¡à¬¼": 3306,
      "lished": 3307,
      "Ġà¤Ŀ": 3308,
      "Ġelect": 3309,
      "à¯Īà®¯à¯Ī": 3310,
      "à¤°à¥įà¤µ": 3311,
      "Ġà®ķà¯Ĥà®±": 3312,
      "Ġperson": 3313,
      "à±ģà°¦": 3314,
      "Ġlangu": 3315,
      "Ġà®ĩà®Ł": 3316,
      "à¯Īà®ķà¯į": 3317,
      "ised": 3318,
      "Ġà¤¨à¤¹à¥Ģà¤Ĥ": 3319,
      "à¦ľà¦¨": 3320,
      "Ġàª®àª¾àªŁà«ĩ": 3321,
      "àŃįà¬§": 3322,
      "Ġà°ªà±ĭ": 3323,
      "à´±à´¿à´¯": 3324,
      "à©±à¨ĸ": 3325,
      "Ġàª°àª¹": 3326,
      "à¬¾à¬¤": 3327,
      "ull": 3328,
      "Ġà®İà®©à¯įà®©": 3329,
      "Ġpos": 3330,
      "Ġperiod": 3331,
      "ording": 3332,
      "Ġchildren": 3333,
      "ds": 3334,
      "Ġà®ĵ": 3335,
      "Ġlaw": 3336,
      "ĠCl": 3337,
      "à±Į": 3338,
      "à³įà²°à³Ģ": 3339,
      "à²¿à²Ĥà²Ĺ": 3340,
      "à´¿à´ļàµįà´ļàµį": 3341,
      "ves": 3342,
      "Ġstudy": 3343,
      "Ġà°ļà±ĩà°¸à±įà°¤": 3344,
      "atch": 3345,
      "Ġland": 3346,
      "Ġà®ļà®¿à®±": 3347,
      "Ġàª¸àª¾àª": 3348,
      "à¦¿à¦¶": 3349,
      "stand": 3350,
      "Ġà¤§": 3351,
      "iness": 3352,
      "à´¿à´±": 3353,
      "Ġà°®à±Ĭ": 3354,
      "à´ķà´³": 3355,
      "Ġà¬¸àŃĩà¬": 3356,
      "Ġà´¨à´¿à´¨àµįà´¨": 3357,
      "Ġresearch": 3358,
      "ze": 3359,
      "}{": 3360,
      "à°¿à°Ĥà°ļà°¿": 3361,
      "Ġdesc": 3362,
      "à²¿à²¡": 3363,
      "à§įà¦ľ": 3364,
      "à¦¾à¦Ĥ": 3365,
      "Ġà®İà®¤": 3366,
      "ĠWe": 3367,
      "Ġà®¤à®©": 3368,
      "à¨¿à¨¤": 3369,
      "Ġà´¸à´®": 3370,
      "ty": 3371,
      "ĠSh": 3372,
      "ify": 3373,
      "Ġoper": 3374,
      "ames": 3375,
      "à²¿à²ķà³Ĩ": 3376,
      "//": 3377,
      "inist": 3378,
      "ĠIs": 3379,
      "Ġà°®à±Ģ": 3380,
      "à¥ģà¤²": 3381,
      "redit": 3382,
      "itions": 3383,
      "à°²à±įà°²": 3384,
      "à²¬à²¹": 3385,
      "à²¿à²¦à³įà²¦à³ģ": 3386,
      "Ġà²Ĵà²Ĥà²¦à³ģ": 3387,
      "||": 3388,
      "à¯Ĥà®°": 3389,
      "à¤¾à¤ł": 3390,
      "Ġmult": 3391,
      "à¥įà¤²": 3392,
      "ource": 3393,
      "Ġplay": 3394,
      "àªĤàªĹ": 3395,
      "\"),": 3396,
      "à¥įà¤§": 3397,
      "outh": 3398,
      "arn": 3399,
      "Ġday": 3400,
      "els": 3401,
      "lob": 3402,
      "Ġpublic": 3403,
      "Ġàªµàª¿àª": 3404,
      "Ġtake": 3405,
      "Ġcal": 3406,
      "à¥Ģà¤®": 3407,
      "ajor": 3408,
      "Ġnon": 3409,
      "à°¿à°²à±ĭ": 3410,
      "ĠTrue": 3411,
      "ross": 3412,
      "à°Ĥà°ª": 3413,
      "Ġà®ªà®¤": 3414,
      "Ġstill": 3415,
      "à®ķà®°": 3416,
      "à´¤àµįà´¤à´¿àµ½": 3417,
      "Ġà²¹à²¾à²Ĺà³Ĥ": 3418,
      "à¨¥": 3419,
      "àª¾àªľ": 3420,
      "Ġà¦ķà¦¥": 3421,
      "à§ĭà¦ķ": 3422,
      "Ġcountry": 3423,
      "à²¿à²·": 3424,
      "à²Ĥà²Ĺ": 3425,
      "Ġà°µà°¾à°°": 3426,
      "Ġchang": 3427,
      "Ġà¤¯à¤¾à¤Ĥ": 3428,
      "ring": 3429,
      "set": 3430,
      "à¦Ľà¦¿à¦²": 3431,
      "Ġcour": 3432,
      "à¤¾à¤¬": 3433,
      "à°¿à°ļ": 3434,
      "àµĨà´Ļàµįà´ķ": 3435,
      "à±ģà°Ĥà°¦": 3436,
      "Re": 3437,
      "à¨«": 3438,
      "omen": 3439,
      "akes": 3440,
      "Ġà¦ªà¦¾à¦°": 3441,
      "Ġdid": 3442,
      "à®¤à®¿": 3443,
      "à±ģà°²à±ĭ": 3444,
      "à¤ļà¥ĩ": 3445,
      "à±ģà°Ĥà°Ł": 3446,
      "Ġà´ĩà´¤": 3447,
      "Ġà²ħà²µà²°à³ģ": 3448,
      "ĠUnited": 3449,
      "à¨¨à©įà¨¹à¨¾à¨Ĥ": 3450,
      "à¦¾à¦¨à§įà¦¤": 3451,
      "à¤¯à¤¾": 3452,
      "àµĮ": 3453,
      "âĢĶ": 3454,
      "Ġà¨¸à¨®": 3455,
      "Ġà¤ķà¤¿à¤¯à¤¾": 3456,
      "à¯įà®ªà¯įà®ª": 3457,
      "à±įà°°à±Ģ": 3458,
      "Ġpresent": 3459,
      "sh": 3460,
      "à±ĭà°ľ": 3461,
      "à¤ł": 3462,
      "à¨¿à¨ķ": 3463,
      "sc": 3464,
      "à¤«": 3465,
      "Ġaround": 3466,
      "à°ķà±įà°¤": 3467,
      "à¯ĭà®¤": 3468,
      "à´®à´¾à´¯": 3469,
      "à°®à±Īà°¨": 3470,
      "Ġfinancial": 3471,
      "à®ħ": 3472,
      "àª¨à«ĭ": 3473,
      "Ġcurrent": 3474,
      "Ġ$": 3475,
      "Ġwithout": 3476,
      "Ġsecond": 3477,
      "Ġà¤ľà¤¾à¤¤": 3478,
      "àª¾àª£": 3479,
      "ential": 3480,
      "à²²à²¾à²Ĺ": 3481,
      "unc": 3482,
      "à§įà¦¤à§ģ": 3483,
      "à¦Łà¦¿": 3484,
      "Ġtax": 3485,
      "àŃģà¬°": 3486,
      "Ġà°®à°¾à°°": 3487,
      "Ġà²®à²¾à²¤": 3488,
      "Ġà¦ķà§ĭà¦¨": 3489,
      "ained": 3490,
      "oh": 3491,
      "Ġfut": 3492,
      "Ġà®ªà®¾à®¤": 3493,
      "ĠHowever": 3494,
      "à²¡à³ģ": 3495,
      "ived": 3496,
      "Ġamount": 3497,
      "à¦¿à¦·": 3498,
      "ason": 3499,
      "ĠCon": 3500,
      "¥à¬¿à¬²àŃĩ": 3501,
      "Ġter": 3502,
      "ately": 3503,
      "ience": 3504,
      "à¨ķà¨¾à¨°": 3505,
      "à¯ģà®µà®¤": 3506,
      "Ġwrit": 3507,
      "Ġpur": 3508,
      "uro": 3509,
      "ality": 3510,
      "urance": 3511,
      "amp": 3512,
      "à²¿à²ľ": 3513,
      "à°¾à°¬": 3514,
      "ĠX": 3515,
      "Ġfore": 3516,
      "Ġà¨¨à¨¹": 3517,
      "àª¾àª°à«ĩ": 3518,
      "Ġplan": 3519,
      "Ġà®İà®´": 3520,
      "à´¤àµįà´¤à´¿à´¯": 3521,
      "Ġà°°à±Ĩ": 3522,
      "oney": 3523,
      "Ġà°īà°Ĥà°Ł": 3524,
      "arent": 3525,
      "à¦Ļà§įà¦Ĺ": 3526,
      "://": 3527,
      "Ġà¨°à¨¹": 3528,
      "à¤¥": 3529,
      "ables": 3530,
      "ior": 3531,
      "à²³à³ģ": 3532,
      "àµģà´¨àµįà´¨à´¤": 3533,
      "True": 3534,
      "._": 3535,
      "à¨¿à¨¹à¨¾": 3536,
      "\".": 3537,
      "Ġaff": 3538,
      "àµįà´£": 3539,
      "Ġà®¤à®²": 3540,
      "Ġà®ħà®µà®°à¯į": 3541,
      "():": 3542,
      "Ġaccount": 3543,
      "à§ĩà¦ķà§ĩ": 3544,
      "cul": 3545,
      "way": 3546,
      "à¤ķà¥Ģ": 3547,
      "à¯Ģà®°": 3548,
      "à®£à¯įà®Łà¯ģ": 3549,
      "àŃ§": 3550,
      "à±ģà°Ĺà°¾": 3551,
      "à¤¤à¥įà¤¤": 3552,
      "à²ķà³įà²¤": 3553,
      "Ġà²®à³Ĭ": 3554,
      "à´¯àµģà´ŁàµĨ": 3555,
      "Ġà´¤àµģà´Ł": 3556,
      "Ġà¤°à¤¾à¤ľ": 3557,
      "Ġà²°à²¾à²ľ": 3558,
      "ium": 3559,
      "Ġmillion": 3560,
      "Ġà®ķà®°": 3561,
      "Ġà¦¯à¦": 3562,
      "Ġà®ħà®¨à¯įà®¤": 3563,
      "à´¸àµįà´¥": 3564,
      "àµĨà´¨àµįà´¨àµģà´Ĥ": 3565,
      "à«ĩàª°": 3566,
      "à¦¸à¦®": 3567,
      "ious": 3568,
      "Ġlarge": 3569,
      "àª¾àªĹ": 3570,
      "à¨¾à¨ľ": 3571,
      "Ġà®ķà®¾à®²": 3572,
      "Ġà²ķà³ģ": 3573,
      "à´®àµįà´ª": 3574,
      "à°¤à±įà°¯": 3575,
      "Ġà´Ĩà´°": 3576,
      "à®Ļà¯įà®ķà®³à®¿à®²à¯į": 3577,
      "Ġà´ļàµĨà´¯àµįà´¯": 3578,
      "à§ĩà¦¯à¦¼": 3579,
      "Ġgu": 3580,
      "àªµàª¾àª®àª¾àªĤ": 3581,
      "à¬ķàŃįà¬·": 3582,
      "Ġà°ļà±Ĩà°ªà±įà°ª": 3583,
      "Ġprice": 3584,
      "ŀàµįà´ļ": 3585,
      "à¥įà¤¦": 3586,
      "Ġà®īà®£": 3587,
      "à¦¿à¦¤à§ĩ": 3588,
      "Ġnorm": 3589,
      "Ġà¦¸à§ĩà¦ĩ": 3590,
      "à´¿à´¨àµįà´¨": 3591,
      "Ġà®ªà®£": 3592,
      "Ġproject": 3593,
      "Ġà²Ĩà²¦à²°à³Ĩ": 3594,
      "Ġà¨Ĩà¨ªà¨£": 3595,
      "à§ĩà¦®": 3596,
      "à±Ĥà°ª": 3597,
      "Ġà°ħà°§": 3598,
      "ument": 3599,
      "Ġâ": 3600,
      "Ġà¦¸à§įà¦¬": 3601,
      "Ġà´ķà´´": 3602,
      "à³ĭà²¡": 3603,
      "à°¿à°Ĥà°ļà°¿à°¨": 3604,
      "à´¨àµįà´¤àµįà´°": 3605,
      "Ġprot": 3606,
      "àª¾àª³": 3607,
      "Ġà¦¤à§ĭ": 3608,
      "Ġopen": 3609,
      "Ġlast": 3610,
      "à®²à®ķ": 3611,
      "Ġà²¸à³įà²¥": 3612,
      "à®¾à®°à¯įà®ķà®³à¯į": 3613,
      "à´¾à´¤àµįà´°": 3614,
      "iqu": 3615,
      "},": 3616,
      "Ġà²ĸ": 3617,
      "à²¸à³įà²¤": 3618,
      "à®¾à®°à®£": 3619,
      "à´ªàµįà´ªàµĨà´Ł": 3620,
      "Ġà¤īà¤¨": 3621,
      "ai": 3622,
      "à±įà°¬": 3623,
      "à°®à±ģ": 3624,
      "à´¤àµįà´¤àµį": 3625,
      "à´µà´°": 3626,
      "à¨¦à©Ģ": 3627,
      "ĠPh": 3628,
      "à«ĩàª¶": 3629,
      "Ġdistribution": 3630,
      "Ġà®µà¯ĩà®£à¯įà®Łà¯ģà®®à¯į": 3631,
      "ule": 3632,
      "Ġà®ªà¯Ĩà®°": 3633,
      "line": 3634,
      "mit": 3635,
      "à´¿à´ŀàµįà´ŀ": 3636,
      "à±ģà°Ł": 3637,
      "à±ĩà°²": 3638,
      "Ġà²ķà³Ĩà²²": 3639,
      "Ġà²ħà²§": 3640,
      "à²Ĥà²¦à³įà²°": 3641,
      "Ġà´®àµģà´": 3642,
      "ividual": 3643,
      "ļà°¿": 3644,
      "à¨¾à¨®": 3645,
      "à¦ķà¦²": 3646,
      "lear": 3647,
      "Ġà°ħà°¨à±įà°¨": 3648,
      "Ġà¤ľà¥ĭ": 3649,
      "à«įàª¯à«ģàªĤ": 3650,
      "son": 3651,
      "Ġopt": 3652,
      "à²¾à²¶": 3653,
      "à²¦à³įà²¦": 3654,
      "Ġà®¤à®®à®¿à®´": 3655,
      "à²¿à²¸à³ģà²µ": 3656,
      "à®¿à®±à®¤à¯ģ": 3657,
      "à²Ĺà²³à²²à³įà²²à²¿": 3658,
      "Ġà²Ĩà²°": 3659,
      "à°¿à°²à±įà°²": 3660,
      "Ġoccur": 3661,
      "ech": 3662,
      "Ġà¦ľà¦¾à¦¨": 3663,
      "à¨¾à¨¬": 3664,
      "ĠThere": 3665,
      "Ġà²¬à²³": 3666,
      "Ġà¤¯à¤¹": 3667,
      "ission": 3668,
      "Ġcost": 3669,
      "Ġbas": 3670,
      "lim": 3671,
      "à³Ĭà²Ĥà²¦": 3672,
      "ailable": 3673,
      "Ġà¬ķà¬°à¬¿à¬": 3674,
      "not": 3675,
      "Ġ&": 3676,
      "Ġcare": 3677,
      "à¥ĩà¤Ł": 3678,
      "Ġmean": 3679,
      "Ġà¨īà¨¹": 3680,
      "uthor": 3681,
      "ec": 3682,
      "à¬¾à¬ľ": 3683,
      "oint": 3684,
      "ĠAnd": 3685,
      "ively": 3686,
      "Ġadv": 3687,
      "Ġbus": 3688,
      "Ġmajor": 3689,
      "ians": 3690,
      "àŃįà¬¥": 3691,
      "à°ķà°¿": 3692,
      "Ġstat": 3693,
      "à²¸à³įà²¥": 3694,
      "àµįà´¯à´Ĥ": 3695,
      "Ġà¦¤à¦¾à¦°": 3696,
      "à´¨àµįà´±": 3697,
      "à²¿à²¤à³įà²¤à³ģ": 3698,
      "à²¬à³ĩà²ķà³ģ": 3699,
      "lish": 3700,
      "tle": 3701,
      "ĠLe": 3702,
      "Ġrece": 3703,
      "gin": 3704,
      "à¥įà¤¨": 3705,
      "Ġele": 3706,
      "à¯ĭà®®à¯į": 3707,
      "à´¿à´¯àµģà´ŁàµĨ": 3708,
      "à«ĩàªŁ": 3709,
      "à²¿à²¦à³įà²¦à²°à³ģ": 3710,
      "az": 3711,
      "math": 3712,
      "Ġà®µà®¿à®Ł": 3713,
      "à²¡à³Ĩà²¯": 3714,
      "ured": 3715,
      "Ġà®Ĩà®ķ": 3716,
      "Ġz": 3717,
      "Ġsk": 3718,
      "à¥įà¤·": 3719,
      "ources": 3720,
      "Ġinte": 3721,
      "Ġàª¤à«ĩàª®": 3722,
      "Ġinclude": 3723,
      "à¦¿à¦Ł": 3724,
      "Ġprof": 3725,
      "Ġà²İà²Ĥà²¬": 3726,
      "Ġà´ªà´±à´ŀàµįà´ŀ": 3727,
      "à¨Ń": 3728,
      "Ġbo": 3729,
      "à¥įà¤¯à¥ĩ": 3730,
      "Ġà¤īà¤ª": 3731,
      "ŀà¯įà®ļ": 3732,
      "por": 3733,
      "ram": 3734,
      "Ġsl": 3735,
      "à®²à¯įà®µ": 3736,
      "ĠBut": 3737,
      "à¯ģà®ķà®³à¯į": 3738,
      "command": 3739,
      "Ġaddition": 3740,
      "Ġà®¤à¯Ĭà®Łà®°": 3741,
      "àªĸ": 3742,
      "omet": 3743,
      "Ġbeh": 3744,
      "à¤¾à¤²à¤¾": 3745,
      "ĠCent": 3746,
      "à§ģà¦¦": 3747,
      "Ġà²¸à³įà²µ": 3748,
      "Ġà²¨à²¡à³Ĩ": 3749,
      "Ġà°¤à±Ģà°¸": 3750,
      "à°¿à°Ĥà°Ĺà±į": 3751,
      "ocial": 3752,
      "Ġleg": 3753,
      "à¨ı": 3754,
      "Ġindu": 3755,
      "ĠàªŁ": 3756,
      "à´¾àµ½": 3757,
      "Ġà®īà®Ł": 3758,
      "à²¿à²¤à³ģ": 3759,
      "Ġapplic": 3760,
      "Ġlook": 3761,
      "Ġanal": 3762,
      "à±įà°Łà±įà°°": 3763,
      "Ġdise": 3764,
      "à®¾à®³à¯į": 3765,
      "Ġdesign": 3766,
      "à´¾à´ª": 3767,
      "à§°à§ĩ": 3768,
      "Ġlarg": 3769,
      "à³Ģà²°": 3770,
      "à¤Ĥà¤Ĺ": 3771,
      "ĠFalse": 3772,
      "Ġà¨¨à¨¹à©Ģà¨Ĥ": 3773,
      "à¥ģà¤¨": 3774,
      "ron": 3775,
      "here": 3776,
      "à¦¾à¦ĸ": 3777,
      "Ġà²®à²¨": 3778,
      "àµįà´°àµĢ": 3779,
      "ems": 3780,
      "à²£à³įà²£": 3781,
      "Ġà¦Ĩà¦Ĺ": 3782,
      "à§ģà¦·": 3783,
      "à§ĭà§±à¦¾": 3784,
      "à¦ı": 3785,
      "ccess": 3786,
      "Ġdevelopment": 3787,
      "à°Ĥà°ķ": 3788,
      "ĠĠĠĠĠĠĠĠĠĠĠĠĠĠĠĠĠĠĠĠĠĠĠĠĊ": 3789,
      "Ġà´µà´°": 3790,
      "à´¤àµįà´¤à´¿à´²àµį": 3791,
      "Ġchange": 3792,
      "à´ªàµįà´ªàµĨà´Łàµįà´Ł": 3793,
      "à¦¨à§įà¦§": 3794,
      "Ġà²Ńà²¾à²°": 3795,
      "Ľà¬¨àŃįà¬¤à¬¿": 3796,
      "ering": 3797,
      "à¤²à¥įà¤¯à¤¾à¤": 3798,
      "à¦¾à¦£": 3799,
      "Ġplace": 3800,
      "à¯ģà®²": 3801,
      "à²µà²°à³ģ": 3802,
      "Ġgre": 3803,
      "ĠAd": 3804,
      "à¤¹à¤¾": 3805,
      "ĠEng": 3806,
      "Ġà´¤à´¿à´°": 3807,
      "à¯ģà®³à¯į": 3808,
      "nc": 3809,
      "à¤¾à¤Ī": 3810,
      "Ġà®ĩà®²à¯įà®²": 3811,
      "cli": 3812,
      "à¤ļà¤¾": 3813,
      "agement": 3814,
      "à®ķà¯įà®ķà¯ģ": 3815,
      "Ġ+": 3816,
      "à´¯àµįà´ķàµįà´ķ": 3817,
      "Ġà²ĩà²¦à³ģ": 3818,
      "Ġà²İà²²à³įà²²": 3819,
      "Ġà¨ĩà©±à¨ķ": 3820,
      "Ġà¨īà¨¸": 3821,
      "ĠThese": 3822,
      "à©°à¨Ĺ": 3823,
      "Ġà°§": 3824,
      "à®¿à®²à¯ģà®®à¯į": 3825,
      "à´¨àµįà´¦": 3826,
      "àµĨà´¯àµģà´Ĥ": 3827,
      "ĠGo": 3828,
      "Ġà¨¸à¨ķ": 3829,
      "Ġ)": 3830,
      "Ġport": 3831,
      "à¦¿à¦Ľà§ĩ": 3832,
      "Ġà¦ķà¦¿à¦¨": 3833,
      "à±ĩà°·": 3834,
      "àª¿àªµ": 3835,
      "Ġsever": 3836,
      "à´¨àµįà´§": 3837,
      "à¬¾à¬ĩ": 3838,
      "Ġà¨ªà¨°": 3839,
      "Ġà¨®à©ģ": 3840,
      "Ġstudents": 3841,
      "Ġprom": 3842,
      "Ġanother": 3843,
      "http": 3844,
      "à²¿à²ª": 3845,
      "Ġmet": 3846,
      "à¦¿à¦¦": 3847,
      "à±ģà°¨à±ģ": 3848,
      "à´¨àµįà´±àµĨ": 3849,
      "Ġà¦¬à¦¿à¦¶": 3850,
      "à¬¾à¬ķàŃģ": 3851,
      "Ġwithin": 3852,
      "iving": 3853,
      "à¥įà¤¸": 3854,
      "Ġmight": 3855,
      "ently": 3856,
      "à®¿à®¯à¯Ī": 3857,
      "Ġà²ħà²¨": 3858,
      "à´®à´¾à´¯à´¿": 3859,
      "ateg": 3860,
      "à³ĭà²Ł": 3861,
      "Ġexpected": 3862,
      "Ġà¦ķà§°à¦¾": 3863,
      "ense": 3864,
      "oke": 3865,
      "par": 3866,
      "Ġspe": 3867,
      "à¯ģà®´": 3868,
      "à¤¾à¤°à¤¾": 3869,
      "Ġpolicy": 3870,
      "à¬ļ": 3871,
      "à®¤à¯Ī": 3872,
      "Ġrest": 3873,
      "à²¨à³ĩ": 3874,
      "Ġsince": 3875,
      "Ġpress": 3876,
      "à°¾à°·": 3877,
      "oper": 3878,
      "à¦¾à¦¤à§ĩ": 3879,
      "run": 3880,
      "Ġpract": 3881,
      "à¥Ģà¤¨": 3882,
      "àª¿àª²": 3883,
      "enc": 3884,
      "à²¿à²¯à²²à³įà²²à²¿": 3885,
      "Ġà¬ħà¬¨": 3886,
      "Ġhuman": 3887,
      "à¤¾à¤łà¥Ģ": 3888,
      "Ġident": 3889,
      "Ġterm": 3890,
      "Ġà®ıà®±à¯įà®ª": 3891,
      "ĠZ": 3892,
      "Ġparam": 3893,
      "Ġbank": 3894,
      "à°¿à°ľ": 3895,
      "Ġà´¸à´Ĥ": 3896,
      "Ġà°ļà±ĩà°¶": 3897,
      "à¦¾à¦¦à§ĩà¦°": 3898,
      "à®¸à¯į": 3899,
      "Ġdue": 3900,
      "Ġà¨¦à¨¿": 3901,
      "Ġà¬¹àŃĭà¬ĩà¬": 3902,
      "ouse": 3903,
      "à¬¾à¬²": 3904,
      "Ġà°µà°ļà±įà°ļ": 3905,
      "It": 3906,
      "àŃ¨": 3907,
      "orld": 3908,
      "Ġlow": 3909,
      "Ġà¨¸à¨¿à©°à¨": 3910,
      "Ġview": 3911,
      "Ġfew": 3912,
      "à¤¿à¤¶": 3913,
      "idd": 3914,
      "à¬¾à¬ª": 3915,
      "me": 3916,
      "ued": 3917,
      "à³Ĩà²¯à²¨à³įà²¨à³ģ": 3918,
      "Ġintern": 3919,
      "Ġenvironment": 3920,
      "Ġindividual": 3921,
      "Ġà¬ĸ": 3922,
      "stit": 3923,
      "Ġàªķàª°à«Ģ": 3924,
      "type": 3925,
      "arian": 3926,
      "Ġorder": 3927,
      "à°¿à°¤à±ĩ": 3928,
      ">>>": 3929,
      "bs": 3930,
      "Ġàª§": 3931,
      "Ġbased": 3932,
      "à©Īà¨Ĥ": 3933,
      "less": 3934,
      "Ġmoney": 3935,
      "Ġfollowing": 3936,
      "ST": 3937,
      "à®¿à®³": 3938,
      "rop": 3939,
      "Ġgreat": 3940,
      "à´¿à´²àµĩ": 3941,
      "à®¿à®Łà®®à¯į": 3942,
      "Ġà²¯à²¾à²µ": 3943,
      "à´Ĥà´Ĺ": 3944,
      "à²¿à²Ĺà²³à³ģ": 3945,
      "ĠàªĨàªª": 3946,
      "à°Ĥà°¬": 3947,
      "Ġà¬ªà¬°": 3948,
      "lood": 3949,
      "mb": 3950,
      "Ġà´ķàµįà´": 3951,
      "ann": 3952,
      "Ġbre": 3953,
      "à¬¿à¬°": 3954,
      "Ġà²µà²°à³įà²": 3955,
      "à´£àµįà´Łàµį": 3956,
      "Ġsum": 3957,
      "àª¾àª¦": 3958,
      "Ġà¤ķà¤°à¤¨à¥ĩ": 3959,
      "Ġrepres": 3960,
      "unt": 3961,
      "à³įà²°à³Ĩ": 3962,
      "à²¿à²¸à²²à³ģ": 3963,
      "Ġà¨¡": 3964,
      "Ġparticular": 3965,
      "àª¾àªķ": 3966,
      "à±ĭà°¯": 3967,
      "Ġà´µàµįà´¯": 3968,
      "àµĢà´¸àµį": 3969,
      "Ġà°¤à°¨": 3970,
      "à²£à³Ĩ": 3971,
      "Ġcontrol": 3972,
      "Ġprovide": 3973,
      "Ġà®¤à¯Ĩà®°à®¿à®µ": 3974,
      "Ġve": 3975,
      "Ġà¦ķà§°à¦¿": 3976,
      "Ġkey": 3977,
      "pect": 3978,
      "Ġopp": 3979,
      "à¯Ĩà®©": 3980,
      "hers": 3981,
      "Ġà°ľà°°": 3982,
      "ĠStates": 3983,
      "à¥Īà¤Ĥà¤ķ": 3984,
      "ways": 3985,
      "âģ¡": 3986,
      "Ġseveral": 3987,
      "arc": 3988,
      "Ġà®ĩà®¯": 3989,
      "ĠUniversity": 3990,
      "Ġà´ļàµĨà´¯àµįà´¤": 3991,
      "ton": 3992,
      "Ġunt": 3993,
      "Ġàª¤àª®": 3994,
      "enef": 3995,
      "med": 3996,
      "à´¾à´Ĺ": 3997,
      "à²Ĥà²Ł": 3998,
      "à®µà®°à¯į": 3999,
      "à¯ģà®µà®°": 4000,
      "ining": 4001,
      "ĠAt": 4002,
      "over": 4003,
      "à¯įà®¸": 4004,
      "Ġà¦¥à§ĩà¦ķà§ĩ": 4005,
      "Ġà®¸": 4006,
      "Ġcredit": 4007,
      "à¥įà¤ķ": 4008,
      "Ġet": 4009,
      "à±ĩà°Ĥà°¦": 4010,
      "à¯ģà®ķà¯įà®ķà¯ģà®®à¯į": 4011,
      "à¯Īà®ķà®³à¯į": 4012,
      "Ġemploy": 4013,
      "Ġmonth": 4014,
      "ier": 4015,
      "ples": 4016,
      "Ġà¨¸à¨¿à©°à¨ĺ": 4017,
      "If": 4018,
      "·àŃįà¬Ł": 4019,
      "ote": 4020,
      "view": 4021,
      "Ġavailable": 4022,
      "à²¾à²³": 4023,
      "à®µà¯ģ": 4024,
      "à¯Ĩà®¯": 4025,
      "Ġà²¦à²¿à²¨": 4026,
      "(\"/": 4027,
      "ots": 4028,
      "ĠNational": 4029,
      "ends": 4030,
      "Ġcountries": 4031,
      "Ġlog": 4032,
      "acter": 4033,
      "à¬¾à¬ĩà¬ģ": 4034,
      "ler": 4035,
      "àµĢà´µ": 4036,
      "à²Ĥà²¤à²°": 4037,
      "à°³à±įà°²": 4038,
      "pend": 4039,
      "à¥§": 4040,
      "Ġfood": 4041,
      "ead": 4042,
      "ww": 4043,
      "ina": 4044,
      "à§ģà§±": 4045,
      "à®¤à¯įà®¤à®¿à®©à¯į": 4046,
      "Ġà®Ĭ": 4047,
      "Ġà°ĵ": 4048,
      "Ġà¤µà¥įà¤¯": 4049,
      "à°¡à±įà°¡": 4050,
      "à°°à±įà°µ": 4051,
      "Ġà¨Ĺà¨¿à¨Ĩ": 4052,
      "à²¬à²¹à³ģà²¦à³ģ": 4053,
      "à¦¤à¦¾": 4054,
      "àªķà«įàª": 4055,
      "àª¾àª°à«Ģ": 4056,
      "Ġabove": 4057,
      "ĠAct": 4058,
      "à¤°à¥įà¤®": 4059,
      "fer": 4060,
      "àµº": 4061,
      "raph": 4062,
      "Ġcertain": 4063,
      "à±įà°³": 4064,
      "à²°à²¿à²Ĥà²¦": 4065,
      "à²µà³Ĩ": 4066,
      "Ġà¤¸à¤ķ": 4067,
      "à³Ģà²µ": 4068,
      "Ġà¦¤à¦¿à¦¨": 4069,
      "Ġshort": 4070,
      "à¦·à§įà¦Ł": 4071,
      "à¬§àŃįàŃŁ": 4072,
      "Ġoffic": 4073,
      "ctx": 4074,
      "ilar": 4075,
      "Ġà¦ªà§°à¦¾": 4076,
      "à¤¿à¤®": 4077,
      "à¦¤à§įà¦¤": 4078,
      "orn": 4079,
      "à°¿à°¦": 4080,
      "à²¦à²¿à²Ĥà²¦": 4081,
      "Ġà®®à®°": 4082,
      "Ġinvol": 4083,
      "Ġà¤²à¥ĩ": 4084,
      "à®¾à®ľ": 4085,
      "à§įà¦£": 4086,
      "Ġarea": 4087,
      "Ġpopulation": 4088,
      "Ġfour": 4089,
      "à´¤àµįà´¤à´¿à´¨àµįà´±àµĨ": 4090,
      "à°¾à°²à°¨à°¿": 4091,
      "duct": 4092,
      "ffic": 4093,
      "à®¾à®¤à¯ģ": 4094,
      "lobal": 4095,
      "Ġmil": 4096,
      "àªµà«Ģ": 4097,
      "Ġà¦ıà¦¬": 4098,
      "Ġamong": 4099,
      "à²¦à²²": 4100,
      "à°¿à°Ĥà°¦": 4101,
      "à¯ģà®µà®©": 4102,
      "à¯įà®¨à¯įà®¤à¯ģ": 4103,
      "Ġà¨¹à©Ģ": 4104,
      "ustom": 4105,
      "Ġà¨īà¨¨à©įà¨¹à¨¾à¨Ĥ": 4106,
      "Ġprobability": 4107,
      "ek": 4108,
      "oid": 4109,
      "Ġà¨ķà©ĭ": 4110,
      "à´³àµįà´³": 4111,
      "à´¾à´Łàµįà´Ł": 4112,
      "Ġà²®à³Ĥà²²": 4113,
      "tal": 4114,
      "à§įà¦ł": 4115,
      "à¥ģà¤¦": 4116,
      "Ġà¦ķà§°à¦¿à¦¬": 4117,
      "Ġsit": 4118,
      "à¦¿à¦ª": 4119,
      "à¨¿à¨Ĩà¨Ĥ": 4120,
      "Ġà®²": 4121,
      "rel": 4122,
      "à®Łà¯ģ": 4123,
      "à°µà°°": 4124,
      "Ġperform": 4125,
      "Ġà°Ĺà±ģà°°": 4126,
      "Ġà°¤à±Ģà°¸à±ģà°ķ": 4127,
      "à¦¯à¦¼à¦¾": 4128,
      "à§Ģà¦¯à¦¼à¦¾": 4129,
      "utions": 4130,
      "Ġà®ķà®Łà¯įà®Ł": 4131,
      "à´¯àµģà´Ĥ": 4132,
      "à²¿à²ķà³Ĭà²Ĥà²¡": 4133,
      "à´¿à´±àµįà´±": 4134,
      "ional": 4135,
      "imate": 4136,
      "à±Ģà°²": 4137,
      "ĠWh": 4138,
      "à±ģà°Ĥà°ļà°¿": 4139,
      "ger": 4140,
      "change": 4141,
      "Ġeducation": 4142,
      "à¥Ģà¤¤": 4143,
      "Ġeas": 4144,
      "urther": 4145,
      "à¤¸à¥įà¤¤": 4146,
      "à¤¸à¥įà¤¥": 4147,
      "à°¯à°Ĥ": 4148,
      "à¥įà¤¯à¤¾à¤Ĥ": 4149,
      "Ġà´¤à´¨àµįà´¨": 4150,
      "Ġà®ħà®µà®°": 4151,
      "ĠQ": 4152,
      "Ġtimes": 4153,
      "inv": 4154,
      "Ġiter": 4155,
      "ĠJew": 4156,
      "Ġindust": 4157,
      "à§ĭà¦ģ": 4158,
      "Ġgeneral": 4159,
      "gress": 4160,
      "Ġà²¸à²¹": 4161,
      "Ġà¦®à¦¹": 4162,
      "Ġà´ħà´Ł": 4163,
      "à¤µà¤°": 4164,
      "Ġhead": 4165,
      "à¯ģà®ķà®¿à®©à¯įà®±": 4166,
      "à²ĸà³įà²¯": 4167,
      "à¦°à§ĩ": 4168,
      "àªĤàª¤": 4169,
      "atural": 4170,
      "ĠUS": 4171,
      "Ġlocal": 4172,
      "Ġà´µàµĨ": 4173,
      "Ġà²¬à²Ĺ": 4174,
      "Ġà¨ľà©ĭ": 4175,
      "Ġà°ªà±įà°°à°Ń": 4176,
      "Ġà®¤à¯ĩà®µ": 4177,
      "Ġpossible": 4178,
      "à¨¿à¨¨": 4179,
      "IO": 4180,
      "à¥ģà¤®": 4181,
      "Ġà¤ªà¥įà¤°à¤¤": 4182,
      "ĻàŃįà¬Ĺ": 4183,
      "xy": 4184,
      "Ġà²§": 4185,
      "à²²à²¾à²Ĺà²¿à²¦à³Ĩ": 4186,
      "à®¤à¯įà®¤à®¿à®±à¯įà®ķ": 4187,
      "à°Łà°¿": 4188,
      "Ġà²µà²¿à²¶": 4189,
      "Ġà²ķà²¾à²°à³įà²¯": 4190,
      "Ġà¦ķà¦¿à¦¨à§įà¦¤à§ģ": 4191,
      "à¦ŀ": 4192,
      "à¨¾à¨¤": 4193,
      "à¦¨à§°": 4194,
      "Ġvis": 4195,
      "ha": 4196,
      "¥à«ĩ": 4197,
      "à¥Ĥà¤ª": 4198,
      "à§ģà¦¤": 4199,
      "à²ķà²¾à²°": 4200,
      "à®µà¯įà®µ": 4201,
      "Ġà´ªàµĬ": 4202,
      "Ġà´ķàµĩ": 4203,
      "Ġà´ķà´¾à´°": 4204,
      "Ġà´ħà´¨": 4205,
      "Ġwant": 4206,
      "import": 4207,
      "olution": 4208,
      "à¦°à¦¾": 4209,
      "Ġà¤¸à¤°": 4210,
      "àª¾àª°àª¾": 4211,
      "à¦Ĩ": 4212,
      "àŃįà¬ª": 4213,
      "Ġà¤īà¤¸": 4214,
      "Ġà¦ķà¦¾à§°": 4215,
      "àµįà´¤àµįà´¤": 4216,
      "à´®à´¾à´£àµį": 4217,
      "à±įà°¯à°Ĥ": 4218,
      "though": 4219,
      "à°¸à±į": 4220,
      "Ġà²¤à²¿à²³": 4221,
      "Ġdeterm": 4222,
      "ergy": 4223,
      "Ġmulti": 4224,
      "ought": 4225,
      "Ġà¦Ĩà¦Ľà§ĩ": 4226,
      "Ġà¦¸à¦®à¦¯à¦¼": 4227,
      "Ġearly": 4228,
      "flag": 4229,
      "Ġintegr": 4230,
      "Ġ/": 4231,
      "Ġà¨¹à©ģ": 4232,
      "Ġà®İà®¤à®¿à®°": 4233,
      "à´ŀàµįà´ļ": 4234,
      "àµįà´¨": 4235,
      "Ġbro": 4236,
      "à®²à®¾à®®à¯į": 4237,
      "Ġà¤¤à¤°": 4238,
      "àµģà´ķàµ¾": 4239,
      "à²·à³įà²Łà³ģ": 4240,
      "Ġà²Ńà²¾à²°à²¤": 4241,
      "rist": 4242,
      "à¤¾à¤ĩ": 4243,
      "Ġmove": 4244,
      "Ġà¦²à¦Ĺ": 4245,
      "à¬¾à¬³": 4246,
      "Ġphys": 4247,
      "à²³à³Ĩ": 4248,
      "Ġà²ħà²Ń": 4249,
      "osp": 4250,
      "à´¿à´ķàµįà´ķàµģà´Ĥ": 4251,
      "à®Ļà¯įà®ķà®³à¯Ī": 4252,
      "à´Ļàµįà´Ļà´³àµį": 4253,
      "head": 4254,
      "ither": 4255,
      "ides": 4256,
      "à¨°à©ĩ": 4257,
      "verage": 4258,
      "Ġorig": 4259,
      "aim": 4260,
      "Ġes": 4261,
      "à®¿à®¯à¯ģà®®à¯į": 4262,
      "Ġcaus": 4263,
      "Ġtop": 4264,
      "Ġthink": 4265,
      "verse": 4266,
      "à³įà²°à²®": 4267,
      "Ġà°ħà°¨à°¿": 4268,
      "Ġà¨¸à¨°": 4269,
      "à°¡à°¾à°¨à°¿à°ķà°¿": 4270,
      "Ġà²Ĺà³įà²°": 4271,
      "Ġfac": 4272,
      "à±Ĩà°Ł": 4273,
      "Ġàª¸àª®": 4274,
      "print": 4275,
      "Ġà®µà®¾à®´": 4276,
      "Ġestab": 4277,
      "Ġà¤ħà¤§à¤¿à¤ķ": 4278,
      "anks": 4279,
      "à¤¾à¤§": 4280,
      "à¤ķà¤¾": 4281,
      "Ġfamily": 4282,
      "Ļà¯įà®ķà®³à¯į": 4283,
      "à²«": 4284,
      "erc": 4285,
      "Ġbond": 4286,
      "Ġbenef": 4287,
      "Ġà´ķàµĤà´Ł": 4288,
      "à°ªà±įà°ªà±ģà°¡à±ģ": 4289,
      "Ġhigher": 4290,
      "Ġà´ªà´°à´¿à´": 4291,
      "ĠAmerican": 4292,
      "Ġà¤¹à¥ģà¤": 4293,
      "Ġà¤ªà¤¹": 4294,
      "Ġteam": 4295,
      "Ġtri": 4296,
      "Ġold": 4297,
      "à¤Ĥà¤¡": 4298,
      "by": 4299,
      "Ġide": 4300,
      "Ġder": 4301,
      "àª¾àªĪ": 4302,
      "à´¤à´¿à´°": 4303,
      "Ġà®ļà®®": 4304,
      "Ġà°¦à±Ģ": 4305,
      "à®±à¯įà®ķà¯ģ": 4306,
      "à¯Īà®¤à¯įà®¤à¯ģ": 4307,
      "Ġfre": 4308,
      "à§ĩà¦¬": 4309,
      "idence": 4310,
      "Ġvalues": 4311,
      "ories": 4312,
      "Ġà®®à®¾à®µ": 4313,
      "à«ĭàªķ": 4314,
      "Ġeng": 4315,
      "à°Ĥà°¤à±įà°°": 4316,
      "ration": 4317,
      "àªĪ": 4318,
      "à²Ĥà²ª": 4319,
      "à®²à®®à¯į": 4320,
      "à±Ĩà°Ĥà°Ł": 4321,
      "à®¾à®®à®²à¯į": 4322,
      "St": 4323,
      "àª¨à«ģàªĤ": 4324,
      "Ġsuccess": 4325,
      "àª¾àª¨àª¾": 4326,
      "à¬¾àŃŁ": 4327,
      "amb": 4328,
      "ĠBank": 4329,
      "Ġhere": 4330,
      "ending": 4331,
      "à°¾à°¹": 4332,
      "Ġbody": 4333,
      "Ġnear": 4334,
      "à¬¾à¬Ĺ": 4335,
      "Ġà²®à²¹": 4336,
      "à²¾à²°à³ģ": 4337,
      "Ġà¦Ĩà¦ª": 4338,
      "à²¿à²¸à³ģà²¤à³įà²¤": 4339,
      "à´¸àµįà´±àµįà´±": 4340,
      "à´¨à´Ĥ": 4341,
      "Ġeconomic": 4342,
      "urope": 4343,
      ".âĢĿ": 4344,
      "īà¬": 4345,
      "à¦¾à¦ķà§ĩ": 4346,
      "Ġbuild": 4347,
      "Ġsignific": 4348,
      "à®ŀà¯įà®ļ": 4349,
      "à¨ĩ": 4350,
      "à§įà¦Ń": 4351,
      "à§ģà¦¬": 4352,
      "Ġà²¸à²¾à²§": 4353,
      "àµ¼à´¤àµįà´¤": 4354,
      "à®¾à®±à¯įà®±": 4355,
      "Ġindex": 4356,
      "à¤¾à¤¶": 4357,
      "à¤¿à¤¯à¥ĭà¤Ĥ": 4358,
      "à§ĭà¦°": 4359,
      "ended": 4360,
      "Ġunderstand": 4361,
      "Ġrecord": 4362,
      "Ġà¦Ĩà¦®à¦¿": 4363,
      "Ġdon": 4364,
      "Ġnet": 4365,
      "à¬¿à¬¶": 4366,
      "à«įàª¯à«ĭ": 4367,
      "à²¿à²¤à³įà²°": 4368,
      "à´±àµįà´±àµį": 4369,
      "Ġche": 4370,
      "left": 4371,
      "Ġareas": 4372,
      "resp": 4373,
      "Ġà¦¬à§įà¦¯à¦": 4374,
      "Ġ[\"": 4375,
      "à°¾à°¶": 4376,
      "à¦¿à¦ľ": 4377,
      "ental": 4378,
      "à§ĩà¦¦": 4379,
      "ager": 4380,
      "Ġà¨ľà¨¾à¨Ĥ": 4381,
      "Ġà®Ĩà®¯": 4382,
      "Ġbusiness": 4383,
      "foo": 4384,
      "ances": 4385,
      "Ġcomput": 4386,
      "of": 4387,
      "à¬¾à¬£": 4388,
      "à²¤à²¿à²¯": 4389,
      "Ġà®ħà®³": 4390,
      "àµĭà´Łàµįà´Ł": 4391,
      "Ġà²¨à²¿à²®": 4392,
      "Ġà¨ķà©Ģà¨¤à¨¾": 4393,
      "atives": 4394,
      "ises": 4395,
      "plate": 4396,
      "Ġsays": 4397,
      "Ġgr": 4398,
      "Ġà¤¸à¥įà¤µ": 4399,
      "à¤¾à¤²à¥ĩ": 4400,
      "à±įà°£": 4401,
      "Ġàªĺ": 4402,
      "Ġht": 4403,
      "à¤°à¥ĩ": 4404,
      "à¥ĭà¤ľ": 4405,
      "à±ĩà°®": 4406,
      "Ġà®¨à®¾à®©à¯į": 4407,
      "ĠWorld": 4408,
      "Ġà®µà¯Ĩà®³à®¿à®¯": 4409,
      "Ġlanguage": 4410,
      "sy": 4411,
      "à¨¾à¨¦": 4412,
      "à¨¾à¨ī": 4413,
      "ĠSc": 4414,
      "Ġtre": 4415,
      "ilities": 4416,
      "àµĩà´£àµįà´Ł": 4417,
      "Ġà®Ĩà®©à®¾à®²à¯į": 4418,
      "ling": 4419,
      "à¤¢": 4420,
      "ats": 4421,
      "igh": 4422,
      "Ġà¤ªà¥Ĥ": 4423,
      "Ġcentury": 4424,
      "à¦¡": 4425,
      "Ġà¬ĺ": 4426,
      "ooks": 4427,
      "Ġà®®à¯ĩà®²": 4428,
      "ware": 4429,
      "Ġsing": 4430,
      "rodu": 4431,
      "Ġlab": 4432,
      "Ġloss": 4433,
      "à¬¿à¬Ľà¬¿": 4434,
      "Ġà¦ħà¦§": 4435,
      "dom": 4436,
      "reg": 4437,
      "Ġtoo": 4438,
      "Ġhold": 4439,
      "à¦¾à¦²à§ĩ": 4440,
      "data": 4441,
      "à®¾à®ªà¯įà®ª": 4442,
      "Ġinit": 4443,
      "à´¤à´¿": 4444,
      "Ġà®ļà®¿à®²": 4445,
      "plic": 4446,
      "à®¿à®ķà¯įà®ķà®ªà¯įà®ªà®Łà¯įà®Ł": 4447,
      "Ġpriv": 4448,
      "::": 4449,
      "Ġstruct": 4450,
      "Ġà¦Ĩà¦¹": 4451,
      "Ġà¤¬à¥Īà¤Ĥà¤ķ": 4452,
      "à¦¯": 4453,
      "à°¿à°ķà°¾à°°": 4454,
      "Ġmeans": 4455,
      "Ġdel": 4456,
      "Ġla": 4457,
      "Ġà®µà®¿à®°": 4458,
      "à±ĩà°ª": 4459,
      "Ġà´¸àµįà´¥": 4460,
      "Ġà®īà®°": 4461,
      "Ġà²Ĺà³ģ": 4462,
      "Ġà®ªà¯ĭà®²": 4463,
      "à´ķàµįà´¤": 4464,
      "à²¦à³ģà²ķ": 4465,
      "Ġà¦ķà¦¥à¦¾": 4466,
      "pper": 4467,
      "result": 4468,
      "Ġà°¨à±ģà°Ĥà°ļà°¿": 4469,
      "Ġàª¶àªķ": 4470,
      "Ġgrowth": 4471,
      "à¦¿à¦²à§ĩ": 4472,
      "à®·": 4473,
      "à²¿à²İ": 4474,
      "Ġcr": 4475,
      "àµĭàµ¾": 4476,
      "Ġà´ķàµģà´±": 4477,
      "à®Łà¯įà®Łà¯ģ": 4478,
      "à´£àµįà´£": 4479,
      "à²¿à²µà³Ĩ": 4480,
      "Ġà®µà®¿à®³": 4481,
      "à°·à±įà°Ł": 4482,
      "Ġà¨ĺ": 4483,
      "Ġà¬®à¬§àŃįàŃŁ": 4484,
      "Ġquest": 4485,
      "Ġoption": 4486,
      "Ġimpro": 4487,
      "Ġfar": 4488,
      "Ġel": 4489,
      "à±Ģà°¯": 4490,
      "Ġà´¨àµĩ": 4491,
      "Ġincrease": 4492,
      "àª¥": 4493,
      "à¦¾à¦·": 4494,
      "à¨¤à¨°": 4495,
      "à¦¾à§°à§ĩ": 4496,
      "Ġà¦¸à¦®à§įà¦ª": 4497,
      "Ġà¬ıà¬¹à¬¿": 4498,
      "àŃ¦": 4499,
      "Ġdeb": 4500,
      "Ġchar": 4501,
      "Any": 4502,
      "Ĥ¹": 4503,
      "à°¾à°³": 4504,
      "Ġtotal": 4505,
      "à´¯à´Ĥ": 4506,
      "Ġenergy": 4507,
      "Ġsay": 4508,
      "à«įàª®": 4509,
      "back": 4510,
      "Ġversion": 4511,
      "à°Ĥà°§": 4512,
      "à¦ķà§°": 4513,
      "à©ĭà¨ķ": 4514,
      "à±ģà°²à°ķà±ģ": 4515,
      "Ġclick": 4516,
      "à¬¸àŃįà¬¤": 4517,
      "face": 4518,
      "à«ĥ": 4519,
      "à²¦à²²à³įà²²": 4520,
      "Ġà¨ķà©ģ": 4521,
      "à³Ĥà²¡": 4522,
      "à¯Ĭà®°": 4523,
      "Ġà¤Ńà¤¾à¤°": 4524,
      "àµĩà´°à´³": 4525,
      "à¦¾à¦Ľ": 4526,
      "rad": 4527,
      "à¤¾à¤Ĥà¤Ĺ": 4528,
      "Ġevent": 4529,
      "Ġàª¸àª¾àª¥à«ĩ": 4530,
      "àŃįà¬¡": 4531,
      "à¦ķà¦¾à¦°": 4532,
      "Ġà¤®à¥ĭ": 4533,
      "à§Ģà¦¨": 4534,
      "Ġleast": 4535,
      "à®¾à®¤à¯įà®¤": 4536,
      "àŃ±": 4537,
      "Ġfield": 4538,
      "à´¾à´¦": 4539,
      "Ġà®ªà¯ģà®¤": 4540,
      "Ġà®ķà®²": 4541,
      "Ġà®®à®ķà¯įà®ķ": 4542,
      "à®µà®¿à®²à¯įà®²à¯Ī": 4543,
      "à±ĩà°¤": 4544,
      "àµĢà´°": 4545,
      "à²Ĥà²¤à³įà²°": 4546,
      "à´¨àµįà´¤àµįà´¯": 4547,
      "à±Ģà°°à±ģ": 4548,
      "mber": 4549,
      "à¦¿à¦Ľà¦¿à¦²": 4550,
      "à§Ģà¦¤": 4551,
      "rict": 4552,
      "}}\\": 4553,
      "à§°à¦¤": 4554,
      "à¦®à¦¾à¦¨": 4555,
      "Ġrates": 4556,
      "Ġà´¨à´¿à´°": 4557,
      "à°¾à°¨à°¿": 4558,
      "à®±à¯įà®±à¯ģ": 4559,
      "Ġclient": 4560,
      "à¯ģà®³à¯įà®³à®¾à®°à¯į": 4561,
      "à²ľà³įà²": 4562,
      ",âĢĿ": 4563,
      "à¨Ŀ": 4564,
      "Ġà¦¬à§°": 4565,
      "Ġàª¤à«ĩàª": 4566,
      "Ġà¦¨à¦¿à¦ľ": 4567,
      "Ġcapital": 4568,
      "acy": 4569,
      "aken": 4570,
      "Ġlik": 4571,
      "à®¾à®ª": 4572,
      "à²Ĥà²§": 4573,
      "Ġà®ªà¯ĩ": 4574,
      "Ġà²¨à³ĭà²¡": 4575,
      "Ġà²¬à²Ĥà²¦": 4576,
      "à±ģà°²à°¨à±ģ": 4577,
      "Ġà¦ħà¦Ń": 4578,
      "àµĩà´¹": 4579,
      "à´¿à´¤àµįà´°": 4580,
      "Ġresults": 4581,
      "Ġkeep": 4582,
      "ĠEurope": 4583,
      "à§įà¦¯à§ĩ": 4584,
      "à¨²à©ĩ": 4585,
      "Ġinsurance": 4586,
      "Ġnext": 4587,
      "à¬¿à¬Ĩ": 4588,
      "Ġà®ļà®°": 4589,
      "Ġà¤²à¤Ĺ": 4590,
      "à±įà°·": 4591,
      "Ġbi": 4592,
      "Ġlin": 4593,
      "à«įàª¥": 4594,
      "Ġà²¤à²®à³įà²®": 4595,
      "Ġneg": 4596,
      "à´¾à´¤àµįà´¤": 4597,
      "Ġcult": 4598,
      "à¦¾à¦¥": 4599,
      "à¬®à¬¾à¬¨": 4600,
      "Ġvarious": 4601,
      "Ġuntil": 4602,
      "tes": 4603,
      "¯àŃįàŃŁ": 4604,
      "Ġpot": 4605,
      "à¤¾à¤²à¥Ģ": 4606,
      "Ġrepresent": 4607,
      "ape": 4608,
      "Ġpost": 4609,
      "Ġflow": 4610,
      "Ġà®ªà®ķà¯ģà®¤": 4611,
      "à±Ĩà°°": 4612,
      "Ġà´ķàµģà´Ł": 4613,
      "une": 4614,
      "à°¸à°Ĥ": 4615,
      "Ġà²¬à²Ĺà³įà²Ĺà³Ĩ": 4616,
      "For": 4617,
      "NA": 4618,
      "à¬¾à¬ĻàŃįà¬ķ": 4619,
      "ĠGod": 4620,
      "à®¾à®¨": 4621,
      "Ġdisease": 4622,
      "¥à¬¿à¬¬à¬¾": 4623,
      "à°«": 4624,
      "Ġà¨Ł": 4625,
      "à²³à³įà²³": 4626,
      "Ġaccess": 4627,
      "Ġàªīàªª": 4628,
      "Ġbelie": 4629,
      "Ġnormal": 4630,
      "Ġà®®à®¾à®µà®Łà¯įà®Ł": 4631,
      "Ġsocial": 4632,
      "Ġà¤¥à¤¾": 4633,
      "Ġfuture": 4634,
      "Ġà¦¬à§įà¦¯": 4635,
      "rix": 4636,
      "Ġà°µà°°": 4637,
      "Ġant": 4638,
      "à®¨à¯įà®¤à¯ģ": 4639,
      "Ġsecur": 4640,
      "Ġà²ĩà²²à³įà²²": 4641,
      "à¯įà®µà¯ģ": 4642,
      "à¤§à¥įà¤¯à¥ĩ": 4643,
      "ength": 4644,
      "àªı": 4645,
      "Ġbir": 4646,
      "Ġhome": 4647,
      "Ġexist": 4648,
      "Ġmodel": 4649,
      "ĠâĤ¹": 4650,
      "my": 4651,
      "pass": 4652,
      "ences": 4653,
      "Ġpar": 4654,
      "Ġmar": 4655,
      "Ġà®ħà®ªà¯įà®ª": 4656,
      "à¨¹à©ģ": 4657,
      "Ġà¬ıà¬ķ": 4658,
      "à¯ģà®ªà¯į": 4659,
      "Type": 4660,
      "cer": 4661,
      "code": 4662,
      "à®Ĩ": 4663,
      "Ġàª¡": 4664,
      "àµģà´ªàµįà´ª": 4665,
      "à®Łà®¿à®¯": 4666,
      "à°ķà°°": 4667,
      "andom": 4668,
      "Ġà´¨à´¿à´²": 4669,
      "ĠFl": 4670,
      "ĠWhen": 4671,
      "à¯įà®ļà¯įà®ļ": 4672,
      "à´¾à´²àµį": 4673,
      "Ġbecome": 4674,
      "àª¾àªĩ": 4675,
      "ĠCol": 4676,
      "à¦¦à§ĩà¦°": 4677,
      "vious": 4678,
      "Ġhttp": 4679,
      "bar": 4680,
      "alk": 4681,
      "Ġà¤µà¤°à¥įà¤": 4682,
      "Ġturn": 4683,
      "Ġtheory": 4684,
      "à¯ģà®©": 4685,
      "ention": 4686,
      "Ġà®¨à¯ĩà®°": 4687,
      "Ġà¤¨à¤¾à¤¹à¥Ģ": 4688,
      "Ġà¨ľà¨¼": 4689,
      "à°Ĥà°Łà±ĩ": 4690,
      "aterial": 4691,
      "à°Ĥà°¡à°¿": 4692,
      "Ġconsum": 4693,
      "Ġtreatment": 4694,
      "Ġcontract": 4695,
      "Ġobs": 4696,
      "Ġ}": 4697,
      "Ġput": 4698,
      "àŃįà¬®": 4699,
      "à¥ģà¤¸": 4700,
      "Ġexam": 4701,
      "à¨¨à¨¾": 4702,
      "à®¾à®¯à¯į": 4703,
      "tem": 4704,
      "{\"": 4705,
      "Ġaut": 4706,
      "à¥įà¤ļ": 4707,
      "àµģà´¨": 4708,
      "à±ģà°ļ": 4709,
      "à²Ĥà²Ń": 4710,
      "à±ĭà°¤": 4711,
      "à¦¨à¦¿": 4712,
      "à²¿à²¦à²°à³ģ": 4713,
      "Ġcomb": 4714,
      "à®¿à®ķà¯į": 4715,
      "à§ģà¦²à¦¿": 4716,
      "Ġà²®à³ģà²Ĥà²¦": 4717,
      "à²¿à²Ĥà²Ĺà³į": 4718,
      "help": 4719,
      "Ġà¤¦à¥ĭ": 4720,
      "Ġpropert": 4721,
      "inc": 4722,
      "Ġcases": 4723,
      "à°¿à°¶": 4724,
      "Ġrele": 4725,
      "ĠCan": 4726,
      "à¯ģà®¨": 4727,
      "à®Łà¯ģà®ķà¯įà®ķ": 4728,
      "Ġlater": 4729,
      "Ġà´ķàµĩà´°à´³": 4730,
      "à«ĭàª²": 4731,
      "àµĭà´¦": 4732,
      "à¯ģà®±à¯Ī": 4733,
      "àµģà´®àµįà´ª": 4734,
      "à°¾à°Ĥà°¤": 4735,
      "option": 4736,
      "à©ĩà¨Ĥ": 4737,
      "Ġpolit": 4738,
      "àª«": 4739,
      "à¥¦": 4740,
      "Ġà¦¦à§ģà¦": 4741,
      "ĠOn": 4742,
      "Ġàª¹àª¤àª¾": 4743,
      "Ġlight": 4744,
      "à§ĭà¦²": 4745,
      "agn": 4746,
      "ĠPl": 4747,
      "àµģà´®à´¾à´¯à´¿": 4748,
      "à®¾à®³à®°à¯į": 4749,
      "func": 4750,
      "à§©": 4751,
      "à¥ĭà¤²": 4752,
      "aps": 4753,
      "Ġspecial": 4754,
      "Ġdescrib": 4755,
      "atory": 4756,
      "ctions": 4757,
      "Ġcontext": 4758,
      "Ġà®¤à®°": 4759,
      "à´¯à´¿àµ½": 4760,
      "Ġà¦Ĩà¦¸": 4761,
      "à´¿à´²à´¾à´£àµį": 4762,
      "Ġà²¹à³ģ": 4763,
      "à©Ĥà¨°": 4764,
      "àªĤàª¦": 4765,
      "Ġà®¨à®¿à®±à¯ģà®µà®©": 4766,
      "rain": 4767,
      "Ġà¤Ĺà¤¯à¤¾": 4768,
      "à§ģà¦ķà§įà¦¤": 4769,
      "Ġseries": 4770,
      "ee": 4771,
      "âĢľ": 4772,
      "aining": 4773,
      "à¥ĩà¤ĸ": 4774,
      "Ġscient": 4775,
      "àª¶à«ĩ": 4776,
      "gen": 4777,
      "à´¿à´ª": 4778,
      "àŃįà¬ļ": 4779,
      "Ġà®ļà®¨à¯įà®¤": 4780,
      "à´¨àµįà´¨àµį": 4781,
      "à¯Ĥà®°à¯į": 4782,
      "à²¿à²ķà³Ĭà²³à³įà²³": 4783,
      "à¯ģà®Łà¯Īà®¯": 4784,
      "à°¾à°Łà±ģ": 4785,
      "Ġà²¨à³Ģà²µà³ģ": 4786,
      "Ġà²®à³ĩà²²à³Ĩ": 4787,
      "Ġnational": 4788,
      "Ġà¦ªà§įà¦°à¦¤": 4789,
      "Ġbetter": 4790,
      "ological": 4791,
      "à¤¾à¤³": 4792,
      "Ġbest": 4793,
      "ĠTo": 4794,
      "asing": 4795,
      "àŃįàŃ±": 4796,
      "Ġà®ļà¯ĩà®°": 4797,
      "à³Ģà²¯": 4798,
      "Ġà²¤à²¨à³įà²¨": 4799,
      "Ġà²İà²°": 4800,
      "à²¾à²Ĥà²Ĺ": 4801,
      "à´¾à´±àµįà´±": 4802,
      "à¬ĸ": 4803,
      "Ġà¤ķà¤®": 4804,
      "à¬ķàŃįà¬¤": 4805,
      "à¤¾à¤¨à¤¾": 4806,
      "Ġà¦²à¦¾à¦Ĺ": 4807,
      "ĠIntern": 4808,
      "Ġà¦Ĩà¦¬": 4809,
      "ĠFr": 4810,
      "file": 4811,
      "à¦ĥ": 4812,
      "à°¾à°²à°¨à±ģ": 4813,
      "àµ¼à´ķàµįà´ķ": 4814,
      "à±Ĥà°¨": 4815,
      "à´¿à´°àµģà´¨àµįà´¨": 4816,
      "à´¿à´ķàµįà´ķàµģà´¨àµįà´¨à´¤àµį": 4817,
      "Ġrequire": 4818,
      "ble": 4819,
      "Ġauthor": 4820,
      "Ġpath": 4821,
      "Ġmus": 4822,
      "Ġanim": 4823,
      "ably": 4824,
      "Ġà¨ĩà¨ķ": 4825,
      "tx": 4826,
      "Ġfree": 4827,
      "à¤¤à¥įà¤°": 4828,
      "Ġhapp": 4829,
      "context": 4830,
      "work": 4831,
      "¡àµį": 4832,
      "ĸà±įà°¯": 4833,
      "à®µà¯Ī": 4834,
      "à±Ģà°ľ": 4835,
      "Ġà°µà±Ī": 4836,
      "Ġà°¸à±įà°¥": 4837,
      "à´¿à´ķàµ¾": 4838,
      "àª¾àª¨à«Ģ": 4839,
      "Ġsect": 4840,
      "à¦¿à¦Ĥ": 4841,
      "à¥ģà¤ª": 4842,
      "àŃĩà¬²": 4843,
      "Ġwomen": 4844,
      "àª¾àª¡": 4845,
      "ĠFin": 4846,
      "Ġà¤¤à¥įà¤¯à¤¾à¤Ĥ": 4847,
      "Ġsignificant": 4848,
      "à´İ": 4849,
      "à®¤à®¾à®²à¯į": 4850,
      "Ġvol": 4851,
      "Ġrange": 4852,
      "à´¨àµĨ": 4853,
      "key": 4854,
      "Ġà´ĩà´¨àµįà´¤àµįà´¯": 4855,
      "à¨£à¨¾": 4856,
      "Ġchanges": 4857,
      "Ġà²µà²°à³įà²·": 4858,
      "à§«": 4859,
      "à§¯": 4860,
      "ored": 4861,
      "hi": 4862,
      "Ġà®®à®ķ": 4863,
      "Ġusually": 4864,
      "Ġà²ĵ": 4865,
      "anies": 4866,
      "à«įàª²": 4867,
      "lying": 4868,
      "add": 4869,
      "à±Ĩà°ķ": 4870,
      "à´µà´¿à´": 4871,
      "Ġà°Ĩà°¯": 4872,
      "Ġà®ļà¯Ĩà®¯à®²": 4873,
      "ĠYou": 4874,
      "à®µà®°à¯įà®ķà®³": 4875,
      "Ġà´ªà´±à´¯": 4876,
      "à«ģàª°": 4877,
      "Ġà¨¤à©ģ": 4878,
      "ĠâĢĶ": 4879,
      "Ġà¦¬à¦¿à¦·": 4880,
      "ole": 4881,
      "Ġdom": 4882,
      "Ġà¤¦à¤¿à¤²": 4883,
      "à®İ": 4884,
      "à´¥": 4885,
      "Ġà¤ł": 4886,
      "à°¿à°¡": 4887,
      "à°¿à°Ĺà°¾": 4888,
      "à²¤à²°": 4889,
      "à´¤àµįà´¤à´¿à´¨àµį": 4890,
      "à³įà²ķà²¾à²°": 4891,
      "Ġà¬ªà¬¾à¬ĩà¬ģ": 4892,
      "à´¿à´ļàµįà´ļà´¤àµį": 4893,
      "Ġplant": 4894,
      "àŃĭà¬²": 4895,
      "à±ģà°¤à±įà°µ": 4896,
      "Ġà²īà²ª": 4897,
      "Ġà®µà®´à®Ļà¯įà®ķ": 4898,
      "fil": 4899,
      "àª¾àªĸ": 4900,
      "Ġàªķàª¹": 4901,
      "à¦¾à¦¨à§ĩ": 4902,
      "ookie": 4903,
      "pytest": 4904,
      "Ġi": 4905,
      "alf": 4906,
      "Ġbillion": 4907,
      "à³ģà²¨": 4908,
      "à±ģà°¸": 4909,
      "à¤Ĥà¤§": 4910,
      "Ġà®ħà®²à¯įà®²": 4911,
      "à®®à¯ģà®®à¯į": 4912,
      "Ġà°¸à±įà°µ": 4913,
      "à°¸à±įà°Ł": 4914,
      "Ġspace": 4915,
      "Ġcrit": 4916,
      "Ġfall": 4917,
      "Ġdev": 4918,
      "à¥įà¤¯à¤¾à¤¤": 4919,
      "Ġsimilar": 4920,
      "Ġà¤¸à¤¾à¤¥": 4921,
      "Ġhistory": 4922,
      "mark": 4923,
      "à§ĩà¦¹": 4924,
      "à«Ģàªı": 4925,
      "à²ķà³Ĩ": 4926,
      "ĠSy": 4927,
      "à²¡à³įà²¡": 4928,
      "Ġà¤®à¥įà¤¹": 4929,
      "à²¨à³įà²¨à³Ĥ": 4930,
      "Ġà®īà®¯": 4931,
      "Ġenc": 4932,
      "Ġcalcul": 4933,
      "à¬¨àŃįà¬¦": 4934,
      "Ġconc": 4935,
      "Ńà´µ": 4936,
      "à²İ": 4937,
      "à¤ĺ": 4938,
      "isc": 4939,
      "Ġmaterial": 4940,
      "à²µà³ĩ": 4941,
      "à°°à°Ĥ": 4942,
      "à±ĭà°Ĥà°¦à°¿": 4943,
      "Ġà®ħà®£": 4944,
      "raw": 4945,
      "à³įà²¨à²²à³įà²²à²¿": 4946,
      "à³Ĥà²ª": 4947,
      "à±Īà°¤": 4948,
      "Ġà°īà°Ĥà°¡": 4949,
      "IT": 4950,
      "output": 4951,
      "aper": 4952,
      "Ġmanagement": 4953,
      "=\\": 4954,
      "ER": 4955,
      "àªĽ": 4956,
      "Ġà°ķà°¨": 4957,
      "Ġà¬§": 4958,
      "ills": 4959,
      "Ġfail": 4960,
      "à¥ĭà¤ķ": 4961,
      "à¦¤à§ĭ": 4962,
      "istic": 4963,
      "ĠBrit": 4964,
      "à§ĩà¦Ľà§ĩà¦¨": 4965,
      "invoke": 4966,
      "Ġbool": 4967,
      "ctor": 4968,
      "à®Łà¯įà®ļ": 4969,
      "Ġà¤¸à¥ģà¤°": 4970,
      "Ġà²ķà²°": 4971,
      "ember": 4972,
      "à°¾à°²à±ĭ": 4973,
      "àµĤà´Łàµįà´Ł": 4974,
      "à¥ģà¤³": 4975,
      "Ġspecific": 4976,
      "Ġà´ªàµĭà´²": 4977,
      "Ġfile": 4978,
      "utes": 4979,
      "Ġstates": 4980,
      "Ġprim": 4981,
      "icle": 4982,
      "à¨¾à¨ķ": 4983,
      "Ġdiff": 4984,
      "Ġspecies": 4985,
      "Ġà¤¸à¤°à¤ķà¤¾à¤°": 4986,
      "Ġà°®à°¨": 4987,
      "à¯Īà®¯à®¾à®ķ": 4988,
      "exp": 4989,
      "Ġtrad": 4990,
      "à±Ģà°Ĩ": 4991,
      "****************": 4992,
      "Ex": 4993,
      "env": 4994,
      "à¦ķà¦¾": 4995,
      "Ġà¤¹à¥ĭà¤¤à¤¾": 4996,
      "Ġnews": 4997,
      "\"],": 4998,
      "Ġtext": 4999,
      "à§°à¦¿": 5000,
      "à®¤à¯įà®¤à®¿à®¯": 5001,
      "àŃįà¬°àŃĢ": 5002,
      "Ġà°µà°¿à°·": 5003,
      "Ġàª¹àª¤à«Ģ": 5004,
      "à¤²à¥įà¤¯à¤¾": 5005,
      "Ġà´ķà´£àµįà´Ł": 5006,
      "Ġà²ħà²Ĥà²¤": 5007,
      "Ġà²ħà²¨à³ģ": 5008,
      "à°ªà±Ī": 5009,
      "à°Łà±įà°²à±ģ": 5010,
      "ards": 5011,
      "Ġà°¬à±įà°°": 5012,
      "à¤¾à¤¯à¤¾": 5013,
      "Ġà°Ńà°¾à°°": 5014,
      "Ġà¦ıà¦¬à¦Ĥ": 5015,
      "Ġà°ªà±įà°°à°Ńà±ģà°¤à±įà°µ": 5016,
      "cont": 5017,
      "à¦¾à§±": 5018,
      "àŃįà¬¨": 5019,
      "ĠAll": 5020,
      "ĠMed": 5021,
      "Ġà¦ħà¦¬": 5022,
      "ysis": 5023,
      "Ġà¨¦à¨¿à©±": 5024,
      "Ġà´ŀ": 5025,
      "à²¾à²·": 5026,
      "à´¤àµįà´°": 5027,
      "Ġà®ķà®£": 5028,
      "à´°à´Ĥ": 5029,
      "Ġà°ħà°²": 5030,
      "à³Ĥà²°à³ģ": 5031,
      "Ġà´¸àµĨ": 5032,
      "Ġà¤¨à¤¿": 5033,
      "ogn": 5034,
      "Ġleft": 5035,
      "à²°à³įà²¥": 5036,
      "Ġà®ķà¯Ĭà®³à¯įà®³": 5037,
      "Ġà´µà´¿à´¦": 5038,
      "à¤¾à¤Ł": 5039,
      "ival": 5040,
      "·à¥įà¤Ł": 5041,
      "Ġ__": 5042,
      "à´¾à´´": 5043,
      "Ġà®İà®©à¯į": 5044,
      "plement": 5045,
      "Ġà¨¤à¨¾à¨Ĥ": 5046,
      "à«ĭàª¡": 5047,
      "à¬ĻàŃįà¬ķàŃģ": 5048,
      "à¤¾à¤ı": 5049,
      "Ġà¨ķà¨¾à¨°": 5050,
      "ograph": 5051,
      "ators": 5052,
      "Ġcause": 5053,
      "Ġlower": 5054,
      "à«Ģàª¤": 5055,
      "à³Ĩà²°": 5056,
      "ids": 5057,
      "rag": 5058,
      "àµĭàµ¼": 5059,
      "Ġà®ĩà®¤à¯ģ": 5060,
      "à¯ĭà®°": 5061,
      "ush": 5062,
      "à³ĭà²ª": 5063,
      "Ġà¦¦à§ĩà¦¶": 5064,
      "à¯Īà®ªà¯Ĩ": 5065,
      "à´¦àµįà´¦": 5066,
      "mp": 5067,
      "wh": 5068,
      "à¬ł": 5069,
      "Ġair": 5070,
      "Ġàª¯": 5071,
      "Ġwar": 5072,
      "à¯ĩà®¯": 5073,
      "Ġà¦¬à¦¾": 5074,
      "Ġà°°à°¾à°·": 5075,
      "ĠChrist": 5076,
      "Ġhowever": 5077,
      "à¥ĭà¤Ł": 5078,
      "à¤µà¤¾": 5079,
      "Ġinvestment": 5080,
      "Ġsingle": 5081,
      "eb": 5082,
      "wargs": 5083,
      "Ġnatural": 5084,
      "Ġable": 5085,
      "à§Ĥà¦°": 5086,
      "Ġà°ļà±ĩà°¶à°¾à°°à±ģ": 5087,
      "As": 5088,
      "àª¾àªª": 5089,
      "Ġàªķàª¾àª°": 5090,
      "Ġà¬ıà¬¬": 5091,
      "ĠPol": 5092,
      "à¤°à¥įà¤£": 5093,
      "Ġcentral": 5094,
      "ox": 5095,
      "à´¾à´¹": 5096,
      "à¯Īà®®": 5097,
      "Ġà®®à®Łà¯įà®Ł": 5098,
      "Ġà®®à®¿à®ķ": 5099,
      "Ġà°¸à°¿à°¨": 5100,
      "Ġà®İà®²à¯įà®²": 5101,
      "à¤£à¤¾à¤°": 5102,
      "Ġà¤¬à¥Ģà¤®": 5103,
      "à²°à³įà²®": 5104,
      "Ġà°Ĺà±įà°°": 5105,
      "à°¨à±įà°¨à°¾à°°à±ģ": 5106,
      "Ġà´µà´¿à´µ": 5107,
      "à¥ĩà¤¸": 5108,
      "ĠTe": 5109,
      "aid": 5110,
      "hold": 5111,
      "à§ĩà¦ľ": 5112,
      "à§ĩà¦Ľà¦¿à¦²": 5113,
      "Ġconn": 5114,
      "à©°à¨®": 5115,
      "à¥Ĥà¤°": 5116,
      "¥à¬¿à¬²à¬¾": 5117,
      "Ġterms": 5118,
      "¦àµįà´": 5119,
      "à¥¨": 5120,
      "à´¾à´¨àµįà´": 5121,
      "Ġdri": 5122,
      "etic": 5123,
      "à«įàª¸": 5124,
      "Ġà¤¸à¥įà¤¥": 5125,
      "à´£à´®": 5126,
      "à¥ģà¤ĸ": 5127,
      "Ġà®°à¯Ĥ": 5128,
      "Ġcomplex": 5129,
      "ya": 5130,
      "Ġline": 5131,
      "à¦¦à§įà¦§": 5132,
      "Ġcells": 5133,
      "Ġpressure": 5134,
      "Com": 5135,
      "Ġà¨§": 5136,
      "Ġà¦¨à¦¾à¦®": 5137,
      "àŃĩà¬¤": 5138,
      "#:": 5139,
      "à¥ħ": 5140,
      "àŃįà¬²": 5141,
      "à±Ĩà°¨": 5142,
      "Ġà®¨à®®": 5143,
      "ope": 5144,
      "Ġà¬¸àŃĩ": 5145,
      "Ġà®®à¯ģà®¤à®²à¯į": 5146,
      "erve": 5147,
      "àª¾àª¹": 5148,
      "à¦¯à¦¼à§ĩ": 5149,
      "False": 5150,
      "Ġur": 5151,
      "Ġà®µà®¿à®µ": 5152,
      "Ġà¦Ĩà¦¨": 5153,
      "à©±à¨¸": 5154,
      "Ġà¦¦à¦¿à¦¨": 5155,
      "Ġà¤¦à¥įà¤µ": 5156,
      "PI": 5157,
      "à²¨à³Ĩà²¯": 5158,
      "à´¤à´¿à´¯": 5159,
      "à´¯à´¿à´²àµį": 5160,
      "à°¾à°°à°¾": 5161,
      "Ġà°ķà°¾à°¨": 5162,
      "à´¤àµįà´¤à´¿à´¨": 5163,
      "àŃĩà¬¶": 5164,
      "Ġintrodu": 5165,
      "Ġà²İà²Ĥà²¦": 5166,
      "à°°à±įà°ª": 5167,
      "à±ģà°¤à±ģà°¨à±įà°¨": 5168,
      "Ġà¤Ĩà¤¹à¥ĩà¤¤": 5169,
      "à¯Īà®ķà¯įà®ķà¯ģ": 5170,
      "Ġproblem": 5171,
      "use": 5172,
      "Ġsw": 5173,
      "Ġret": 5174,
      "Ġlit": 5175,
      "Ġà¤ķà¤°à¤£à¥įà¤¯à¤¾à¤": 5176,
      "Ġà¬®àŃģà¬": 5177,
      "Ġothers": 5178,
      "Ġflask": 5179,
      "bin": 5180,
      "Ġà¨¯": 5181,
      "Ġfive": 5182,
      "Ġblood": 5183,
      "àŃĩà¬³": 5184,
      "à®¿à®ķà¯įà®ķà¯ģ": 5185,
      "à®ľ": 5186,
      "à¯įà®ķà®¿à®±": 5187,
      "ĠĠĠĠĠĠĠĠĠĠĠĠĠĠĠĠĠĠĠĠĠĠĠĠĠĠ": 5188,
      "à¬¿à¬ª": 5189,
      "Ġstep": 5190,
      "Ġà®¨à®¾à®Ł": 5191,
      "à¨¾à¨°à©Ģ": 5192,
      "Ġà´²à´Ń": 5193,
      "àµįà´¸àµį": 5194,
      "à³Ĭà²Ĥà²¦à²¿à²Ĺà³Ĩ": 5195,
      "Ġà¦¤à¦¿à¦¨à¦¿": 5196,
      "Ġmen": 5197,
      "Ġalong": 5198,
      "Ġà¦ķà§°à§ĩ": 5199,
      "rite": 5200,
      "Ïĥ": 5201,
      "Ġà¦ķà¦¿": 5202,
      "Ġà®ħà®´": 5203,
      "ada": 5204,
      "àŃĩà¬ķ": 5205,
      "ification": 5206,
      "à§ª": 5207,
      "Ġà¤Ľ": 5208,
      "Ġà°®à°¹": 5209,
      "à³ĭà²¦": 5210,
      "à´ªàµįà´°": 5211,
      "Ġà®īà®±": 5212,
      "à´¾à´°à´Ĥ": 5213,
      "àµĭà´´": 5214,
      "à´¦àµįà´§": 5215,
      "Ġà¨Ĩà¨ªà¨£à©ĩ": 5216,
      "Ġà¨ķà¨¿à¨¸": 5217,
      "Ġàª¨àª¥à«Ģ": 5218,
      "à¥ĥà¤¤": 5219,
      "Ġà¦ķà§įà¦·": 5220,
      "à§Ĥà§°": 5221,
      "Ġindepend": 5222,
      "IN": 5223,
      "à°ģ": 5224,
      "Ġparent": 5225,
      "àµĭà´£": 5226,
      "à¯ĭà®ķ": 5227,
      "Ġcome": 5228,
      "àµĢà´¸": 5229,
      "à±Ĥà°²": 5230,
      "Ġà²ĩà²°": 5231,
      "àµĩà´ľ": 5232,
      "Ġà°ĩà°¦à°¿": 5233,
      "indow": 5234,
      "Ġà®ªà¯ĭà®Łà¯įà®Ł": 5235,
      "ĠAss": 5236,
      "part": 5237,
      "aster": 5238,
      "igma": 5239,
      "Ġà¬¸à¬¹": 5240,
      "Ġindic": 5241,
      "à¦¿à¦ĵ": 5242,
      "à¬¾à¬¯": 5243,
      "Ġà¦®à§ģà¦ĸ": 5244,
      "Ġexpress": 5245,
      "Ġmeasure": 5246,
      "inst": 5247,
      "Ġsqu": 5248,
      "Ġà®ķà®¿à®°": 5249,
      "à®±à¯ģ": 5250,
      "à²¸à³įà²Ł": 5251,
      "à°¾à°¨à±ģ": 5252,
      "Ġà´°à´¾à´ľ": 5253,
      "Ġbecame": 5254,
      "Ġà®¤à¯Ĩà®°à®¿à®µà®¿à®¤à¯įà®¤": 5255,
      "ID": 5256,
      "PA": 5257,
      "Ġage": 5258,
      "Ġmax": 5259,
      "à¬¾à¬¦": 5260,
      "à¦¿à¦ķà§ĩ": 5261,
      "Ġà°°à°¾à°·à±įà°Łà±įà°°": 5262,
      "hand": 5263,
      "}^{": 5264,
      "à®²à®¿à®²à¯į": 5265,
      "à¯įà®Łà¯į": 5266,
      "à¨¿à¨µ": 5267,
      "Ġà°ķà°¾à°²": 5268,
      "à®©à¯įà®ª": 5269,
      "à²Ĥà²ķ": 5270,
      "Ġlet": 5271,
      "Ġà®¨à®Łà¯Īà®ªà¯Ĩ": 5272,
      "Ġincreased": 5273,
      "Ġà®®à¯ģà®©à¯įà®©": 5274,
      "pos": 5275,
      "Ġsom": 5276,
      "ane": 5277,
      "Ġeither": 5278,
      "à¤¸à¥Ģ": 5279,
      "Ġestim": 5280,
      "Ġclear": 5281,
      "à¤¿à¤Ł": 5282,
      "Ġà¦¯à¦¾à¦¯à¦¼": 5283,
      "echo": 5284,
      "most": 5285,
      "à°°à±ģ": 5286,
      "Ġà°ħà°¤": 5287,
      "à³ĭà²ľ": 5288,
      "àµ½à´ķ": 5289,
      "à¨¾à¨°à©ĩ": 5290,
      "à²°à³įà²£": 5291,
      "à±ģà°¤à±ģà°Ĥà°¦à°¿": 5292,
      "à®¿à®ªà¯įà®ªà¯ģ": 5293,
      "Ġà´¨à´¿à´Ļàµįà´Ļ": 5294,
      "à¥ģà¤³à¥ĩ": 5295,
      "raise": 5296,
      "iting": 5297,
      "Ġpast": 5298,
      "à®¾à®Ļà¯įà®ķ": 5299,
      "Ġhard": 5300,
      "Ġà®ĩà®±": 5301,
      "à¨¨à©Ģ": 5302,
      "à®¿à®ķà¯įà®ķà¯Ī": 5303,
      "à§Ĥà¦ª": 5304,
      "operator": 5305,
      "Ġofficial": 5306,
      "RE": 5307,
      "Ġà®ķà¯ģà®Ł": 5308,
      "Ġà¦ķà¦®": 5309,
      "Ġà°ªà±Ĭ": 5310,
      "à³Ĭà²Ĥà²¦à³ģ": 5311,
      "à³ĭà²°": 5312,
      "à°¾à°²à°¿": 5313,
      "ĠOr": 5314,
      "àŃĭà¬ķ": 5315,
      "init": 5316,
      "Ġsize": 5317,
      "Ġbr": 5318,
      "Ġmaking": 5319,
      "ĠSp": 5320,
      "Ġà¬°à¬¹": 5321,
      "Ġsubject": 5322,
      "iterable": 5323,
      "à©Įà¨°": 5324,
      ".)": 5325,
      "\\\\": 5326,
      "lean": 5327,
      "àª¤à«Ģ": 5328,
      "ixed": 5329,
      "Ġpatient": 5330,
      "Ġinflu": 5331,
      "Ġprivate": 5332,
      "à²¿à²¶": 5333,
      "à®¿à®¯à®¿à®©à¯į": 5334,
      "Ġà°ħà°Ń": 5335,
      "Ġyield": 5336,
      "Ġà¦¨à¦¿à¦°": 5337,
      "à²ªà³įà²°": 5338,
      "à®¾à®²à¯ģà®®à¯į": 5339,
      "à«ĩàª¸": 5340,
      "Ġwords": 5341,
      "Ġà¦ķà¦°à¦¾": 5342,
      "à´¦àµįà´¯": 5343,
      "Ġdiscuss": 5344,
      "Ġservices": 5345,
      "à¤ħ": 5346,
      "à§ĭà¦Ł": 5347,
      "ung": 5348,
      "Ġsugg": 5349,
      "Ġassoci": 5350,
      "Ġsuggest": 5351,
      "Ġâģł": 5352,
      "ĵà¤Ĥ": 5353,
      "Ġcash": 5354,
      "à¦¨à§ĩà¦°": 5355,
      "Ġrandom": 5356,
      "ueprint": 5357,
      "à¬ķà¬¾à¬°": 5358,
      "Ġwhether": 5359,
      "Ġbehav": 5360,
      "Ġà¨Ĳ": 5361,
      "lection": 5362,
      "Ġà®®à®£": 5363,
      "Ġà®ħà®²": 5364,
      "à°¾à°²à±įà°²à±ĭ": 5365,
      "à¤µà¤¿à¤": 5366,
      "Ġà²µà²¿à²µ": 5367,
      "Ġà°¤à°°": 5368,
      "à±ģà°¨à°¿": 5369,
      "à²¿à²Ĥà²¤": 5370,
      "ricult": 5371,
      "à°ķà±įà°ķà°¡": 5372,
      "Ġà®ļà¯Ĩà®¯à¯įà®¤à¯ģ": 5373,
      "à²¿à²¸à²¿à²¦à²°à³ģ": 5374,
      "Ġà²®à³Ĥà²²à²ķ": 5375,
      "operatorname": 5376,
      "Ġbanks": 5377,
      "ĠMan": 5378,
      "Ġà¬Ł": 5379,
      "à¦¿à¦¹": 5380,
      "à¤¦à¥Ģ": 5381,
      "àª¯àª¾": 5382,
      "wards": 5383,
      "Ġà®ļà¯Ĭà®²à¯įà®²": 5384,
      "Ġimpact": 5385,
      "side": 5386,
      "Ġpain": 5387,
      "Ġà®µà®¿à®Łà¯įà®Ł": 5388,
      "Ġà²®à²¾à²°": 5389,
      "Ġà°®à±Ģà°°à±ģ": 5390,
      "à²¸à³įà²¯": 5391,
      "à²¸à³įà²¸": 5392,
      "Ġà²Ĩà²¯": 5393,
      "Ġclaim": 5394,
      "à´¾à´°àµį": 5395,
      "à°¬à°¡": 5396,
      "Ġmembers": 5397,
      "Ġà°¸à°¿à°¨à°¿à°®": 5398,
      "icult": 5399,
      "à¦¤à§įà¦¯": 5400,
      "ules": 5401,
      "Ġcond": 5402,
      "à©°à¨ľ": 5403,
      "Ġà¬¹àŃĩà¬¬": 5404,
      "à¤¿à¤Ĥà¤Ĺ": 5405,
      "Ġcommunity": 5406,
      "Ġproblems": 5407,
      "àªķà«įàª·": 5408,
      "Ġfurther": 5409,
      "uted": 5410,
      "à¦ķà§įà¦¤": 5411,
      "Ġstock": 5412,
      "ister": 5413,
      "Ġhaving": 5414,
      "Ġà¦¬à¦¿à¦Ń": 5415,
      "pecially": 5416,
      "mathb": 5417,
      "yn": 5418,
      "à±įà°¦": 5419,
      "à²¾à²ļ": 5420,
      "Ġthings": 5421,
      "Ġà®ļà¯ĩ": 5422,
      "à²¿à²¯à²¨à³įà²¨à³ģ": 5423,
      "à¤Ĺà¤¾": 5424,
      "à´¿à´ķàµįà´ķàµį": 5425,
      "Ġàªµàª§": 5426,
      "Ġà®ĩà®¨à¯įà®¤à®¿à®¯": 5427,
      "Ġà´¶àµįà´°": 5428,
      "à°³à±įà°³": 5429,
      "Ġà°ķà±ĭà°¸à°Ĥ": 5430,
      "Ġà®ķà¯Ĭà®£à¯įà®Łà¯ģ": 5431,
      "à§įà¦¸": 5432,
      "à§ģà¦¹": 5433,
      "à°¨à±įà°¨à°¿": 5434,
      "à«Ģàªĵ": 5435,
      "Ġmot": 5436,
      "à§ĭà¦§": 5437,
      "ĠMinist": 5438,
      "comm": 5439,
      "à¤Ńà¥Ģ": 5440,
      "à±įà°§": 5441,
      "à²²à²¿": 5442,
      "Ġà´ªà´¿à´¨àµįà´¨": 5443,
      "àµĢà´ķà´°": 5444,
      "There": 5445,
      "Ġà®Ĩà®°": 5446,
      "Ġà²īà²¤à³įà²¤": 5447,
      "à°¾à°¤à±įà°°": 5448,
      "Ġsaf": 5449,
      "Ġà°ļà±ĩà°¸à°¿à°¨": 5450,
      "ariance": 5451,
      "Ġconcern": 5452,
      "BI": 5453,
      "à¤ķà¥įà¤°": 5454,
      "Ġdecl": 5455,
      "à¤°à¥įà¤¤": 5456,
      "itor": 5457,
      "Ġdeveloped": 5458,
      "Ġacross": 5459,
      "ready": 5460,
      "Ġà¦ķà§ĭà¦¨à§ĭ": 5461,
      "aut": 5462,
      "Ġà²¸à²¾à²®": 5463,
      "Ġà¤¹à¥ĩ": 5464,
      "Ġà°¸à±įà°Ł": 5465,
      "Ġrather": 5466,
      "Ġà²¬à²°": 5467,
      "à´²à´¿à´¯": 5468,
      "ocus": 5469,
      "à²¿à²ķà²¾à²°": 5470,
      "à²¿à²¨à³įà²¨": 5471,
      "à²°à³įà²µ": 5472,
      "Ġà²Īà²Ĺ": 5473,
      "Ġrequired": 5474,
      "Ġà°ķà°¾à°°à±įà°¯": 5475,
      "ĠĠĠĠĠĠĠĠĠĠĠĠĠĠĠĠĠĠĠĠĠĠĠĠĠĠĊ": 5476,
      "Ġà¤¸à¤¾à¤®": 5477,
      "Ġsystems": 5478,
      "template": 5479,
      "à¤Ĥà¤¬": 5480,
      "Ġà¦¨à¦¾à¦ĩ": 5481,
      "Ġà¦ıà¦ĸà¦¨": 5482,
      "Ġà¤ľà¤¿à¤¸": 5483,
      "Ġtemper": 5484,
      "ique": 5485,
      "mu": 5486,
      "mission": 5487,
      "à²ł": 5488,
      "à°¥": 5489,
      "ising": 5490,
      "à²Ĥà²ļ": 5491,
      "à²¤à³į": 5492,
      "à±ĭà°Ł": 5493,
      "Ġà®ķà®¿à®Ł": 5494,
      "Ġà²ķà²¾à²²": 5495,
      "à®¿à®©à®°à¯į": 5496,
      "Ġà°ļà°¾à°²": 5497,
      "Ġà²µà³Ī": 5498,
      "à¦¸à§įà¦¤": 5499,
      "à¤¦à¤¾à¤°": 5500,
      "except": 5501,
      "à²¿à²¨à²²à³įà²²à²¿": 5502,
      "à²°à³įà²¶": 5503,
      "Ġworks": 5504,
      "à¯ģà®®à®¾à®©": 5505,
      "Ġcompanies": 5506,
      "Ġà²ļà²¿à²¤à³įà²°": 5507,
      "Ġrunner": 5508,
      "Ġtypes": 5509,
      "à´¿à´²àµĩà´ķàµįà´ķàµį": 5510,
      "sum": 5511,
      "ĠSouth": 5512,
      "ands": 5513,
      "ibility": 5514,
      "}}}": 5515,
      "load": 5516,
      "Ġà¬°à¬¾à¬ľ": 5517,
      "à¨¾à¨ª": 5518,
      "vert": 5519,
      "ference": 5520,
      "Ġà°ħà°§à°¿à°ķà°¾à°°": 5521,
      "à¤°à¥ĭ": 5522,
      "à²²à³ĩ": 5523,
      "à«Ģàª¨à«ĩ": 5524,
      "ĠAf": 5525,
      "à±Ģà°Ł": 5526,
      "à°¾à°°à±įà°Ł": 5527,
      "Ġà²¨à²®à³įà²®": 5528,
      "pped": 5529,
      "ortun": 5530,
      "Ġà´¸àµģà´": 5531,
      "à°°à±įà°¶": 5532,
      "Ġà´ļà´¿à´¤àµįà´°": 5533,
      "àµĨà´¯à´¾à´£àµį": 5534,
      "Ġà²¹à³Ĭà²Ĥà²¦": 5535,
      "à¯Īà®ļà¯į": 5536,
      "Ġà°ħà°¯à°¿à°¤à±ĩ": 5537,
      "à¤Ĩ": 5538,
      "ĠAust": 5539,
      "à¦ķà¦¾à§°": 5540,
      "à¯Ĩà®Ł": 5541,
      "Ġcompany": 5542,
      "heme": 5543,
      "Ġobserv": 5544,
      "Ġà¤®à¥įà¤¹à¤£": 5545,
      "None": 5546,
      "log": 5547,
      "Ġà¦ł": 5548,
      "à¥Ģà¤µ": 5549,
      "Ġà®ķà®µ": 5550,
      "Ġ--": 5551,
      "à²µà²¾": 5552,
      "à²µà²¾à²Ĺà²¿à²¦à³Ĩ": 5553,
      "Ġà®µà®¾à®°": 5554,
      "Ġà¦ķà¦¿à¦Ľ": 5555,
      "àµĭà´ķ": 5556,
      "à®¿à®°à¯ģà®ªà¯įà®ª": 5557,
      "Ġshare": 5558,
      "àŃĭà¬Ĺ": 5559,
      "à°¾à°Ĥà°ķ": 5560,
      "Ġà®®à¯ģà®´": 5561,
      "Ġà®ªà¯Ĭà®°": 5562,
      "Ġà¬īà¬ª": 5563,
      "à²¿à²Łà³įà²Ł": 5564,
      "à¤¾à¤¡": 5565,
      "imum": 5566,
      "Ġà¦¸à¦¬": 5567,
      "Ġà¨ľà¨¾à¨£": 5568,
      "oms": 5569,
      "Ġà®ªà®¿à®±": 5570,
      "Ġà¦ħà¦¸à¦®": 5571,
      "à§ģà¦Ł": 5572,
      "à¦ĺ": 5573,
      "Ġsite": 5574,
      "à²¿à²¹": 5575,
      "à°¾à°ļ": 5576,
      "à®¤à¯ģà®®à¯į": 5577,
      "à©ĩà¨Ĺ": 5578,
      "Ġà²ķà³Ĥà²¡": 5579,
      "Ġà´ķàµĭà´Ł": 5580,
      "ĠBe": 5581,
      "Ġà´¨àµ½à´ķ": 5582,
      "à´¿à´ķàµįà´ķàµģà´ķà´¯": 5583,
      "à°°à±įà°®": 5584,
      "Ġà¦ļà¦²": 5585,
      "Ġà¦¹à§Īà¦Ľà§ĩ": 5586,
      "Ġà²¸à²°à³įà²ķà²¾à²°": 5587,
      "à¤¾à¤ĸ": 5588,
      "à¦¿à¦ĸ": 5589,
      "Ġà¦ķà¦¾à¦°": 5590,
      "Ġalways": 5591,
      "ero": 5592,
      "à¤¿à¤ľ": 5593,
      "oph": 5594,
      "à¯Īà®¯à¯ĩ": 5595,
      "ĠWest": 5596,
      "à®¿à®µà¯ģ": 5597,
      "à¨¿à¨¸à¨¼": 5598,
      "Ġproducts": 5599,
      "sigma": 5600,
      "Ġà²ĺ": 5601,
      "Ġà°ĸ": 5602,
      "leg": 5603,
      "Ġà¦¬à¦¹": 5604,
      "à³įà²°à²¹": 5605,
      "à³ĭà²·": 5606,
      "à°Ĺà±įà°Ĺ": 5607,
      "Ġà°²à°ķà±įà°·": 5608,
      "Ġinternational": 5609,
      "à¤£à¥ĩ": 5610,
      "ĠOne": 5611,
      "uments": 5612,
      "à¨ħ": 5613,
      "Ġglobal": 5614,
      "aged": 5615,
      "àŃģà¬²": 5616,
      "Ġà¨²à©ĭà¨ķ": 5617,
      "attr": 5618,
      "Ġaverage": 5619,
      "Ġà´·": 5620,
      "Ġà®ªà¯ĩà®ļ": 5621,
      "Ġà®ķà®¾à®°à®£": 5622,
      "Ġà¤¸à¤°à¥įà¤µ": 5623,
      "àª°à«ĩ": 5624,
      "Ġà°ķà±įà°°": 5625,
      "ivity": 5626,
      "Ġà²¬à³ĩ": 5627,
      "à°¸à±įà°¯": 5628,
      "à±Ĭà°ķà±įà°ķ": 5629,
      "à°°à±įà°¸": 5630,
      "Ġà®ĩà®°à¯ģà®ªà¯įà®ª": 5631,
      "à«ĭàªĪ": 5632,
      "àµĨà´Łàµģà´¤àµįà´¤": 5633,
      "à³ĩà²µà³Ĩ": 5634,
      "à®¿à®°à¯ģà®¨à¯įà®¤à¯ģ": 5635,
      "Ġlikely": 5636,
      "Ġdays": 5637,
      "Ġà¨¸à©ģ": 5638,
      "à§įà¦°à§Ģ": 5639,
      "Ġnumbers": 5640,
      "opy": 5641,
      "ump": 5642,
      "à¬¨à¬¾": 5643,
      "Ġà¬¨à¬¿à¬": 5644,
      "Ġprevent": 5645,
      "Ġà¤µà¤¿à¤¶": 5646,
      "ledge": 5647,
      "reen": 5648,
      "à³ģà²Ĥà²¬": 5649,
      "à³Ĩà²ª": 5650,
      "à§ĩà¦ª": 5651,
      "Ġà®ķà¯ģà®´": 5652,
      "àµĭà´²": 5653,
      "ird": 5654,
      "à©°à¨¤": 5655,
      "Ġà¦¹à¦¬à§ĩ": 5656,
      "aces": 5657,
      "à°¦à±įà°¯": 5658,
      "Ġà¤µà¤¹": 5659,
      "duc": 5660,
      "à®±à¯įà®±à®¿": 5661,
      "Ġà²ľà³Ģà²µ": 5662,
      "à´¦àµĩà´¶": 5663,
      "à³ĥà²¤": 5664,
      "Ġà®ªà¯Ĩà®±à¯įà®±": 5665,
      "Ġcourse": 5666,
      "à«įàªª": 5667,
      "Ġdeath": 5668,
      "empt": 5669,
      "Ġàª¸à«ģàª": 5670,
      "ĠState": 5671,
      "ohn": 5672,
      "Ġcharacter": 5673,
      "no": 5674,
      "Ġà¦ķà§ĩà¦¨": 5675,
      "Ġà¦¸à§ĩ": 5676,
      ")}": 5677,
      "Ġà°·": 5678,
      "Ġsent": 5679,
      "à³ģà²Ĺ": 5680,
      "alt": 5681,
      "à¦¾à¦Ļ": 5682,
      "Ġà®¤à¯ĭ": 5683,
      "Ġà²ķà²²": 5684,
      "à²¡à²¿": 5685,
      "Ġà®¨à®¿à®°": 5686,
      "ĠMay": 5687,
      "ript": 5688,
      "à®¿à®©à®¾à®°à¯į": 5689,
      "Ġà´®à´¨": 5690,
      "à°¿à°¨à±įà°¨": 5691,
      "ĠâĢĺ": 5692,
      "à²¾à²µà³ģ": 5693,
      "àµįà´ķàµįà´ķàµį": 5694,
      "àµĭà´Łàµį": 5695,
      "à±Ĥà°°à±įà°¤": 5696,
      "Ġà®µà®¾à®ķà¯įà®ķ": 5697,
      "Ġà°ªà±Ĩà°Łà±įà°Ł": 5698,
      "Ġà´¤à´¨àµįà´¨àµĨ": 5699,
      "={\\": 5700,
      "uation": 5701,
      "eds": 5702,
      "Ġmov": 5703,
      "Ġappear": 5704,
      "ĠComp": 5705,
      "Ġà¤ķà¤¾à¤°à¥įà¤¯": 5706,
      "Ġà¦ľà¦¨à§įà¦¯": 5707,
      "Ġhy": 5708,
      "àŃįà¬ķ": 5709,
      "Ġcontrib": 5710,
      "Ġstrong": 5711,
      "Ġbelow": 5712,
      "à©°à¨¦à¨°": 5713,
      "àªĩ": 5714,
      "à´¿àµ¼": 5715,
      "ana": 5716,
      "ederal": 5717,
      "à±ĩà°¨": 5718,
      "Ġà®ħà®¤à¯ģ": 5719,
      "Ġà®¤à®µ": 5720,
      "Ġà²ħà²²à³įà²²": 5721,
      "à°¯à±įà°¯": 5722,
      "Ġà°ªà±įà°°à°ķ": 5723,
      "conf": 5724,
      "à´¾à´¨à´Ĥ": 5725,
      "Ġnecess": 5726,
      "à®ªà¯įà®ªà®Łà¯ģà®®à¯į": 5727,
      "Ġà®ķà¯Ĥà®Ł": 5728,
      "Ġtechnology": 5729,
      "Ġinflation": 5730,
      "Ġlimit": 5731,
      "Ġà²®à³Ĭà²¦à²²": 5732,
      "AN": 5733,
      "essage": 5734,
      "Ġseen": 5735,
      "à¨²à©Ģ": 5736,
      "Ġcreate": 5737,
      "ditional": 5738,
      "Ind": 5739,
      "Ġsource": 5740,
      "Ġbig": 5741,
      "à®¿à®©à¯įà®©": 5742,
      "Ġà¨µà¨¾à¨²": 5743,
      "We": 5744,
      "à²ĺ": 5745,
      "Ġà®Ī": 5746,
      "à§įà¦ŀ": 5747,
      "Ġà®¤à¯ĩà®°": 5748,
      "Ġà²¨à²Ĥà²¤à²°": 5749,
      "Ġà²ªà³ģ": 5750,
      "Ġrat": 5751,
      "Ġà´®à´¾à´¤àµįà´°": 5752,
      "Ġà¦¹à¦ĩ": 5753,
      "à²Ĺà²³à²¿à²Ĺà³Ĩ": 5754,
      "Ġà°°à°¾à°ľ": 5755,
      "Ġnever": 5756,
      "à¤¾à¤ļà¥įà¤¯à¤¾": 5757,
      "Ġeffects": 5758,
      "Ġà²¨à²¡à³Ĩà²¸": 5759,
      "word": 5760,
      "Ġbook": 5761,
      "à§įà¦Ľ": 5762,
      "Ġà¤¬à¤¨": 5763,
      "Ġabs": 5764,
      "Ġrespons": 5765,
      "Ġprovided": 5766,
      "Ġlevels": 5767,
      "Ġoil": 5768,
      "Ġalready": 5769,
      "à¤Ĥà¤¤à¤°": 5770,
      "Ġmethods": 5771,
      "à§Ń": 5772,
      "à²¿à²¬": 5773,
      "à°¿à°§": 5774,
      "à´¾à´·": 5775,
      "à¯Ĭà®£à¯įà®Ł": 5776,
      "Ġà°°à±ĭà°ľ": 5777,
      "earch": 5778,
      "Ġimplement": 5779,
      "àµĤàµ¼": 5780,
      "à©±à¨Ĺ": 5781,
      "Ġà°Ĩà°°": 5782,
      "Ġà²ľà³Ĭ": 5783,
      "Ġà°īà°ª": 5784,
      "Ġconsidered": 5785,
      "Ġespecially": 5786,
      "Ġà°Ĩà°¯à°¨": 5787,
      "fact": 5788,
      "arth": 5789,
      "chang": 5790,
      "Ġà¦Ĩà¦ľ": 5791,
      "Ġà¤¹à¥ĭà¤¤à¥Ģ": 5792,
      "Ġmodern": 5793,
      "Ġfunds": 5794,
      "EN": 5795,
      "oot": 5796,
      "Ġtaken": 5797,
      "Ġà¦¹à¦¯à¦¼à§ĩ": 5798,
      "Ġderiv": 5799,
      "bl": 5800,
      "à´¿à´·": 5801,
      "Ġtoget": 5802,
      "Ġdig": 5803,
      "à²°à²¿": 5804,
      "à²Ĥà²Ĺà²³": 5805,
      "Ġà¦ķà§ĭ": 5806,
      "à±Ģà°¡": 5807,
      "Ġà°®à°¾à°Ł": 5808,
      "à¨ķà©ĩ": 5809,
      "Ġà°°à±Ĥ": 5810,
      "à°¿à°Ĥà°ļà°¿à°Ĥà°¦à°¿": 5811,
      "à°°à±įà°ļ": 5812,
      "Ġrelations": 5813,
      "à³įà²¸à³į": 5814,
      "Ġà²®à³ģà²ĸà³įà²¯": 5815,
      "àµĭà´ŁàµĨ": 5816,
      "àµĥà´¤": 5817,
      "Ġà²¨à²¿à²®à³įà²®": 5818,
      "Ġtogether": 5819,
      "call": 5820,
      "Ġà¨ķà¨¿à¨¹à¨¾": 5821,
      "à¦ªà§įà¦°": 5822,
      "Ġà¬¸à¬Ĥ": 5823,
      "Ġworking": 5824,
      "Ġresponse": 5825,
      "runner": 5826,
      "nces": 5827,
      "¡à¬¼": 5828,
      "Ġpred": 5829,
      "Ġfocus": 5830,
      "à¨¾à¨Ĺ": 5831,
      "à¤¾à¤¤à¥įà¤°": 5832,
      "à¤¶à¥Ģ": 5833,
      "Ġrights": 5834,
      "ones": 5835,
      "à²°à²²à³įà²²à²¿": 5836,
      "stream": 5837,
      "ĠSo": 5838,
      "Ġà¦¸à¦¹": 5839,
      "istics": 5840,
      "ĠNorth": 5841,
      "à®ļà®¿à®¯": 5842,
      "Ġà®īà®²à®ķ": 5843,
      "àµĤà´°": 5844,
      "Ġà°īà°Ĥà°¦à°¿": 5845,
      "Ġà²µà²¿à²·": 5846,
      "Ġà®ĩà®°à¯ģà®¨à¯įà®¤à¯ģ": 5847,
      "à«Ī": 5848,
      "Ġtoday": 5849,
      "ilt": 5850,
      "Ġconsider": 5851,
      "Ġà¤Ĳ": 5852,
      "Ġsix": 5853,
      "àŃ©": 5854,
      "à¯ģà®Ļà¯įà®ķ": 5855,
      "anu": 5856,
      "ithm": 5857,
      "Ġdemand": 5858,
      "Ġà¦Ńà¦¾à¦²": 5859,
      "Ġinstead": 5860,
      "Ġill": 5861,
      "Ġà¬«": 5862,
      "arning": 5863,
      "à²°à²¿à²Ĺà³Ĩ": 5864,
      "à®¤à®µ": 5865,
      "Ġà®®à®¾à®¨": 5866,
      "ĠSome": 5867,
      "à¬¿à¬ģ": 5868,
      "Ġà°µà±ĩà°": 5869,
      "Ġà°¸à±įà°ª": 5870,
      "Ġà´¸à´¹": 5871,
      "Ġlearn": 5872,
      "à¨®à©Ģ": 5873,
      "à²¾à²¨à³ģ": 5874,
      "àµģà´¤à´¿à´¯": 5875,
      "Ġà²¹à³Ĭà²°": 5876,
      "kwargs": 5877,
      "àŃĮ": 5878,
      "ccording": 5879,
      "Ġweight": 5880,
      "Ġexpect": 5881,
      "à¥ĩà¤µ": 5882,
      "Ġbegin": 5883,
      "à°¦à±ģ": 5884,
      "àµĤà´ª": 5885,
      "à«§": 5886,
      "à°¨à°Ĥ": 5887,
      "à¦²à¦¾": 5888,
      "Ġà²ķà³Ī": 5889,
      "Ġà®ĩà®©à¯įà®±à¯ģ": 5890,
      "Ġà²ħà²¥": 5891,
      "Ġà¦®à¦§": 5892,
      "à´£àµį": 5893,
      "Ġà´¨à´¿à´¯": 5894,
      "à´²à´¯": 5895,
      "àŃģà¬¬": 5896,
      "à°¿à°¤à±įà°°": 5897,
      "Ġà´īà´ª": 5898,
      "Ġà´ľà´¨": 5899,
      "Ġà®ķà®Łà®¨à¯įà®¤": 5900,
      "à®¾à®£à¯įà®Ł": 5901,
      "à±Ĩà°ķà±įà°Ł": 5902,
      "Ġconditions": 5903,
      "ET": 5904,
      "ires": 5905,
      "Ġside": 5906,
      "--------": 5907,
      "ĠEnglish": 5908,
      "SA": 5909,
      "inary": 5910,
      "enn": 5911,
      "Ġà¤ķà¥įà¤·": 5912,
      "ĠAb": 5913,
      "ĠAg": 5914,
      "àŃĥà¬¤": 5915,
      "fix": 5916,
      "à²ħ": 5917,
      "Ġaway": 5918,
      "let": 5919,
      "à°°à°£": 5920,
      "Ġà®ªà¯ĩà®°": 5921,
      "Ġà®®à®¾à®¤": 5922,
      "Ġà²ķà³Ĩ": 5923,
      "Ġà°®à±Ĥà°": 5924,
      "à¯ĭà®©": 5925,
      "à¥ģà¤ķ": 5926,
      "à®ķà®®à¯į": 5927,
      "Ġà°¬à±įà°¯": 5928,
      "àª¾àª¨à«ĩ": 5929,
      "à°¿à°¯à°¾": 5930,
      "à°¬à±įà°¬": 5931,
      "Ġrespect": 5932,
      "Ġà²¬à³Ĩà²³": 5933,
      "à¯Īà®ļà¯įà®ļ": 5934,
      "Ġdifficult": 5935,
      "Ġctx": 5936,
      "à¤¿à¤ª": 5937,
      "hern": 5938,
      "à«ĭàª¤": 5939,
      "Ġà¬®à¬¹": 5940,
      "Ġà¦¬à¦¾à¦¬à§ĩ": 5941,
      "Ġà¨ķà©Ģà¨¤à©Ģ": 5942,
      "Ġà¤¦à¥įà¤µà¤¾à¤°à¤¾": 5943,
      "à¯ģà®Ļà¯įà®ķà®³à¯į": 5944,
      "Ġcou": 5945,
      "Ġthought": 5946,
      "Ġà®ªà®´": 5947,
      "Ġà®µà¯Īà®¤à¯įà®¤": 5948,
      "Ġà®®à¯ģà®±": 5949,
      "à´¿à´¯àµģà´Ĥ": 5950,
      "Ġà²¬à²¹": 5951,
      "ĠEn": 5952,
      "à°Łà±įà°²": 5953,
      "à°¾à°¨à±į": 5954,
      "Ġà²ªà³įà²°à²¦": 5955,
      "Ġà®Ĵà®©à¯įà®±": 5956,
      "Ġà¬ľà¬£": 5957,
      "Ġsurface": 5958,
      "Ġà®®à¯ģà®Łà®¿à®¯": 5959,
      "Ġà²ħà²¥à²µà²¾": 5960,
      "Ġ...": 5961,
      "Ġfull": 5962,
      "Ġhalf": 5963,
      "Ġparticip": 5964,
      "Ġàªĵ": 5965,
      "Ġonce": 5966,
      "Ġà®¨à¯ĭ": 5967,
      "à¤®à¥ĩà¤Ĥ": 5968,
      "ĠGen": 5969,
      "à«Ģàª¯": 5970,
      "àª£à«ĩ": 5971,
      "Ġà¤¹à¥ĭà¤¤à¥ĩ": 5972,
      "Ġaccording": 5973,
      "Ġà®ħà®±à®¿à®µ": 5974,
      "à°ħ": 5975,
      "à¦¾à¦Ń": 5976,
      "à±ģà°¸à±įà°¤": 5977,
      "à²¦à³įà²§": 5978,
      "Ġà®µà®ķ": 5979,
      "Ġà²¸à³įà²ª": 5980,
      "à²¡à²¿à²¯": 5981,
      "à´µà´¶": 5982,
      "Ġà´ħà´±à´¿à´¯": 5983,
      "à±ģà°ķà±ĭà°µ": 5984,
      "à´Ļàµįà´Ļà´¿à´¯": 5985,
      "Ġfunctions": 5986,
      "Ġà²ķà²¾à²°à²£": 5987,
      "Ġincome": 5988,
      "Ġà°ªà±ĭà°²": 5989,
      "rv": 5990,
      "®à¬¾à¬¨": 5991,
      "Ġdivid": 5992,
      "irc": 5993,
      "Ġcancer": 5994,
      "ublic": 5995,
      "Ġaddress": 5996,
      "à«ĩàª²àª¾": 5997,
      "uff": 5998,
      "§à«Ģ": 5999,
      "à¤°à¤£": 6000,
      "oll": 6001,
      "ĠPr": 6002,
      "à¤°à¥įà¤¥": 6003,
      "Ġà¤°à¥Ĥà¤ª": 6004,
      "Ġproduction": 6005,
      "Ġà§°à¦¾à¦ľ": 6006,
      "à´¾à´¶": 6007,
      "à±ĭà°²": 6008,
      "Ġà®ĩà®²": 6009,
      "Ġà¦¨à¦¿à¦¯à¦¼à§ĩ": 6010,
      "place": 6011,
      "Ġà¦ıà¦Łà¦¾": 6012,
      "àŃĩà¬¨": 6013,
      "Ġcollect": 6014,
      "à´¿à´µà´¸": 6015,
      "à±Ģà°İ": 6016,
      "Ġà®İà®©à¯įà®ªà®¤à¯ģ": 6017,
      "Ġà°µà±įà°¯à°ķà±įà°¤": 6018,
      "¦àµįà´§": 6019,
      "Åĭ": 6020,
      "Ġà¤²à¤¾à¤Ĺ": 6021,
      "à¥ĩà¤¡": 6022,
      "rick": 6023,
      "ension": 6024,
      "à§ĭà§±à¦¾à§°": 6025,
      "à¤·à¥įà¤Ł": 6026,
      "Con": 6027,
      "Ġitself": 6028,
      "Ġmeet": 6029,
      "Ġà¦īà¦ł": 6030,
      "Ġrole": 6031,
      "à®¿à®ļà¯įà®ļ": 6032,
      "Ġrequests": 6033,
      "ES": 6034,
      "mod": 6035,
      "Ġred": 6036,
      "Ġliter": 6037,
      "à´ķàµįà´ķà´¾à´°": 6038,
      "ĠJu": 6039,
      "à´¾à´¤àµĨ": 6040,
      "Ġà²°à²¾à²ľà³įà²¯": 6041,
      "¢à¦¼": 6042,
      "àŃģà¬£": 6043,
      "ĠNews": 6044,
      "Ġestablished": 6045,
      "Ġlittle": 6046,
      "ley": 6047,
      "Ġstream": 6048,
      "Ġà°ķà±ĩà°¸": 6049,
      "ĠWhat": 6050,
      "Ġens": 6051,
      "à¤¿à¤¯à¤®": 6052,
      "Ġneeds": 6053,
      "Ġoptions": 6054,
      "à²µà²¾à²¸": 6055,
      "à¬¿à¬³": 6056,
      "à²¾à²°à³į": 6057,
      "Ġà²¹à²¿à²Ĥà²¦": 6058,
      "à«ģàªķ": 6059,
      "àµĢà´ª": 6060,
      "Ġà¬ķà¬¾à¬°": 6061,
      "àµĭà´§": 6062,
      "Ġago": 6063,
      "Ġà´¬à´¨àµįà´§": 6064,
      "ething": 6065,
      "à°§à±įà°¯": 6066,
      "Ġrelated": 6067,
      "Ġà¦ĺà¦Ł": 6068,
      "à´«àµį": 6069,
      "Ġà°²à±ĩà°¦à°¾": 6070,
      "Ġapplication": 6071,
      "AT": 6072,
      "Ø§": 6073,
      "aries": 6074,
      "àª°à«Ĥ": 6075,
      "ĠMus": 6076,
      "à«įàª¯àª¾àª°à«ĩ": 6077,
      "Ġmatrix": 6078,
      "nal": 6079,
      "à¦ī": 6080,
      "ĠTr": 6081,
      "Ġregul": 6082,
      "Ġà¦ĩà¦¯à¦¼": 6083,
      "Ġinstit": 6084,
      "ĠàªĨàªµà«Ģ": 6085,
      "ociety": 6086,
      "Ġprovides": 6087,
      "Ġanalysis": 6088,
      "Ġà¦¬à¦¿à¦¶à§įà¦¬": 6089,
      ")\\": 6090,
      "fol": 6091,
      "à¤ĥ": 6092,
      "àª¾àª¥à«Ģ": 6093,
      "à¤°à¤¾": 6094,
      "Ġà®®à®¤": 6095,
      "à¬¿à¬¸": 6096,
      "à¯Ĩà®²à¯įà®²": 6097,
      "Ġà¦ªà¦¡à¦¼": 6098,
      "Ġà²¨à³įà²¯": 6099,
      "à¯ģà®¤à¯į": 6100,
      "à°¿à°Ĥà°ª": 6101,
      "à¥įà¤¯à¤¾à¤ļ": 6102,
      "à®¿à®ķà¯įà®ķà¯ģà®®à¯į": 6103,
      "à¥ĩà¤³": 6104,
      "Ġàªħàª®": 6105,
      "Ġà°¦à±įà°µ": 6106,
      "à¬°àŃįà¬¬": 6107,
      "à®Łà¯ģà®¤à¯įà®¤à¯ģ": 6108,
      "Ġà®ķà¯Ĥà®Łà¯įà®Ł": 6109,
      "à°¾à°¦à±ģ": 6110,
      "à°¦à±įà°§": 6111,
      "Ġà®ĩà®°à¯ģà®ķà¯įà®ķà¯ģà®®à¯į": 6112,
      "Ġà¤ľà¤¾à¤¤à¤¾": 6113,
      "Ġà°ķà°¾à°¨à±Ģ": 6114,
      "Pro": 6115,
      "quence": 6116,
      "Ġà¤īà¤¤": 6117,
      "Ġà¦īà¦¦": 6118,
      "Ġmultiple": 6119,
      "Ġhouse": 6120,
      "chie": 6121,
      "Ġà¤¸à¥ĭ": 6122,
      "ĠBy": 6123,
      "ĠGu": 6124,
      "à¤ķà¥įà¤¸": 6125,
      "ĠGovernment": 6126,
      "ares": 6127,
      "atter": 6128,
      "à²¾à²ĸ": 6129,
      "Ġà¤ķà¤¿à¤¸": 6130,
      "Ġà¨¸à©°à¨": 6131,
      "ivil": 6132,
      "ĠHis": 6133,
      "àŃĩà¬īà¬": 6134,
      "Ġà®ļà¯Ĩà®²": 6135,
      "Ġà¬¬àŃįàŃŁ": 6136,
      "Ġà²¦à³ĩà²µ": 6137,
      "Ġgoing": 6138,
      "Ġà¨¬à¨£": 6139,
      "Ġà®¤à¯Ĭà®´": 6140,
      "ĠHealth": 6141,
      "à²ľà³įà²ŀ": 6142,
      "ĠÂ": 6143,
      "Ġthough": 6144,
      "Ġà¦¬à§ģà¦²à¦¿": 6145,
      "Ġconcept": 6146,
      "Ġà¤®à¤¿à¤²": 6147,
      "artment": 6148,
      "Ġenough": 6149,
      "Ġgovern": 6150,
      "à§Ĥà¦²": 6151,
      "ison": 6152,
      "Ġcame": 6153,
      "à§ĭà¦ª": 6154,
      "à®ļà¯į": 6155,
      "====": 6156,
      "ports": 6157,
      "à°Ĥà°Łà°¿": 6158,
      "Ġà¦²à§ĭà¦ķ": 6159,
      "Ġ====": 6160,
      "Ġfrequ": 6161,
      "da": 6162,
      "uk": 6163,
      "Ġtry": 6164,
      "à²¿à²§": 6165,
      "à¯įà®¤à®¾à®©à¯į": 6166,
      "elves": 6167,
      "à³ĩà²·": 6168,
      "Ġà´ªàµģà´±": 6169,
      "Ġà¦Ĩà¦¦": 6170,
      "à±įà°¯à±Ĥà°": 6171,
      "thing": 6172,
      "à´¸àµįà´¸": 6173,
      "à°¯à°Ĥà°²à±ĭ": 6174,
      "à²°à³ģà²¤à³įà²¤": 6175,
      "Ġà´Ĩà´¶": 6176,
      "Ġà²¸à²Ĥà²ª": 6177,
      "Ġstudies": 6178,
      "Ġà²¹à³Ĭà²¸": 6179,
      "à±ģà°Ĥà°¡à°¾": 6180,
      "Ġà®ĩà®²à¯įà®²à¯Ī": 6181,
      "à®¤à¯įà®¤à®¿à®±à¯įà®ķà¯ģ": 6182,
      "Ġà°ļà°¾à°²à°¾": 6183,
      "xim": 6184,
      "inf": 6185,
      "ĠBl": 6186,
      "Ġresearc": 6187,
      "Ġconduct": 6188,
      "à®¤à¯įà®¤à¯ģ": 6189,
      "Ġexchange": 6190,
      "Ġrv": 6191,
      "Ġà¨ħà¨¸": 6192,
      "Ġà¦ķà¦°à¦¤à§ĩ": 6193,
      "à¦£à§ĩ": 6194,
      "Ġissues": 6195,
      "Ġpolitical": 6196,
      "What": 6197,
      "oice": 6198,
      "Ġri": 6199,
      "Ġà¨Ľ": 6200,
      "à°²à°ķà±ģ": 6201,
      "Ġà®¤à®¿à®Łà¯įà®Ł": 6202,
      "Ġà´®à´°": 6203,
      "Ļàµįà´ķ": 6204,
      "Ġrecent": 6205,
      "Ġà´ķà´´à´¿à´ŀàµįà´ŀ": 6206,
      "ym": 6207,
      "àª¾àªĵ": 6208,
      "à¦Łà§ĭ": 6209,
      "Ġquant": 6210,
      "Ġrad": 6211,
      "Ġvariable": 6212,
      "à¬ŀ": 6213,
      "Ġsens": 6214,
      "à©ĩà¨¸à¨¼": 6215,
      "Ġà¨¸à¨¨": 6216,
      "Ġà¦¦à¦¿à¦¯à¦¼à§ĩ": 6217,
      "Ġàª®àª¹": 6218,
      "Ġpublished": 6219,
      ".}": 6220,
      "à²ĩ": 6221,
      "Ġfr": 6222,
      "Ġge": 6223,
      "Ġask": 6224,
      "Ġà°µà°¸à±įà°¤": 6225,
      "à°¤à±įà°°": 6226,
      "à³ĭà²ķ": 6227,
      "Ġà´ħà´Ń": 6228,
      "à´¿à´ķàµįà´ķà´¾àµ»": 6229,
      "Ġkind": 6230,
      "Ġà´ĩà´Ł": 6231,
      "Ġà°ľà°¿à°²à±įà°²": 6232,
      "Ġà´īà´£àµįà´Ł": 6233,
      "Ġà®īà®³à¯įà®³à®¤à¯ģ": 6234,
      "Ġà®¨à®¿à®²à¯Īà®¯à®¿à®²à¯į": 6235,
      "Ġindustry": 6236,
      "à¤¾à¤ģ": 6237,
      "ĠDep": 6238,
      "à¤¾à¤Ĥà¤¤": 6239,
      "overed": 6240,
      "à¤¾à¤ļà¥Ģ": 6241,
      "à¨¾à¨īà¨£": 6242,
      "Ġgive": 6243,
      "à¤¸à¤¾": 6244,
      "àª¿àª¨": 6245,
      "Ġcannot": 6246,
      "à¬¾à¬°àŃģ": 6247,
      "Ġevidence": 6248,
      "Ġeffort": 6249,
      "à§¬": 6250,
      "àŃ«": 6251,
      "Ġchem": 6252,
      "à¨¾à¨ħ": 6253,
      "à±ĭà°¡": 6254,
      "à¨°à¨¾": 6255,
      "à¬¾à¬ı": 6256,
      "à²¡à²¿à²¸": 6257,
      "à´®à´¾à´ķàµįà´ķ": 6258,
      "Ġà´¸àµįà´±àµįà´±": 6259,
      "Ġà´¨àµĩà´°": 6260,
      "à´¸àµįà´¤": 6261,
      "àªķàª¾àª°": 6262,
      "ĠGerm": 6263,
      "Ġimm": 6264,
      "àµĭà´·": 6265,
      "à«ĭàªŁ": 6266,
      "Ġasset": 6267,
      "Ġmedical": 6268,
      "Ġà®®à¯Ĥà®²à®®à¯į": 6269,
      "Ġà®Ĩà®ķà®¿à®¯": 6270,
      "Ġà°¸à°°": 6271,
      "à«ĭàª°": 6272,
      "aches": 6273,
      "àŃĩà¬ĩ": 6274,
      "à¤Ĥà¤¤à¥įà¤°": 6275,
      "Ġà¤¬à¥Ģà¤®à¤¾": 6276,
      "])": 6277,
      "rect": 6278,
      "àŃª": 6279,
      "umb": 6280,
      "ĠWith": 6281,
      "Ġà¦ľà§Ģ": 6282,
      "Ġassum": 6283,
      "ĠYork": 6284,
      "Ġbuy": 6285,
      "Ġà¤µà¥įà¤¯à¤ķà¥įà¤¤": 6286,
      "à§®": 6287,
      "Ġà°Ĳ": 6288,
      "àµįà´Ľ": 6289,
      "Ġdone": 6290,
      "à«ĩàª¨": 6291,
      "Ġà¤ķà¤¹à¤¾": 6292,
      "à¤Ĥà¤ª": 6293,
      "à¨¿à©°": 6294,
      "à´¯àµĨ": 6295,
      "Ġà¦¸à¦°": 6296,
      "à´¿à´²àµĤà´Ł": 6297,
      "Ġà°¸à°¾à°§": 6298,
      "à³Ģà²¤": 6299,
      "à´±à´¿": 6300,
      "à°¯à±ĭà°Ĺ": 6301,
      "à¦¨à§įà¦¨": 6302,
      "Ġà¦Ĩà¦®à¦¾à¦°": 6303,
      "Ġvariables": 6304,
      "ĠII": 6305,
      "Ġà¦¸à¦Ń": 6306,
      "à©±à¨Ł": 6307,
      "Ġàªµàª°à«įàª": 6308,
      "sw": 6309,
      "ĠCont": 6310,
      "à¦¬à¦¾à¦°": 6311,
      "rug": 6312,
      "Ġapproach": 6313,
      "instance": 6314,
      "rast": 6315,
      "Ġprogress": 6316,
      "Ġà´ķà´°": 6317,
      "à¯ĭà®Łà¯ģ": 6318,
      "à¯Īà®¯à®¾à®©": 6319,
      "à²Ĥà²¦à²°à³Ĩ": 6320,
      "Ġà´¤àµĨ": 6321,
      "Ġà¦Ĺà§įà¦°": 6322,
      "ruction": 6323,
      "Ġevents": 6324,
      "Ġregion": 6325,
      "à³įà²Ĺà²³": 6326,
      "à´¿à´Łàµįà´Łàµģà´£àµįà´Łàµį": 6327,
      "Ġcreated": 6328,
      "Ġà°®à±Ĭà°¦": 6329,
      "Ġà´ªà´±à´ŀàµįà´ŀàµģ": 6330,
      "br": 6331,
      "han": 6332,
      "à¨ł": 6333,
      "Ġcustom": 6334,
      "ĠMe": 6335,
      "aced": 6336,
      "Ġà¨¨à¨¾": 6337,
      "order": 6338,
      "Ġtrade": 6339,
      "Ġà¦°à¦¾à¦ľ": 6340,
      "Ġactivities": 6341,
      "Ġà¤¯à¤¾à¤Ĥà¤¨à¥Ģ": 6342,
      "ĠBritish": 6343,
      "cing": 6344,
      "gy": 6345,
      "ĠIm": 6346,
      "Ġrecogn": 6347,
      "Ġforeign": 6348,
      "ĠAfric": 6349,
      "à²°à²¦": 6350,
      "à±ģà°·": 6351,
      "Ġà¤ķà¤¾à¤®": 6352,
      "iment": 6353,
      "Ġà®¤à®¾à®©à¯į": 6354,
      "ĠCons": 6355,
      "Ġà°ħà°Ĥà°¤": 6356,
      "Ġà°ªà±įà°°à°ľ": 6357,
      "comple": 6358,
      "Ġà´ľàµĢà´µ": 6359,
      "__(": 6360,
      "à°ļà±įà°ļà±ģ": 6361,
      "à±Ģà°Ĩà°°à±į": 6362,
      "à¨ī": 6363,
      "Ġreason": 6364,
      "à«įàªķ": 6365,
      "Ġà¦ķà¦²": 6366,
      "ĠCal": 6367,
      "ĠPre": 6368,
      "ĠThat": 6369,
      "comes": 6370,
      "Ġà¬ªàŃįà¬°à¬¤": 6371,
      "Ġà¤ħà¤ªà¤¨à¥ĩ": 6372,
      "Ġà¦¯à¦¦": 6373,
      "fficient": 6374,
      "ging": 6375,
      "vest": 6376,
      "à¦ħ": 6377,
      "hest": 6378,
      "Ġdict": 6379,
      "à¦¬à§ĭà§°": 6380,
      "à¥įà¤¯à¤¾à¤¨": 6381,
      "ĠUN": 6382,
      "à«įàª¯àª¾àªĤ": 6383,
      "Ġcommand": 6384,
      "à¨Łà©Ģ": 6385,
      "à°ĥ": 6386,
      "à®¤à®±à¯įà®ķ": 6387,
      "etri": 6388,
      "Ġgl": 6389,
      "à´°àµĨ": 6390,
      "à±Ģà°ª": 6391,
      "Ġà¦¸à§įà¦¥": 6392,
      "Ġà²¹à³ĭà²Ĺ": 6393,
      "à¨²à¨¾": 6394,
      "Ġà¬ķà¬¹": 6395,
      "à®¿à®ķà®´": 6396,
      "à±ģà°ķà±ģà°Ĥà°Ł": 6397,
      "Ġà²°à³Ĥà²ª": 6398,
      "ĠInstit": 6399,
      "àµĬà´°": 6400,
      "à«ĭàªĹ": 6401,
      "Ġprevious": 6402,
      "à®ªà¯įà®ªà®Łà®¿": 6403,
      "Ġà´¸à´Ĥà´Ńà´µ": 6404,
      "Ġactivity": 6405,
      "CO": 6406,
      "kn": 6407,
      "Ġcit": 6408,
      "ĠIS": 6409,
      "à¥ģà¤Ĺ": 6410,
      "Ġà¤µà¤¿à¤ķ": 6411,
      "à¦ªà¦°": 6412,
      "Ġclose": 6413,
      "Ġà¨®à¨¹": 6414,
      "à©ģà¨°à©Ĥ": 6415,
      "Al": 6416,
      "ef": 6417,
      "har": 6418,
      "iver": 6419,
      "atures": 6420,
      "Ġwid": 6421,
      "à§°à¦¾": 6422,
      "à¥ĭà¤°": 6423,
      "Ġplants": 6424,
      "Ġupon": 6425,
      "Ġà¬ķà¬°à¬¿à¬¬": 6426,
      "à´¤à´¿à´¨": 6427,
      "à±ĭà°°": 6428,
      "Ġà°®à±ģà°": 6429,
      "pping": 6430,
      "Ġvariance": 6431,
      "à¯Īà®¯à®¾à®³": 6432,
      "à¯ģà®¤à®¾à®©à¯į": 6433,
      "Ġà´ħà´§": 6434,
      "ĠWar": 6435,
      "à²¿à²ķà³įà²ķ": 6436,
      "à¥ĩà¤ľ": 6437,
      "à±įà°µà°°": 6438,
      "Ġà´ªàµįà´°à´µ": 6439,
      "Ġà®µà®¿à®ļ": 6440,
      "Ġgenerally": 6441,
      "Ġpositive": 6442,
      "Ġà®¤à®²à¯Īà®µ": 6443,
      "Ġà²ķà³Ĩà²²à²¸": 6444,
      "met": 6445,
      "minist": 6446,
      "icro": 6447,
      "Ġdoc": 6448,
      "à§°à§°": 6449,
      "à§ĭà¦¹": 6450,
      "à«ģàª²": 6451,
      "ĠJohn": 6452,
      "Ġposition": 6453,
      "ters": 6454,
      "Ġmakes": 6455,
      "Ġà¦¬à§ģà¦": 6456,
      "Ġà¦¸à¦ķ": 6457,
      "à©Ģà¨ľ": 6458,
      "à§įà¦¯à¦ķ": 6459,
      "Ġreturns": 6460,
      "Ġreduce": 6461,
      "host": 6462,
      "Î¼": 6463,
      "à´¿à´ľ": 6464,
      "Ġground": 6465,
      "Ġà®ļà¯Ĥ": 6466,
      "à¨¿à¨®": 6467,
      "Ġà°®à±ģà°Ĥà°¦": 6468,
      "à®Łà¯įà®Łà¯Ī": 6469,
      "Ġà²Ĩà²¸": 6470,
      "Ġà²ªà³įà²°à²¶": 6471,
      "à²¾à²¨à³Ĩ": 6472,
      "Ġwhole": 6473,
      "Ġà®µà®¿à®´": 6474,
      "Ġphot": 6475,
      "Ġà®ªà®¾à®°à¯įà®¤à¯įà®¤": 6476,
      "Ġà®ħà®¤à®¿à®ķà®¾à®°": 6477,
      "Ġà®®à¯ĩà®²à¯ģà®®à¯į": 6478,
      "Ġsecurity": 6479,
      "When": 6480,
      "à¤¾à¤ĵà¤Ĥ": 6481,
      "Ġwin": 6482,
      "à§ĩà¦¸": 6483,
      "Ġled": 6484,
      "à¨°à¨¾à¨Ĥ": 6485,
      "Ġà¦Ĩà¦ķ": 6486,
      "Ġvir": 6487,
      "term": 6488,
      "ours": 6489,
      "rought": 6490,
      "Ġword": 6491,
      "Ġà¤Ĺà¥įà¤°": 6492,
      "hemat": 6493,
      "à¬¾à¬¹à¬¿à¬ģ": 6494,
      "Ġknowledge": 6495,
      "Wh": 6496,
      "af": 6497,
      "à¦¿à¦Ĺ": 6498,
      "à§įà¦¯à¦¾à¦¨": 6499,
      "Ġà¨¬à¨¹à©ģ": 6500,
      "Ġà¦¹à¦¯à¦¼à§ĩà¦Ľà§ĩ": 6501,
      "à§İà¦¸": 6502,
      "md": 6503,
      "rs": 6504,
      "Ġsell": 6505,
      "Ġcity": 6506,
      "à²¦à³ĩ": 6507,
      "à«Ģàªķ": 6508,
      "à®¿à®¯à®¤à¯ģ": 6509,
      "àµĭà´ª": 6510,
      "Ġà°ħà°¦à°¿": 6511,
      "Ġà´®à´±": 6512,
      "à¤£à¥Ģ": 6513,
      "à²¹à²¾à²°": 6514,
      "à³ģà²¤à³įà²¤à²¾à²°à³Ĩ": 6515,
      "Ġappl": 6516,
      "Ġà¬ķà¬°à¬¿": 6517,
      "Ġformul": 6518,
      "à°ķà±įà°ķà±ģà°µ": 6519,
      "Ġà®İà®´à¯ģà®¤": 6520,
      "à±ĩà°Ĥà°¦à±įà°°": 6521,
      "Ġà°ªà±ĭà°²à±Ģà°¸": 6522,
      "try": 6523,
      "Ġcode": 6524,
      "à¬¿à¬°àŃĩ": 6525,
      "rab": 6526,
      "Ġaccept": 6527,
      "Ġentire": 6528,
      "Ġà¬ıà¬¬à¬Ĥ": 6529,
      "Ġsomething": 6530,
      "inde": 6531,
      "Ġà®¨à¯ĩ": 6532,
      "Ġà¤Ĩà¤µ": 6533,
      "Ġà¤Ĩà¤¯": 6534,
      "à¤¾à¤¨à¥Ģ": 6535,
      "ĠChina": 6536,
      "like": 6537,
      "Ġreported": 6538,
      "medi": 6539,
      "where": 6540,
      "à®¿à®¸": 6541,
      "à®©à¯įà®®": 6542,
      "etary": 6543,
      "Ġà®µà®¿à®²": 6544,
      "Ġà®ĩà®©": 6545,
      "Ġà°®à±Ĩ": 6546,
      "Ġà´ķà´¾à´£": 6547,
      "à°®à±ģà°¨": 6548,
      "Ġà´¨à´¿àµ¼": 6549,
      "Ġsuper": 6550,
      "à±ģà°ķà±ģà°¨à±įà°¨": 6551,
      "à²°à³įà²Ĺ": 6552,
      "Ġàªħàª¨": 6553,
      "Ġà²ªà³įà²°à²¤": 6554,
      "Ġsoft": 6555,
      "Ġstrateg": 6556,
      "à§ģà¦¦à§įà¦§": 6557,
      "à´¾à´´àµįà´ļ": 6558,
      "oman": 6559,
      "Ġà¦®à¦¨": 6560,
      "Ġà¤¨à¤¿à¤µ": 6561,
      "Ġà¨µà¨°": 6562,
      "Ġà¤¦à¤¿à¤¯à¤¾": 6563,
      "à¦¿à¦ķà§įà¦·": 6564,
      "à§įà§°à§Ģ": 6565,
      "Ġschools": 6566,
      "ometimes": 6567,
      "dict": 6568,
      "¬à°Ĥà°§": 6569,
      "à¤¾à¤·à¥įà¤Ł": 6570,
      "igned": 6571,
      "Ġetc": 6572,
      "Ġà®Ĳ": 6573,
      "àµįà´¬": 6574,
      "à²¿à²£": 6575,
      "arily": 6576,
      "à®³à¯Ī": 6577,
      "à³ĩà²Ĥà²¦à³įà²°": 6578,
      "Ġà²ķà³įà²·": 6579,
      "à¤Ĺà¥Ģ": 6580,
      "Ġà°ªà±įà°°à°¤": 6581,
      "à¯ģà®®à¯ĩ": 6582,
      "à¨Ĺà¨°": 6583,
      "à²Ńà²µ": 6584,
      "Ġà®¨à®Łà®¤à¯įà®¤": 6585,
      "à°Łà±įà°Łà°¿": 6586,
      "Ġcolor": 6587,
      "à®µà®°à¯įà®ķà®³à¯į": 6588,
      "Ġà²¹à³Ĩà²ļà³įà²ļà³ģ": 6589,
      "Ġà´¨à´¿à´¨àµįà´¨àµį": 6590,
      "à´¨àµįà´¦àµįà´°": 6591,
      "iddle": 6592,
      "Ġà¨¸à¨°à¨ķà¨¾à¨°": 6593,
      "CC": 6594,
      "à§ĩà§±": 6595,
      "Ġtook": 6596,
      "ils": 6597,
      "à¨¾à¨¡": 6598,
      "à¦¯à¦¼à¦¾à¦°": 6599,
      "Ġà¦¤à¦¾à¦ģ": 6600,
      "action": 6601,
      "Ġyoung": 6602,
      "à©°à¨¡": 6603,
      "à¦ŀà§įà¦ļ": 6604,
      "Ġphysical": 6605,
      "àª¤àª¾àªĤ": 6606,
      "Ġà¦¤à¦¾à§°": 6607,
      "Ġsepar": 6608,
      "Ġà¤¬à¤¾à¤¦": 6609,
      "Ġcontent": 6610,
      "à«Ģàªľ": 6611,
      "Ġmedic": 6612,
      "Ġpayment": 6613,
      "Ġexperience": 6614,
      "à²¤à²¨": 6615,
      "à³ĩà²Ł": 6616,
      "Ġà²¨à²¾à²¯": 6617,
      "à®ķà®µ": 6618,
      "Ġà®İà®¨à¯įà®¤": 6619,
      "à³įà²¯à²¾à²Ĥ": 6620,
      "Ġà²¹à³Ģ": 6621,
      "à´¿à´ķàµįà´ķà´¾à´¨": 6622,
      "Ġresources": 6623,
      "à³ģà²¤à³įà²¤à²¿à²¦à³Ĩ": 6624,
      "Ġà´Ĩà´¯": 6625,
      "à¤§à¥Ģ": 6626,
      "à«ĭàª¯": 6627,
      "à°ªà±įà°ªà°Ł": 6628,
      "à°¾à°Ĥà°Ł": 6629,
      "Ġregard": 6630,
      "à®©à¯įà®©à¯Ī": 6631,
      "à°¿à°¸à±įà°¤à±ģà°¨à±įà°¨": 6632,
      "à´·àµįà´Ł": 6633,
      "Ġà°ļà±Ĩà°Ĥà°¦": 6634,
      "à´ļàµįà´Ľ": 6635,
      "à´¤à´¿à´°àµĨ": 6636,
      "àµĩà´¹à´Ĥ": 6637,
      "urs": 6638,
      "Ġcoll": 6639,
      "Ġhistor": 6640,
      "ĠInternational": 6641,
      "Ġut": 6642,
      "Ġà¤ĳ": 6643,
      "ery": 6644,
      "Ġprote": 6645,
      "Ġwhy": 6646,
      "ĠNe": 6647,
      "à¤¦à¥ĩà¤¶": 6648,
      "Ġàª¨àª¹": 6649,
      "arget": 6650,
      "aves": 6651,
      "à¤¾à¤ļà¤¾": 6652,
      "Ġequal": 6653,
      "à¯įà®¸à¯į": 6654,
      "hib": 6655,
      "jar": 6656,
      "à®¾à®¨à¯įà®¤": 6657,
      "Ġmort": 6658,
      "à´¤àµįà´¸": 6659,
      "à®³à¯įà®µ": 6660,
      "Ġà®ªà¯ģà®°": 6661,
      "Ġà²¸à²¿à²¨": 6662,
      "Ġà²¸à²ļ": 6663,
      "Ġà°ªà±Ī": 6664,
      "à°¾à°°à°¿": 6665,
      "à´¤àµįà´¤à´¿à´²àµĨ": 6666,
      "à³Ģà²ķà³įà²·": 6667,
      "àµ¼à´·": 6668,
      "à´ķàµįà´ķàµĨ": 6669,
      "à³ģà²¦à³įà²§": 6670,
      "Ġà²¶à²¾à²¸": 6671,
      "à±Ĩà°²à±įà°²": 6672,
      "à°¿à°ªà±ĭà°¯": 6673,
      "Ġdefined": 6674,
      "Ġquality": 6675,
      "pril": 6676,
      "Ġà´¨à´Łà´¤àµįà´¤": 6677,
      "à¯ģà®ļà¯į": 6678,
      "àµĨà´Ļàµįà´ķà´¿à´²àµģà´Ĥ": 6679,
      "ales": 6680,
      "Ġpy": 6681,
      "à§įà¦¶": 6682,
      "else": 6683,
      "Ġbegan": 6684,
      "Ġà¦Ĩà§°": 6685,
      "Ġà¦Ĩà¦Ľà¦¿à¦²": 6686,
      "ĠHind": 6687,
      "Ġàªªàª¡": 6688,
      "Ġsex": 6689,
      "Ġtrue": 6690,
      "à¥Įà¤°": 6691,
      "Ġpoints": 6692,
      "Ġerror": 6693,
      "Ġrev": 6694,
      "Ġheld": 6695,
      "Ġà¤ľà¤¾": 6696,
      "Ġàª®àª³": 6697,
      "Ġà¤¯à¥ĩ": 6698,
      "Ġload": 6699,
      "Request": 6700,
      "Ġlargest": 6701,
      "à¬·àŃįà¬Ł": 6702,
      "Ġà²Ĳ": 6703,
      "Ġachie": 6704,
      "roll": 6705,
      "Ġdate": 6706,
      "à²¦à³įà²¯": 6707,
      "à²²à³Ĥ": 6708,
      "à±ĭà°ª": 6709,
      "à°¾à°°à°¨à°¿": 6710,
      "Ġà¦¸à¦Ļà§įà¦Ĺ": 6711,
      "à²¿à²¦à³įà²¯": 6712,
      "Ġà´ķàµĭ": 6713,
      "ĠNo": 6714,
      "à³Ģà²¨": 6715,
      "Ġà´ħà´ª": 6716,
      "à²¿à²¤à²¿": 6717,
      "à°°à±įà°ķ": 6718,
      "Ġà²Ĺà²³": 6719,
      "Ġà´°àµĤà´ª": 6720,
      "Ġà´¦à´¿à´µà´¸": 6721,
      "Ġfactors": 6722,
      "à²¿à²ľà³Ĩà²ª": 6723,
      "Ġbehavior": 6724,
      "à§įà¦Ľà§ĩ": 6725,
      "Ġà®ªà¯ģà®ķ": 6726,
      "à¤¤à¥ĭ": 6727,
      "Ġà¦ķà¦¾à¦®": 6728,
      "ĠApp": 6729,
      "à¬¾à¬§": 6730,
      "Ġstri": 6731,
      "ĠMar": 6732,
      "oding": 6733,
      "Ġalmost": 6734,
      "Ġmonths": 6735,
      "à®ī": 6736,
      "Ġweek": 6737,
      "Ġfamil": 6738,
      "Ġissue": 6739,
      "Ġgroups": 6740,
      "mat": 6741,
      "var": 6742,
      "à´¿àµ»": 6743,
      "Ġtool": 6744,
      "à²²à²¿à²¦à³Ĩ": 6745,
      "Ġà®¨à®¾à®®à¯į": 6746,
      "àµĩà´¸": 6747,
      "Ġà´®àµĤ": 6748,
      "Ġàª¤à«ĭ": 6749,
      "Ġà²ľà²¿à²²à³įà²²": 6750,
      "Ġà°İà°²": 6751,
      "Ġà®µà®°à¯Ī": 6752,
      "à®ªà¯įà®ªà®Łà¯įà®Łà®¤à¯ģ": 6753,
      "Ġà´İà´¨àµįà´¨à´¿à´µ": 6754,
      "Ġà®ħà®°à®ļà¯ģ": 6755,
      "Ġà²¯à²¾à²µà³ģà²¦": 6756,
      "wise": 6757,
      "org": 6758,
      "Ġden": 6759,
      "Ġlay": 6760,
      "Ġlive": 6761,
      "Ġlib": 6762,
      "à¥Ĥà¤²": 6763,
      "à§ĥà¦·à§įà¦Ł": 6764,
      "Ġdetail": 6765,
      "Ġgreater": 6766,
      "apt": 6767,
      "aring": 6768,
      "Ġà°®à°Ĥà°¤à±įà°°": 6769,
      "Ġwhose": 6770,
      "Ġà¨ªà©°à¨ľ": 6771,
      "à¤¯à¥ĩ": 6772,
      "à©±à¨§": 6773,
      "Ġsym": 6774,
      "à¦§à¦¾à¦¨": 6775,
      "Ġà®¨à®Łà®¨à¯įà®¤": 6776,
      "Ġincreasing": 6777,
      "esh": 6778,
      "à°¾à°Ĺà°¾": 6779,
      "à°Ĥà°¡à±ģ": 6780,
      "à±ĭà°¨": 6781,
      "ott": 6782,
      "Ġà®¤à¯Ģ": 6783,
      "Ġà²¸à³ĩà²°": 6784,
      "Ġà¦¸à¦¾à¦®": 6785,
      "irm": 6786,
      "Ġà²ªà²ķà³įà²·": 6787,
      "à´¿à´¯à´¿àµ½": 6788,
      "àª¿àª°": 6789,
      "Ġà¤¤à¤ķ": 6790,
      "à´¿à´ķàµįà´ķàµģà´¨àµįà´¨àµģ": 6791,
      "Ġà¦ļà§°": 6792,
      "àµĩà´ĸ": 6793,
      "à³ģà²¤à³įà²¤à²¿à²¦à³įà²¦": 6794,
      "Ġà´Ĩà´µà´¶": 6795,
      "Ġà°¦à±ĩà°¶": 6796,
      "Ġà²Ĺà³Ĩ": 6797,
      "Ġà°²à±ĩà°ķ": 6798,
      "Ġà®ªà¯Ĩà®¯": 6799,
      "à¯Īà®ķà®³à¯Ī": 6800,
      "Ġportfol": 6801,
      "anuary": 6802,
      "Ġà²¸à²ļà²¿à²µ": 6803,
      "Ġways": 6804,
      "Ġbar": 6805,
      "ĠKing": 6806,
      "Ġfeel": 6807,
      "Ġpotential": 6808,
      "go": 6809,
      "oard": 6810,
      "uous": 6811,
      "esp": 6812,
      "Ġdest": 6813,
      "Ġreally": 6814,
      "à§ģà¦ª": 6815,
      "ĠEduc": 6816,
      "à¤¡à¥ĩ": 6817,
      "Ġjob": 6818,
      "ief": 6819,
      "Ġà°µà°¿à°¦": 6820,
      "mselves": 6821,
      "Ġdefin": 6822,
      "Ġpopular": 6823,
      "Ġà¤Ńà¤¾à¤°à¤¤": 6824,
      "How": 6825,
      "Ġthus": 6826,
      "Ġà°ªà°¨": 6827,
      "à¥ģà¤¤": 6828,
      "Ġà°ħà°®": 6829,
      "à²¿à²¸à²¿à²¦à³įà²¦à²¾à²°à³Ĩ": 6830,
      "Ġà²¬à²¿à²ľà³Ĩà²ª": 6831,
      "à³ĭà²§": 6832,
      "plit": 6833,
      "ocks": 6834,
      "ournal": 6835,
      "Ġà°°à±Īà°¤": 6836,
      "Ġà¨ľà¨¿à¨¸": 6837,
      "à®¾à®Łà¯ģ": 6838,
      "à´ķàµįà´°": 6839,
      "Ġà®ħà®¤à®©à¯į": 6840,
      "à°¾à°¸à±į": 6841,
      "à²¾à²¤à³įà²°": 6842,
      "ĠResearch": 6843,
      "Ġà®īà®£à®°": 6844,
      "OR": 6845,
      "Ġthemselves": 6846,
      "à¬¾à¬¶": 6847,
      "à¬¿à¬ı": 6848,
      "à¤¦à¥įà¤§": 6849,
      "Ġà¨Ĺà¨Ī": 6850,
      "à¬¾à¬¨àŃįà¬¤": 6851,
      "à¬°àŃįà¬·": 6852,
      "Ġeconomy": 6853,
      "config": 6854,
      "('": 6855,
      "Ġ#": 6856,
      "Ġ<": 6857,
      "Ġtaking": 6858,
      "amed": 6859,
      "à¦®à¦¨": 6860,
      "à§įà¦¯à¦¾à¦²": 6861,
      "à¤Ĺà¤°": 6862,
      "ban": 6863,
      "method": 6864,
      "Ġess": 6865,
      "à±ģà°£": 6866,
      "Ġliving": 6867,
      "à°Ĥà°ľ": 6868,
      "ķàµįà´·": 6869,
      "chan": 6870,
      "à¦°à§įà¦¤": 6871,
      "Ġà®ħà®Ļà¯įà®ķ": 6872,
      "Ġà®ļà®®à¯įà®ª": 6873,
      "Ġà¦¬à¦Ľ": 6874,
      "à²¡à³ģà²µ": 6875,
      "à´²àµįà´ķ": 6876,
      "àµĢà´¯": 6877,
      "Ġà°¤à°®": 6878,
      "à²¿à²¯à²¾à²Ĺ": 6879,
      "à®¾à®µà®¤à¯ģ": 6880,
      "Ġà¤ĩà¤¨": 6881,
      "Ġà²Ĵà²Ĥà²¦": 6882,
      "à®ªà¯įà®ªà®Łà¯įà®Łà¯ģ": 6883,
      "à°¾à°Ĥà°¡": 6884,
      "Ġneeded": 6885,
      "Ġà¬¤à¬¾à¬ĻàŃįà¬ķ": 6886,
      "ney": 6887,
      "Ġà®ªà®¾à®¤à¯ģà®ķ": 6888,
      "Ġà²¸à²¾à²§à³įà²¯": 6889,
      "Ġelse": 6890,
      "Ġà²İà²°à²¡à³ģ": 6891,
      "ae": 6892,
      "ml": 6893,
      "point": 6894,
      "Ġfarm": 6895,
      "Ġà¤ķà¥ģà¤": 6896,
      "à¤®à¤§à¥įà¤¯à¥ĩ": 6897,
      "ĠDr": 6898,
      "à¦¾à§°à¦¤": 6899,
      "àŃģà¬®": 6900,
      "à¤¾à¤Ĥà¤¨à¤¾": 6901,
      "iation": 6902,
      "àŃįà¬Ń": 6903,
      "ĠMarch": 6904,
      "Ġà¤²à¥ĭà¤Ĺ": 6905,
      "àªĤàª§": 6906,
      "Ġwritten": 6907,
      "Ġstructure": 6908,
      "based": 6909,
      "uple": 6910,
      "het": 6911,
      "à´¿à´Ĥ": 6912,
      "à®°à¯Ī": 6913,
      "à²°à²£": 6914,
      "à®¤à¯ĩ": 6915,
      "Ġà²®à²¤à³įà²¤": 6916,
      "Ġà®ļà®¿à®°": 6917,
      "Ġà°ªà°¡": 6918,
      "à°¾à°°à°£": 6919,
      "Ġà²ķà²¾à²Ĥà²Ĺ": 6920,
      "Ġà²¨à³Ĩ": 6921,
      "Ġà²¨à²¾à²µà³ģ": 6922,
      "ried": 6923,
      "à¯Īà®¯à®¿à®©à¯į": 6924,
      "Ġà°¨à±Ģ": 6925,
      "Ġà²ªà³įà²°à²¯": 6926,
      "à¨¾à¨¨à©Ĥà©°": 6927,
      "Ġà²ĩà²¦à³įà²¦": 6928,
      "Ġà®ķà¯ģà®±à®¿à®ªà¯įà®ª": 6929,
      "à²ķà²°à²£": 6930,
      "Ġà®ªà¯ĭà®²à¯Ģ": 6931,
      "à¥ĩà¤¨": 6932,
      "Ġagricult": 6933,
      "Ġprotect": 6934,
      "Ġadditional": 6935,
      "Cl": 6936,
      "à«¦": 6937,
      "à¤ªà¥įà¤°": 6938,
      "Ġà¦ħà¦°": 6939,
      "Ġà¦īà¦¤à§įà¦¤": 6940,
      "Ġà¤ļà¤¾à¤¹": 6941,
      "Ġaffect": 6942,
      "à°İ": 6943,
      "à±įà°ľ": 6944,
      "Ġey": 6945,
      "Ġà®ªà¯Ĥ": 6946,
      "à«Ģàªµ": 6947,
      "Ġà²ķà²¡": 6948,
      "Ġà¤®à¤¿à¤": 6949,
      "ĠPres": 6950,
      "à´¿à´¯à´¿à´²àµį": 6951,
      "Ġà¤¦à¤°": 6952,
      "Ġà¨ªà©ģ": 6953,
      "à®£à¯įà®Łà¯ģà®®à¯į": 6954,
      "Ġà°ªà±įà°°à°¯": 6955,
      "à°°à±įà°¥": 6956,
      "Ġscience": 6957,
      "à´¸àµįà´¥à´¾à´¨": 6958,
      "Ġà¤īà¤¨à¥įà¤¹": 6959,
      "On": 6960,
      "à¬°à¬¿": 6961,
      "à©ĭà¨°": 6962,
      "Ġuses": 6963,
      "àŃĢàŃŁ": 6964,
      "Ġcompet": 6965,
      "Ġeffic": 6966,
      "Ġlinear": 6967,
      "à®¿à®£": 6968,
      "à¦¾à¦ī": 6969,
      "Ġpaid": 6970,
      "Ġdam": 6971,
      "ĠCD": 6972,
      "ĠCar": 6973,
      "Ġdeg": 6974,
      "Ġà¤¦à¥ĩà¤ĸ": 6975,
      "à¦¦à¦¿à¦¨": 6976,
      "Ġà¤ķà¤°à¤¤à¥ĩ": 6977,
      "Ġàª°à«Ĥ": 6978,
      "Ġparts": 6979,
      "Ġàª¹àª¤à«ĭ": 6980,
      "Ġprices": 6981,
      "AR": 6982,
      "à´ĸ": 6983,
      "à°¾à°Ĥ": 6984,
      "à²°à²¨à³įà²¨à³ģ": 6985,
      "à®Łà¯ģà®®à¯į": 6986,
      "à«Ģàª®": 6987,
      "Ġà®µà®ļ": 6988,
      "àŃįà¬¸": 6989,
      "Ġà®¤à¯Ģà®°": 6990,
      "Ġà¤¸à¤¹": 6991,
      "à´¿à´¯àµĨ": 6992,
      "à°¸à±įà°¸": 6993,
      "Ġà¤¨à¤¿à¤": 6994,
      "izing": 6995,
      "à´¿à´ŁàµĨ": 6996,
      "Ġà°µà°¿à°µ": 6997,
      "Ġdirectly": 6998,
      "Ġpractice": 6999,
      "Ġà´ªàµĬà´²": 7000,
      "Ġproperty": 7001,
      "Ġà¨¬à¨¹à©ģà¨¤": 7002,
      "]:": 7003,
      "Ġsense": 7004,
      "route": 7005,
      "ached": 7006,
      "à«Ģàª¸": 7007,
      "à¨Łà¨°": 7008,
      "Ġnegative": 7009,
      "Ġsector": 7010,
      ")^{": 7011,
      "time": 7012,
      "Ġ;": 7013,
      "Ġinput": 7014,
      "à®µà®¿à®²à¯į": 7015,
      "à©ĭà¨²": 7016,
      "Ġà¦¨à¦¿à¦¯à¦¼": 7017,
      "à¤Łà¥Ģ": 7018,
      "à§Ģà¦¯à¦¼à§ĩ": 7019,
      "flask": 7020,
      "Ġign": 7021,
      "à±Ģà°¨": 7022,
      "à°µà±įà°µ": 7023,
      "à±ģà°²à±įà°²à±ĭ": 7024,
      "Ġà´İà´²àµįà´²": 7025,
      "Ġà°Ĩà°¸": 7026,
      "Ġà®µà®°à¯ģà®ķà®¿à®±à®¤à¯ģ": 7027,
      "Ġàª²à«ĭàªķ": 7028,
      "à¯ģà®ķà®³à¯Ī": 7029,
      "Ġrefer": 7030,
      "àµĭà´³àµį": 7031,
      "Ġpurch": 7032,
      "Ġà¨°à¨¹à©ĩ": 7033,
      "orrow": 7034,
      "Ġmut": 7035,
      "Ġà¦ķà¦¾à¦ľ": 7036,
      "Ġà¨¸à¨¾à¨¹": 7037,
      "àª¿àª¸": 7038,
      "àŃĭà¬Ł": 7039,
      "Ġà¨°à¨¿à¨¹à¨¾": 7040,
      "à¤ķà¥įà¤·à¤¾": 7041,
      "Ġavoid": 7042,
      "Ġengine": 7043,
      "loc": 7044,
      "Ġforce": 7045,
      "à¬¿à¬®": 7046,
      "istory": 7047,
      "àªµà«ģàªĤ": 7048,
      "Ġà¨ªà¨¹": 7049,
      "Ġerr": 7050,
      "Ġpassed": 7051,
      "ges": 7052,
      "lam": 7053,
      "à¬ĻàŃįà¬Ĺ": 7054,
      "à°¾à°ĸ": 7055,
      "à°°à°¿à°Ĥà°ļ": 7056,
      "à²Ĺà³ģ": 7057,
      "ĠAfter": 7058,
      "Ġà°ªà°¦": 7059,
      "Ġà¦¸à¦¾à¦¹": 7060,
      "à±ĩà°¯": 7061,
      "Ġà´ķàµĪ": 7062,
      "àµģà´Ĥà´¬": 7063,
      "à°¤à±įà°µ": 7064,
      "Ġà´µà´³": 7065,
      "osis": 7066,
      "Ġà´ħà´¦àµįà´¦": 7067,
      "Ġàªªàª¹": 7068,
      "à¤¬à¤Ĥà¤§": 7069,
      "Ġà´°à´£àµįà´Ł": 7070,
      "Ġà°¶à±įà°°à±Ģ": 7071,
      "Ġadded": 7072,
      "Ġà®¤à¯Ĩà®°à®¿à®¯": 7073,
      "Ġà²ħà²¦à²°": 7074,
      "à®¿à®°à¯ģà®ķà¯įà®ķà®¿à®±": 7075,
      "Ġservice": 7076,
      "àµĨà´Ļàµįà´ķà´¿àµ½": 7077,
      "Ġà´µàµįà´¯à´ķàµįà´¤": 7078,
      "Ġà²¸à²¿à²¨à²¿à²®": 7079,
      "To": 7080,
      "Ã©": 7081,
      "aters": 7082,
      "Ġcirc": 7083,
      "Ġ(\"": 7084,
      "ĠUnion": 7085,
      "à¤¢à¤¼": 7086,
      "ĠAustral": 7087,
      "({\"": 7088,
      "Ch": 7089,
      "down": 7090,
      "sub": 7091,
      "tain": 7092,
      "Ġpaper": 7093,
      "ara": 7094,
      "à§ĩà¦Ĺ": 7095,
      "Ġlink": 7096,
      "illed": 7097,
      "Ġà¦¨à¦¿à§°": 7098,
      "Ġà¤¤à¥ĩ": 7099,
      "à©±à¨¡": 7100,
      "ĠOther": 7101,
      "Ġà¬¬àŃĭà¬²": 7102,
      "Ġàªķàª°àªµàª¾àª®àª¾àªĤ": 7103,
      "Ġà¬Ĩà¬¸": 7104,
      "Ġcover": 7105,
      "textstyle": 7106,
      "Ġapproxim": 7107,
      "ĠAmerica": 7108,
      "Ġà¬¦àŃĩà¬ĸ": 7109,
      "Ġà¤µà¤°à¥įà¤·": 7110,
      "à¬¯": 7111,
      "Ġmass": 7112,
      "à¤ķà¥ĭ": 7113,
      "Ġà´ªàµģà´¤à´¿à´¯": 7114,
      "Ġà°ħà°¦": 7115,
      "à²¸à³Ĩ": 7116,
      "Ġà´µà´²à´¿à´¯": 7117,
      "Ġà´¨à´²àµįà´ķ": 7118,
      "àµįà´ªàµįà´ª": 7119,
      "à®¨à¯įà®¤à®¿à®°": 7120,
      "Ġà¦¦à¦²": 7121,
      "à®ªà¯įà®ªà¯ģ": 7122,
      "à¤§à¤¾à¤°": 7123,
      "Ġàªķàª°à«ĩ": 7124,
      "Ġà®ªà¯ĭà®©à¯įà®±": 7125,
      "Ġà²®à²¾à²¡à²¿": 7126,
      "rown": 7127,
      "à®¸à¯įà®¤": 7128,
      "Ġà®ªà®¿à®°à®ļà¯įà®ļ": 7129,
      "Ġà²ħà²§à²¿à²ķà²¾à²°": 7130,
      "Ġimprove": 7131,
      "Ġà®ªà¯ģà®¤à®¿à®¯": 7132,
      "¸à¤¾à¤łà¥Ģ": 7133,
      "hel": 7134,
      "Ġfig": 7135,
      "Ġfish": 7136,
      "Ġbase": 7137,
      "uration": 7138,
      "Ġà¤¸à¥ģ": 7139,
      "Ġaltern": 7140,
      "Ġà¤Ĩà¤®": 7141,
      "Ġassets": 7142,
      "Ġactually": 7143,
      "à¤¾à¤ļà¥ĩ": 7144,
      "Ġbasic": 7145,
      "Ġoriginal": 7146,
      "TT": 7147,
      "cd": 7148,
      "isions": 7149,
      "ĠCor": 7150,
      "à§Ģà¦ķà§įà¦·": 7151,
      "Ġà¨¦à©ģ": 7152,
      "rial": 7153,
      "ĠGe": 7154,
      "Ġà¦ħà¦¤": 7155,
      "à¯ģà®±à¯įà®±": 7156,
      "Ġà¬²àŃĭà¬ķ": 7157,
      "Ġà¦¤à§ĭà¦®": 7158,
      "ey": 7159,
      "Ġà®¹": 7160,
      "lex": 7161,
      "Ġà®®à®±": 7162,
      "ĠSci": 7163,
      "Ġà²¸à²Ĥà²¦": 7164,
      "Ġà°ªà±ĩà°°": 7165,
      "Ġà´ķà´³": 7166,
      "Ġà²ªà³Ĥ": 7167,
      "Ġà²ªà²¡à³Ĩ": 7168,
      "à´¿à´¯à´¤àµį": 7169,
      "à¯Ĭà®´": 7170,
      "à¯ģà®µà®¤à¯ģ": 7171,
      "Ġclos": 7172,
      "Ġà°ĩà°ļà±įà°ļ": 7173,
      "à¦¾à¦¤à§įà¦°": 7174,
      "à®Ļà¯įà®ķà®³à¯ģà®ķà¯įà®ķà¯ģ": 7175,
      "âĪĳ": 7176,
      "à°¾à°Ĥà°Ĺ": 7177,
      "Ġà°¤à±Ĩà°²à°¿à°ª": 7178,
      "Ġà°¨à°¿à°°à±įà°µ": 7179,
      "Ġà®µà¯Ģà®Łà¯įà®Ł": 7180,
      "Ġà°²à±ĩà°¦à±ģ": 7181,
      "index": 7182,
      "year": 7183,
      "Ġà¦Ľà¦¿à¦²": 7184,
      "Ġce": 7185,
      "elt": 7186,
      "Ġexc": 7187,
      "à¦¾à¦°à¦¾": 7188,
      "Ġbuilt": 7189,
      "Ġà¤¥à¥Ģ": 7190,
      "Ġprograms": 7191,
      "ĠCenter": 7192,
      "Ġinvolved": 7193,
      "ĠApril": 7194,
      "Ġà®Ĩà®£à¯įà®Ł": 7195,
      "Ġannual": 7196,
      "Ġlegal": 7197,
      "Ġnetwork": 7198,
      "Ġcheck": 7199,
      "co": 7200,
      "à±įà°ŀ": 7201,
      "à¯ģà®·": 7202,
      "à²¾à²¬": 7203,
      "à²Ĥà²¥": 7204,
      "à°°à±Ģ": 7205,
      "à°²à°Ĥ": 7206,
      "Ġà°ªà±Ĥà°°à±įà°¤": 7207,
      "Ġà®ĩà®£": 7208,
      "à³įà²°à²¿à²¯": 7209,
      "à´Łà´¿": 7210,
      "Ġà®¨à®¿à®ķà®´": 7211,
      "à³Ģà²¸": 7212,
      "à²¿à²Ĺà³Ĥ": 7213,
      "Ġchall": 7214,
      "Ġà²¦à³ĩà²¶": 7215,
      "Ġà¤ªà¥įà¤°à¤ķà¤¾à¤°": 7216,
      "à©Ģà¨µ": 7217,
      "à²ķà³įà²ķà³Ĥ": 7218,
      "Ġà¤¤à¥įà¤¯à¤¾à¤ļ": 7219,
      "Ġà°ħà°¨à±įà°¨à°¿": 7220,
      "Ġreceived": 7221,
      "Ġà²İà²²à³įà²²à²¾": 7222,
      "Ġquestion": 7223,
      "Ġrelationship": 7224,
      "Ġà²ķà²¾à²Ĥà²Ĺà³įà²°à³Ĩ": 7225,
      "Call": 7226,
      "ches": 7227,
      "len": 7228,
      "Ġà¦Ĩà¦²": 7229,
      "Ġyet": 7230,
      "à¥įà¤¯à¤¾à¤ª": 7231,
      "Ġfactor": 7232,
      "à§ĩà¦·à§įà¦Ł": 7233,
      "Ġperformance": 7234,
      "Ġresearchers": 7235,
      "col": 7236,
      "¨à§įà¦¤": 7237,
      "à§°à¦£": 7238,
      "Ġgas": 7239,
      "Ġund": 7240,
      "abit": 7241,
      "ptember": 7242,
      "à§ģà¦£": 7243,
      "Ġà¬ħà¬§": 7244,
      "Ġopportun": 7245,
      ".\"\"\"": 7246,
      "PV": 7247,
      "à¯įà®ĥ": 7248,
      "Ġaction": 7249,
      "error": 7250,
      "Ġcreat": 7251,
      "std": 7252,
      "Ġrecomm": 7253,
      "à®Łà¯Ī": 7254,
      "Ġà®ķà®¾à®£": 7255,
      "sequ": 7256,
      "à¯Ĩà®©à¯įà®±": 7257,
      "à±Ĩà°¡": 7258,
      "à´Łàµģà´¤àµįà´¤": 7259,
      "Ġà¤®à¤¨": 7260,
      "Ġà²¨à²¨à³įà²¨": 7261,
      "Ġà°ļà±Ĥà°": 7262,
      "à¨ķà¨°": 7263,
      "à²Ĺà²³à²¿à²Ĥà²¦": 7264,
      "à²¿à²¯à³Ĥ": 7265,
      "ender": 7266,
      "à«ĩàª¡": 7267,
      "Ġàªľà«ĭ": 7268,
      "à°°à±įà°·": 7269,
      "Ġà´ĩà´¤àµį": 7270,
      "Ġà¤ķà¤°à¤¨à¤¾": 7271,
      "Ġà°ľà°¨": 7272,
      "Ġà®ħà®µà®°à¯įà®ķà®³": 7273,
      "Ġà®µà®°à¯ģà®®à¯į": 7274,
      "Ġà´µà´¿à´ľ": 7275,
      "à®¨à¯įà®¨": 7276,
      "Ġmarkets": 7277,
      "Ġà®¨à¯Ģà®Ļà¯įà®ķà®³à¯į": 7278,
      "ĠJewish": 7279,
      "Ġà´µà´¿à´¦àµįà´¯": 7280,
      "à©ĩà¨Ĺà¨¾": 7281,
      "rary": 7282,
      "âī": 7283,
      "Ġsample": 7284,
      "Ġbal": 7285,
      "vere": 7286,
      "Ġà¦®à¦¨à§ĩ": 7287,
      "Ġà¦¦à§įà¦¬": 7288,
      "Ġseason": 7289,
      "Ġà¦¬à¦¿à¦ľ": 7290,
      "Ġà¨ļà¨¾à¨¹": 7291,
      "ternal": 7292,
      "Ġ`": 7293,
      "à¤¤à¤¿": 7294,
      "Ġrule": 7295,
      "àª¤àª¿": 7296,
      "Ġcompared": 7297,
      "Ġproduce": 7298,
      "Ġcapt": 7299,
      "àªĽà«Ģ": 7300,
      "ĠJuly": 7301,
      "Ġisinstance": 7302,
      "à®²à®¿à®¯": 7303,
      "Ġà®µà®¾à®¯": 7304,
      "Ġà´ªàµĩà´°": 7305,
      "àµĭà´®": 7306,
      "Ġà®¨à®¿à®©": 7307,
      "à®®à¯ĩ": 7308,
      "Ġà´¸à´¾à´§": 7309,
      "Ġà´ħà´±": 7310,
      "à¯ģà®ķà¯įà®ķà®¿à®¯": 7311,
      "à¤ªà¥Ģ": 7312,
      "à´ķà´Ł": 7313,
      "à¥įà¤¯à¤¾à¤µ": 7314,
      "exception": 7315,
      "Ġability": 7316,
      "Ġà¨²à©Ī": 7317,
      "Ġàª¬àª¨": 7318,
      "Ġcurren": 7319,
      "Ġearli": 7320,
      "Ġà®®à®ķà¯įà®ķà®³": 7321,
      "Ġà®ħà®²à¯įà®²à®¤à¯ģ": 7322,
      "Ġà²µà²¿à²·à²¯": 7323,
      "inated": 7324,
      "isation": 7325,
      "Ġtown": 7326,
      "à¦¿à¦¯": 7327,
      "oun": 7328,
      "iles": 7329,
      "Ġà¦¬à¦²à§ĩ": 7330,
      "Ġà¤¹à¤®": 7331,
      "Ġarticle": 7332,
      "pared": 7333,
      "Ġ**": 7334,
      "ened": 7335,
      "Ġcard": 7336,
      "amil": 7337,
      "à§ĭà¦·": 7338,
      "estic": 7339,
      "Ġà¤ªà¤¾à¤°": 7340,
      "Ġsure": 7341,
      "Ġà¦¤à§ĩà¦ĵà¦ģà§°": 7342,
      "Ġcosts": 7343,
      "Ġbasis": 7344,
      "Ġtw": 7345,
      "Ġsun": 7346,
      "Ġbrain": 7347,
      "à²²à²¿à²²à³įà²²": 7348,
      "àŃįà¬ľ": 7349,
      "à°²à°¨à±ģ": 7350,
      "à´°à´£": 7351,
      "Ġà°ªà°¾à°°à±įà°Ł": 7352,
      "Ġà®¨à®®à¯įà®ª": 7353,
      "ĠMore": 7354,
      "Ġà¤®à¤¾à¤¨": 7355,
      "Ġà²¹à²¾à²ķ": 7356,
      "Ġà´¨àµĢ": 7357,
      "à°¡à°Ĥà°¤à±ĭ": 7358,
      "Ġlearning": 7359,
      "à´¿à´¨à´¿à´®": 7360,
      "Ġuser": 7361,
      "à¦£à§įà¦¡": 7362,
      "Ġà´µà´¿à´¶": 7363,
      "Ġlonger": 7364,
      "Ġshows": 7365,
      "Ġprimary": 7366,
      "ED": 7367,
      "list": 7368,
      "Ġdrug": 7369,
      "à¦¨à¦¾à¦°": 7370,
      "ĠMod": 7371,
      "Ġdecre": 7372,
      "Ġà¨¸à¨¿à©±à¨": 7373,
      "Ġoutside": 7374,
      "Ġiterable": 7375,
      "ĠJews": 7376,
      "ĠEuropean": 7377,
      "Ġanimals": 7378,
      "mathbf": 7379,
      "Ġtemperature": 7380,
      "json": 7381,
      "à¥ĩà¤°": 7382,
      "imal": 7383,
      "Ġà®ķà®¾à®°": 7384,
      "ĠCo": 7385,
      "à©±à¨¤": 7386,
      "acks": 7387,
      "Ġheart": 7388,
      "Ġà¨ľà¨¾": 7389,
      "Ġflag": 7390,
      "Ġindependent": 7391,
      "su": 7392,
      "ser": 7393,
      "Ġà¤ĭ": 7394,
      "à³ģà²®": 7395,
      "à§ĩà¦ļ": 7396,
      "cember": 7397,
      "vey": 7398,
      "Ġà²®à²¤": 7399,
      "rap": 7400,
      "Ġà²¸à³ĭ": 7401,
      "Ġà®ļà¯ĭà®¤": 7402,
      "à´¯à´¿à´²àµĨ": 7403,
      "à¦¯à¦¼à§ĭ": 7404,
      "à²¿à²¯à³ĩ": 7405,
      "Ġà°Ĩà°¦": 7406,
      "Ġcli": 7407,
      "Ġà´ĩà´µ": 7408,
      "Ġà´ļàµĭà´¦": 7409,
      "à¦¥à¦®": 7410,
      "Ġà°¯à±Ĭà°ķà±įà°ķ": 7411,
      "Ġà®ªà¯Ĩà®£": 7412,
      "Ġà®®à¯ĩà®±à¯įà®ķ": 7413,
      "à±ģà°Ĥà°¡à°¿": 7414,
      "Ġà´ıà´±àµįà´±": 7415,
      "Ġà°īà°Ĥà°Łà±ģà°Ĥà°¦à°¿": 7416,
      "Ġà®ļà¯ĩà®°à¯įà®¨à¯įà®¤": 7417,
      "Ġà²¯à²¾à²µà³ģà²¦à³ĩ": 7418,
      "Ļà¯į": 7419,
      "Ġwild": 7420,
      "Ġà¨¦à©ĭ": 7421,
      "ĠJune": 7422,
      "Ġparty": 7423,
      "Ġ{\"": 7424,
      "ervation": 7425,
      "Ġà¬Ĩà¬": 7426,
      "ĠReg": 7427,
      "Ġdecision": 7428,
      "Ġsimple": 7429,
      "sych": 7430,
      "àŃĩà¬³àŃĩ": 7431,
      "ike": 7432,
      "Ġhom": 7433,
      "Ġlot": 7434,
      "à§ģà¦¸": 7435,
      "ided": 7436,
      "ĠShe": 7437,
      "à¥įà¤¯à¤®": 7438,
      "àªµà«ĩ": 7439,
      "Ġà¤¬à¤¹": 7440,
      "ression": 7441,
      "à¤¥à¤¾": 7442,
      "bre": 7443,
      "à²Ĩ": 7444,
      "à°¾à°¸à±įà°¤": 7445,
      "àµģà´²": 7446,
      "à®©à®®à¯į": 7447,
      "à²Ĥà²ľ": 7448,
      "à²¤à³įà²µ": 7449,
      "à®¿à®²à®¿à®°à¯ģà®¨à¯įà®¤à¯ģ": 7450,
      "igation": 7451,
      "à³ĩà²¹": 7452,
      "Ġà°ªà°Łà±įà°Ł": 7453,
      "Ġà°®à°§à±įà°¯": 7454,
      "Ġanc": 7455,
      "à°®à±ģà°²": 7456,
      "Ġà°¨à°¿à°²": 7457,
      "Ġà²µà²¿à²°": 7458,
      "Ġà°¤à°ªà±įà°ª": 7459,
      "Ġà´İà´¨àµįà´¤": 7460,
      "ĠOct": 7461,
      "Ġà´ļàµĨ": 7462,
      "à¤¾à¤µà¤°": 7463,
      "à´¨àµįà´±àµį": 7464,
      "Ġà²µà²¿à²¶à³įà²µ": 7465,
      "Ġà²Ĺà³įà²°à²¾à²®": 7466,
      "changed": 7467,
      "à¤¾à¤Ń": 7468,
      "à¦¿à¦Ń": 7469,
      "Ġstory": 7470,
      "Ġà¤µà¥ĩ": 7471,
      "ĠEm": 7472,
      "aching": 7473,
      "Ġàª¤à«ĩàª¨àª¾": 7474,
      "Ġmusic": 7475,
      "Ġà¤®à¤¿à¤³": 7476,
      "àŃ¯": 7477,
      "Ġfixed": 7478,
      "à¥įà¤¡": 7479,
      "clus": 7480,
      "Ġà¤ľà¤¨": 7481,
      "Ġà¤°à¤¹": 7482,
      "à¥ĩà¤·": 7483,
      "Ġcommit": 7484,
      "ambda": 7485,
      "Ġratio": 7486,
      "just": 7487,
      "ores": 7488,
      "à¯ģà®¯": 7489,
      "Ġcy": 7490,
      "Ġlength": 7491,
      "à²¤à³įà²¨": 7492,
      "à°²à±įà°²à±ĭ": 7493,
      "à±Ģà°²à±ĭ": 7494,
      "Ġà²¸à³Ĥ": 7495,
      "Ġà¦¬à¦¸": 7496,
      "à°¾à°°à±į": 7497,
      "Ġà²¹à³ĩ": 7498,
      "Ġà´µà´¨àµįà´¨": 7499,
      "à¨¸à¨¤": 7500,
      "Ġà¦¨à¦¹": 7501,
      "Ġà´ħà´ļàµįà´Ľ": 7502,
      "Ġà°¤à±ĭ": 7503,
      "à°¡à±ģ": 7504,
      "Ġà¤ľà¤¬": 7505,
      "Ġà²ªà³įà²°à²®": 7506,
      "à¤¿à¤¤à¥Ģ": 7507,
      "Ġteac": 7508,
      "à´Ļàµįà´Ļà´³àµģà´Ĥ": 7509,
      "Ġfinal": 7510,
      "à®¿à®ķà®³à®¿à®²à¯į": 7511,
      "Ġà®ªà¯Ĩà®°à®¿à®¯": 7512,
      "à´¯àµįà´ķàµįà´ķàµį": 7513,
      "Ġindividuals": 7514,
      "à¯ģà®ķà®¿à®©à¯įà®±à®©à®°à¯į": 7515,
      "Ġportfolio": 7516,
      "cle": 7517,
      "come": 7518,
      "uel": 7519,
      "Ġpack": 7520,
      "àŃģà¬¤": 7521,
      "à®¾à®Łà¯įà®ļ": 7522,
      "Ġmechan": 7523,
      "Ġàª¨à«ĩ": 7524,
      "à¤£à¥įà¤¯à¤¾à¤ļ": 7525,
      "à¨¿à©°à¨Ĺ": 7526,
      "ĠWhile": 7527,
      "Ġà¨¤à©ģà¨¹": 7528,
      "Ġir": 7529,
      "Ġtakes": 7530,
      "atus": 7531,
      "uls": 7532,
      "Ġonline": 7533,
      "Ġà¨¦à©Ģà¨Ĩà¨Ĥ": 7534,
      "àª¤à«įàª°": 7535,
      "ĠEarth": 7536,
      "à°ªà±įà°°": 7537,
      "Ġàª¸àª°": 7538,
      "Ġemerg": 7539,
      "Ġà¦¥à¦ķà¦¾": 7540,
      "Ġsupply": 7541,
      "Ġgrowing": 7542,
      "Ġcitiz": 7543,
      "Ġà¨ªà©°à¨ľà¨¾à¨¬": 7544,
      "ĠEducation": 7545,
      "ners": 7546,
      "Ġtell": 7547,
      "Ġcro": 7548,
      "à²¨à²¾à²¡": 7549,
      "à±ĭà°¦": 7550,
      "à©Ģà¨¤": 7551,
      "à²Ĺà³Ĭà²³": 7552,
      "Ġà²®à²ķà³įà²ķ": 7553,
      "Ġà²¸à²¾à²µ": 7554,
      "Ġà°ķà°¾à°µ": 7555,
      "Ġà²ħà²ª": 7556,
      "Ġdemon": 7557,
      "à²¨à³įà²¨à²¡": 7558,
      "Ġà¨¹à¨°": 7559,
      "à³Ģà²ª": 7560,
      "à¯Ģà®°à¯į": 7561,
      "à´ķàµ¾": 7562,
      "ights": 7563,
      "Ġà´ĩà´ªàµįà´ª": 7564,
      "Ġrelig": 7565,
      "Ġpoor": 7566,
      "Ġà°ıà°°à±įà°ª": 7567,
      "Ġdepos": 7568,
      "à®¿à®¨à¯įà®¤à¯ģ": 7569,
      "Ġà²®à²¾à²¤à³įà²°": 7570,
      "à°°à±įà°µà°¾à°¤": 7571,
      "Ġà°ªà±įà°°à°Ńà±ģà°¤à±įà°µà°Ĥ": 7572,
      "ĠMuslim": 7573,
      "Ġchemical": 7574,
      "Ġà¦¸à¦Ļà§įà¦Ĺà§ĩ": 7575,
      "aff": 7576,
      "dd": 7577,
      "ged": 7578,
      "ply": 7579,
      "tion": 7580,
      "itary": 7581,
      "Ġdou": 7582,
      "à¨¿à¨ĸ": 7583,
      "Ġdevi": 7584,
      "Ġselect": 7585,
      "Ġimage": 7586,
      "ĠJanuary": 7587,
      "actions": 7588,
      "à¤¾à¤¤à¥Ģà¤²": 7589,
      "Ġmanu": 7590,
      "Ġà¬¯àŃĩ": 7591,
      "Ġàª¹àª¤à«ģàªĤ": 7592,
      "Ġincludes": 7593,
      "\"])": 7594,
      "Ġidea": 7595,
      "Ġsound": 7596,
      "ĠĠĠĠĠĠĠĠĠĠĠĠĠĠĠĠĠĠĠĠĠĠĠĠĠĠĠĠ": 7597,
      "Ġansw": 7598,
      "istan": 7599,
      "rompt": 7600,
      "Ġshown": 7601,
      "apter": 7602,
      "Ġremov": 7603,
      "Ġincluded": 7604,
      "à¨¾à¨¸à¨¼": 7605,
      "Ġà¦®à¦¾à¦¨à§ģà¦¹": 7606,
      "Ġcomputer": 7607,
      "Ġà¦¬à¦¿à¦·à¦¯à¦¼": 7608,
      "Ġassociated": 7609,
      "max": 7610,
      "àµģà´¸": 7611,
      "àª¾àª¬": 7612,
      "Ġthird": 7613,
      "à°°à±įà°¯": 7614,
      "à°°à±įà°²": 7615,
      "Ġà®ªà¯ģà®¤à¯įà®¤": 7616,
      "Ġà®µà®¯": 7617,
      "à¦°à§ĩà¦°": 7618,
      "àµĩà´±àµįà´±": 7619,
      "Ġà°¸à°¹": 7620,
      "Ġà®İà®Łà¯ģà®¤à¯įà®¤": 7621,
      "à¯Ĭà®³à¯įà®³": 7622,
      "à±įà°¨à±ģ": 7623,
      "à¯ģà®¤à®²à¯į": 7624,
      "à¨¨à¨¾à¨Ĥ": 7625,
      "à¥Īà¤¸à¥ĩ": 7626,
      "Ġà°¤à°°à±įà°µà°¾à°¤": 7627,
      "Ġsearch": 7628,
      "à²¬à²Ĥà²§": 7629,
      "Ġàª¸à«įàªµ": 7630,
      "à³įà²Łà³į": 7631,
      "à²¿à²ķà³į": 7632,
      "à²¿à²¦à³įà²¦à²°à³Ĩ": 7633,
      "Ġà°ľà±Ģà°µ": 7634,
      "Ġagree": 7635,
      "à¬£àŃįà¬¡": 7636,
      "à²¿à²µà³ĥ": 7637,
      "Ġà®µà¯ĩà®²": 7638,
      "Ġassess": 7639,
      "à±ģà°Ĺà±ģ": 7640,
      "Ġà°¹à±Ī": 7641,
      "ĠSeptember": 7642,
      "à®¿à®ķà®³à¯Ī": 7643,
      "Ġà°°à±Ĩà°Ĥà°¡à±ģ": 7644,
      "à´ªàµįà´ªàµĨà´Łàµģà´¤àµįà´¤": 7645,
      "Ġà°ľà°°à°¿à°Ĺ": 7646,
      "Ġà´¨àµĩà´¤": 7647,
      "à¯Ĭà®°à¯ģ": 7648,
      "Ġà®īà®¯à®°": 7649,
      "-\\": 7650,
      "oes": 7651,
      "Ġsources": 7652,
      "à¦¿à¦¡": 7653,
      "ĠTra": 7654,
      "à¥įà¤¯à¥Ĥ": 7655,
      "Ġconver": 7656,
      "Ġà¤¦à¥ĩà¤¶": 7657,
      "Ġà¤¯à¥ĩà¤": 7658,
      "ensive": 7659,
      "àª¸à«įàª¤": 7660,
      "Ġthroughout": 7661,
      "ĠSee": 7662,
      "Ġà¤ķà¥įà¤·à¥ĩà¤¤": 7663,
      "bon": 7664,
      "ray": 7665,
      "Ġpage": 7666,
      "àŃįà¬ł": 7667,
      "ription": 7668,
      "Ġbonds": 7669,
      "®à¥ģà¤³à¥ĩ": 7670,
      "Ġtarget": 7671,
      "à®°à®¾à®ķ": 7672,
      "Ġà®ķà®£à¯įà®Ł": 7673,
      "Ġà®µà®¿à®¤": 7674,
      "oted": 7675,
      "à°ķà°¾à°²": 7676,
      "Ġste": 7677,
      "Ġà°®à°Ĥà°¦à°¿": 7678,
      "Ġà²ħà²Ĺ": 7679,
      "Ġà²ħà²¤à³įà²¯": 7680,
      "Ġà²¹à²²": 7681,
      "Ġà´µàµĪ": 7682,
      "à®Łà¯įà®Łà®¿": 7683,
      "à²®à²¨": 7684,
      "clud": 7685,
      "à°¿à°ķà±į": 7686,
      "Ġà¬¸à¬°": 7687,
      "Ġà¤°à¤¹à¥ĩ": 7688,
      "Ġà¦ķà¦°à§ĩà¦¨": 7689,
      "Ġà°ĩà°Ĥà°Ł": 7690,
      "Ġàª°àª¾àªľ": 7691,
      "Ġà²®à²¾à²¡à²¿à²¦": 7692,
      "à²ķà³įà²·à²£": 7693,
      "Ġà²µà²¿à²§": 7694,
      "à±įà°ķà±ģ": 7695,
      "Ġà´Ĺàµįà´°": 7696,
      "à®¾à®±à¯ģ": 7697,
      "Ġreflect": 7698,
      "Ġà²µà³įà²¯à²µ": 7699,
      "Ġà®¤à®©à®¤à¯ģ": 7700,
      "Ġà®¤à¯Ĭà®Łà®°à¯įà®ª": 7701,
      "Ġà²¨à²¡à³Ĩà²¦": 7702,
      "response": 7703,
      "Ġà°¸à±įà°¥à°¾à°¨": 7704,
      "ĠInstitute": 7705,
      "Ġà®ªà®¾à®¤à¯ģà®ķà®¾à®ªà¯įà®ª": 7706,
      "ON": 7707,
      "à¥Ģà¤°": 7708,
      "adem": 7709,
      "abilities": 7710,
      "Ġitems": 7711,
      "Ġdeal": 7712,
      "Ġà¤Ĩà¤ľ": 7713,
      "Ġà¤ħà¤µ": 7714,
      "Ġà¤¹à¥ĭà¤¨à¥ĩ": 7715,
      "Ġconsist": 7716,
      "à¦¿à¦ļà¦¾à¦ª": 7717,
      "Ġà¦®à¦§à§įà¦¯à§ĩ": 7718,
      "ees": 7719,
      "à¬¢": 7720,
      "Ġlate": 7721,
      "Ġgame": 7722,
      "ĠSu": 7723,
      "Ġà¦¬à¦¾à¦¡à¦¼": 7724,
      "Ġà¦ıà¦¸": 7725,
      "à¦¿à¦¨à§įà¦¨": 7726,
      "ips": 7727,
      "Ġspread": 7728,
      "Ġtests": 7729,
      "Ġlanguages": 7730,
      "Ġnecessary": 7731,
      "à²¿à²ļ": 7732,
      "à²Ĺà³Ĭà²Ĥà²¡": 7733,
      "Ġà°ªà°¾à°²": 7734,
      "à®¿à®¯à®²à¯į": 7735,
      "Ġà°®à°Ĥà°¡": 7736,
      "Ġà¤®à¥ĩ": 7737,
      "à´³àµį": 7738,
      "Ġà°¨à±ĩ": 7739,
      "Ġà´®à´±àµįà´±": 7740,
      "à´¾à´¯à´¿à´°": 7741,
      "Ġà¤ķà¥ĩà¤²à¥ĩ": 7742,
      "à´¨àµįà´µ": 7743,
      "ĠUPI": 7744,
      "à¤°à¥įà¤ľ": 7745,
      "apan": 7746,
      "Ġà´ĩà´°": 7747,
      "Ġà²¦à³Ĭ": 7748,
      "Ġà²¶à³įà²°à³Ģ": 7749,
      "àµĨà´¨àµįà´¨à´¾à´£àµį": 7750,
      "Ġà°µà°¿à°¶": 7751,
      "à¨Ĺà©ĩ": 7752,
      "Ġà²¸à²Ĥà²¬à²Ĥà²§": 7753,
      "à´¡à´¿à´¯": 7754,
      "Ġà°¸à°Ĥà°¸": 7755,
      "Ġintroduced": 7756,
      "Ġà®¤à¯ĩà®°à¯įà®¤": 7757,
      "Ġà°¦à±įà°µà°¾à°°à°¾": 7758,
      "Ġà¤ķà¤¿à¤¸à¥Ģ": 7759,
      "AL": 7760,
      "ening": 7761,
      "à¥įà¤ŀ": 7762,
      "ĠFeb": 7763,
      "Ġà¦ıà¦°": 7764,
      "....": 7765,
      "à©Īà¨¨": 7766,
      "Ġà¨ľà¨¦": 7767,
      "à©±à¨¥": 7768,
      "à¤¿à¤¯à¥ĩ": 7769,
      "àª¿àªŁ": 7770,
      "Ġà¤īà¤¦": 7771,
      "à¦¨à§įà¦®": 7772,
      "Ġà¦ªà§įà§°à¦¤": 7773,
      "uck": 7774,
      "ĠDevelop": 7775,
      "Ġpatients": 7776,
      "Ġver": 7777,
      "ĠàªĿ": 7778,
      "enced": 7779,
      "ĠPer": 7780,
      "udget": 7781,
      "àŃģà¬¦": 7782,
      "Ġcontain": 7783,
      "à§ĩà¦²à§ĩ": 7784,
      "Ġà®¤à¯Ĭà®Łà®Ļà¯įà®ķ": 7785,
      "Ġloan": 7786,
      "Ġparticularly": 7787,
      "Ġdescribed": 7788,
      "Ġcamp": 7789,
      "à±Ģà°¤": 7790,
      "à³ĩà²¤à³įà²°": 7791,
      "à¯Ĩà®ķ": 7792,
      "Ġà´ªà´¿à´Ł": 7793,
      "Ġà¦®à¦¨à§įà¦¤": 7794,
      "à²¿à²¸à²¿à²¦à³Ĩ": 7795,
      "Ġà´ħà´¤àµį": 7796,
      "à¦¸à§įà¦ķ": 7797,
      "à°¿à°¨à°¾": 7798,
      "àµģà´ķàµĬ": 7799,
      "à¦¾à¦ķà¦¾": 7800,
      "Ġàª¹à«ĭàª¯": 7801,
      "Ġà¦²à§Ī": 7802,
      "Ġà¦Ńà¦¿à¦¤": 7803,
      "Ġàª°à«Ģàª¤": 7804,
      "Ġà°Ńà°¾à°µ": 7805,
      "à°¾à°ķà±ģ": 7806,
      "àµģà´ķà´³àµį": 7807,
      "ugust": 7808,
      "Ġà²¬à²³à²¸": 7809,
      "à«ĩàªŁàª²": 7810,
      "Ġà´ªà´°à´¿à´¶": 7811,
      "à²¾à²·à³įà²Ł": 7812,
      "ĠTechn": 7813,
      "Ġà°®à±ģà°ĸà±įà°¯": 7814,
      "IC": 7815,
      "Ġexerc": 7816,
      "Ġà¦®à¦¾à¦ľ": 7817,
      "osition": 7818,
      "à¤°à¥įà¤Ł": 7819,
      "àŃįà¬¤àŃįà¬¤": 7820,
      "Ġà¤¸à¤ķà¤¤à¤¾": 7821,
      "Ġà¤ķà¥ģà¤Ľ": 7822,
      "à«Į": 7823,
      "ĠIran": 7824,
      "à¤¸à¥įà¤Ł": 7825,
      "aging": 7826,
      "àªķà«ĩ": 7827,
      "à§įà¦¯à¦¾": 7828,
      "Ġà¦¯à§ĩà¦¨": 7829,
      "Ġeffective": 7830,
      "à¨ĩà¨Ĩ": 7831,
      "Ġparents": 7832,
      "DE": 7833,
      "SS": 7834,
      "iam": 7835,
      "à´ħ": 7836,
      "alle": 7837,
      "à®¾à®¸": 7838,
      "Ġface": 7839,
      "à°¿à°³": 7840,
      "Ġdiv": 7841,
      "à¤Ĥà¤ļ": 7842,
      "Ġà®µà®³": 7843,
      "Ġà®¤à®±à¯įà®ª": 7844,
      "Ġà®ĩà®³": 7845,
      "Ġà°ħà°¸": 7846,
      "à²¯à³įà²¯": 7847,
      "Ġà°ļà°¿à°¤à±įà°°": 7848,
      "à¯Ģà®¤": 7849,
      "à®ķà¯įà®ķà®¿à®¯": 7850,
      "à°¿à°¤à±ĭ": 7851,
      "ĠStud": 7852,
      "Ġà¬ħà¬Ń": 7853,
      "à®¾à®µà®¿à®©à¯į": 7854,
      "Ġà°µà°¿à°§": 7855,
      "Ġregular": 7856,
      "Ġà¨¹à©ĭà¨£": 7857,
      "à²¿à²Ĺà²³à²¨à³įà²¨à³ģ": 7858,
      "Ġattempt": 7859,
      "Ġà°ķà±Ĭà°¨à±įà°¨à°¿": 7860,
      "Ġà°¨à°¿à°°à±įà°®": 7861,
      "Ġà®ªà®¯à®£": 7862,
      "Ġà²ħà²§à³įà²¯": 7863,
      "Ġlarger": 7864,
      "ĠHindi": 7865,
      "PL": 7866,
      "pri": 7867,
      "ĠĠĠĠĠĠĠĠĠĠĠĠĠĠĠĠĠĠĠĠĠĠĠĠĠĠĠĠĊ": 7868,
      "Ġforms": 7869,
      "Ġà¦ªà¦¾à§°": 7870,
      "Ġvill": 7871,
      "Ġsurv": 7872,
      "Ġpattern": 7873,
      "Ġà¨¸à¨ķà¨¦à¨¾": 7874,
      "ns": 7875,
      "à¬«": 7876,
      "eding": 7877,
      "Ġà¤¤à¥ģà¤®": 7878,
      "à¥ĩà¤¬": 7879,
      "Ġblack": 7880,
      "prefix": 7881,
      "Ġelectric": 7882,
      "Ġbuilding": 7883,
      "bit": 7884,
      "date": 7885,
      "rm": 7886,
      "Ġà¤ĵ": 7887,
      "à³ģà²Ĺà²³": 7888,
      "à¤¤à¤¾à¤¤": 7889,
      "ĠAm": 7890,
      "à®µà®Ł": 7891,
      "à¯ĭà®°à¯į": 7892,
      "Ġà¨ķà©°à¨®": 7893,
      "à´¤àµįà´¤à´¿à´²": 7894,
      "Ġà´®àµĨ": 7895,
      "Ġheav": 7896,
      "Ġà²¤à³Ĩà²Ĺà³Ĩ": 7897,
      "à°¿à°ķà±Ģ": 7898,
      "Ġà°Ĩà°®": 7899,
      "àµģà´Łàµįà´Ł": 7900,
      "à±ģà°ķà±Ĭ": 7901,
      "à²°à³įà²§": 7902,
      "à¬¤à¬¾": 7903,
      "wood": 7904,
      "à°¾à°®à°¨à°¿": 7905,
      "formation": 7906,
      "Ġdeveloping": 7907,
      "Ġà´ħà´µà´¸": 7908,
      "Ġà²¨à²¿à²°à³įà²®": 7909,
      "à¨¾à¨ĩà¨Ĩ": 7910,
      "Ġà®ķà¯ĩà®Łà¯įà®Ł": 7911,
      "Ġelements": 7912,
      "Ġà°īà°ªà°¯à±ĭà°Ĺ": 7913,
      "ĠDepartment": 7914,
      "ih": 7915,
      "Ġcut": 7916,
      "à¦¿à§±": 7917,
      "à§ĩà¦ģ": 7918,
      "Ġà¤®à¥ģà¤ĸ": 7919,
      "Ġàª®àª¾àªĤ": 7920,
      "à¤¾à¤Ĥà¤¨à¥Ģ": 7921,
      "Ġdifference": 7922,
      "Ġinvestors": 7923,
      "Ġàªīàª¤": 7924,
      "ION": 7925,
      ");": 7926,
      "Ġsat": 7927,
      "à¦¾à¦ł": 7928,
      "Ġà¬¥": 7929,
      "à©°à¨¦à¨¾": 7930,
      "Ġà¦¹à¦¿à¦ļà¦¾à¦ª": 7931,
      "Ġà¬¸àŃįà¬¥": 7932,
      "Ġà¦īà¦²": 7933,
      "à§ĩà¦²à¦¾": 7934,
      "mitted": 7935,
      "Ġdesigned": 7936,
      "www": 7937,
      "Ġà´Ĳ": 7938,
      "à°¾à°Ń": 7939,
      "à±ģà°¬": 7940,
      "à°Ĥà°Ń": 7941,
      "Ġà®®à¯ģà®ķà¯įà®ķà®¿à®¯": 7942,
      "à®¿à®¯à®¾à®©": 7943,
      "à«ĭàª°à«įàª": 7944,
      "Ġà®İà®£à¯įà®£": 7945,
      "Ġà´¸à´¿à´¨à´¿à´®": 7946,
      "Ġà´®à´£": 7947,
      "Ġà¦¹à¦¾à¦¤": 7948,
      "à¤µà¤¾à¤°": 7949,
      "Ġà¤ħà¤Ń": 7950,
      "àµįà´¯à´¾à´ª": 7951,
      "à®¿à®¤à¯į": 7952,
      "à²°à³įà²Ń": 7953,
      "(\"--": 7954,
      "Ġà¬ķà¬°à¬¾à¬¯": 7955,
      "Ġà¨¹à©ĭà¨°": 7956,
      "à´¡àµį": 7957,
      "à´¿à´ķàµįà´ķàµģà´¨àµįà´¨à´¤": 7958,
      "Ġà²¹à³Ĩà²¸": 7959,
      "Ġà´¨à´Łà´ª": 7960,
      "à¨«à¨¼": 7961,
      "à¦¿à¦·à§įà¦Ł": 7962,
      "Ġà®¤à®²à¯Īà®®": 7963,
      "Ġà°§à°°": 7964,
      "Test": 7965,
      "à¦¾à§İ": 7966,
      "Ġnature": 7967,
      "Ġà¨¸à¨Ń": 7968,
      "Ġà¤ľà¤®": 7969,
      "Ġtraining": 7970,
      "Ġtherefore": 7971,
      "à¤Ĥà¤¤à¥įà¤°à¥Ģ": 7972,
      "àªµàª¾àª¨à«Ģ": 7973,
      "Ġzero": 7974,
      "ncil": 7975,
      "Ġmanufact": 7976,
      "Int": 7977,
      "Ġàªĩ": 7978,
      "Ġwest": 7979,
      "igr": 7980,
      "Ġà®ĩà®ªà¯įà®ª": 7981,
      "à¨¨à©ģ": 7982,
      "Ġà¤ķà¥ĩà¤²à¥Ģ": 7983,
      "Ġà¬ªà¬°àŃĩ": 7984,
      "Ġprem": 7985,
      "à¤¤à¥Ģà¤¯": 7986,
      "Ġà¤ĭà¤£": 7987,
      "ober": 7988,
      "Ġ^{": 7989,
      "Ġful": 7990,
      "àµĨà´¤àµįà´¤": 7991,
      "à²²à²¿à²¯": 7992,
      "Ġà®ªà®¿à®©à¯įà®©": 7993,
      "Ġà®ķà®´": 7994,
      "Ġà®®à®¾à®±à¯įà®±": 7995,
      "à®µà®¿": 7996,
      "Ġà®¤à¯Ĥ": 7997,
      "Ġà¦¬à§ĥ": 7998,
      "Ġà²ķà²³à³Ĩ": 7999,
      "à³įà²¤à²¿": 8000,
      "Ġà´ķàµĨ": 8001,
      "Ġà¦Ĩà¦ĩ": 8002,
      "Ġà²ªà³Ĭ": 8003,
      "Ġà´µà´¿à´²": 8004,
      "à³Ĭà²¡": 8005,
      "à³Ĭà²¬à³įà²¬": 8006,
      "à¨¸à©Ģ": 8007,
      "Ġà´ħà´¸": 8008,
      "Ġà´®à´²à´¯": 8009,
      "à´¨à´¿": 8010,
      "à±įà°²à°¾à°¡": 8011,
      "à°¸à±įà°¥": 8012,
      "à°¾à°¨à±ĩ": 8013,
      "à´ķàµįà´ķàµģà´Ĥ": 8014,
      "Ġà²İà²¨à³įà²¨": 8015,
      "Ġà®Ĩà®¤": 8016,
      "à³ģà²¦à³įà²¦": 8017,
      "à²¾à²¨à³į": 8018,
      "Ġà¦¶à§ĩà¦·": 8019,
      "à°¿à°²à±į": 8020,
      "``.": 8021,
      "Ġà²¯à³ĭà²ľ": 8022,
      "Ġproduced": 8023,
      "Ġformer": 8024,
      "Ġà®ªà®¾à®°à¯įà®ķà¯įà®ķ": 8025,
      "Ġà´¸à´Ĥà´ĺ": 8026,
      "à´¨àµįà´¤àµįà´°à´¿": 8027,
      "Ġskin": 8028,
      "Ġà´ķàµĤà´Łàµģà´¤": 8029,
      "ĠMinister": 8030,
      "Ġà´¨à´¿à´¯à´®": 8031,
      "`.": 8032,
      "Ġord": 8033,
      "Ġà¦®à§ĭ": 8034,
      "ĠRuss": 8035,
      "Ġsust": 8036,
      "à¤ľà¥Ģ": 8037,
      "àª£à«Ģ": 8038,
      "Ġcorrel": 8039,
      "Ġà¬¸àŃĩà¬®à¬¾à¬¨": 8040,
      "Ġreceive": 8041,
      "Ġà¬ħà¬¨àŃģà¬": 8042,
      "idden": 8043,
      "Ġà¬¬àŃĭà¬²à¬¿": 8044,
      "oin": 8045,
      "ington": 8046,
      "icles": 8047,
      "Ġà¤ķà¥įà¤°": 8048,
      "à¥¤\"": 8049,
      "Ġà¤¸à¥įà¤Ł": 8050,
      "à¦¾à¦°à§ĩ": 8051,
      "à©ĭà©ľ": 8052,
      "Ġà¤¨à¤µ": 8053,
      "ĠàªªàªĽà«Ģ": 8054,
      "Ġàª¸àª¾àª®": 8055,
      "àŃģà¬¹": 8056,
      "Ġjud": 8057,
      "ovember": 8058,
      "Ġflu": 8059,
      "Ġfilm": 8060,
      "à¦ŀà§įà¦ľ": 8061,
      "Ġbroad": 8062,
      "You": 8063,
      "iet": 8064,
      "àµģà´¦àµįà´§": 8065,
      "à¦¿à¦§": 8066,
      "à®°à¯ģà®®à¯į": 8067,
      "à¨¾à¨«": 8068,
      "Ġà²¸à²¾à²ķ": 8069,
      "à°¾à°°à±įà°¥": 8070,
      "àµĭà´¸": 8071,
      "Ġà®¨à®ķà®°": 8072,
      "Ġconcent": 8073,
      "Ġà¤¹à¤¾": 8074,
      "à®®à¯įà®®": 8075,
      "à¯ĭà®ļ": 8076,
      "ume": 8077,
      "à²¿à²¸à³ģà²¤à³įà²¤à²¦à³Ĩ": 8078,
      "Ġà²¬à²¿à²¡": 8079,
      "à°¾à°²à°ķà±ģ": 8080,
      "à°¾à°²à±įà°¸": 8081,
      "Ġà¤ħà¤®": 8082,
      "à§įà¦°à¦®": 8083,
      "à§ģà¦ĩ": 8084,
      "à²¿à²ķà³įà²·": 8085,
      "Ġà®Ĩà®ļ": 8086,
      "Ġà¤¶à¤ķ": 8087,
      "à´ķàµįà´Ł": 8088,
      "à³ģà²µà³ģà²¦à²¿à²²à³įà²²": 8089,
      "à¬ĻàŃįà¬ķà¬°": 8090,
      "Ġà¤ĺà¤Ł": 8091,
      "àµĩà´·à´Ĥ": 8092,
      "à²¾à²Łà²ķ": 8093,
      "Ġà´ĵà´«": 8094,
      "Ġpolicies": 8095,
      "Ġà°®à±Ĭà°¤à±įà°¤": 8096,
      "Ġà²®à²¾à²¤à²¨à²¾à²¡": 8097,
      "à±ģà°Łà±įà°Ł": 8098,
      "Ġà®¤à¯Ĭà®Łà®°à¯įà®¨à¯įà®¤à¯ģ": 8099,
      "Ġà¤¹à¥ģà¤ı": 8100,
      "Ġà¨ķà©ģà¨Ŀ": 8101,
      "expected": 8102,
      "Ġà¨ªà¨¹à¨¿à¨²": 8103,
      "BC": 8104,
      "Ġaim": 8105,
      "rec": 8106,
      "Ġà®ļà®¿à®µ": 8107,
      "à§Ģà¦ķ": 8108,
      "Ġvide": 8109,
      "Ġà¦¤à¦¾à¦¹": 8110,
      "à«ĭàªľ": 8111,
      "Ġà¦ıà¦ķà¦Łà¦¿": 8112,
      "parametri": 8113,
      "Ġmedia": 8114,
      "à§ĩà¦¯à¦¼à§ĩ": 8115,
      "Ġàªīàªªàª°": 8116,
      "Ġà¤ķà¥įà¤·à¥ĩà¤¤à¥įà¤°": 8117,
      "erous": 8118,
      "ament": 8119,
      "à¦¤à§įà¦°": 8120,
      "à±ĩà°ľ": 8121,
      "Ġarch": 8122,
      "aily": 8123,
      "Ġàª¦à«įàªµ": 8124,
      "Ġsubst": 8125,
      "Ġà¤ķà¤¾à¤°à¤£": 8126,
      "Ġquestions": 8127,
      "Ġà°µà°¿à°¦à±įà°¯": 8128,
      "parametrize": 8129,
      "Un": 8130,
      "à³Ĩà²Ĺà²³à³ģ": 8131,
      "à²°à²¾à²ľ": 8132,
      "à§°à§įà¦®": 8133,
      "Ġthreat": 8134,
      "à²¤à³Ĩà²Ĺà³Ĩ": 8135,
      "à²ķà²°à³ģ": 8136,
      "Ġà²®à²¨à³Ĩ": 8137,
      "raft": 8138,
      "à°ķà±įà°°à°®": 8139,
      "âĢ¦": 8140,
      "Ġà²ķà³ĩà²³": 8141,
      "Ġà²ķà²¨à³įà²¨à²¡": 8142,
      "àµĭà´°": 8143,
      "ĠPe": 8144,
      "à°¤à±įà°¨": 8145,
      "Ġrules": 8146,
      "Ġà´®àµģà´¤": 8147,
      "à°¦à°°": 8148,
      "à¨ķà©Ģ": 8149,
      "Ġà°¤à°¿à°°": 8150,
      "à±Ĥà°Ł": 8151,
      "à³Ĩà²¯à³ĩ": 8152,
      "Ġàª®à«ģàª": 8153,
      "Ġà®ļà¯Ĩà®©à¯įà®±": 8154,
      "Ġclimate": 8155,
      "Ġà¨®à©Īà¨Ĥ": 8156,
      "à²ķà³įà²ķà²¾à²Ĺà²¿": 8157,
      "Ġàª°àª¾àªĸ": 8158,
      "à¤¾à¤µà¤¾": 8159,
      "à®ªà¯įà®ªà®Łà¯įà®Łà¯ģà®³à¯įà®³à®¤à¯ģ": 8160,
      "Ġmathemat": 8161,
      "Ġà®ªà¯Ĭà®¤": 8162,
      "Ġà°ķà°¾à°°à°£": 8163,
      "Ġà®®à®©à®¿à®¤": 8164,
      "Ġmeaning": 8165,
      "Ġprofession": 8166,
      "à±ĩà°Ĥà°¦à±ģà°ķà±ģ": 8167,
      "Ġà¨ķà©ĭà¨Ī": 8168,
      "Ġà®°à¯Ĥà®ª": 8169,
      "Ġà°®à°¾à°Łà±įà°²à°¾à°¡": 8170,
      "ricket": 8171,
      "Ġà²ķà³įà²·à³ĩà²¤à³įà²°": 8172,
      "Ġà°ļà±Ĩà°Ĥà°¦à°¿à°¨": 8173,
      "rim": 8174,
      "à¥©": 8175,
      "Ġmor": 8176,
      "Ġà¤¬à¤¾à¤°": 8177,
      "à©Īà¨¸": 8178,
      "ĠJapan": 8179,
      "Ġà¦Ĺà§Ī": 8180,
      "à²¾à²¯à²¿": 8181,
      "Ġàª¥àª¾àª¯": 8182,
      "à¨Ĩà¨Ĥ": 8183,
      "Ġcommunic": 8184,
      "Ġbirth": 8185,
      "Ġscientists": 8186,
      "Ġsoftware": 8187,
      "Ġmortg": 8188,
      "Var": 8189,
      "Ġsometimes": 8190,
      "àŃ¬": 8191,
      "Ġà¬Ľ": 8192,
      "àª¾àª¶": 8193,
      "Ġhost": 8194,
      "urch": 8195,
      "à§ĭà¦®": 8196,
      "abor": 8197,
      "àªĤàªķ": 8198,
      "Ġexpos": 8199,
      "Ġcompon": 8200,
      "Ġà®ķà¯Ĭà®Łà¯ģà®¤à¯įà®¤": 8201,
      "Ġdepend": 8202,
      "ĠDecember": 8203,
      "Ġconstant": 8204,
      "Ġstarted": 8205,
      "Ġà¨¦à¨¿à©±à¨¤à¨¾": 8206,
      "Ġfri": 8207,
      "àµģà´·": 8208,
      "lege": 8209,
      "à²µà²¿à²²à³įà²²": 8210,
      "Ġà¤ķà¤Ĥà¤ª": 8211,
      "à²²à³įà²ª": 8212,
      "Ġà®ªà®ķ": 8213,
      "à¯įà®Łà¯ģ": 8214,
      "Ġà®¤à®¯": 8215,
      "à´¯à´¾à´£àµį": 8216,
      "à´¯àµĭà´Ĺ": 8217,
      "Ġà²ķà³įà²¯": 8218,
      "Ġà°ķà±ĩà°Ĥà°¦à±įà°°": 8219,
      "Ġà°®à°¾à°¤": 8220,
      "ĠPart": 8221,
      "Ġalthough": 8222,
      "à²¿à²¸à²²à²¾à²Ĺà²¿à²¦à³Ĩ": 8223,
      "Ġà¦¤à¦¾à¦ĩ": 8224,
      "Ġà²ĩà²¨à³įà²¨": 8225,
      "Ġà²°à³Ģ": 8226,
      "à©°à¨§": 8227,
      "à®¾à®µà®¿à®²à¯į": 8228,
      "Ġà®ħà®¤à¯Ī": 8229,
      "Ġà²Ńà²¾à²Ĺ": 8230,
      "à¬°àŃįà¬¯àŃįàŃŁ": 8231,
      "à´Ĥà´¬": 8232,
      "à³ĥà²·à³įà²Ł": 8233,
      "à´¾à´Łàµį": 8234,
      "Ġmatch": 8235,
      "à°Ĥà°Ĺà°¾à°£": 8236,
      "Ġà°ķà±Ĭà°¨": 8237,
      "à´¾à´®àµįà´ª": 8238,
      "Ġmeasures": 8239,
      "Ġprior": 8240,
      "à±ĩà°·à°¨à±į": 8241,
      "Ġenvironmental": 8242,
      "Ġà°µà°°à°ķà±ģ": 8243,
[...]
