{
  "version": "1.0",
  "truncation": null,
  "padding": null,
  "added_tokens": [
    {
      "id": 0,
      "content": "<|bos|>",
      "single_word": false,
      "lstrip": false,
      "rstrip": false,
      "normalized": false,
      "special": true
    },
    {
      "id": 1,
      "content": "<|eos|>",
      "single_word": false,
      "lstrip": false,
      "rstrip": false,
      "normalized": false,
      "special": true
    },
    {
      "id": 2,
      "content": "<|pad|>",
      "single_word": false,
      "lstrip": false,
      "rstrip": false,
      "normalized": false,
      "special": true
    },
    {
      "id": 3,
      "content": "<|reserved_0|>",
      "single_word": false,
      "lstrip": false,
      "rstrip": false,
      "normalized": false,
      "special": true
    },
    {
      "id": 4,
      "content": "<|reserved_1|>",
      "single_word": false,
      "lstrip": false,
      "rstrip": false,
      "normalized": false,
      "special": true
    },
    {
      "id": 5,
      "content": "<|reserved_2|>",
      "single_word": false,
      "lstrip": false,
      "rstrip": false,
      "normalized": false,
      "special": true
    },
    {
      "id": 6,
      "content": "<|reserved_3|>",
      "single_word": false,
      "lstrip": false,
      "rstrip": false,
      "normalized": false,
      "special": true
    },
    {
      "id": 7,
      "content": "<|reserved_4|>",
      "single_word": false,
      "lstrip": false,
      "rstrip": false,
      "normalized": false,
      "special": true
    },
    {
      "id": 8,
      "content": "<|reserved_5|>",
      "single_word": false,
      "lstrip": false,
      "rstrip": false,
      "normalized": false,
      "special": true
    },
    {
      "id": 9,
      "content": "<|reserved_6|>",
      "single_word": false,
      "lstrip": false,
      "rstrip": false,
      "normalized": false,
      "special": true
    },
    {
      "id": 10,
      "content": "<|reserved_7|>",
      "single_word": false,
      "lstrip": false,
      "rstrip": false,
      "normalized": false,
      "special": true
    },
    {
      "id": 11,
      "content": "<|reserved_8|>",
      "single_word": false,
      "lstrip": false,
      "rstrip": false,
      "normalized": false,
      "special": true
    },
    {
      "id": 12,
      "content": "<|reserved_9|>",
      "single_word": false,
      "lstrip": false,
      "rstrip": false,
      "normalized": false,
      "special": true
    },
    {
      "id": 13,
      "content": "<|reserved_10|>",
      "single_word": false,
      "lstrip": false,
      "rstrip": false,
      "normalized": false,
      "special": true
    },
    {
      "id": 14,
      "content": "<|reserved_11|>",
      "single_word": false,
      "lstrip": false,
      "rstrip": false,
      "normalized": false,
      "special": true
    },
    {
      "id": 15,
      "content": "<|reserved_12|>",
      "single_word": false,
      "lstrip": false,
      "rstrip": false,
      "normalized": false,
      "special": true
    },
    {
      "id": 16,
      "content": "<|reserved_13|>",
      "single_word": false,
      "lstrip": false,
      "rstrip": false,
      "normalized": false,
      "special": true
    },
    {
      "id": 17,
      "content": "<|reserved_14|>",
      "single_word": false,
      "lstrip": false,
      "rstrip": false,
      "normalized": false,
      "special": true
    },
    {
      "id": 18,
      "content": "<|reserved_15|>",
      "single_word": false,
      "lstrip": false,
      "rstrip": false,
      "normalized": false,
      "special": true
    },
    {
      "id": 19,
      "content": "<|reserved_16|>",
      "single_word": false,
      "lstrip": false,
      "rstrip": false,
      "normalized": false,
      "special": true
    },
    {
      "id": 20,
      "content": "<|reserved_17|>",
      "single_word": false,
      "lstrip": false,
      "rstrip": false,
      "normalized": false,
      "special": true
    },
    {
      "id": 21,
      "content": "<|reserved_18|>",
      "single_word": false,
      "lstrip": false,
      "rstrip": false,
      "normalized": false,
      "special": true
    },
    {
      "id": 22,
      "content": "<|reserved_19|>",
      "single_word": false,
      "lstrip": false,
      "rstrip": false,
      "normalized": false,
      "special": true
    },
    {
      "id": 23,
      "content": "<|reserved_20|>",
      "single_word": false,
      "lstrip": false,
      "rstrip": false,
      "normalized": false,
      "special": true
    },
    {
      "id": 24,
      "content": "<|reserved_21|>",
      "single_word": false,
      "lstrip": false,
      "rstrip": false,
      "normalized": false,
      "special": true
    },
    {
      "id": 25,
      "content": "<|reserved_22|>",
      "single_word": false,
      "lstrip": false,
      "rstrip": false,
      "normalized": false,
      "special": true
    },
    {
      "id": 26,
      "content": "<|reserved_23|>",
      "single_word": false,
      "lstrip": false,
      "rstrip": false,
      "normalized": false,
      "special": true
    },
    {
      "id": 27,
      "content": "<|reserved_24|>",
      "single_word": false,
      "lstrip": false,
      "rstrip": false,
      "normalized": false,
      "special": true
    },
    {
      "id": 28,
      "content": "<|reserved_25|>",
      "single_word": false,
      "lstrip": false,
      "rstrip": false,
      "normalized": false,
      "special": true
    },
    {
      "id": 29,
      "content": "<|reserved_26|>",
      "single_word": false,
      "lstrip": false,
      "rstrip": false,
      "normalized": false,
      "special": true
    },
    {
      "id": 30,
      "content": "<|reserved_27|>",
      "single_word": false,
      "lstrip": false,
      "rstrip": false,
      "normalized": false,
      "special": true
    },
    {
      "id": 31,
      "content": "<|reserved_28|>",
      "single_word": false,
      "lstrip": false,
      "rstrip": false,
      "normalized": false,
      "special": true
    },
    {
      "id": 32,
      "content": "<|reserved_29|>",
      "single_word": false,
      "lstrip": false,
      "rstrip": false,
      "normalized": false,
      "special": true
    },
    {
      "id": 33,
      "content": "<|reserved_30|>",
      "single_word": false,
      "lstrip": false,
      "rstrip": false,
      "normalized": false,
      "special": true
    },
    {
      "id": 34,
      "content": "<|reserved_31|>",
      "single_word": false,
      "lstrip": false,
      "rstrip": false,
      "normalized": false,
      "special": true
    },
    {
      "id": 35,
      "content": "<|reserved_32|>",
      "single_word": false,
      "lstrip": false,
      "rstrip": false,
      "normalized": false,
      "special": true
    },
    {
      "id": 36,
      "content": "<|reserved_33|>",
      "single_word": false,
      "lstrip": false,
      "rstrip": false,
      "normalized": false,
      "special": true
    },
    {
      "id": 37,
      "content": "<|reserved_34|>",
      "single_word": false,
      "lstrip": false,
      "rstrip": false,
      "normalized": false,
      "special": true
    },
    {
      "id": 38,
      "content": "<|reserved_35|>",
      "single_word": false,
      "lstrip": false,
      "rstrip": false,
      "normalized": false,
      "special": true
    },
    {
      "id": 39,
      "content": "<|reserved_36|>",
      "single_word": false,
      "lstrip": false,
      "rstrip": false,
      "normalized": false,
      "special": true
    },
    {
      "id": 40,
      "content": "<|reserved_37|>",
      "single_word": false,
      "lstrip": false,
      "rstrip": false,
      "normalized": false,
      "special": true
    },
    {
      "id": 41,
      "content": "<|reserved_38|>",
      "single_word": false,
      "lstrip": false,
      "rstrip": false,
      "normalized": false,
      "special": true
    },
    {
      "id": 42,
      "content": "<|reserved_39|>",
      "single_word": false,
      "lstrip": false,
      "rstrip": false,
      "normalized": false,
      "special": true
    },
    {
      "id": 43,
      "content": "<|reserved_40|>",
      "single_word": false,
      "lstrip": false,
      "rstrip": false,
      "normalized": false,
      "special": true
    },
    {
      "id": 44,
      "content": "<|reserved_41|>",
      "single_word": false,
      "lstrip": false,
      "rstrip": false,
      "normalized": false,
      "special": true
    },
    {
      "id": 45,
      "content": "<|reserved_42|>",
      "single_word": false,
      "lstrip": false,
      "rstrip": false,
      "normalized": false,
      "special": true
    },
    {
      "id": 46,
      "content": "<|reserved_43|>",
      "single_word": false,
      "lstrip": false,
      "rstrip": false,
      "normalized": false,
      "special": true
    },
    {
      "id": 47,
      "content": "<|reserved_44|>",
      "single_word": false,
      "lstrip": false,
      "rstrip": false,
      "normalized": false,
      "special": true
    },
    {
      "id": 48,
      "content": "<|reserved_45|>",
      "single_word": false,
      "lstrip": false,
      "rstrip": false,
      "normalized": false,
      "special": true
    },
    {
      "id": 49,
      "content": "<|reserved_46|>",
      "single_word": false,
      "lstrip": false,
      "rstrip": false,
      "normalized": false,
      "special": true
    },
    {
      "id": 50,
      "content": "<|reserved_47|>",
      "single_word": false,
      "lstrip": false,
      "rstrip": false,
      "normalized": false,
      "special": true
    },
    {
      "id": 51,
      "content": "<|reserved_48|>",
      "single_word": false,
      "lstrip": false,
      "rstrip": false,
      "normalized": false,
      "special": true
    },
    {
      "id": 52,
      "content": "<|reserved_49|>",
      "single_word": false,
      "lstrip": false,
      "rstrip": false,
      "normalized": false,
      "special": true
    },
    {
      "id": 53,
      "content": "<|reserved_50|>",
      "single_word": false,
      "lstrip": false,
      "rstrip": false,
      "normalized": false,
      "special": true
    },
    {
      "id": 54,
      "content": "<|reserved_51|>",
      "single_word": false,
      "lstrip": false,
      "rstrip": false,
      "normalized": false,
      "special": true
    },
    {
      "id": 55,
      "content": "<|reserved_52|>",
      "single_word": false,
      "lstrip": false,
      "rstrip": false,
      "normalized": false,
      "special": true
    },
    {
      "id": 56,
      "content": "<|reserved_53|>",
      "single_word": false,
      "lstrip": false,
      "rstrip": false,
      "normalized": false,
      "special": true
    },
    {
      "id": 57,
      "content": "<|reserved_54|>",
      "single_word": false,
      "lstrip": false,
      "rstrip": false,
      "normalized": false,
      "special": true
    },
    {
      "id": 58,
      "content": "<|reserved_55|>",
      "single_word": false,
      "lstrip": false,
      "rstrip": false,
      "normalized": false,
      "special": true
    },
    {
      "id": 59,
      "content": "<|reserved_56|>",
      "single_word": false,
      "lstrip": false,
      "rstrip": false,
      "normalized": false,
      "special": true
    },
    {
      "id": 60,
      "content": "<|reserved_57|>",
      "single_word": false,
      "lstrip": false,
      "rstrip": false,
      "normalized": false,
      "special": true
    },
    {
      "id": 61,
      "content": "<|reserved_58|>",
      "single_word": false,
      "lstrip": false,
      "rstrip": false,
      "normalized": false,
      "special": true
    },
    {
      "id": 62,
      "content": "<|reserved_59|>",
      "single_word": false,
      "lstrip": false,
      "rstrip": false,
      "normalized": false,
      "special": true
    },
    {
      "id": 63,
      "content": "<|reserved_60|>",
      "single_word": false,
      "lstrip": false,
      "rstrip": false,
      "normalized": false,
      "special": true
    },
    {
      "id": 64,
      "content": "<|reserved_61|>",
      "single_word": false,
      "lstrip": false,
      "rstrip": false,
      "normalized": false,
      "special": true
    },
    {
      "id": 65,
      "content": "<|reserved_62|>",
      "single_word": false,
      "lstrip": false,
      "rstrip": false,
      "normalized": false,
      "special": true
    },
    {
      "id": 66,
      "content": "<|reserved_63|>",
      "single_word": false,
      "lstrip": false,
      "rstrip": false,
      "normalized": false,
      "special": true
    }
  ],
  "normalizer": {
    "type": "Sequence",
    "normalizers": [
      {
        "type": "Replace",
        "pattern": {
          "Regex": "\\r\\n"
        },
        "content": "\n"
      },
      {
        "type": "Replace",
        "pattern": {
          "Regex": "\\r"
        },
        "content": "\n"
      },
      {
        "type": "Replace",
        "pattern": {
          "String": "﻿"
        },
        "content": ""
      },
      {
        "type": "NFC"
      }
    ]
  },
  "pre_tokenizer": {
    "type": "Sequence",
    "pretokenizers": [
      {
        "type": "Split",
        "pattern": {
          "Regex": " ?[\\p{L}\\p{M}‍‌]+| ?\\p{N}{1,3}| ?[^\\s\\p{L}\\p{M}\\p{N}‍‌]+|\\s+"
        },
        "behavior": "Isolated",
        "invert": false
      },
      {
        "type": "ByteLevel",
        "add_prefix_space": false,
        "trim_offsets": true,
        "use_regex": false
      }
    ]
  },
  "post_processor": null,
  "decoder": {
    "type": "ByteLevel",
    "add_prefix_space": true,
    "trim_offsets": true,
    "use_regex": true
  },
  "model": {
    "type": "BPE",
    "dropout": null,
    "unk_token": null,
    "continuing_subword_prefix": null,
    "end_of_word_suffix": null,
    "fuse_unk": false,
    "byte_fallback": false,
    "ignore_merges": false,
    "vocab": {
      "<|bos|>": 0,
      "<|eos|>": 1,
      "<|pad|>": 2,
      "<|reserved_0|>": 3,
      "<|reserved_1|>": 4,
      "<|reserved_2|>": 5,
      "<|reserved_3|>": 6,
      "<|reserved_4|>": 7,
      "<|reserved_5|>": 8,
      "<|reserved_6|>": 9,
      "<|reserved_7|>": 10,
      "<|reserved_8|>": 11,
      "<|reserved_9|>": 12,
      "<|reserved_10|>": 13,
      "<|reserved_11|>": 14,
      "<|reserved_12|>": 15,
      "<|reserved_13|>": 16,
      "<|reserved_14|>": 17,
      "<|reserved_15|>": 18,
      "<|reserved_16|>": 19,
      "<|reserved_17|>": 20,
      "<|reserved_18|>": 21,
      "<|reserved_19|>": 22,
      "<|reserved_20|>": 23,
      "<|reserved_21|>": 24,
      "<|reserved_22|>": 25,
      "<|reserved_23|>": 26,
      "<|reserved_24|>": 27,
      "<|reserved_25|>": 28,
      "<|reserved_26|>": 29,
      "<|reserved_27|>": 30,
      "<|reserved_28|>": 31,
      "<|reserved_29|>": 32,
      "<|reserved_30|>": 33,
      "<|reserved_31|>": 34,
      "<|reserved_32|>": 35,
      "<|reserved_33|>": 36,
      "<|reserved_34|>": 37,
      "<|reserved_35|>": 38,
      "<|reserved_36|>": 39,
      "<|reserved_37|>": 40,
      "<|reserved_38|>": 41,
      "<|reserved_39|>": 42,
      "<|reserved_40|>": 43,
      "<|reserved_41|>": 44,
      "<|reserved_42|>": 45,
      "<|reserved_43|>": 46,
      "<|reserved_44|>": 47,
      "<|reserved_45|>": 48,
      "<|reserved_46|>": 49,
      "<|reserved_47|>": 50,
      "<|reserved_48|>": 51,
      "<|reserved_49|>": 52,
      "<|reserved_50|>": 53,
      "<|reserved_51|>": 54,
      "<|reserved_52|>": 55,
      "<|reserved_53|>": 56,
      "<|reserved_54|>": 57,
      "<|reserved_55|>": 58,
      "<|reserved_56|>": 59,
      "<|reserved_57|>": 60,
      "<|reserved_58|>": 61,
      "<|reserved_59|>": 62,
      "<|reserved_60|>": 63,
      "<|reserved_61|>": 64,
      "<|reserved_62|>": 65,
      "<|reserved_63|>": 66,
      "!": 67,
      "\"": 68,
      "#": 69,
      "$": 70,
      "%": 71,
      "&": 72,
      "'": 73,
      "(": 74,
      ")": 75,
      "*": 76,
      "+": 77,
      ",": 78,
      "-": 79,
      ".": 80,
      "/": 81,
      "0": 82,
      "1": 83,
      "2": 84,
      "3": 85,
      "4": 86,
      "5": 87,
      "6": 88,
      "7": 89,
      "8": 90,
      "9": 91,
      ":": 92,
      ";": 93,
      "<": 94,
      "=": 95,
      ">": 96,
      "?": 97,
      "@": 98,
      "A": 99,
      "B": 100,
      "C": 101,
      "D": 102,
      "E": 103,
      "F": 104,
      "G": 105,
      "H": 106,
      "I": 107,
      "J": 108,
      "K": 109,
      "L": 110,
      "M": 111,
      "N": 112,
      "O": 113,
      "P": 114,
      "Q": 115,
      "R": 116,
      "S": 117,
      "T": 118,
      "U": 119,
      "V": 120,
      "W": 121,
      "X": 122,
      "Y": 123,
      "Z": 124,
      "[": 125,
      "\\": 126,
      "]": 127,
      "^": 128,
      "_": 129,
      "`": 130,
      "a": 131,
      "b": 132,
      "c": 133,
      "d": 134,
      "e": 135,
      "f": 136,
      "g": 137,
      "h": 138,
      "i": 139,
      "j": 140,
      "k": 141,
      "l": 142,
      "m": 143,
      "n": 144,
      "o": 145,
      "p": 146,
      "q": 147,
      "r": 148,
      "s": 149,
      "t": 150,
      "u": 151,
      "v": 152,
      "w": 153,
      "x": 154,
      "y": 155,
      "z": 156,
      "{": 157,
      "|": 158,
      "}": 159,
      "~": 160,
      "¡": 161,
      "¢": 162,
      "£": 163,
      "¤": 164,
      "¥": 165,
      "¦": 166,
      "§": 167,
      "¨": 168,
      "©": 169,
      "ª": 170,
      "«": 171,
      "¬": 172,
      "®": 173,
      "¯": 174,
      "°": 175,
      "±": 176,
      "²": 177,
      "³": 178,
      "´": 179,
      "µ": 180,
      "¶": 181,
      "·": 182,
      "¸": 183,
      "¹": 184,
      "º": 185,
      "»": 186,
      "¼": 187,
      "½": 188,
      "¾": 189,
      "¿": 190,
      "À": 191,
      "Á": 192,
      "Â": 193,
      "Ã": 194,
      "Ä": 195,
      "Å": 196,
      "Æ": 197,
      "Ç": 198,
      "È": 199,
      "É": 200,
      "Ê": 201,
      "Ë": 202,
      "Ì": 203,
      "Í": 204,
      "Î": 205,
      "Ï": 206,
      "Ð": 207,
      "Ñ": 208,
      "Ò": 209,
      "Ó": 210,
      "Ô": 211,
      "Õ": 212,
      "Ö": 213,
      "×": 214,
      "Ø": 215,
      "Ù": 216,
      "Ú": 217,
      "Û": 218,
      "Ü": 219,
      "Ý": 220,
      "Þ": 221,
      "ß": 222,
      "à": 223,
      "á": 224,
      "â": 225,
      "ã": 226,
      "ä": 227,
      "å": 228,
      "æ": 229,
      "ç": 230,
      "è": 231,
      "é": 232,
      "ê": 233,
      "ë": 234,
      "ì": 235,
      "í": 236,
      "î": 237,
      "ï": 238,
      "ð": 239,
      "ñ": 240,
      "ò": 241,
      "ó": 242,
      "ô": 243,
      "õ": 244,
      "ö": 245,
      "÷": 246,
      "ø": 247,
      "ù": 248,
      "ú": 249,
      "û": 250,
      "ü": 251,
      "ý": 252,
      "þ": 253,
      "ÿ": 254,
      "Ā": 255,
      "ā": 256,
      "Ă": 257,
      "ă": 258,
      "Ą": 259,
      "ą": 260,
      "Ć": 261,
      "ć": 262,
      "Ĉ": 263,
      "ĉ": 264,
      "Ċ": 265,
      "ċ": 266,
      "Č": 267,
      "č": 268,
      "Ď": 269,
      "ď": 270,
      "Đ": 271,
      "đ": 272,
      "Ē": 273,
      "ē": 274,
      "Ĕ": 275,
      "ĕ": 276,
      "Ė": 277,
      "ė": 278,
      "Ę": 279,
      "ę": 280,
      "Ě": 281,
      "ě": 282,
      "Ĝ": 283,
      "ĝ": 284,
      "Ğ": 285,
      "ğ": 286,
      "Ġ": 287,
      "ġ": 288,
      "Ģ": 289,
      "ģ": 290,
      "Ĥ": 291,
      "ĥ": 292,
      "Ħ": 293,
      "ħ": 294,
      "Ĩ": 295,
      "ĩ": 296,
      "Ī": 297,
      "ī": 298,
      "Ĭ": 299,
      "ĭ": 300,
      "Į": 301,
      "į": 302,
      "İ": 303,
      "ı": 304,
      "Ĳ": 305,
      "ĳ": 306,
      "Ĵ": 307,
      "ĵ": 308,
      "Ķ": 309,
      "ķ": 310,
      "ĸ": 311,
      "Ĺ": 312,
      "ĺ": 313,
      "Ļ": 314,
      "ļ": 315,
      "Ľ": 316,
      "ľ": 317,
      "Ŀ": 318,
      "ŀ": 319,
      "Ł": 320,
      "ł": 321,
      "Ń": 322,
      "Ġà": 323,
      "à¦": 324,
      "à¤": 325,
      "ĠĠ": 326,
      "à®": 327,
      "à²": 328,
      "à°": 329,
      "à´": 330,
      "à¬": 331,
      "à¨": 332,
      "àª": 333,
      "à§": 334,
      "à¥": 335,
      "Ġà¤": 336,
      "ĠĠĠĠ": 337,
      "Ġà¦": 338,
      "à¯": 339,
      "àµ": 340,
      "Ġà¨": 341,
      "à³": 342,
      "à±": 343,
      "à©": 344,
      "Ġt": 345,
      "à¤¾": 346,
      "à«": 347,
      "à¦¾": 348,
      "àŃ": 349,
      "Ġàª": 350,
      "à¯į": 351,
      "Ġa": 352,
      "he": 353,
      "in": 354,
      "Ġà¬": 355,
      "à¤¾à¤": 356,
      "àµį": 357,
      "à¦¾à¦": 358,
      "à§ĩ": 359,
      "Ġà²": 360,
      "Ġà®": 361,
      "Ġà°": 362,
      "ĠĠĠĠĠĠĠĠ": 363,
      "à¦¿": 364,
      "re": 365,
      "à¥į": 366,
      "à¯įà®": 367,
      "à¥įà¤": 368,
      "à§į": 369,
      "on": 370,
      "àµįà´": 371,
      "à¥ĩ": 372,
      "Ġthe": 373,
      "à§įà¦": 374,
      "àª¾": 375,
      "er": 376,
      "Ġà´": 377,
      "à³į": 378,
      "at": 379,
      "à¦¿à¦": 380,
      "à§°": 381,
      "Ġs": 382,
      "Ġo": 383,
      "à±į": 384,
      "à³įà²": 385,
      "à¨¾": 386,
      "à¥Ģ": 387,
      "en": 388,
      "à¯ģ": 389,
      "à²¿": 390,
      "àª¾àª": 391,
      "à¬¾": 392,
      "à®¿": 393,
      "àŃį": 394,
      "es": 395,
      "is": 396,
      "Ġc": 397,
      "à±įà°": 398,
      "an": 399,
      "à¤¿": 400,
      "à¤°": 401,
      "or": 402,
      "à¬°": 403,
      "it": 404,
      "à°¿": 405,
      "à´¿": 406,
      "à§ĩà¦": 407,
      "à®¿à®": 408,
      "à«ĩ": 409,
      "al": 410,
      "Ġw": 411,
      "à¬¿": 412,
      "ed": 413,
      "à±ģ": 414,
      "Ġà¤ķ": 415,
      "Ġp": 416,
      "à°¾": 417,
      "à¨¾à¨": 418,
      "à²¿à²": 419,
      "Ġf": 420,
      "Ġb": 421,
      "à¤¿à¤": 422,
      "nd": 423,
      "ar": 424,
      "Ġof": 425,
      "Ġin": 426,
      "à´¿à´": 427,
      "à³ģ": 428,
      "à¯ģà®": 429,
      "ing": 430,
      "à²¾": 431,
      "à°¾à°": 432,
      "à¤Ĥ": 433,
      "àŃįà¬": 434,
      "à©Ģ": 435,
      "à¥¤": 436,
      "Ġm": 437,
      "ion": 438,
      "à²¾à²": 439,
      "à©ĩ": 440,
      "ic": 441,
      "ou": 442,
      "àµģ": 443,
      "à¨¿": 444,
      "¯à¦": 445,
      "à¬¾à¬": 446,
      "Ġto": 447,
      "à®¾": 448,
      "à«Ģ": 449,
      "Ġand": 450,
      "à¥ĭ": 451,
      "à¤¨": 452,
      "àŃĩ": 453,
      "à§ģ": 454,
      "à«į": 455,
      "Ġd": 456,
      "à¦¨": 457,
      "à«įàª": 458,
      "à¤¤": 459,
      "à°¿à°": 460,
      "as": 461,
      "à¨°": 462,
      "à¬¿à¬": 463,
      "le": 464,
      "à®¾à®": 465,
      "à³Ĩ": 466,
      "Ĥà°": 467,
      "¯à¦¼": 468,
      "à´¾": 469,
      "àµģà´": 470,
      "om": 471,
      "Ġà¦ķ": 472,
      "à¤ķ": 473,
      "à¦¤": 474,
      "à¥įà¤¯": 475,
      "à´¾à´": 476,
      "àª¨": 477,
      "à§ĭ": 478,
      "à¦ķ": 479,
      "ent": 480,
      "Ġh": 481,
      "Ġà¤¸": 482,
      "à¤²": 483,
      "à¦²": 484,
      "à±ģà°": 485,
      "à²°": 486,
      "Ġà¦¬": 487,
      "à¦°": 488,
      "st": 489,
      "àª°": 490,
      "à²¦": 491,
      "Ġth": 492,
      "ct": 493,
      "à¯įà®ķ": 494,
      "à®°": 495,
      "Ġà¦ª": 496,
      "à¨¿à¨": 497,
      "Ġre": 498,
      "Ġà¦¸": 499,
      "il": 500,
      "Ġe": 501,
      "ro": 502,
      "à¯Ī": 503,
      "à®¤": 504,
      "àŃģ": 505,
      "Ġn": 506,
      "à¤¸": 507,
      "Ġà¤®": 508,
      "Ġà¤¹": 509,
      "Ġà¤ª": 510,
      "à¯įà®¤": 511,
      "Ġl": 512,
      "à¥ģ": 513,
      "el": 514,
      "et": 515,
      "à§Ģ": 516,
      "Ġà¨¦": 517,
      "à¦®": 518,
      "à¤¹": 519,
      "Ġà¦Ĩ": 520,
      "à¨¤": 521,
      "à«ĭ": 522,
      "Ġà¨ķ": 523,
      "Ġis": 524,
      "Ġà¨¸": 525,
      "àµĨ": 526,
      "am": 527,
      "à¤¾à¤°": 528,
      "ĠĠĊ": 529,
      "ĠT": 530,
      "à¥įà¤°": 531,
      "à©°": 532,
      "à°¨": 533,
      "à²µ": 534,
      "ur": 535,
      "à°Ĥà°": 536,
      "à®©": 537,
      "im": 538,
      "à²¨": 539,
      "ation": 540,
      "ĠĠĠĠĠĠĠĠĠĠĠĠ": 541,
      "id": 542,
      "¨àµįà´": 543,
      "à²²": 544,
      "ve": 545,
      "à¤®": 546,
      "à°°": 547,
      "Ġ(": 548,
      "ut": 549,
      "Ġg": 550,
      "Ġà¨¹": 551,
      "à®Ł": 552,
      "à©ĭ": 553,
      "à´¤": 554,
      "à±ĩ": 555,
      "ol": 556,
      "à¦¬": 557,
      "à¦¯à¦¼": 558,
      "à²Ĥ": 559,
      "à¨¨": 560,
      "à¨¸": 561,
      "àŃĩà¬": 562,
      "à©±": 563,
      "ĠI": 564,
      "àª¤": 565,
      "ce": 566,
      "à«ģ": 567,
      "Ġà¦®": 568,
      "àª¿": 569,
      "ĠA": 570,
      "Ġà¤Ĩ": 571,
      "à²¤": 572,
      "ĠS": 573,
      "Ġbe": 574,
      "ot": 575,
      "à±ĭ": 576,
      "®à¯į": 577,
      "àª®": 578,
      "ly": 579,
      "à¦¾à¦°": 580,
      "ch": 581,
      "àªµ": 582,
      "ay": 583,
      "Ġfor": 584,
      "à¤µ": 585,
      "Ġà¦¨": 586,
      "Ġ1": 587,
      "se": 588,
      "Ġà¨¨": 589,
      "ad": 590,
      "à¨ķ": 591,
      "Ġà¤µ": 592,
      "Ġà¤ħ": 593,
      "ķàµįà´": 594,
      "Ġàªķ": 595,
      "à¬¨": 596,
      "ver": 597,
      "ig": 598,
      "Ġon": 599,
      "àªķ": 600,
      "ow": 601,
      "à®³": 602,
      "à¦¾à§°": 603,
      "Ġà¦¹": 604,
      "àªĤ": 605,
      "Ġà¤¨": 606,
      "ul": 607,
      "à¯įà®ª": 608,
      "Ġà¦ı": 609,
      "à¤ª": 610,
      "Ġà¦¦": 611,
      "à¦¾à¦¨": 612,
      "ĠC": 613,
      "à¥Ī": 614,
      "à¨¹": 615,
      "Ġà¥": 616,
      "Ġà®ª": 617,
      "Ġà¬ķ": 618,
      "Ġst": 619,
      "Ġu": 620,
      "à¥Ĥ": 621,
      "à¨¦": 622,
      "à¤ļ": 623,
      "à²Ĺ": 624,
      "Ġà¬¸": 625,
      "à¤£": 626,
      "Ġàªª": 627,
      "Ġà¨µ": 628,
      "âĢ": 629,
      "à°²": 630,
      "à¨Ĥ": 631,
      "Ġà¤¤": 632,
      "à¦¸": 633,
      "à¥įà¤¯à¤¾à¤": 634,
      "ĠĠĠĠĠĠĠĠĠĠĠĠĠĠĠĠ": 635,
      "Ġà¦¤": 636,
      "à©ģ": 637,
      "Ġthat": 638,
      "Ġ2": 639,
      "à§įà¦¤": 640,
      "à´°": 641,
      "à¯Īà®": 642,
      "à¤¦": 643,
      "ir": 644,
      "ķà¯įà®ķ": 645,
      "Ġà¬ª": 646,
      "Ġà®ķ": 647,
      "à®²": 648,
      "à¨¼": 649,
      "à©Ī": 650,
      "à²ķ": 651,
      "Ġà¤ľ": 652,
      "à²³": 653,
      "ith": 654,
      "est": 655,
      "Ġà¤¦": 656,
      "àŃŁ": 657,
      "à¬ķ": 658,
      "à¨²": 659,
      "à§įà¦¯": 660,
      "Ġà®µ": 661,
      "àª¾àªĤ": 662,
      "à¤Ĺ": 663,
      "à¯įà®Ł": 664,
      "ĠM": 665,
      "Ġas": 666,
      "¨àµįà´¨": 667,
      "Ġà¤ķà¥ĩ": 668,
      "à©Ĥ": 669,
      "ra": 670,
      "à§įà¦°": 671,
      "Ġà¤¬": 672,
      "ķàµįà´ķ": 673,
      "Ġà¥¤": 674,
      "Ġà²®": 675,
      "à±Ģ": 676,
      "à°ķ": 677,
      "Ġàª¸": 678,
      "Ġà¦ħ": 679,
      "à¨¾à¨Ĥ": 680,
      "à§ĩà¦°": 681,
      "à³ĩ": 682,
      "if": 683,
      "à¥ĩà¤Ĥ": 684,
      "Ġà°ª": 685,
      "à¦ª": 686,
      "Ġà®®": 687,
      "àŃģà¬": 688,
      "à¬¾à¬°": 689,
      "Ġ\"": 690,
      "Ġà²¸": 691,
      "Ġàª¤": 692,
      "ment": 693,
      "à¯ĩ": 694,
      "Ġcon": 695,
      "à´¯": 696,
      "ĠP": 697,
      "Ġà¨ª": 698,
      "àŃįà¬°": 699,
      "à«ĩàª": 700,
      "ter": 701,
      "Ġan": 702,
      "à®¿à®²": 703,
      "her": 704,
      "Ġy": 705,
      "à®µ": 706,
      "Ġà¬¬": 707,
      "Ġwith": 708,
      "à§ģà¦": 709,
      "àª¾àª°": 710,
      "à°¾à°°": 711,
      "Ġit": 712,
      "Ġàª®": 713,
      "Ġpro": 714,
      "à¤°à¥įà¤": 715,
      "àµįà´¤": 716,
      "Ġà®¤": 717,
      "à±įà°°": 718,
      "ab": 719,
      "Ġà®ħ": 720,
      "od": 721,
      "ag": 722,
      "à©±à¨": 723,
      "Ġal": 724,
      "ĠB": 725,
      "à±Ĩ": 726,
      "Ġà¤¯": 727,
      "Ġà¤¹à¥Ī": 728,
      "Ġà´ª": 729,
      "Ġà¨ľ": 730,
      "à¤¾à¤Ĥ": 731,
      "à¤¾à¤¨": 732,
      "Ġare": 733,
      "Ġà¤°": 734,
      "àµĭ": 735,
      "à¦¹": 736,
      "à±ĩà°": 737,
      "Ġwh": 738,
      "ist": 739,
      "Ġà²ķ": 740,
      "à¤¯": 741,
      "pp": 742,
      "ĠThe": 743,
      "à¯ģà®®à¯į": 744,
      "à´Ł": 745,
      "àŃĭ": 746,
      "Ġde": 747,
      "Ġr": 748,
      "Ġà°ķ": 749,
      "Ġà®ļ": 750,
      "ate": 751,
      "à³įà²²": 752,
      "à¯Ĩ": 753,
      "àŃįà¬¤": 754,
      "à®¿à®¯": 755,
      "à²¿à²¦": 756,
      "à¨®": 757,
      "à´Ĥ": 758,
      "à²¡": 759,
      "and": 760,
      "Ġà¨ħ": 761,
      "à¥ĩà¤": 762,
      "Ġà¤²": 763,
      "Ġà°µ": 764,
      "à§±": 765,
      "à«įàª¯": 766,
      "ri": 767,
      "qu": 768,
      "à³įà²°": 769,
      "à¦¿à¦¯à¦¼": 770,
      "à³įà²¤": 771,
      "ers": 772,
      "op": 773,
      "à¬°àŃĩ": 774,
      "àª¨à«ĩ": 775,
      "à¬®": 776,
      "à¦¦": 777,
      "res": 778,
      "rom": 779,
      "ĠN": 780,
      "à¨¾à¨°": 781,
      "Ġex": 782,
      "Ġor": 783,
      "à¦Ĺ": 784,
      "à¤¾à¤¤": 785,
      "ill": 786,
      "à§įà§°": 787,
      "à³įà²¨": 788,
      "Ġv": 789,
      "un": 790,
      "th": 791,
      "Ġà°®": 792,
      "à§Ī": 793,
      "à¦¿à¦²": 794,
      "Ġàªľ": 795,
      "¨à¯įà®¤": 796,
      "ĠàªĽ": 797,
      "Ġà¨®": 798,
      "à²¾à²°": 799,
      "Ġà¨¤": 800,
      "Ġàªħ": 801,
      "à¦Ł": 802,
      "à¤¡": 803,
      "Ġà´ķ": 804,
      "um": 805,
      "àµĩ": 806,
      "à«įàª°": 807,
      "Ġà°¸": 808,
      "Ġà¦ľ": 809,
      "à¦¾à¦²": 810,
      "à¦¿à¦¤": 811,
      "Ġby": 812,
      "àŃĢ": 813,
      "à®±": 814,
      "àµįà´Ł": 815,
      "Ġà²¨": 816,
      "Ġ'": 817,
      "Ġà®ĩ": 818,
      "ªà¯įà®ª": 819,
      "ĠàªĨ": 820,
      "ĠR": 821,
      "ect": 822,
      "à¥įà¤¯à¤¾": 823,
      "Ġà¨ĩ": 824,
      "Ġ=": 825,
      "Ġcom": 826,
      "àŃįàŃŁ": 827,
      "ere": 828,
      "à´¿à´²": 829,
      "Ġà¬®": 830,
      "à°®": 831,
      "ĠH": 832,
      "à¦¿à¦ķ": 833,
      "à¬¤": 834,
      "ess": 835,
      "us": 836,
      "à´®": 837,
      "ies": 838,
      "ity": 839,
      "em": 840,
      "à¤¾à¤²": 841,
      "ak": 842,
      "Ġà²ħ": 843,
      "à¨£": 844,
      "Ġà¦ļ": 845,
      "os": 846,
      "Ġà°ħ": 847,
      "Ġà¦Ĺ": 848,
      "Ġàªµ": 849,
      "ort": 850,
      "àª²": 851,
      "Ġhe": 852,
      "Ġ-": 853,
      "Ġà®¨": 854,
      "Ġà¨¦à©ĩ": 855,
      "ore": 856,
      "à¯įà®±": 857,
      "à§įà¦¬": 858,
      "iv": 859,
      "à®®": 860,
      "Ġà¤ķà¤°": 861,
      "ac": 862,
      "à¬¹": 863,
      "à²²à³įà²²": 864,
      "à°¤": 865,
      "àµģà´Ĥ": 866,
      "Ġà¦¯": 867,
      "à°Ĥ": 868,
      "à¦ĩ": 869,
      "ĠàªĽà«ĩ": 870,
      "Ġà§": 871,
      "à¦¾à¦ĩ": 872,
      "ld": 873,
      "nt": 874,
      "à¦¿à¦¨": 875,
      "à§ĩà¦¨": 876,
      "ĠF": 877,
      "à²¾à²Ĺ": 878,
      "à¤¿à¤ķ": 879,
      "00": 880,
      "à®£": 881,
      "à¯ĭ": 882,
      "Ġat": 883,
      "Ġà¨²": 884,
      "à¤ľ": 885,
      "à²¯": 886,
      "à¦¾à¦ķ": 887,
      "ĠD": 888,
      "Ġà¤Ĺ": 889,
      "à³įà²¯": 890,
      "Ġà´µ": 891,
      "à²¸": 892,
      "à³Ĥ": 893,
      "Ġà²ª": 894,
      "ain": 895,
      "Ġà²¹": 896,
      "à©°à¨": 897,
      "à¦¾à¦¤": 898,
      "Ġà¨¹à©Ī": 899,
      "Ġà´¸": 900,
      "à²¨à³įà²¨": 901,
      "à±įà°¯": 902,
      "à´¤àµįà´¤": 903,
      "Ġàª¹": 904,
      "àª¾àª¨": 905,
      "à´³": 906,
      "Ġsu": 907,
      "à¥įà¤¤": 908,
      "Ġà¤®à¥ĩà¤Ĥ": 909,
      "à®ķ": 910,
      "à©į": 911,
      "pl": 912,
      "Ġà¤ī": 913,
      "our": 914,
      "à´¿à´¯": 915,
      "à¤§": 916,
      "à±įà°¨": 917,
      "à©Ģà¨": 918,
      "Ġà¦ķà§°": 919,
      "à¬¬": 920,
      "à¥ĭà¤Ĥ": 921,
      "ĻàŃįà¬": 922,
      "à¤¬": 923,
      "à®¿à®²à¯į": 924,
      "àµįà´°": 925,
      "ĠE": 926,
      "Ġwas": 927,
      "Ġà¨¬": 928,
      "Ġà¦¶": 929,
      "à¦¾à¦¯à¦¼": 930,
      "Ġà¤ªà¥įà¤°": 931,
      "Ľà§ĩ": 932,
      "à¤¿à¤¯": 933,
      "Ġfrom": 934,
      "àª¸": 935,
      "à®¤à¯įà®¤": 936,
      "à¤Ł": 937,
      "àŃĭà¬": 938,
      "à¦£": 939,
      "à°¿à°Ĥà°": 940,
      "ue": 941,
      "Ġà®İ": 942,
      "Ġà¦²": 943,
      "ht": 944,
      "ive": 945,
      "à´µ": 946,
      "Ġha": 947,
      "àª¹": 948,
      "à®¿à®°": 949,
      "ĠĠĠĠĠĠĠĠĊ": 950,
      "pt": 951,
      "Ġse": 952,
      "Ġà¦ķà¦°": 953,
      "Ġnot": 954,
      "Ġà°ļ": 955,
      "Ġà²¬": 956,
      "à®¤à¯ģ": 957,
      "à³Ĭ": 958,
      "à«ģàªĤ": 959,
      "àªª": 960,
      "à³Ģ": 961,
      "à¤¨à¥ĩ": 962,
      "ĠW": 963,
      "à°µ": 964,
      "Ġà¦Ń": 965,
      "Ġà°¨": 966,
      "à²¤à³įà²¤": 967,
      "ant": 968,
      "à¯įà®ķà®³": 969,
      "à¨¤à©ĩ": 970,
      "Ġà¤Ń": 971,
      "àª¯": 972,
      "à¤¿à¤¤": 973,
      "oc": 974,
      "à¬¸": 975,
      "àª£": 976,
      "Ġàª¨": 977,
      "à©Ĥà©°": 978,
      "à²¿à²¸": 979,
      "ew": 980,
      "à´£": 981,
      "à¦ľ": 982,
      "à´¨": 983,
      "ĠG": 984,
      "Ġà´¨": 985,
      "à¯Īà®¯": 986,
      "Ġà¬ħ": 987,
      "à®¾à®°": 988,
      "à°¾à°²": 989,
      "Ġà´®": 990,
      "Ġà´ħ": 991,
      "à²Ĥà²¦": 992,
      "à¨¿à¨Ĩ": 993,
      "ial": 994,
      "à±įà°²": 995,
      "à®¯": 996,
      "à´¸": 997,
      "à³ĭ": 998,
      "Ġà¬¨": 999,
      "Ġk": 1000,
      "Ġà¤ķà¥Ģ": 1001,
      "de": 1002,
      "à´²": 1003,
      "Ġàª°": 1004,
      "à°¸": 1005,
      "à¨µ": 1006,
      "pe": 1007,
      "Ġà¤¶": 1008,
      "ĠĠĠĠĠĠĠĠĠĠĊ": 1009,
      "à¯Ĭ": 1010,
      "ure": 1011,
      "à¬¾à¬¨": 1012,
      "à®®à¯į": 1013,
      "à°¦": 1014,
      "à±įà°¤": 1015,
      "à²®": 1016,
      "à®¿à®©": 1017,
      "art": 1018,
      "Ġà¤ķà¥ĭ": 1019,
      "à´±": 1020,
      "ult": 1021,
      "Ġà¬ı": 1022,
      "Ġà¬¦": 1023,
      "ia": 1024,
      "àµįà´ª": 1025,
      "à¦¾à¦¬": 1026,
      "à¦¾à¦®": 1027,
      "cl": 1028,
      "ĩà¬": 1029,
      "end": 1030,
      "à¨¾à¨²": 1031,
      "à´¨àµįà´¨": 1032,
      "à¬¿à¬¬": 1033,
      "..": 1034,
      "Ġà¨ī": 1035,
      "ass": 1036,
      "Ġà¤¹à¥ĭ": 1037,
      "all": 1038,
      "ĠL": 1039,
      "Ġà¦¬à¦¿à¦": 1040,
      "Ġà¦ī": 1041,
      "ĻàŃįà¬ķ": 1042,
      "Ġà¬¹": 1043,
      "Ġà°¤": 1044,
      "àµįà´¯": 1045,
      "à¯ģà®¤": 1046,
      "Ġsh": 1047,
      "à¬£": 1048,
      "à´ª": 1049,
      "à°ª": 1050,
      "à¨ª": 1051,
      "à®Łà¯įà®Ł": 1052,
      "àµĢ": 1053,
      "à´¾à´¯": 1054,
      "Ġà²µ": 1055,
      "à¥ģà¤": 1056,
      "Ġà¨°": 1057,
      "à°¡": 1058,
      "àµģà´¨àµįà´¨": 1059,
      "Ġà¬ķà¬°": 1060,
      "Ġà¨¨à©Ĥà©°": 1061,
      "Ġch": 1062,
      "à¨Ł": 1063,
      "Ġhave": 1064,
      "àµįà´ļ": 1065,
      "àª¨àª¾": 1066,
      "ions": 1067,
      "Ġà¨Ĺ": 1068,
      "à°Ł": 1069,
      "à±ģà°²": 1070,
      "à³ģà²µ": 1071,
      "Ġ20": 1072,
      "àªĹ": 1073,
      "à¤¹à¥ĩ": 1074,
      "àª®àª¾àªĤ": 1075,
      "Ġàªķàª°": 1076,
      "à°¾à°¨": 1077,
      "à¨ľ": 1078,
      "Ġcan": 1079,
      "à¤¾à¤¹": 1080,
      "à¯ģà®ķà¯įà®ķ": 1081,
      "à¤¾à¤µ": 1082,
      "àª¾àª®": 1083,
      "ud": 1084,
      "Ġà¨¦à©Ģ": 1085,
      "Ġàª¤à«ĩ": 1086,
      "à®Ļ": 1087,
      "Ġà¤ļ": 1088,
      "one": 1089,
      "ear": 1090,
      "àµ½": 1091,
      "à§įà¦·": 1092,
      "Ġà¬Ĩ": 1093,
      "Ġà¤ĩ": 1094,
      "àª¦": 1095,
      "ĠU": 1096,
      "à®°à¯į": 1097,
      "à°¯": 1098,
      "à¦¿à¦¬": 1099,
      "à²Ĺà²³": 1100,
      "à¦¨à§įà¦": 1101,
      "à°¿à°¨": 1102,
      "à³įà²¦": 1103,
      "out": 1104,
      "Ġthis": 1105,
      "à²¨à³įà²¨à³ģ": 1106,
      "==": 1107,
      "à´ķ": 1108,
      "à¨Ĺ": 1109,
      "Ġà¤ı": 1110,
      "Ġàª¬": 1111,
      "à®¨à¯įà®¤": 1112,
      "Ġle": 1113,
      "àµ¼": 1114,
      "à¤¾à¤¸": 1115,
      "Ļàµįà´": 1116,
      "ge": 1117,
      "à¦¼": 1118,
      "The": 1119,
      "à¬°àŃįà¬": 1120,
      "à¦ļ": 1121,
      "Ġà¨ķà¨°": 1122,
      "à²¿à²¯": 1123,
      "ich": 1124,
      "à®¾à®ķ": 1125,
      "à²²à³įà²²à²¿": 1126,
      "ight": 1127,
      "ust": 1128,
      "à§įà¦Ł": 1129,
      "à²°à³ģ": 1130,
      "âĢĻ": 1131,
      "à¤¿à¤²": 1132,
      "à§Ĥ": 1133,
      "à«Ĥ": 1134,
      "ost": 1135,
      "à¤¶": 1136,
      "à®¾à®©": 1137,
      "à°¿à°ķ": 1138,
      "ĠĠĠĠĊ": 1139,
      "ĠĠĠĠĠĠĊ": 1140,
      "ex": 1141,
      "à±Ĥà°": 1142,
      "ard": 1143,
      "ical": 1144,
      "Ġà¬°": 1145,
      "ame": 1146,
      "à¨Ī": 1147,
      "Ġà¤¸à¥ĩ": 1148,
      "à²¿à²Ĺ": 1149,
      "Ġint": 1150,
      "og": 1151,
      "ated": 1152,
      "ĠJ": 1153,
      "à²ª": 1154,
      "à®¿à®±": 1155,
      "Ġhas": 1156,
      "à²¬": 1157,
      "age": 1158,
      "àªľ": 1159,
      "à¤¾à¤®": 1160,
      "Ġyou": 1161,
      "ould": 1162,
      "ĠO": 1163,
      "Ġàªı": 1164,
      "rou": 1165,
      "à§ĥ": 1166,
      "Ġà¤Ĩà¤¹à¥ĩ": 1167,
      "à²Ł": 1168,
      "Ġà¤ªà¤°": 1169,
      "à§ĩà¦ĩ": 1170,
      "Ġà²Ĩ": 1171,
      "à´¿à´ķàµįà´ķ": 1172,
      "à¤¾à¤¯": 1173,
      "ok": 1174,
      "à¬ª": 1175,
      "Ġ3": 1176,
      "à¤¤à¤¾": 1177,
      "à±įà°Ł": 1178,
      "àª¨à«Ģ": 1179,
      "Ġim": 1180,
      "à¬¿à¬²": 1181,
      "à±Ī": 1182,
      "à¦Ĥ": 1183,
      "),": 1184,
      "à¦¶": 1185,
      "Ġà²¤": 1186,
      "are": 1187,
      "Ġà¦ªà§įà¦°": 1188,
      "ther": 1189,
      "à®ªà¯įà®ª": 1190,
      "à¤¨à¤¾": 1191,
      "ome": 1192,
      "à®ļ": 1193,
      "à¦¾à¦ľ": 1194,
      "à¤²à¥ĩ": 1195,
      "ert": 1196,
      "à±ģà°¨": 1197,
      "à´ķàµįà´ķ": 1198,
      "à´¾à´£": 1199,
      "à¦¤à§ĩ": 1200,
      "ļàµįà´ļ": 1201,
      "Ġà°°": 1202,
      "à§°à§ģ": 1203,
      "ian": 1204,
      "à¥įà¤Ł": 1205,
      "à¥įà¤µ": 1206,
      "àª¡": 1207,
      "Ġà²ĩ": 1208,
      "à³Ĩà²¯": 1209,
      "àµįà´±": 1210,
      "àª§": 1211,
      "Ġà¤Ķ": 1212,
      "à¯Ĥ": 1213,
      "ple": 1214,
      "¡à¦¼": 1215,
      "{\\": 1216,
      "port": 1217,
      "à¦Ń": 1218,
      "ell": 1219,
      "à¦ģ": 1220,
      "Ġà¨Ĩ": 1221,
      "Ġpl": 1222,
      "Ġàª¦": 1223,
      "à©įà¨°": 1224,
      "Ġab": 1225,
      "à¯Ģ": 1226,
      "Ġà¦¸à¦®": 1227,
      "à¥įà¤¹": 1228,
      "à¯ģà®ķ": 1229,
      "Ġus": 1230,
      "à°Ĥà°¦": 1231,
      "able": 1232,
      "ap": 1233,
      "à¦¾à¦¸": 1234,
      "ast": 1235,
      "à³įà²Ł": 1236,
      "Ġres": 1237,
      "Ġwor": 1238,
      "¥à«Ģ": 1239,
      "à´Ļàµįà´": 1240,
      "ff": 1241,
      "ĠIn": 1242,
      "Ġwhich": 1243,
      "à´¨àµįà´": 1244,
      "Ġà´¤": 1245,
      "à¨¾à¨¨": 1246,
      "cc": 1247,
      "Ġà¤Ķà¤°": 1248,
      "à²¿à²ķ": 1249,
      "à¯įà®ļ": 1250,
      "iz": 1251,
      "ĠK": 1252,
      "Ġwill": 1253,
      "du": 1254,
      "à³įà²ķ": 1255,
      "à¦¾à¦¹": 1256,
      "Ġà¨ħà¨¤à©ĩ": 1257,
      "à²¹": 1258,
      "à¬ĻàŃįà¬ķ": 1259,
      "à§ģà¦²": 1260,
      "Ġcont": 1261,
      "à¦§": 1262,
      "à¨¸à¨¼": 1263,
      "Ġà¨µà¨¿à¨": 1264,
      "à§įà¦¯à¦": 1265,
      "à¦¾à¦¦": 1266,
      "Ġall": 1267,
      "Ġàª¶": 1268,
      "à¬³": 1269,
      "Ġcl": 1270,
      "ine": 1271,
      "à¬¨àŃįà¬¤": 1272,
      "à¥Ĥà¤¨": 1273,
      "act": 1274,
      "Ġà®ī": 1275,
      "à¥įà¤·": 1276,
      "Ġwe": 1277,
      "Ġà¦°": 1278,
      "Ġà²İ": 1279,
      "à´¿à´°": 1280,
      "ĠInd": 1281,
      "à§Ģà¦¯à¦¼": 1282,
      "à¨¿à©±à¨": 1283,
      "Ľà¦¿à¦²": 1284,
      "Ġàªħàª¨à«ĩ": 1285,
      "à°Ĺ": 1286,
      "Ġà®İà®©": 1287,
      "Ġ19": 1288,
      "à©ĭà¨Ĥ": 1289,
      "Ġà§°": 1290,
      "Ġàª²": 1291,
      "orm": 1292,
      "Ġtheir": 1293,
      "Ġà´İ": 1294,
      "ĠĠĠĠĠĠĠĠĠĠĠĠĠĠĠĠĠĠĠĠ": 1295,
      "Ġwhe": 1296,
      "à¤¾à¤ļ": 1297,
      "àµĤ": 1298,
      "à°¿à°Ĥà°ļ": 1299,
      "ĠâĢ": 1300,
      "à¤¾à¤ľ": 1301,
      "so": 1302,
      "Ġà¬ľ": 1303,
      "à§įà¦¥": 1304,
      "Ġà¬ªàŃįà¬°": 1305,
      "ib": 1306,
      "ance": 1307,
      "ric": 1308,
      "à°¾à°°à±ģ": 1309,
      "ary": 1310,
      "\",": 1311,
      "à²¿à²¦à³įà²¦": 1312,
      "Ġen": 1313,
      "à±Ĭ": 1314,
      "à¬¿à¬ķ": 1315,
      "Ġà°ªà±įà°°": 1316,
      "elf": 1317,
      "àª°à«įàª": 1318,
      "à¦¥": 1319,
      "à®¿à®ķ": 1320,
      "à¯ģà®µ": 1321,
      "à®¾à®²": 1322,
      "Ġà¦¥": 1323,
      "ations": 1324,
      "à§ĩà¦ķ": 1325,
      "ong": 1326,
      "ik": 1327,
      "à¤¹à¥Ģ": 1328,
      "Ġà¨¹à©ĭ": 1329,
      "à±ģà°Ĥà°": 1330,
      "à´¿à´¨": 1331,
      "à¯įà®³": 1332,
      "ire": 1333,
      "à¤¿à¤¸": 1334,
      "Ġgo": 1335,
      "à¤¤à¥Ģ": 1336,
      "à²£": 1337,
      "Ġad": 1338,
      "à¦ĸ": 1339,
      "à¤Ń": 1340,
      "ans": 1341,
      "ount": 1342,
      "àª¶": 1343,
      "Ġà°Ĩ": 1344,
      "àªŁ": 1345,
      "ous": 1346,
      "con": 1347,
      "à®¿à®Ł": 1348,
      "Ġà¦ıà¦ķ": 1349,
      "à²¿à²°": 1350,
      "Ġà¦ªà§°": 1351,
      "ide": 1352,
      "à§ĩà¦²": 1353,
      "Ġà¬¤": 1354,
      "à°°à±įà°": 1355,
      "à²¿à²Ĥ": 1356,
      "Ġà¬Ĺ": 1357,
      "ry": 1358,
      "Ġà¦Ĩà§°à§ģ": 1359,
      "à®´": 1360,
      "Ġà¬¯": 1361,
      "à¤Ĥà¤¤": 1362,
      "à®©à¯į": 1363,
      "à°¨à°¿": 1364,
      "à®¿à®¤": 1365,
      "Ġapp": 1366,
      "à¤¤à¥ĩ": 1367,
      "à¬²": 1368,
      "gh": 1369,
      "Ġper": 1370,
      "Ġà¦ĵ": 1371,
      "à¬¦": 1372,
      "à©Ģà¨Ĩ": 1373,
      "Ġà¤µà¤¿à¤": 1374,
      "Ġà¤ķà¤¾": 1375,
      "à²¿à²¨": 1376,
      "àª¾àªµ": 1377,
      "ru": 1378,
      "\"\"": 1379,
      "Ġà¦ªà§įà§°": 1380,
      "ip": 1381,
      "à¤¼": 1382,
      "à¤¨à¥Ģ": 1383,
      "Ġà¤ħà¤¸": 1384,
      "Ġà¦¦à§ĩà¦": 1385,
      "à´¾à´£àµį": 1386,
      "Ġà¤ıà¤ķ": 1387,
      "ual": 1388,
      "à±ģà°ķ": 1389,
      "à´¿à´ļàµįà´ļ": 1390,
      "Ġà¤¸à¤Ĥ": 1391,
      "à§įà¦®": 1392,
      "Ġà¬Ń": 1393,
      "ase": 1394,
      "Ġà¦ıà¦ĩ": 1395,
      "urn": 1396,
      "Ġj": 1397,
      "Ġà¦ĸ": 1398,
      "Ġme": 1399,
      "ack": 1400,
      "def": 1401,
      "Ġà²°": 1402,
      "à¤²à¤¾": 1403,
      "Ġà¦ĩ": 1404,
      "à´Ļàµįà´Ļ": 1405,
      "à²¿à²¤": 1406,
      "Ġà¦¹à¦¯à¦¼": 1407,
      "àµģà´Ł": 1408,
      "ĠàŃ": 1409,
      "à¦¿à§°": 1410,
      "à®ķà¯įà®ķ": 1411,
      "per": 1412,
      "ime": 1413,
      "Ġdis": 1414,
      "à´¾à´°": 1415,
      "à¦¿à¦°": 1416,
      "à¨¦à¨¾": 1417,
      "à´¿àµ½": 1418,
      "à¯įà®ķà®³à¯į": 1419,
      "ction": 1420,
      "ind": 1421,
      "ile": 1422,
      "ang": 1423,
      "Ġ5": 1424,
      "Ġà´ĩ": 1425,
      "Ġà²®à²¾à²": 1426,
      "ĠàªĹ": 1427,
      "à®ª": 1428,
      "Ġà®Ĩ": 1429,
      "Ġmore": 1430,
      "à¨¬": 1431,
      "Ġalso": 1432,
      "vel": 1433,
      "Ġne": 1434,
      "àµ»": 1435,
      "Ġhis": 1436,
      "à¦¾à¦ª": 1437,
      "à®£à¯įà®Ł": 1438,
      "Ġman": 1439,
      "à²°à³įà²": 1440,
      "Ġwere": 1441,
      "à¦¾à¦Ĺ": 1442,
      "à¬¿à¬¤": 1443,
      "Ġdo": 1444,
      "ĠTh": 1445,
      "à©ľ": 1446,
      "Ġcomp": 1447,
      "àµģà´ķ": 1448,
      "à¤¿à¤¯à¤¾": 1449,
      "Ġbut": 1450,
      "à¤¿à¤¨": 1451,
      "Ġà´ļ": 1452,
      "ĠĊ": 1453,
      "ress": 1454,
      "à³ģà²¦": 1455,
      "Ġà¨¦à¨¾": 1456,
      "Ġà°¦": 1457,
      "à¬¼": 1458,
      "Ġother": 1459,
      "à¤²à¥Ģ": 1460,
      "Ġà¤ĸ": 1461,
      "Ġà¦Ĩà¦®": 1462,
      "à¨¿à¨¸": 1463,
      "à¤°à¥Ģ": 1464,
      "Ġthey": 1465,
      "à§ĩà¦ĵ": 1466,
      "àµĩà´": 1467,
      "à¯įà®²": 1468,
      "à¬¾à¬ĩà¬": 1469,
      "ign": 1470,
      "Ġone": 1471,
      "Ġà²ªà³įà²°": 1472,
      "Ġun": 1473,
      "à³ģà²¤à³įà²¤": 1474,
      "ord": 1475,
      "àµįà´²": 1476,
      "à¤¾à¤Ĺ": 1477,
      "Ġ4": 1478,
      "ub": 1479,
      "à§ĭà§±": 1480,
      "Ġà´Ĩ": 1481,
      "Ġtr": 1482,
      "Ġà¤«": 1483,
      "Ġà®ļà¯Ĩ": 1484,
      "):": 1485,
      ").": 1486,
      "à±įà°ª": 1487,
      "à´¾à´¨": 1488,
      "Ġà¤¤à¥įà¤¯à¤¾à¤": 1489,
      "ence": 1490,
      "à¬¾à¬¹": 1491,
      "Ġàª¹àª¤": 1492,
      "à´¤àµį": 1493,
      "Ġout": 1494,
      "à¦²à§ĩ": 1495,
      "Ġà¨¨à©ĩ": 1496,
      "ick": 1497,
      "Ġà¤¨à¥ĩ": 1498,
      "Ġà¨ļ": 1499,
      "Ġà¨ĩà¨¸": 1500,
      "Ġsa": 1501,
      "Ġar": 1502,
      "Ġà°Ĺ": 1503,
      "à¤¾à¤¦": 1504,
      "Ġà¨ķà¨¿": 1505,
      "àª¾àª¯": 1506,
      "à®±à¯įà®±": 1507,
      "ach": 1508,
      "à¦Ľà§ĩ": 1509,
      "Ġits": 1510,
      "à±įà°µ": 1511,
      "ber": 1512,
      "Ľà¬¿": 1513,
      "Ġà°ĩ": 1514,
      "à®¿à®ķà¯įà®ķ": 1515,
      "àª³": 1516,
      "Ġwho": 1517,
      "àª¥à«Ģ": 1518,
      "Ġ.": 1519,
      "à©įà¨¹": 1520,
      "à¤ļà¥įà¤¯à¤¾": 1521,
      "ark": 1522,
      "à¥ĩà¤¶": 1523,
      "Ġà°¬": 1524,
      "à©Ģà¨Ĩà¨Ĥ": 1525,
      "Ġà°ī": 1526,
      "Ġup": 1527,
      "Ġà¤ĺ": 1528,
      "ake": 1529,
      "ors": 1530,
      "à¦¿à¦¯à¦¼à§ĩ": 1531,
      "ext": 1532,
      "Ġà²¦": 1533,
      "Ġpart": 1534,
      "ath": 1535,
      "Ġag": 1536,
      "alue": 1537,
      "Ġà°²": 1538,
      "int": 1539,
      "ory": 1540,
      "ĠĠĠĠĠĠĠĠĠĠĠĠĊ": 1541,
      "à¯ģà®®": 1542,
      "Ġsc": 1543,
      "à²¶": 1544,
      "ook": 1545,
      "à¯įà®µ": 1546,
      "ition": 1547,
      "ice": 1548,
      "Ġà²ľ": 1549,
      "Ġà¤ĩà¤¸": 1550,
      "àªļ": 1551,
      "Ġà²Ĺ": 1552,
      "Ġà°ļà±ĩà°": 1553,
      "Ġà¤¥": 1554,
      "ie": 1555,
      "yle": 1556,
      "à²ļ": 1557,
      "ely": 1558,
      "Ġàª®àª¾àª": 1559,
      "ates": 1560,
      "Ġà¦«": 1561,
      "à²¿à²¦à³Ĩ": 1562,
      "Ġ201": 1563,
      "ens": 1564,
      "av": 1565,
      "ĠSt": 1566,
      "Ġà¬¶": 1567,
      "à®¾à®¤": 1568,
      "àª¬": 1569,
      "à²¾à²¨": 1570,
      "Ġpre": 1571,
      "à¥įà¤¥": 1572,
      "à¬§": 1573,
      "à¤ķà¥įà¤·": 1574,
      "à´Łàµįà´Ł": 1575,
      "à¨¤à¨¾": 1576,
      "ĠĠĠĠĠĠĠĠĠĠ": 1577,
      "à¯ģà®³": 1578,
      "Ĺà°¾": 1579,
      "¥à¬¿à¬²": 1580,
      "à²Ĥà²¤": 1581,
      "ail": 1582,
      "à§įà¦ª": 1583,
      "·à§įà¦Ł": 1584,
      "form": 1585,
      "à´ªàµįà´ª": 1586,
      "àµ¾": 1587,
      "à¨¦à©ĩ": 1588,
      "à®¿à®©à¯į": 1589,
      "Ġà¦ħà¦¨": 1590,
      "ace": 1591,
      "¡à¬¼": 1592,
      "ep": 1593,
      "à´¿à´ķ": 1594,
      "à®²à¯į": 1595,
      "Ġà¤¹à¥Īà¤Ĥ": 1596,
      "ĠV": 1597,
      "à¤¿à¤µ": 1598,
      "à°¨à±įà°¨": 1599,
      "à°¾à°¯": 1600,
      "à¯ģà®¤à¯įà®¤": 1601,
      "ĠàªĨàªµ": 1602,
      "àµĨà´¯": 1603,
      "à«ĩàª²": 1604,
      "à¨¿à©±à¨ļ": 1605,
      "à¨ļ": 1606,
      "àµĬ": 1607,
      "Ġev": 1608,
      "ite": 1609,
      "com": 1610,
      "ĠCh": 1611,
      "à¨¤à©Ģ": 1612,
      "à¦ķà§įà¦·": 1613,
      "à°¿à°¤": 1614,
      "ater": 1615,
      "ose": 1616,
      "Ġà¨²à¨Ī": 1617,
      "Ġà¦§": 1618,
      "ĠĠĠĠĠĠĠĠĠĠĠĠĠĠĊ": 1619,
      "Ġà¨µà¨¿à©±à¨ļ": 1620,
      "à°Ĥà°Ł": 1621,
      "au": 1622,
      "Ġbeen": 1623,
      "àµĭà´": 1624,
      "Ġà¨ķà©Ģ": 1625,
      "Ġà¬ĵ": 1626,
      "¦à°¿": 1627,
      "ish": 1628,
      "Ġso": 1629,
      "à§ĩà¦¤": 1630,
      "à²Ĥà²¦à³ģ": 1631,
      "à°ķà±įà°": 1632,
      "ĠĠĠĠĠĠĠĠĠĠĠĠĠĠĠĠĊ": 1633,
      "Ġàªªà«įàª°": 1634,
      "àŃĤ": 1635,
      "à¥ģà¤°": 1636,
      "Ġà¨µà¨¿à¨ļ": 1637,
      "à«įàª¤": 1638,
      "àŃĩà¬¬": 1639,
      "à¥ī": 1640,
      "à²¾à²¦": 1641,
      "nder": 1642,
      "Ġexp": 1643,
      "à¤Ī": 1644,
      "style": 1645,
      "Ġàª¥": 1646,
      "arg": 1647,
      "à«įàªŁ": 1648,
      "Ġ:": 1649,
      "Ġyear": 1650,
      "à²¿à²Ĺà³Ĩ": 1651,
      "play": 1652,
      "Ġà°ľ": 1653,
      "}}": 1654,
      "ks": 1655,
      "Ġsp": 1656,
      "Ġà¨ªà©įà¨°": 1657,
      "à©Į": 1658,
      "à¤¿à¤ı": 1659,
      "à¯ģà®Ł": 1660,
      "à¤¿à¤Ĥ": 1661,
      "à©±à¨ķ": 1662,
      "à¬Ĺ": 1663,
      "à®¾à®Ł": 1664,
      "à¤£à¥įà¤¯à¤¾à¤": 1665,
      "ob": 1666,
      "àªµàª¾": 1667,
      "turn": 1668,
      "à±ģà°¨à±įà°¨": 1669,
      "à¥ĥ": 1670,
      "Ġcomm": 1671,
      "Ġàªī": 1672,
      "vers": 1673,
      "à§ģà¦°": 1674,
      "Ġà¤¯à¤¾": 1675,
      "Ġte": 1676,
      "à¤¾à¤°à¥Ģ": 1677,
      "àµģà´®": 1678,
      "Ġà´ªàµįà´°": 1679,
      "à®¾à®°à¯į": 1680,
      "Ġà¬ī": 1681,
      "à¦ķà§ĩ": 1682,
      "à®Ļà¯įà®ķ": 1683,
      "à²ķà³įà²ķ": 1684,
      "own": 1685,
      "à¤ĸ": 1686,
      "dis": 1687,
      "à¬¾à¬ķ": 1688,
      "Ġà¬²": 1689,
      "¸à±įà°¤": 1690,
      "Ġàªķà«ĩ": 1691,
      "à¦¡à¦¼": 1692,
      "à¥ĩà¤¤": 1693,
      "anc": 1694,
      "à¬Ĥ": 1695,
      "ree": 1696,
      "very": 1697,
      "à¨Ĩ": 1698,
      "à³įà²®": 1699,
      "à¦Ľ": 1700,
      "à¨¾à¨¹": 1701,
      "Ġà¨ĸ": 1702,
      "à§ĭà¦¨": 1703,
      "Ġqu": 1704,
      "Ġover": 1705,
      "self": 1706,
      "à®¿à®µ": 1707,
      "à¦²à§Ī": 1708,
      "Ġàªĸ": 1709,
      "ments": 1710,
      "Ġà¦ĺ": 1711,
      "Ġà¨¨à¨¾à¨²": 1712,
      "Ġà¤¸à¤®": 1713,
      "Ġà¨¸à¨¼": 1714,
      "à°¿à°¯": 1715,
      "à°ļ": 1716,
      "Ġyour": 1717,
      "àª¾àª®àª¾àªĤ": 1718,
      "à¥Į": 1719,
      "**": 1720,
      "à§ĩà¦¶": 1721,
      "à¦¾à¦Ł": 1722,
      "Ġàªµàª¿": 1723,
      "à²°à³Ĩ": 1724,
      "Ġàªļ": 1725,
      "à°Ĥà°¤": 1726,
      "red": 1727,
      "Ġà¤ķà¤¿": 1728,
      "à¬¿à¬¬à¬¾": 1729,
      "Ġabout": 1730,
      "ĠàªŃ": 1731,
      "à§įà¦¦": 1732,
      "àª¾àª¤": 1733,
      "Ġthan": 1734,
      "à§įà¦§": 1735,
      "à©Ģà¨Ĥ": 1736,
      "Ġà¦¨à¦¿à¦": 1737,
      "à´¿à´²àµį": 1738,
      "Ġà®ĩà®°": 1739,
      "display": 1740,
      "à¤¸à¥ĩ": 1741,
      "ild": 1742,
      "displaystyle": 1743,
      "à®¿à®¤à¯įà®¤": 1744,
      "à´£àµįà´Ł": 1745,
      "àŃįà¬¬": 1746,
      "ents": 1747,
      "à¯ģà®±": 1748,
      "àŃįà¬Ł": 1749,
      "à¬¿à¬¨": 1750,
      "ĠIndia": 1751,
      "wo": 1752,
      "àµģà´¤": 1753,
      "à«Ģàª": 1754,
      "rib": 1755,
      "àŃįà¬·": 1756,
      "à°¿à°²": 1757,
      "à¨°à©Ģ": 1758,
      "¡à±ģ": 1759,
      "à¬¨àŃįà¬": 1760,
      "ound": 1761,
      "irst": 1762,
      "à´¦": 1763,
      "à±ģà°¤": 1764,
      "Ġà°İ": 1765,
      "hed": 1766,
      "Ġà¤Ĩà¤£": 1767,
      "à§ģà§°": 1768,
      "à§ĭà§°": 1769,
      "low": 1770,
      "àŃĥ": 1771,
      "à¤³": 1772,
      "à¨¿à¨¹": 1773,
      "à²¿à²Ĥà²¦": 1774,
      "à§ģà¦ķ": 1775,
      "ational": 1776,
      "Ġthere": 1777,
      "Ġhad": 1778,
      "Ġà¬¸à¬®": 1779,
      "Ġoff": 1780,
      "Ġmay": 1781,
      "(\"": 1782,
      "Ġà¦Ł": 1783,
      "ĠIt": 1784,
      "Ġà¦ªà¦°": 1785,
      "Ġpe": 1786,
      "Ġacc": 1787,
      "à¯įà®©": 1788,
      "à§ģà¦¨": 1789,
      "Ġà¨Ń": 1790,
      "à¦ĵ": 1791,
      "pec": 1792,
      "âĢĿ": 1793,
      "à¤¾à¤ª": 1794,
      "ays": 1795,
      "Ġnew": 1796,
      "Ġ{": 1797,
      "à³įà²µ": 1798,
      "erv": 1799,
      "Ġif": 1800,
      "à§įà¦ķ": 1801,
      "à¤ı": 1802,
      "ities": 1803,
      "``": 1804,
      "à³Ī": 1805,
      "Ġ200": 1806,
      "Ġtime": 1807,
      "Ġ6": 1808,
      "à¥Ģà¤²": 1809,
      "ject": 1810,
      "à¦¾à¦ģ": 1811,
      "à°¨à±ģ": 1812,
      "à§įà¦Ĺ": 1813,
      "à¤ķà¥ĩ": 1814,
      "à²·": 1815,
      "Ġà¨¸à©Ģ": 1816,
      "ĠĠĠĠĠĠĠĠĠĠĠĠĠĠ": 1817,
      "we": 1818,
      "à®²à¯įà®²": 1819,
      "reat": 1820,
      "à¬¾à¬®": 1821,
      "Ġà¨«": 1822,
      "ings": 1823,
      "Ġ==": 1824,
      "Ġà¬ıà¬¹": 1825,
      "fter": 1826,
      "à´ķàµįà´": 1827,
      "Ġà¨¤à©ĭà¨Ĥ": 1828,
      "à¬Ł": 1829,
      "Ġà¨¹à¨¨": 1830,
      "Ġà°µà°¿à°": 1831,
      "old": 1832,
      "à´¿à´Ł": 1833,
      "Ġsome": 1834,
      "à§ĭà¦Ĺ": 1835,
      "à²¾à²Ĺà²¿": 1836,
      "Ġà¬¬à¬¿à¬": 1837,
      "à¦¿à¦¯à¦¼à¦¾": 1838,
      "à²Ĥà²¡": 1839,
      "à¤¾à¤£": 1840,
      "à¬¶": 1841,
      "à®©à¯įà®±": 1842,
      "Ġsy": 1843,
      "à¥įà¤°à¥Ģ": 1844,
      "Ġinv": 1845,
      "Ġam": 1846,
      "à¦¨à§įà¦¦": 1847,
      "à©ģà¨°": 1848,
      "à¬Ń": 1849,
      "Ġthem": 1850,
      "Ġàªªàª°": 1851,
      "à¨¿à¨²": 1852,
      "à¦¤à¦¿": 1853,
      "Ġà¤Ńà¥Ģ": 1854,
      "à®¾à®²à¯į": 1855,
      "Ġà®Ĵ": 1856,
      "à©°à¨¦": 1857,
      "Ġwhen": 1858,
      "ĠY": 1859,
      "à¨¿à©°à¨": 1860,
      "Ġro": 1861,
      "Ġà¤Ł": 1862,
      "Ġà¦Ľ": 1863,
      "Ġbet": 1864,
      "à²¾à²¯": 1865,
      "àµĨà´¨àµįà´¨": 1866,
      "Ġà¦¨à¦¾": 1867,
      "àª¾àª¸": 1868,
      "ove": 1869,
      "à°ľ": 1870,
      "à¦Ļ": 1871,
      "iff": 1872,
      "à±Ĩà°²": 1873,
      "cre": 1874,
      "Ġà²¶": 1875,
      "à®³à¯į": 1876,
      "à¨¾à¨Ī": 1877,
      "rit": 1878,
      "à²Ĺà³Ĩ": 1879,
      "Ġà¦¹à§Ī": 1880,
      "ĠNone": 1881,
      "à¦¨à§įà¦¤": 1882,
      "Ġunder": 1883,
      "Ġà¦¬à¦²": 1884,
      "àªŃ": 1885,
      "--": 1886,
      "àµįà´³": 1887,
      "à²¾à²µ": 1888,
      "à¥įà¤®": 1889,
      "àªĸ": 1890,
      "Ġà¤Ĩà¤£à¤¿": 1891,
      "Ġà´°": 1892,
      "à¥įà¤ª": 1893,
      "à²ľ": 1894,
      "à¤¾à¤¹à¥Ģ": 1895,
      "à¥ĭà¤Ĺ": 1896,
      "Ġà²®à²¾à²¡": 1897,
      "à±ģà°²à±ģ": 1898,
      "ike": 1899,
      "Ġà¬ļ": 1900,
      "à¤ķà¤°": 1901,
      "à°ķà±ģ": 1902,
      "Ġany": 1903,
      "à¬¥": 1904,
      "Ġà²Ī": 1905,
      "à¤¿à¤°": 1906,
      "mer": 1907,
      "à¬ķàŃģ": 1908,
      "à±įà°ļ": 1909,
      "ari": 1910,
      "à¬¾à¬¸": 1911,
      "app": 1912,
      "tern": 1913,
      "ov": 1914,
      "Ġrec": 1915,
      "à¤ķà¤¾à¤°": 1916,
      "à¬¨àŃįà¬¤à¬¿": 1917,
      "Ġà´¬": 1918,
      "à²¾à²²": 1919,
      "Ġcons": 1920,
      "erm": 1921,
      "à¦¨à§ĩ": 1922,
      "ally": 1923,
      "à¬ľ": 1924,
      "ĠThis": 1925,
      "àµģà´ŁàµĨ": 1926,
      "ey": 1927,
      "lic": 1928,
      "Ġsaid": 1929,
      "Ġinto": 1930,
      "à°¹": 1931,
      "Ġdef": 1932,
      "row": 1933,
      "à¤¾à¤ķ": 1934,
      "à§ĩà¦Ľà§ĩ": 1935,
      "à¬¾à¬¬": 1936,
      "à¨¾à¨µ": 1937,
      "à¨ĸ": 1938,
      "Ġsuch": 1939,
      "Ġà¤ķà¤¾à¤°": 1940,
      "Ġà®ļà¯Ĩà®¯": 1941,
      "Ġà¨µà©Ģ": 1942,
      "à¥įà¤¸": 1943,
      "ĠâĢľ": 1944,
      "à¯ģà®³à¯įà®³": 1945,
      "Ġà®ķà¯Ĭ": 1946,
      "à§Ģà§°": 1947,
      "à¦Łà¦¾": 1948,
      "à©įà¨¹à¨¾à¨Ĥ": 1949,
      "Ġfirst": 1950,
      "à¦²à§ĭ": 1951,
      "assert": 1952,
      "Ġwould": 1953,
      "ility": 1954,
      "enc": 1955,
      "àªĪ": 1956,
      "ph": 1957,
      "vern": 1958,
      "ool": 1959,
      "à²§": 1960,
      "àª¿àªķ": 1961,
      "lect": 1962,
      "ll": 1963,
      "±àµĨ": 1964,
      "Ġà²ħà²µ": 1965,
      "Ġact": 1966,
      "à¨¾à¨¸": 1967,
      "Ġreg": 1968,
      "à¨§": 1969,
      "àª¤àª¾": 1970,
      "à«įàªµ": 1971,
      "à¨¿à¨°": 1972,
      "Ġà¬¹àŃĭà¬": 1973,
      "Ġà¦¡": 1974,
      "Ġkn": 1975,
      "ople": 1976,
      "à§ĩà¦ĵà¦ģ": 1977,
      "ise": 1978,
      "àµģà´¨àµįà´¨àµģ": 1979,
      "à¦ĸà¦¨": 1980,
      "ific": 1981,
      "Ġà¬¦àŃĩà¬": 1982,
      "à±įà°®": 1983,
      "à¤¾à¤¨à¥ĩ": 1984,
      "à°ªà±įà°ª": 1985,
      "Ġà®ħà®µ": 1986,
      "ons": 1987,
      "...": 1988,
      "ade": 1989,
      "Ġno": 1990,
      "cept": 1991,
      "te": 1992,
      "Ġà¤ħà¤ª": 1993,
      "à¤ļà¥Ģ": 1994,
      "Ġà¨ķà¨°à¨¨": 1995,
      "Ġincl": 1996,
      "Ġà²®à²¤à³įà²¤": 1997,
      "à¤¡à¤¼": 1998,
      "à²¿à²²": 1999,
      "aram": 2000,
      "ient": 2001,
      "à¦¾à¦§": 2002,
      "àª°à«Ģ": 2003,
      "à¯ģà®¨à¯įà®¤": 2004,
      "Ġ[": 2005,
      "à¬¡à¬¼": 2006,
      "à°¿à°°": 2007,
      "à¬¾à¬°àŃĩ": 2008,
      "à³įà²·": 2009,
      "Ġbec": 2010,
      "ood": 2011,
      "à¦¿à¦®": 2012,
      "Ġà¦¤à§ĩà¦ĵà¦ģ": 2013,
      "Ġtwo": 2014,
      "Ġpol": 2015,
      "à¤Ĥà¤¦": 2016,
      "à¥ĩà¤²": 2017,
      "ative": 2018,
      "Ġà¦¸à¦Ĥ": 2019,
      "ah": 2020,
      "Ġà®ªà¯ĭ": 2021,
      "olog": 2022,
      "à±įà°¸": 2023,
      "Ġàªªàª£": 2024,
      "ution": 2025,
      "Ġà¤¡": 2026,
      "cess": 2027,
      "àª¾àª²": 2028,
      "à¤¹à¥Ģà¤Ĥ": 2029,
      "Ġ7": 2030,
      "àŃģà¬°": 2031,
      "à°Ĥà°¡": 2032,
      "Ġass": 2033,
      "Ġprov": 2034,
      "Ġwork": 2035,
      "à²¿à²µ": 2036,
      "ren": 2037,
      "eth": 2038,
      "ft": 2039,
      "Ġà´Ĵ": 2040,
      "à§¦": 2041,
      "ange": 2042,
      "Ġhig": 2043,
      "Ġtest": 2044,
      "Ġgen": 2045,
      "als": 2046,
      "à²Ń": 2047,
      "Ġdiff": 2048,
      "à´¾à´¯à´¿": 2049,
      "à°²à±ģ": 2050,
      "ĠUn": 2051,
      "à°¿à°ķà°¿": 2052,
      "_{": 2053,
      "à²¦à²²à³įà²²à²¿": 2054,
      "Ġ10": 2055,
      "Ġà¨ĩà¨¹": 2056,
      "à¬¾à¬¤": 2057,
      "Ġà´ī": 2058,
      "à¤·": 2059,
      "à´¾à´¤": 2060,
      "Ġstr": 2061,
      "Ġdes": 2062,
      "Ġ8": 2063,
      "Ġà¦¯à§ĩ": 2064,
      "àµĪ": 2065,
      "Ġà¨¤à©ĩ": 2066,
      "Ġimport": 2067,
      "à¦ł": 2068,
      "à®¾à®µ": 2069,
      "à¥įà¤²": 2070,
      "ata": 2071,
      "à¦¬à§ĩ": 2072,
      "oss": 2073,
      "Ġonly": 2074,
      "Ġà¤Ŀ": 2075,
      "àµģà´³": 2076,
      "get": 2077,
      "à´Ļàµįà´Ļà´³": 2078,
      "à¤¾à¤ł": 2079,
      "²à±ĭ": 2080,
      "âĪ": 2081,
      "In": 2082,
      "à°¿à°ª": 2083,
      "à®³à¯įà®³": 2084,
      "Ġob": 2085,
      "à´¿à´¨àµįà´": 2086,
      "à§įà¦²": 2087,
      "à¨¡": 2088,
      "à¦¾à¦ĵ": 2089,
      "Ġà¤¹à¥Ģ": 2090,
      "à§įà¦ļ": 2091,
      "à®Ļà¯įà®ķà®³": 2092,
      "Ġà¤®à¤¹": 2093,
      "à§ģà¦®": 2094,
      "Ġthese": 2095,
      "Ġà®ħà®¤": 2096,
      "Ġmost": 2097,
      "\"\"\"": 2098,
      "Ġà´µà´¿à´": 2099,
      "à°Ĥà°²à±ĭ": 2100,
      "lp": 2101,
      "Ġà®µà®°": 2102,
      "Ġà¤²à¤¿à¤ı": 2103,
      "à©±à¨²": 2104,
      "à°¾à°¤": 2105,
      "Ġà¤ħà¤¨": 2106,
      "à¨¾à¨£": 2107,
      "ased": 2108,
      "Ġstud": 2109,
      "gr": 2110,
      "à¨ľà¨¼": 2111,
      "ied": 2112,
      "oy": 2113,
      "à¥ģà¤ķ": 2114,
      "iss": 2115,
      "aw": 2116,
      "à¦«": 2117,
      "à°¾à°Ĥà°": 2118,
      "à´±àµįà´±": 2119,
      "Ġem": 2120,
      "Ġind": 2121,
      "Ġà¦¦à§ĩà¦ĸ": 2122,
      "Ġ202": 2123,
      "Ġà¤Ĩà¤ª": 2124,
      "à¦¿à¦Ľ": 2125,
      "Ġpeople": 2126,
      "Ġrel": 2127,
      "ax": 2128,
      "à¯Īà®ķ": 2129,
      "ĠAs": 2130,
      "Ġà¬¸àŃĩà¬": 2131,
      "Ġàªıàªķ": 2132,
      "Ġprodu": 2133,
      "àª¿àª¯": 2134,
      "à°°à±į": 2135,
      "à§įà¦¨": 2136,
      "velop": 2137,
      "Ġsub": 2138,
      "à¦¿à¦¸": 2139,
      "ype": 2140,
      "Ġ?": 2141,
      "ond": 2142,
      "à°£": 2143,
      "à®¾à®³": 2144,
      "stem": 2145,
      "à¯ģà®ķà¯įà®ķà¯ģ": 2146,
      "ause": 2147,
      "à¤°à¥įà¤µ": 2148,
      "àµįà´®": 2149,
      "rough": 2150,
      "à§İ": 2151,
      "à§ĥà¦¤": 2152,
      "Ġà²ļ": 2153,
      "Ġà¤¦à¥ĩ": 2154,
      "à¨¾à¨ĩ": 2155,
      "à®¾à®¯": 2156,
      "Ġà²¯": 2157,
      "à¤ļà¥ĩ": 2158,
      "à°¾à°®": 2159,
      "à²²à³ģ": 2160,
      "les": 2161,
      "àª¿àª¤": 2162,
      "Ġà°Ī": 2163,
      "Ġuse": 2164,
      "à§Į": 2165,
      "ict": 2166,
      "ank": 2167,
      "Ġadd": 2168,
      "Łà«ĩ": 2169,
      "Ġà²Ĵ": 2170,
      "à¤¾à¤¬": 2171,
      "à¦¾à¦¬à§ĩ": 2172,
      "à¬°àŃģ": 2173,
      "à¬¾à¬ľ": 2174,
      "ĠĠĠĠĠĠĠĠĠĠĠĠĠĠĠĠĠĠĊ": 2175,
      "à¬¾à¬ĩ": 2176,
      "ics": 2177,
      "Ġà²Ń": 2178,
      "Ġà¦ľà¦¨": 2179,
      "¥à¬¿à¬²àŃĩ": 2180,
      "Ġà²®à²¤à³įà²¤à³ģ": 2181,
      "à¦¾à¦ļ": 2182,
      "à´Ĥà´": 2183,
      "Ġform": 2184,
      "uring": 2185,
      "Ġà²ī": 2186,
      "Ġused": 2187,
      "ĠRe": 2188,
      "Ġbl": 2189,
      "à©±à¨ĸ": 2190,
      "Ġco": 2191,
      "Ġà¦īà¦ª": 2192,
      "Ġ9": 2193,
      "Ġàªľà«ĩ": 2194,
      "à®¾à®©à¯į": 2195,
      "ix": 2196,
      "und": 2197,
      "à¥įà¤ķ": 2198,
      "à´¨àµįà´¤": 2199,
      "Ġà¦®à¦¾à¦¨": 2200,
      "Ġà¨Ĩà¨ª": 2201,
      "Ġàª«": 2202,
      "à§įà¦¡": 2203,
      "à¥ģà¤²": 2204,
      "à¦¾à¦¶": 2205,
      "Ġà¤ħà¤§": 2206,
      "Ġfl": 2207,
      "fl": 2208,
      "Ġà¤īà¤¨": 2209,
      "Ġà°¶": 2210,
      "ĠHe": 2211,
      "quest": 2212,
      "ures": 2213,
      "Ġà¤¯à¤¾à¤Ĥ": 2214,
      "Ġresult": 2215,
      "Ġà¦ķà¦°à§ĩ": 2216,
      "Ġfin": 2217,
      "à²¾à²°à³Ĩ": 2218,
      "à¤ł": 2219,
      "à§ĩà¦Ł": 2220,
      "\")": 2221,
      "Ġà¬ķà¬°à¬¿à¬": 2222,
      "Ġhow": 2223,
      "ating": 2224,
      "Ġnum": 2225,
      "Ġget": 2226,
      "ĠĠĠĠĠĠĠĠĠĠĠĠĠĠĠĠĠĠ": 2227,
      "à³įà²ª": 2228,
      "ck": 2229,
      "Ġà¤¤à¥ĭ": 2230,
      "Ġà´ľ": 2231,
      "Ġcol": 2232,
      "à«įàª¯àª¾": 2233,
      "à²¦à³Ĩ": 2234,
      "àµģà´µ": 2235,
      "à²¦à³ģ": 2236,
      "à²Ĥà²¬": 2237,
      "àµįà´µ": 2238,
      "Ġcount": 2239,
      "Ġeff": 2240,
      "à°¾à°Ł": 2241,
      "ŀàµįà´": 2242,
      "Ġà¬ĸ": 2243,
      "àªµàª¾àª¨": 2244,
      "àª¨à«įàª": 2245,
      "pro": 2246,
      "à²¾à²¸": 2247,
      "Ġmat": 2248,
      "Ġcall": 2249,
      "Ġà¨ķà©ĩ": 2250,
      "Ġspec": 2251,
      "à¬¾à¬ķàŃģ": 2252,
      "à¤«": 2253,
      "Ġàª°àª¹": 2254,
      "ning": 2255,
      "Ġ,": 2256,
      "àª¾àªľ": 2257,
      "fore": 2258,
      "Ľà¬¨àŃįà¬¤à¬¿": 2259,
      "Ġafter": 2260,
      "ered": 2261,
      "à´¾à´²": 2262,
      "à¨¿à¨ķ": 2263,
      "Ġà´İà´¨àµįà´¨": 2264,
      "Ġpo": 2265,
      "Ġà¦Ĩà¦°": 2266,
      "à®¿à®ªà¯įà®ª": 2267,
      "à§ĩà¦ĸ": 2268,
      "Ġà¤§": 2269,
      "à¦¨à¦¾": 2270,
      "à°Ĥà°Ĺà°¾": 2271,
      "Ġvalue": 2272,
      "ited": 2273,
      "Ġdist": 2274,
      "Ġà°Ń": 2275,
      "à¦¸à¦®": 2276,
      "à´´": 2277,
      "à¬ķàŃįà¬·": 2278,
      "Ġà¦¥à¦¾à¦ķ": 2279,
      "à¦¿à¦ļ": 2280,
      "àµģà´³àµįà´³": 2281,
      "à°¬": 2282,
      "à¦¸à§įà¦¥": 2283,
      "à±ģà°°": 2284,
      "à§ĩà¦Ľ": 2285,
      "Ġà¤¨à¤¹à¥Ģà¤Ĥ": 2286,
      "Ġthrough": 2287,
      "à¯Ĩà®°": 2288,
      "Ġmod": 2289,
      "à¦·": 2290,
      "àŃįà¬¥": 2291,
      "()": 2292,
      "ever": 2293,
      "Ġneed": 2294,
      "Ġà¤¸à¤¾à¤": 2295,
      "àª¾àª£": 2296,
      "ract": 2297,
      "à¯ģà®ªà¯įà®ª": 2298,
      "à²Łà³įà²Ł": 2299,
      "à§Ģà¦°": 2300,
      "à°§": 2301,
      "ween": 2302,
      "ces": 2303,
      "à¬ļ": 2304,
      "à²¾à²Ĥ": 2305,
      "ular": 2306,
      "à§ģà¦ĸ": 2307,
      "Ġher": 2308,
      "Ġà®İà®©à¯įà®±": 2309,
      "ner": 2310,
      "à¬¿à¬°": 2311,
      "à¤ļà¤¾": 2312,
      "à¨¿à¨¤": 2313,
      "Ġà¤°à¤¾à¤ľ": 2314,
      "à¦ľà¦¨": 2315,
      "ault": 2316,
      "vernment": 2317,
      "à¤¯à¤¾": 2318,
      "à´¿à´¤": 2319,
      "alth": 2320,
      "Ġà²¨à³Ģ": 2321,
      "Ġàª¸àª¾àª": 2322,
      "ues": 2323,
      "hen": 2324,
      "Ġlike": 2325,
      "à¨«": 2326,
      "Ġàª®àª¾àªŁà«ĩ": 2327,
      "Ġà¨ĩà©±à¨ķ": 2328,
      "à®¿à®Łà¯įà®Ł": 2329,
      "__": 2330,
      "ys": 2331,
      "à¦¾à¦¡à¦¼": 2332,
      "ock": 2333,
      "à¨¥": 2334,
      "Ġatt": 2335,
      "à¦Ľà¦¿à¦²": 2336,
      "Ġprob": 2337,
      "Ġset": 2338,
      "à¤¥": 2339,
      "round": 2340,
      "à¤²à¥įà¤¯à¤¾à¤": 2341,
      "Ġà°¯": 2342,
      "ªàµįà´ª": 2343,
      "à¦¿à¦¶": 2344,
      "à¨¾à¨ľ": 2345,
      "Ġfe": 2346,
      "à®¾à®®": 2347,
      "Ġrem": 2348,
      "à¤¤à¥įà¤¤": 2349,
      "ŀàµįà´ŀ": 2350,
      "oth": 2351,
      "à®ªà¯įà®ªà®Łà¯įà®Ł": 2352,
      "à§įà¦ľ": 2353,
      "vi": 2354,
      "return": 2355,
      "à¥įà¤¯à¥ĩ": 2356,
      "Ġà¦ķà¦¥": 2357,
      "Ġà®°": 2358,
      "à¤ķà¥Ģ": 2359,
      "Ġshould": 2360,
      "à¤¹à¤¾": 2361,
      "Ġbetween": 2362,
      "à¥įà¤§": 2363,
      "àªĤàªĹ": 2364,
      "à¬¾à¬ª": 2365,
      "Ġà¨¨à¨¹": 2366,
      "à¥įà¤¦": 2367,
      "20": 2368,
      "Ġfun": 2369,
      "ough": 2370,
      "àª¾àª°à«ĩ": 2371,
      "à¦ķà¦²": 2372,
      "Ġà¬ªà¬°": 2373,
      "à®¤à¯įà®¤à®¿à®²à¯į": 2374,
      "àª¨à«ĭ": 2375,
      "Ġà¨¸à¨®": 2376,
      "à¥ĩà¤Ł": 2377,
      "à¤¾à¤łà¥Ģ": 2378,
      "Ġra": 2379,
      "à°Ń": 2380,
      "à²¾à²®": 2381,
      "ced": 2382,
      "à¨¨à©įà¨¹à¨¾à¨Ĥ": 2383,
      "à³ĩà²ķ": 2384,
      "à¤¾à¤Ī": 2385,
      "Ġà®µà¯ĩ": 2386,
      "à§ĭà¦ķ": 2387,
      "Ġinst": 2388,
      "à°²à±ĭ": 2389,
      "Ġyears": 2390,
      "à¤Ĥà¤Ĺ": 2391,
      "à°Łà±įà°Ł": 2392,
      "àª¾àªĹ": 2393,
      "Ġmany": 2394,
      "à¨¦à©Ģ": 2395,
      "Ġà¤ķà¤¿à¤¯à¤¾": 2396,
      "à§įà¦¤à§ģ": 2397,
      "à«ĩàª¶": 2398,
      "Ġph": 2399,
      "à¯įà®®": 2400,
      "à±Ĥ": 2401,
      "·àŃįà¬Ł": 2402,
      "à¨Ń": 2403,
      "à¥įà¤¨": 2404,
      "à¬¾à¬²": 2405,
      "Ġmark": 2406,
      "ting": 2407,
      "ident": 2408,
      "à°ķà±įà°ķ": 2409,
      "hes": 2410,
      "à¯Īà®¯à®¿à®²à¯į": 2411,
      "ible": 2412,
      "Ġtra": 2413,
      "Ġac": 2414,
      "à¤¾à¤²à¤¾": 2415,
      "Ġdevelop": 2416,
      "Ġwhat": 2417,
      "Ġà²¸à²Ĥ": 2418,
      "Ġà¬¹àŃĭà¬ĩà¬": 2419,
      "§à§": 2420,
      "Ġà´¶": 2421,
      "à²Ĺà²³à³ģ": 2422,
      "à¬¾à¬ĩà¬ģ": 2423,
      "à±įà°²à±ĭ": 2424,
      "à²ķà³įà²ķà³Ĩ": 2425,
      "à¦¾à¦¨à§įà¦¤": 2426,
      "à°ļà±įà°ļ": 2427,
      "ash": 2428,
      "à°¾à°µ": 2429,
      "ern": 2430,
      "à´¶": 2431,
      "Ġ|": 2432,
      "ower": 2433,
      "à¦¾à¦Ĥ": 2434,
      "Ġà«": 2435,
      "à¨¾à¨®": 2436,
      "Ġmon": 2437,
      "à¥ģà¤¨": 2438,
      "up": 2439,
      "à°¨à±į": 2440,
      "Ġà¦¸à§ĩà¦ĩ": 2441,
      "à¨ı": 2442,
      "Ġwhere": 2443,
      "Ġà¨Ĩà¨ªà¨£": 2444,
      "à±ģà°µ": 2445,
      "Ġàªľà«ĭ": 2446,
      "Ġ!": 2447,
      "à¨ķà¨¾à¨°": 2448,
      "à¬§àŃįàŃŁ": 2449,
      "Ġà¨°à¨¹": 2450,
      "à¨¿à¨¹à¨¾": 2451,
      "àµįà´ķàµįà´ķ": 2452,
      "Ġà¬ħà¬¨": 2453,
      "à§°à§ĩ": 2454,
      "Ġvari": 2455,
      "iel": 2456,
      "Ġà¤¯à¤¹": 2457,
      "àµģà´£": 2458,
      "à²µà³ģ": 2459,
      "arch": 2460,
      "àªµàª¾àª®àª¾àªĤ": 2461,
      "àŃįà¬ª": 2462,
      "aj": 2463,
      "à³įà²¸": 2464,
      "ample": 2465,
      "Ġdiffere": 2466,
      "Ġcould": 2467,
      "à«ĩàª°": 2468,
      "à«ĩàªŁ": 2469,
      "Ġbu": 2470,
      "Ġà¦ķà§ĭà¦¨": 2471,
      "à©Īà¨Ĥ": 2472,
      "Ġà´²": 2473,
      "Ġ18": 2474,
      "Ġà¨īà¨¹": 2475,
      "à³ģà²µà³ģà²¦": 2476,
      "Ġpr": 2477,
      "Ġcent": 2478,
      "Ġsupp": 2479,
      "Ġsystem": 2480,
      "Ġà®Ĵà®°": 2481,
      "à¨¾à¨¬": 2482,
      "its": 2483,
      "ife": 2484,
      "à´¿à´¨àµįà´±àµĨ": 2485,
      "Ġà¨¦à¨¿": 2486,
      "ected": 2487,
      "à°¾à°²à±ģ": 2488,
      "à²ķà³įà²·": 2489,
      "à¦¿à¦Ľà§ĩ": 2490,
      "Ġcur": 2491,
      "Ġà²®à³ģ": 2492,
      "Ġà¦¸à§įà¦¬": 2493,
      "Ġà¦¯à¦": 2494,
      "Ġ0": 2495,
      "à¯ĩà®°": 2496,
      "à°¾à°¦": 2497,
      "Ġtrans": 2498,
      "àªı": 2499,
      "Ġà¨īà¨¸": 2500,
      "irect": 2501,
      "Ġhelp": 2502,
      "ror": 2503,
      "àª·": 2504,
      "ĠCom": 2505,
      "àª¾àª³": 2506,
      "à´¾à´ķàµįà´ķ": 2507,
      "ĻàŃįà¬Ĺ": 2508,
      "Ġpres": 2509,
      "à«įàª¯à«ģàªĤ": 2510,
      "Ġà¨¨à¨¹à©Ģà¨Ĥ": 2511,
      "à§ĭà§±à¦¾": 2512,
      "à¥Ģà¤¨": 2513,
      "à¦Łà¦¿": 2514,
      "à§ĩà¦®": 2515,
      "à®Łà¯ģà®¤à¯įà®¤": 2516,
      "à³ĥ": 2517,
      "Ġins": 2518,
      "Ġà²µà²¿à²": 2519,
      "ful": 2520,
      "gan": 2521,
      "ĠàªŁ": 2522,
      "à²¨à³ģ": 2523,
      "Ġà¨¸à¨ķ": 2524,
      "à¥įà¤¯à¤ķ": 2525,
      "Ġà¨®à©ģ": 2526,
      "Ġà¦ķà§°à¦¾": 2527,
      "Ġagain": 2528,
      "Ġà¨¡": 2529,
      "Ġour": 2530,
      "Ġà¦ķà§°à¦¿": 2531,
      "000": 2532,
      "à¬¾à¬£": 2533,
      "à´¿à´µ": 2534,
      "io": 2535,
      "à¦Ļà§įà¦Ĺ": 2536,
      "à¥ģà¤®": 2537,
      "à§ĩà¦¯à¦¼": 2538,
      "à´²àµįà´²": 2539,
      "à±Īà°¨": 2540,
      "Ġà®¤à¯Ĭ": 2541,
      "Ġà®¨à®Ł": 2542,
      "Ġà¤ľà¤¾à¤¤": 2543,
      "Ġàªķàª°à«Ģ": 2544,
      "à¬¿à¬Ĩ": 2545,
      "à¦¾à¦£": 2546,
      "name": 2547,
      "Ġà¨ªà¨°": 2548,
      "pr": 2549,
      "à²¨à³Ĩ": 2550,
      "ars": 2551,
      "Ġà¤īà¤ª": 2552,
      "à²¿à²Ĺà²³": 2553,
      "eral": 2554,
      "ollow": 2555,
      "Ġ===": 2556,
      "à´¿à´²àµįà´²": 2557,
      "à¬¾à¬³": 2558,
      "Ġthen": 2559,
      "àŃįà¬§": 2560,
      "cent": 2561,
      "à¬¾àŃŁ": 2562,
      "à¤Ĥà¤¡": 2563,
      "Ġ\\": 2564,
      "à°¾à°ķ": 2565,
      "Ġà®µà®¿à®": 2566,
      "àµĭà´Ł": 2567,
      "à¬¾à¬ĻàŃįà¬ķ": 2568,
      "à³įà²¥": 2569,
      "à¯Īà®ķà¯įà®ķ": 2570,
      "àµĨà´Ł": 2571,
      "ten": 2572,
      "Ġsur": 2573,
      "à§ĩà¦ķà§ĩ": 2574,
      "à¦¿à¦¤à§ĩ": 2575,
      "à§ģà¦¦": 2576,
      "à²¿à²²à³įà²²": 2577,
      "à¥įà¤¯à¤¾à¤Ĥ": 2578,
      "àª¾àª¦": 2579,
      "à©°à¨Ĺ": 2580,
      "Ġinclud": 2581,
      "wn": 2582,
      "Ġà¦ľà¦¾à¦¨": 2583,
      "text": 2584,
      "uch": 2585,
      "àµįà´¥": 2586,
      "Ġà¦ªà¦¾à¦°": 2587,
      "Ġà¨Ĺà¨¿à¨Ĩ": 2588,
      "à±ģà°Ĺ": 2589,
      "erest": 2590,
      "àŃ±": 2591,
      "test": 2592,
      "à¦¿à¦Ł": 2593,
      "Th": 2594,
      "roup": 2595,
      ".\"": 2596,
      "īà¬": 2597,
      "Ġwell": 2598,
      "Ġàª¤à«ĩàª®": 2599,
      "Ġear": 2600,
      "Ġà¦ķà¦¿à¦¨": 2601,
      "ists": 2602,
      "Ġà¦Ĩà¦Ĺ": 2603,
      "à¤µà¤°": 2604,
      "Ġà¤īà¤¸": 2605,
      "Ġà®ĩà®¨à¯įà®¤": 2606,
      "à²µà²¨à³įà²¨à³ģ": 2607,
      "ink": 2608,
      "à¤°à¥įà¤®": 2609,
      "ield": 2610,
      "à±įà°ķ": 2611,
      "ms": 2612,
      "ins": 2613,
      "Ġresp": 2614,
      "à¬¾à¬Ĺ": 2615,
      "à¬¿à¬¶": 2616,
      "\":": 2617,
      "à´¹": 2618,
      "à¦¿à¦¦": 2619,
      "Ġàª§": 2620,
      "à³įà²Ĺ": 2621,
      "à´¿à´²àµĨ": 2622,
      "Ġà¦¬à¦¿à¦¶": 2623,
      "ĠàªĨàªª": 2624,
      "à¥Ģà¤¤": 2625,
      "ĠIndian": 2626,
      "any": 2627,
      "à±ĥ": 2628,
      "Ġà¤ľà¥ĭ": 2629,
      "^{": 2630,
      "illion": 2631,
      "à®®à¯įà®ª": 2632,
      "Ġinter": 2633,
      "à¦¾à¦ĸ": 2634,
      "àªķà«įàª": 2635,
      "àª¾àª°à«Ģ": 2636,
      "à°¿à°µ": 2637,
      "ng": 2638,
      "Ġà¦ªà§°à¦¾": 2639,
      "à¦·à§įà¦Ł": 2640,
      "aking": 2641,
      "à¬¨àŃįà¬¦": 2642,
      "ines": 2643,
      "Ġà°¹": 2644,
      "ives": 2645,
      "put": 2646,
      "àµįà´¸": 2647,
      "Ġà¦¤à§ĭ": 2648,
      "Ġà¤¤à¤°": 2649,
      "àŃįà¬ļ": 2650,
      "ts": 2651,
      "à§ģà§±": 2652,
      "ator": 2653,
      "àŃįà¬¡": 2654,
      "à¬®à¬¾à¬¨": 2655,
      "àªµà«Ģ": 2656,
      "Ġà¬®à¬§àŃįàŃŁ": 2657,
      "Ġà¤¹à¥ģà¤": 2658,
      "à´¾àµ»": 2659,
      "à¦ı": 2660,
      "other": 2661,
      "à¤¸à¥įà¤¤": 2662,
      "Ġà¤ªà¤¹": 2663,
      "Ġincre": 2664,
      "Ġà¨ľà©ĭ": 2665,
      "Ġà¦¤à¦¾à¦°": 2666,
      "à¤¿à¤¶": 2667,
      "ily": 2668,
      "à¬¿à¬Ľà¬¿": 2669,
      "ĠDe": 2670,
      "àª¥": 2671,
      "à¥ĭà¤ķ": 2672,
      "Ġris": 2673,
      "Ġà¨ķà©ĭ": 2674,
      "Ġjust": 2675,
      "19": 2676,
      "Ġ15": 2677,
      "à²¿à²®": 2678,
      "à°¿à°Ĺ": 2679,
      "ĠSe": 2680,
      "Ġà¦ķà§°à¦¿à¦¬": 2681,
      "hem": 2682,
      "Ġà¬ĺ": 2683,
      "à²¿à²¦à³įà²¦à²¾à²°à³Ĩ": 2684,
      "à§ĩà¦·": 2685,
      "à°¿à°Ĥà°¦à°¿": 2686,
      "Ġà¨¹à©Ģ": 2687,
      "àª¾àªķ": 2688,
      "ets": 2689,
      "à§Ģà¦¯à¦¼à¦¾": 2690,
      "ption": 2691,
      "Ġà´Ĵà´°": 2692,
      "Ġsm": 2693,
      "à¦¨à§įà¦§": 2694,
      "Ġà¤¸à¥įà¤µ": 2695,
      "à¨¿à¨Ĩà¨Ĥ": 2696,
      "Ġà¬ıà¬¹à¬¿": 2697,
      "conom": 2698,
      "Ġhigh": 2699,
      "Ġà®ı": 2700,
      "à¦¨à§°": 2701,
      "à²°à³į": 2702,
      "Ġàª¤àª®": 2703,
      "à´¿à´°àµģà´¨àµįà´¨àµģ": 2704,
      "à®±à¯įà®ķ": 2705,
      "àµģà´£àµįà´Ł": 2706,
      "uth": 2707,
      "Ġed": 2708,
      "à´¾à´µ": 2709,
      "à¤°à¥ĩ": 2710,
      "Ġbeing": 2711,
      "à¯ģà®ª": 2712,
      "Ġmake": 2713,
      "Ġàªķà«ĭ": 2714,
      "Ġdec": 2715,
      "à´¾à´Ł": 2716,
      "àª«": 2717,
      "Ġinvest": 2718,
      "],": 2719,
      "à¦¾à¦¤à§ĩ": 2720,
      "ted": 2721,
      "Ġà¤¤à¥įà¤¯à¤¾à¤Ĥ": 2722,
      "à´¸àµį": 2723,
      "à®ªà¯įà®ªà®Ł": 2724,
      "day": 2725,
      "àµģà´±": 2726,
      "rue": 2727,
      "uc": 2728,
      "àŃĩà¬²": 2729,
      "à®Ļà¯įà®ķà®³à¯į": 2730,
      "Ġà¨ķà©Ģà¨¤à¨¾": 2731,
      "ĠPro": 2732,
      "à°³": 2733,
      "à±ĩà°¦": 2734,
      "à±įà°²à±ģ": 2735,
      "Ġà¨īà¨¨à©įà¨¹à¨¾à¨Ĥ": 2736,
      "ug": 2737,
      "ward": 2738,
      "à¤¿à¤®": 2739,
      "àŃįàŃ±": 2740,
      "à¬¾à¬¯": 2741,
      "àª¿àª²": 2742,
      "à¨¾à¨¤": 2743,
      "à¤¾à¤ĩ": 2744,
      "à§ģà¦¤": 2745,
      "à¨°à©ĩ": 2746,
      "ually": 2747,
      "ĠSh": 2748,
      "à³ĩà²¶": 2749,
      "àŃįà¬°àŃĢ": 2750,
      "ne": 2751,
      "à¤¾à¤°à¤¾": 2752,
      "Ġworld": 2753,
      "ital": 2754,
      "¥à¬¿à¬¬à¬¾": 2755,
      "à§ģà¦·": 2756,
      "à¦¿à¦²à§ĩ": 2757,
      "ral": 2758,
      "Ġà¨¸à¨¿à©°à¨": 2759,
      "Ġà°®à°°": 2760,
      "ants": 2761,
      "yp": 2762,
      "§àŃ": 2763,
      "ĠNew": 2764,
      "à¤¾à¤§": 2765,
      "à°¿à°¸à±įà°¤": 2766,
      "Ġàª¸àª®": 2767,
      "Ġinterest": 2768,
      "Ġà°ı": 2769,
      "à§ĭà¦ģ": 2770,
      "Ġsame": 2771,
      "à®¾à®®à¯į": 2772,
      "à³Ĭà²³": 2773,
      "Ġent": 2774,
      "à³įà²ļ": 2775,
      "Ġà¤²à¥ĩ": 2776,
      "Ġà°Ĵ": 2777,
      "àªĤàª¤": 2778,
      "Ġfollow": 2779,
      "Ġstate": 2780,
      "à¦¾à§°à§ĩ": 2781,
      "Ġà¨ľà¨¾à¨Ĥ": 2782,
      "Ġgovernment": 2783,
      "à¦¾à¦¦à§ĩà¦°": 2784,
      "à§įà¦ł": 2785,
      "à±ģà°Ĥà°¦à°¿": 2786,
      "à§įà¦£": 2787,
      "à³įà²³": 2788,
      "click": 2789,
      "à²¾à²ľ": 2790,
      "Ġà´¨à´¿à´": 2791,
      "âģ": 2792,
      "ince": 2793,
      "ural": 2794,
      "à²¨à³į": 2795,
      "Ġà¬¸àŃĩ": 2796,
      "à®¸": 2797,
      "Ġhim": 2798,
      "à¬¸àŃįà¬¤": 2799,
      "à´ķàµįà´·": 2800,
      "Ġà®ķà¯Ĥ": 2801,
      "àµĩà´°": 2802,
      "Ġend": 2803,
      "Ġàª¸à«ģ": 2804,
      "à¤§à¥įà¤¯à¥ĩ": 2805,
      "ask": 2806,
      "à¨¿à¨¨": 2807,
      "Ġdet": 2808,
      "ĠAl": 2809,
      "Ġdep": 2810,
      "Ġà¦²à¦Ĺ": 2811,
      "àª¨à«ģàªĤ": 2812,
      "àª¾àª°àª¾": 2813,
      "ages": 2814,
      "à«įàª¯à«ĭ": 2815,
      "Ġà¤¥à¤¾": 2816,
      "à¨ĩ": 2817,
      "Ġmy": 2818,
      "Ġà¤¸à¤°": 2819,
      "à¤¸à¥įà¤¥": 2820,
      "Ġplay": 2821,
      "Ġà¦ķà¦¾à§°": 2822,
      "Ġback": 2823,
      "Ġmin": 2824,
      "à®µà®°": 2825,
      "à¦¤à¦¾": 2826,
      "Ġà¤ł": 2827,
      "à²¡à³Ĩ": 2828,
      "à¤¾à¤²à¥ĩ": 2829,
      "Ġà¦Ĩà¦Ľà§ĩ": 2830,
      "Ġà¤¨à¤¾à¤¹à¥Ģ": 2831,
      "à´¿à´ķàµįà´ķàµģà´¨àµįà´¨": 2832,
      "à¦Ĩ": 2833,
      "àµģà´¤àµįà´¤": 2834,
      "à¨²à©ĩ": 2835,
      "formation": 2836,
      "à²·à³įà²Ł": 2837,
      "',": 2838,
      "à¦¤à§įà¦¤": 2839,
      "Ġeven": 2840,
      "Ġà¨ĺ": 2841,
      "à¯Īà®¤à¯įà®¤": 2842,
      "à¤¾à¤³": 2843,
      "Ġà¤ķà¤°à¤¨à¥ĩ": 2844,
      "Ġà¦ķà¦¿à¦¨à§įà¦¤à§ģ": 2845,
      "chn": 2846,
      "àª¿àªµ": 2847,
      "àª¶à«ĩ": 2848,
      "à¥Ĥà¤ª": 2849,
      "Ġshe": 2850,
      "Ġà®µà¯Ĩ": 2851,
      "ode": 2852,
      "ically": 2853,
      "Ġser": 2854,
      "eng": 2855,
      "à¬ķàŃįà¬¤": 2856,
      "Ġà¨¸à¨¿à©°à¨ĺ": 2857,
      "ized": 2858,
      "àª¾àª¨àª¾": 2859,
      "Ġà²İà²Ĥà²¦à³ģ": 2860,
      "Ġà¤®à¥ĭ": 2861,
      "Ġà¦®à¦¹": 2862,
      "à²®à³įà²®": 2863,
      "led": 2864,
      "Ġchild": 2865,
      "à°ķà±įà°·": 2866,
      "Ġdisc": 2867,
      "Ġà¨Ł": 2868,
      "Ġà¬ıà¬ķ": 2869,
      "read": 2870,
      "Ġpers": 2871,
      "Ġà¨¹à©ģ": 2872,
      "hat": 2873,
      "à¯ģà®°": 2874,
      "à´¿à´Łàµįà´Ł": 2875,
      "Ġreturn": 2876,
      "Ġàª¶àªķ": 2877,
      "param": 2878,
      "à§ĩà¦¬": 2879,
      "Ġàªĺ": 2880,
      "à°¶": 2881,
      "Ġà°¸à°Ĥà°": 2882,
      "Ġà²²": 2883,
      "à¤ķà¤¾": 2884,
      "Ġà¤ªà¥Ĥ": 2885,
      "Ġà¤¦à¤¿à¤²": 2886,
      "à¤¾à¤Ł": 2887,
      "¥à¬¿à¬²à¬¾": 2888,
      "Ġnumber": 2889,
      "à¨¾à¨ī": 2890,
      "à¦¯": 2891,
      "ĠFor": 2892,
      "Ġmed": 2893,
      "ices": 2894,
      "à¬ĻàŃįà¬ķàŃģ": 2895,
      "ivers": 2896,
      "à¤²à¥įà¤¯à¤¾": 2897,
      "àŃįà¬¦": 2898,
      "ruct": 2899,
      "¥à«ĩ": 2900,
      "à¤¢": 2901,
      "à¥ĭà¤²": 2902,
      "à¥ģà¤¦": 2903,
      "Ġà¦ıà¦¬": 2904,
      "Ġà¦Ĩà¦¹": 2905,
      "àª¾àªĪ": 2906,
      "Ġlong": 2907,
      "à¤¾à¤Ĥà¤Ĺ": 2908,
      "Ġà¤Ńà¤¾à¤°": 2909,
      "Ġthose": 2910,
      "à¤¾à¤²à¥Ģ": 2911,
      "à¥¦": 2912,
      "Ġsim": 2913,
      "à´¿à´ªàµįà´ª": 2914,
      "à±Ģà°¸": 2915,
      "Ġsee": 2916,
      "value": 2917,
      "à¦¿à¦ª": 2918,
      "Ġdifferent": 2919,
      "mand": 2920,
      "à°·": 2921,
      "Ġcor": 2922,
      "ved": 2923,
      "Ġequ": 2924,
      "à¨¤à¨°": 2925,
      "Ġà¬ªà¬¾à¬ĩà¬ģ": 2926,
      "à²¾à²ķ": 2927,
      "Ġà°¡": 2928,
      "Ġà¦¥à§ĩà¦ķà§ĩ": 2929,
      "à§įà¦Ń": 2930,
      "Ġest": 2931,
      "à¬ĸ": 2932,
      "Ġself": 2933,
      "à¥ĭà¤¨": 2934,
      "ases": 2935,
      "à¤¿à¤¯à¥ĭà¤Ĥ": 2936,
      "à´¡": 2937,
      "Ġà¤ªà¥įà¤°à¤¤": 2938,
      "ared": 2939,
      "Ġà´¦": 2940,
      "Ġfact": 2941,
      "à±Ĥà°°": 2942,
      "Ġloc": 2943,
      "Ġà°Ł": 2944,
      "ĠAn": 2945,
      "Ġà°ļà±Ĩ": 2946,
      "âĪĴ": 2947,
      "à°¾à°Ĺ": 2948,
      "10": 2949,
      "Ġà¦¸à¦®à¦¯à¦¼": 2950,
      "à§ĩà¦¦": 2951,
      "à¥ĭà¤ľ": 2952,
      "Ġà¤®à¥įà¤¹": 2953,
      "à¥ĩà¤ĸ": 2954,
      "à¯Īà®µ": 2955,
      "àŃįà¬®": 2956,
      "à¦¯à¦¼à¦¾": 2957,
      "Ġduring": 2958,
      "Ġà²¹à³Ĩ": 2959,
      "Ġà¤µà¤°à¥įà¤": 2960,
      "à¨¹à©ģ": 2961,
      "à¦ŀ": 2962,
      "Ġbecause": 2963,
      "Ġpub": 2964,
      "à§°à¦¤": 2965,
      "Ġ12": 2966,
      "à²Ĺà²³à²¨à³įà²¨à³ģ": 2967,
      "à´¾àµ¼": 2968,
      "Ġà¤ħà¤§à¤¿à¤ķ": 2969,
      "land": 2970,
      "à²¾à²Ĺà²¿à²¦à³Ĩ": 2971,
      "Ġref": 2972,
      "à°¤à±įà°¤": 2973,
      "ven": 2974,
      "Ġà¤¸à¤ķ": 2975,
      "Ġà¦¤à¦¿à¦¨": 2976,
      "Ġà°¤à±Ĩà°²": 2977,
      "Ġà´ļàµĨà´¯": 2978,
      "Ġà¨¸à¨°": 2979,
      "Ġà¨ľà¨¼": 2980,
      "à²¿à²°à³ģà²µ": 2981,
      "àŃĭà¬²": 2982,
      "Ġevery": 2983,
      "à¦¾à¦²à§ĩ": 2984,
      "à´ķàµįà´ķàµį": 2985,
      "Ġbel": 2986,
      "à´·": 2987,
      "à¦ķà§°": 2988,
      "à´¿à´¨àµį": 2989,
      "à´ļàµįà´ļ": 2990,
      "Ġà´Ĺ": 2991,
      "à«įàª®": 2992,
      "Ġappro": 2993,
      "Ġà¦Ĩà¦ª": 2994,
      "Ġà¦ķà¦¥à¦¾": 2995,
      "Ġà¬§": 2996,
      "Ġà§§à§": 2997,
      "à«ĥ": 2998,
      "¯àŃįàŃŁ": 2999,
      "ology": 3000,
      "===": 3001,
      "Ġdata": 3002,
      "à³ĩà²³": 3003,
      "à°Ĥà°¦à°¿": 3004,
      "à¦®à¦¾à¦¨": 3005,
      "imes": 3006,
      "à¬ł": 3007,
      "Ġmade": 3008,
      "Ġeach": 3009,
      "****": 3010,
      "à¯įà®¯": 3011,
      "Ġà¨ķà©ģ": 3012,
      "à¦¾à¦Ľ": 3013,
      "à¬¾à¬¦": 3014,
      "à±Ĥà°¡": 3015,
      "Ġhealth": 3016,
      "ork": 3017,
      "Ġà¤Ĺà¤¯à¤¾": 3018,
      "à¤ĺ": 3019,
      "à³Ĩà²²": 3020,
      "Ġeffect": 3021,
      "à¥Īà¤Ĥ": 3022,
      "à¦¾à¦ķà§ĩ": 3023,
      "à°¾à°¸": 3024,
      "Ġshow": 3025,
      "der": 3026,
      "à±įà°¥": 3027,
      "à¥įà¤¯à¤¾à¤¤": 3028,
      ",\"": 3029,
      "ize": 3030,
      "àŃĩà¬¶": 3031,
      "à©ĩà¨Ĥ": 3032,
      "ss": 3033,
      "à§ģà¦¬": 3034,
      "ont": 3035,
      "Ġsign": 3036,
      "Ġnow": 3037,
      "à¨¾à¨¦": 3038,
      "Ġà¬¸à¬¹": 3039,
      "Ġà¦¬à§°": 3040,
      "Ġàª¹à«ĭ": 3041,
      "à¥ģà¤³": 3042,
      "ethod": 3043,
      "àŃĩà¬¤": 3044,
      "à®©à¯įà®©": 3045,
      "à°¦à±įà°": 3046,
      "ined": 3047,
      "ability": 3048,
      "Ġknow": 3049,
      "Ġbefore": 3050,
      "àª¾àª¨à«Ģ": 3051,
      "chool": 3052,
      "àª¤à«Ģ": 3053,
      "à«ĭàªķ": 3054,
      "Ġright": 3055,
      "à°¾à°¨à°¿à°ķà°¿": 3056,
      "à«įàª¥": 3057,
      "Ġà²¹à³Ĭ": 3058,
      "arm": 3059,
      "à©Ĥà¨°": 3060,
      "the": 3061,
      "à¤¾à¤¶": 3062,
      "Ġà¬ıà¬¬": 3063,
      "Ġà¤Ĩà¤¹à¥ĩà¤¤": 3064,
      "à¦¿à¦Ľà¦¿à¦²": 3065,
      "oun": 3066,
      "·à¥įà¤Ł": 3067,
      "à§Ģà¦¤": 3068,
      "Ġwhile": 3069,
      "à¯ģà®ķà®¿à®±": 3070,
      "àªĩ": 3071,
      "iter": 3072,
      "Ġà°ªà°°": 3073,
      "Ġdoes": 3074,
      "Ġà¦¬à§įà¦¯à¦": 3075,
      "à©ĭà¨ķ": 3076,
      "Ġpop": 3077,
      "à´¾à´¸": 3078,
      "à¦°à§ĩ": 3079,
      "Ġrun": 3080,
      "àªĽ": 3081,
      "à¥ģà¤¸": 3082,
      "à°¿à°¸": 3083,
      "ism": 3084,
      "Ġprocess": 3085,
      "hip": 3086,
      "Ġà¦ħà¦Ń": 3087,
      "Ġà¦¸à¦®à§įà¦ª": 3088,
      "à¦¾à¦¥": 3089,
      "à´¾à´±": 3090,
      "à°¾à°ľ": 3091,
      "ĠIf": 3092,
      "à±ĩà°¶": 3093,
      "à¦¿à¦ľ": 3094,
      "Ġàªīàªª": 3095,
      "à¦¡": 3096,
      "ene": 3097,
      "Ġà¤²à¤Ĺ": 3098,
      "Ġà¬°à¬¾à¬ľ": 3099,
      "Ġagainst": 3100,
      "à¤¤à¥įà¤°": 3101,
      "Ġàª¸àª¾àª¥à«ĩ": 3102,
      "Ġrep": 3103,
      "Ġà¬®àŃģà¬": 3104,
      "àŃįà¬²": 3105,
      "à³Ĭà²Ĥà²¡": 3106,
      "ature": 3107,
      "Ġà®īà®³à¯įà®³": 3108,
      "rent": 3109,
      "à§Ģà¦¨": 3110,
      "ght": 3111,
      "à¬¿à¬ª": 3112,
      "Ġreport": 3113,
      "à¥Ģà¤®": 3114,
      "Ġà¤ķà¤°à¤£à¥įà¤¯à¤¾à¤": 3115,
      "àŃ¦": 3116,
      "à¥įà¤ļ": 3117,
      "à´°àµį": 3118,
      "rac": 3119,
      "ection": 3120,
      "à²ĸ": 3121,
      "à°¾à°¯à°¿": 3122,
      "à§ģà¦²à¦¿": 3123,
      "Ġext": 3124,
      "à®®à®¾à®ķ": 3125,
      "à¦°à¦¾": 3126,
      "iron": 3127,
      "cond": 3128,
      "Ġfound": 3129,
      "Ġà§¨": 3130,
      "àªĤàª¦": 3131,
      ">>": 3132,
      "à¨Ŀ": 3133,
      "à¬¨à¬¾": 3134,
      "Ġcomple": 3135,
      "Ġà¦Ĩà¦®à¦¿": 3136,
      "ĠĠĠĠĠĠĠĠĠĠĠĠĠĠĠĠĠĠĠĠĊ": 3137,
      "Ġà¦¨à¦¿à¦ľ": 3138,
      "str": 3139,
      "àŃĭà¬Ĺ": 3140,
      "ai": 3141,
      "à¨£à¨¾": 3142,
      "àµģà´ķà´³": 3143,
      "Ġà®ĩà®¤": 3144,
      "Ġwater": 3145,
      "Ġà¦ħà¦§": 3146,
      "à¥ĩà¤¸": 3147,
      "à²°à²¿à²¸": 3148,
      "Ġàª¡": 3149,
      "Ġpric": 3150,
      "Ġà®®à¯ģà®": 3151,
      "ished": 3152,
      "à²¾à²¤": 3153,
      "à¥ħ": 3154,
      "Ġà¬Ł": 3155,
      "à¨¨à¨¾": 3156,
      "Ġfunction": 3157,
      "Ġàªªà«ĭ": 3158,
      "ĠâĢĵ": 3159,
      "à°¿à°®": 3160,
      "Ġà®ªà¯Ĩ": 3161,
      "àª¾àªĩ": 3162,
      "à²ļà³įà²ļ": 3163,
      "Ġà¨¦à¨¿à©±": 3164,
      "à¤Ĥà¤¬": 3165,
      "àŃĩà¬³": 3166,
      "à¤¾à¤¨à¤¾": 3167,
      "Ġà´¨à´Ł": 3168,
      "Ġrese": 3169,
      "Ġstand": 3170,
      "Ġà°ļà±ĩà°¸": 3171,
      "Ġcalled": 3172,
      "à´¬": 3173,
      "à¯įà®£": 3174,
      "à±ģà°¡à±ģ": 3175,
      "à¯Īà®ª": 3176,
      "à¥Ĥà¤°": 3177,
      "Ġeconom": 3178,
      "Ġà°ķà±Ĭ": 3179,
      "à¥ģà¤ĸ": 3180,
      "Ġexample": 3181,
      "Ġway": 3182,
      "Ġà°ħà°¨": 3183,
      "à´Ĺ": 3184,
      "ude": 3185,
      "Ġà¦¬à§įà¦¯": 3186,
      "à«įàª²": 3187,
      "Ġàªķàª¹": 3188,
      "Ġà²ĩà²¦": 3189,
      "à§įà¦¯à§ĩ": 3190,
      "à§ģà¦Ł": 3191,
      "iven": 3192,
      "à§ģà¦ķà§įà¦¤": 3193,
      "à´Ń": 3194,
      "ĠHow": 3195,
      "vent": 3196,
      "à¤¸à¥Ģ": 3197,
      "Ġrate": 3198,
      "oci": 3199,
      "à§°à¦¿": 3200,
      "à¦¾à§±": 3201,
      "Ġfam": 3202,
      "à°Ĥà°Ĺ": 3203,
      "à´Ļàµįà´ķ": 3204,
      "Ġrequ": 3205,
      "Ġà¨¤à©ģ": 3206,
      "ivid": 3207,
      "Ġboth": 3208,
      "à³ĩà²µ": 3209,
      "àŃĩà¬ķ": 3210,
      "Ġà®ħà®°": 3211,
      "à®±à¯įà®ª": 3212,
      "Ġà¨ĩà¨ķ": 3213,
      "Ġà¬°à¬¹": 3214,
      "Ġà®Ĵà®°à¯ģ": 3215,
      "Ġà°¸à°®": 3216,
      "cur": 3217,
      "Ġserv": 3218,
      "Ġà¦ħà¦¸à¦®": 3219,
      "àµģà´ķàµįà´ķ": 3220,
      "Ġàª¤à«ĩàª": 3221,
      "Ġlead": 3222,
      "àª¾àªĸ": 3223,
      "Ġvery": 3224,
      "à®¨": 3225,
      "ather": 3226,
      "Ġà¤¸à¤¾à¤¥": 3227,
      "à¦¨à¦¿": 3228,
      "Ġà°ªà±Ĩ": 3229,
      "Ġmem": 3230,
      "Ġthree": 3231,
      "Ġpartic": 3232,
      "à¦ķà¦¾à¦°": 3233,
      "Ġgrow": 3234,
      "à¨¨à©Ģ": 3235,
      "à®¿à®´": 3236,
      "from": 3237,
      "à±Ģà°°": 3238,
      "à®¾à®Łà¯įà®Ł": 3239,
      "ience": 3240,
      "Ġà°«": 3241,
      "Ġca": 3242,
      "Ġà®®à®±à¯įà®±": 3243,
      "Ġpoint": 3244,
      "Ġmuch": 3245,
      "Ġlook": 3246,
      "Ġfil": 3247,
      "Ġà°ķà±ĭ": 3248,
      "Ġlist": 3249,
      "alse": 3250,
      "Ġà²ķà²¾à²°": 3251,
      "à§ĭà¦²": 3252,
      "à¯įà®¤à¯įà®¤": 3253,
      "ute": 3254,
      "Ġà¤¸à¥ģà¤°": 3255,
      "ĠAr": 3256,
      "Ġà¤¨à¤¿": 3257,
      "for": 3258,
      "Ġinf": 3259,
      "à¥ģà¤ª": 3260,
      "Ġop": 3261,
      "Ġiss": 3262,
      "à¨¾à¨ķ": 3263,
      "à§ĭà¦°": 3264,
      "Ġà¬īà¬ª": 3265,
      "à²¬à³ĩà²ķ": 3266,
      "Ġàª¹àª¤à«Ģ": 3267,
      "Ġ``": 3268,
      "à¤µà¤¾": 3269,
      "àŃĭà¬ķ": 3270,
      "air": 3271,
      "li": 3272,
      "Ġrisk": 3273,
      "àª¾àª¡": 3274,
      "Ġhand": 3275,
      "à³ģà²¤à³įà²¤à²¦à³Ĩ": 3276,
      "Ġàª¹àª¤àª¾": 3277,
      "Ġav": 3278,
      "Ġà¬«": 3279,
      "Ġà¦¬à¦¿à¦·": 3280,
      "Ġown": 3281,
      "Ġà¤¹à¥ĩ": 3282,
      "à²µà²¾à²Ĺà²¿": 3283,
      "à©±à¨¸": 3284,
      "Ġstart": 3285,
      "ters": 3286,
      "to": 3287,
      "à¥ģà¤³à¥ĩ": 3288,
      "àª²à«Ģ": 3289,
      "Ġcre": 3290,
      "à¦¿à¦·": 3291,
      "à´®àµįà´®": 3292,
      "Ġà¤®à¥įà¤¹à¤£": 3293,
      "à®¾à®£": 3294,
      "Ġà¬¹àŃĩà¬¬": 3295,
      "man": 3296,
      "Ġà¤Ľ": 3297,
      "Ġà¦²à¦¾à¦Ĺ": 3298,
      "à®¿à®®": 3299,
      "à°¦à°¿": 3300,
      "àµįà´±àµįà´±": 3301,
      "tp": 3302,
      "àŃģà¬²": 3303,
      "Ġterm": 3304,
      "meric": 3305,
      "Ġ)": 3306,
      "à®¤à¯į": 3307,
      "à©°à¨®": 3308,
      "à¤¾à¤¯à¤¾": 3309,
      "à¬ķà¬¾à¬°": 3310,
      "gram": 3311,
      "Ġ199": 3312,
      "à«Ģàªı": 3313,
      "Ġà´ħà´µ": 3314,
      "Ġmarket": 3315,
      "ulation": 3316,
      "à¤¿à¤Ł": 3317,
      "à®©à®°à¯į": 3318,
      "à¨¾à¨°à©ĩ": 3319,
      "Ġprovid": 3320,
      "à¨¾à¨°à©Ģ": 3321,
      "Ġcap": 3322,
      ".\\": 3323,
      "Ġà¨¯": 3324,
      "Ġàª¯": 3325,
      "à¤°à¥įà¤£": 3326,
      "à«įàª°à«Ģ": 3327,
      "Ġà®Ł": 3328,
      "Ġà¦ķà§°à§ĩ": 3329,
      "Ġà¤¤à¥ĩ": 3330,
      "ially": 3331,
      "gy": 3332,
      "Ġinformation": 3333,
      "àµĩà´·": 3334,
      "Ġbr": 3335,
      "Ġdid": 3336,
      "Ġà®ķà®Ł": 3337,
      "Ġàª¸àªĤ": 3338,
      "à¯įà®¨à¯įà®¤": 3339,
      "Ġpay": 3340,
      "Ġà´ªà´°": 3341,
      "Ġà¨Ĳ": 3342,
      "This": 3343,
      "Ġà¬¨à¬¿à¬": 3344,
      "à¬¿à¬ģ": 3345,
      "Ġgood": 3346,
      "à¦ĥ": 3347,
      "Ġà®¤à®¿à®°": 3348,
      "Ġ30": 3349,
      "atch": 3350,
      "à°¾à°ª": 3351,
      "ving": 3352,
      "à´ŀàµįà´ŀ": 3353,
      "à§ĩà¦¹": 3354,
      "Ġà´ªà´±": 3355,
      "à¦¦à§ĩà¦°": 3356,
      "Ġà´±": 3357,
      "àª§à«Ģ": 3358,
      "viron": 3359,
      "Ġconf": 3360,
      "Ġà¦ªà§įà¦°à¦¤": 3361,
      "à±įà°¡": 3362,
      "àª¤àª¿": 3363,
      "Ġà¨§": 3364,
      "Ġlife": 3365,
      "àª¯àª¾": 3366,
      "àª¾àªª": 3367,
      "ĠàŃ§àŃ": 3368,
      "àª¾àª¹": 3369,
      "Ġà¨ķà¨¾à¨°": 3370,
      "Ġà®®à¯ĩ": 3371,
      "Ġàª¨àª¥à«Ģ": 3372,
      "à³Į": 3373,
      "à¤¦à¥Ģ": 3374,
      "Ġà®¤à¯ĩ": 3375,
      "à§Ĥà§°": 3376,
      "à©Įà¨°": 3377,
      "az": 3378,
      "Ġà²¨à³Ģà²¡": 3379,
      "Ġà¤¸à¥įà¤¥": 3380,
      "ries": 3381,
      "ale": 3382,
      "à¥ĭà¤Ł": 3383,
      "Ġà¤¸à¤°à¥įà¤µ": 3384,
      "à¦¾à¦¨à§ĩ": 3385,
      "àµĥ": 3386,
      "à®¿à®ļ": 3387,
      "Ġà®ķà¯ģà®±": 3388,
      "Ġà¦¦à§ĩà¦¶": 3389,
      "Ġà¦ķà¦¿": 3390,
      "àª°à«Ĥ": 3391,
      "Ġprop": 3392,
      "à¤¾à¤ļà¥įà¤¯à¤¾": 3393,
      "à¤Ĥà¤¤à¤°": 3394,
      "Ġà¨¤à¨¾à¨Ĥ": 3395,
      "àŃĥà¬¤": 3396,
      "à¤¾à¤¡": 3397,
      "à¤¾à¤ı": 3398,
      "à¬¾à¬ı": 3399,
      "Ġà¦¬à¦¾": 3400,
      "ĠEx": 3401,
      "Ġimp": 3402,
      "àµģà´ķà´¯": 3403,
      "Ġà°Ĵà°ķ": 3404,
      "Ġà²Ĩà²¦": 3405,
      "Ġà¦Ĩà¦¸": 3406,
      "iness": 3407,
      "à²¸à³į": 3408,
      "à¯Īà®¯à¯ģà®®à¯į": 3409,
      "Ġà¦Ĩà¦¬": 3410,
      "ason": 3411,
      "Ġà¤ķà¤®": 3412,
      "à¦ķà¦¾": 3413,
      "args": 3414,
      "Ġhum": 3415,
      "ames": 3416,
      "à¤µà¤¿à¤": 3417,
      "à³įà²¬": 3418,
      "à´¾à´Ĥ": 3419,
      "à¯Īà®ªà¯įà®ª": 3420,
      "Ġdown": 3421,
      "àª¤à«ĩ": 3422,
      "à°¾à°¡à±ģ": 3423,
      "à¬¡": 3424,
      "att": 3425,
      "Ġàªķàª¾àª°": 3426,
      "à²¾à²¡": 3427,
      "Ġgr": 3428,
      "Ġcontin": 3429,
      "à¦¤à§ĭ": 3430,
      "osed": 3431,
      "Ġà´Ń": 3432,
      "Ġà¨Ĩà¨ªà¨£à©ĩ": 3433,
      "ified": 3434,
      "à¦¿à¦Ĥ": 3435,
      "àªķà«įàª·": 3436,
      "arge": 3437,
      "à¬¿à¬¸": 3438,
      "à¥ĥà¤¤": 3439,
      "Ġà¦¨à¦¾à¦®": 3440,
      "Ġvi": 3441,
      "Ġlevel": 3442,
      "Ġà¨ķà¨¿à¨¸": 3443,
      "ĠIs": 3444,
      "Ġà¤µà¤¹": 3445,
      "à®¿à®©à¯įà®±": 3446,
      "àŃįà¬ķ": 3447,
      "à¤£à¥ĩ": 3448,
      "à¦ķà§įà¦¤": 3449,
      "à®°à¯įà®ķà®³à¯į": 3450,
      "Ġtechn": 3451,
      "amp": 3452,
      "à±ģà°Ĥà°¡": 3453,
      "ness": 3454,
      "à¦ķà¦¾à§°": 3455,
      "Ġà´Ĵà´°àµģ": 3456,
      "à¤¦à¤¾à¤°": 3457,
      "Ġart": 3458,
      "à³Ĩà²Ĺà³Ĩ": 3459,
      "Ġà¦Ĩà¦¨": 3460,
      "Ġgroup": 3461,
      "à±ĩà°ķ": 3462,
      "Ġà®ļà¯Ĩà®¯à¯įà®¤": 3463,
      "à´¨àµį": 3464,
      "à¤Ĥà¤§": 3465,
      "oo": 3466,
      "à®¾à®±": 3467,
      "Ġà®ªà®¿à®°": 3468,
      "à¬¾à¬°àŃģ": 3469,
      "à±įà°¨à°¿": 3470,
      "à¤¶à¥Ģ": 3471,
      "à§ĩà¦ľ": 3472,
      "à¦¦à§įà¦§": 3473,
      "ury": 3474,
      "ĠAmeric": 3475,
      "Ġinde": 3476,
      "Ġval": 3477,
      "à¨¿à¨µ": 3478,
      "Ġlast": 3479,
      "à´¾à´®": 3480,
      "à®¿à®ķà®³": 3481,
      "ession": 3482,
      "Ġusing": 3483,
      "à¦¿à¦ĵ": 3484,
      "uss": 3485,
      "àµĤà´Ł": 3486,
      "à²¾à²£": 3487,
      "à¬ŀ": 3488,
      "Ġà¦¨à¦¾à¦ĩ": 3489,
      "à³ĭà²Ĺ": 3490,
      "à°Ĺà°¾": 3491,
      "à¦¯à¦¼à§ĩ": 3492,
      "Ġà¦ķà§įà¦·": 3493,
      "à²¿à²¸à²¿à²¦": 3494,
      "Ġtake": 3495,
      "Ġcar": 3496,
      "Ġname": 3497,
      "à¤¿à¤Ĥà¤Ĺ": 3498,
      "Ġ11": 3499,
      "Ġdirect": 3500,
      "ream": 3501,
      "à°¾à°¡": 3502,
      "àµĨà´Łàµįà´Ł": 3503,
      "à«įàª¸": 3504,
      "Ġ->": 3505,
      "Ġincluding": 3506,
      "à´¿à´¸": 3507,
      "à¤£à¤¾à¤°": 3508,
      "à«ĩàª¸": 3509,
      "oh": 3510,
      "Ġfund": 3511,
      "à¥įà¤°à¤®": 3512,
      "Ġreal": 3513,
      "Ġà¦¦à¦¿à¦¨": 3514,
      "ave": 3515,
      "àŃįà¬¨": 3516,
      "Ļà¯įà®ķ": 3517,
      "Ġà´«": 3518,
      "Ġread": 3519,
      "à§ĩà¦Ľà§ĩà¦¨": 3520,
      "Ġà®ªà®Ł": 3521,
      "Ġà°µà±įà°¯": 3522,
      "Ġday": 3523,
      "à´ķà´°": 3524,
      "àŃĮ": 3525,
      "Ġposs": 3526,
      "àŃģà¬¬": 3527,
      "à°Ĥà°ļ": 3528,
      "ancial": 3529,
      "Ġà¨µà¨¾à¨²": 3530,
      "ious": 3531,
      "à³Ĥà²°": 3532,
      "à¤¾à¤ĸ": 3533,
      "à§Ĥà¦ª": 3534,
      "à¤Ĩ": 3535,
      "à¨¾à¨ª": 3536,
      "à®¾à®ķà¯įà®ķ": 3537,
      "à±Ģà°": 3538,
      "Ġà®®à®±à¯įà®±à¯ģà®®à¯į": 3539,
      "à°²à±į": 3540,
      "Ġà¬ķà¬¾à¬°": 3541,
      "Ġà´Ł": 3542,
      "Ġà¤¹à¥ĭà¤¤à¤¾": 3543,
      "ired": 3544,
      "àµģà´ª": 3545,
      "Ġdi": 3546,
      "with": 3547,
      "àŃĩà¬¨": 3548,
      "ĠWe": 3549,
      "Ġsmall": 3550,
      "Ġà´¯": 3551,
      "Ġgl": 3552,
      "Ġdistrib": 3553,
      "Ġà¦ıà¦¬à¦Ĥ": 3554,
      "ision": 3555,
      "Ġ16": 3556,
      "à¦¿à¦¹": 3557,
      "ised": 3558,
      "à¥įà¤¯à¤¾à¤ļ": 3559,
      "Ġà¤µà¤¿à¤¶": 3560,
      "Ġgener": 3561,
      "Ġà¬¸à¬Ĥ": 3562,
      "Ġà¤¹à¥ĭà¤¤à¥ĩ": 3563,
      "Ġconst": 3564,
      "Ġà¬¬àŃįàŃŁ": 3565,
      "bers": 3566,
      "Ġà®¯": 3567,
      "Ġà¥§": 3568,
      "Ġteam": 3569,
      "Ġà¬ķà¬¹": 3570,
      "Ġà°¨à°¿à°°": 3571,
      "à§ģà¦¹": 3572,
      "Ġà¦¹à§Īà¦Ľà§ĩ": 3573,
      "Ġà¦¬à¦¹": 3574,
      "à¥ĩà¤³": 3575,
      "à¤Ńà¥Ģ": 3576,
      "Ġà¦®à§ģà¦ĸ": 3577,
      "ording": 3578,
      "Ġ_": 3579,
      "Ġà®ĩà®°à¯ģà®ķà¯įà®ķ": 3580,
      "Ġocc": 3581,
      "à²µà²°": 3582,
      "à¦¿à¦ķà§ĩ": 3583,
      "à´®à´¾à´¯": 3584,
      "Ġà²ªà²°": 3585,
      "Ġpower": 3586,
      "be": 3587,
      "Ġmust": 3588,
      "Ġà²¬à³Ĩ": 3589,
      "à¤Ĺà¤¾": 3590,
      "Ġà¦ħà¦¬": 3591,
      "à¨ħ": 3592,
      "Ġà´ªàµĭ": 3593,
      "à©°à¨ľ": 3594,
      "àµĨà´¨àµįà´¨àµį": 3595,
      "Ġà¤¬à¤¨": 3596,
      "à¨¿à¨¸à¨¼": 3597,
      "ploy": 3598,
      "à¬°àŃįà¬¬": 3599,
      "Ġà¨ľà¨¾à¨£": 3600,
      "à§Ĥà¦°": 3601,
      "à©ĩà¨Ĺ": 3602,
      "ody": 3603,
      "Ġcommun": 3604,
      "à¤ħ": 3605,
      "Ġà¬®à¬¹": 3606,
      "®à¬¾à¬¨": 3607,
      "à¨²à©Ģ": 3608,
      "à´¿à´ķà´³": 3609,
      "nce": 3610,
      "à´ľ": 3611,
      "à§¨": 3612,
      "à§ĭà¦Ł": 3613,
      "âĢĵ": 3614,
      "Ġfind": 3615,
      "Ġà¬ľà¬£": 3616,
      "ister": 3617,
      "ĠAnd": 3618,
      "à¦¸à§įà¦¤": 3619,
      "ency": 3620,
      "Ġallow": 3621,
      "àŃĩà¬ĩ": 3622,
      "à¦¿à¦ĸ": 3623,
      "Ġmain": 3624,
      "Ġà¦¬à¦¾à¦¬à§ĩ": 3625,
      "ĠĠĠĠĠĠĠĠĠĠĠĠĠĠĠĠĠĠĠĠĠĠĊ": 3626,
      "frac": 3627,
      "à²¾à²ª": 3628,
      "Ġcase": 3629,
      "rol": 3630,
      "Ġ14": 3631,
      "Ġà²¸à²®": 3632,
      "âĢį": 3633,
      "à³įà²§": 3634,
      "à©°à¨¤": 3635,
      "url": 3636,
      "Ġà²¨à²¿à²°": 3637,
      "Ġlo": 3638,
      "Ġà¬¤à¬¾à¬ĻàŃįà¬ķ": 3639,
      "à¤ĥ": 3640,
      "Ġà¨¬à¨£": 3641,
      "Ġgiven": 3642,
      "Ġà¤ľà¤¿à¤¸": 3643,
      "Ġà¦¯à¦¾à¦¯à¦¼": 3644,
      "à¦ĺ": 3645,
      "Ġke": 3646,
      "angu": 3647,
      "Ġà¦ķà¦®": 3648,
      "ĠRes": 3649,
      "iqu": 3650,
      "àª°à«ĩ": 3651,
      "àµĩà´¶": 3652,
      "ination": 3653,
      "Ġ$": 3654,
      "à§įà¦ŀ": 3655,
      "Ġproduct": 3656,
      "Ġperson": 3657,
      "à¥Ģà¤µ": 3658,
      "à«įàªª": 3659,
      "Ġàª®à«ģ": 3660,
      "Ġà®¤à¯Ĩà®°": 3661,
      "ains": 3662,
      "à²Ĥà²¤à³Ĩ": 3663,
      "à¨¾à¨Ĺ": 3664,
      "Ġà¬ªàŃįà¬°à¬¤": 3665,
      "Ġà²ħà²µà²°": 3666,
      "àŃĩà¬īà¬": 3667,
      "Ġ17": 3668,
      "ĠLe": 3669,
      "iod": 3670,
      "ran": 3671,
      "à²¥": 3672,
      "ĠThey": 3673,
      "à´£à´Ĥ": 3674,
      "Ġà¤Ĳ": 3675,
      "à«Ī": 3676,
      "Ġaround": 3677,
      "à¥ĭà¤ª": 3678,
      "Ġ13": 3679,
      "à²ķà²°": 3680,
      "Ġà¨ķà©Ģà¨¤à©Ģ": 3681,
      "à©ĩà¨¸à¨¼": 3682,
      "à²µà²¾à²Ĺ": 3683,
      "Ġexper": 3684,
      "àª¸à«įàª¤": 3685,
      "à¨°à¨¾": 3686,
      "Ġann": 3687,
      "à®ªà¯į": 3688,
      "à¦¾à¦Ļ": 3689,
      "Ġpass": 3690,
      "à´°àµįà´": 3691,
      "à§ģà¦ĩ": 3692,
      "à¨®à©Ģ": 3693,
      "à¬¾à¬¹à¬¿à¬ģ": 3694,
      "Ġà¦¬à¦¿à¦Ń": 3695,
      "Ġà¤ķà¤¹à¤¾": 3696,
      "à¤¾à¤¤à¥įà¤°": 3697,
      "Ġimportant": 3698,
      "ty": 3699,
      "à®°à¯įà®ķà®³": 3700,
      "à®¿à®²à¯įà®²": 3701,
      "Ġà¤¸à¤°à¤ķà¤¾à¤°": 3702,
      "à¥ĭà¤°": 3703,
      "Ġà§°à¦¾à¦ľ": 3704,
      "Ġx": 3705,
      "Ġer": 3706,
      "An": 3707,
      "Ġschool": 3708,
      "à¬¿à¬³": 3709,
      "à´Ļàµįà´Ļàµ¾": 3710,
      "way": 3711,
      "Ġà¤ķà¤¾à¤®": 3712,
      "à®ļà¯įà®ļ": 3713,
      "val": 3714,
      "Ġà¨¸à©ģ": 3715,
      "class": 3716,
      "Ġsecond": 3717,
      "à¨¾à¨ħ": 3718,
      "à²¾à²Ł": 3719,
      "Ġclass": 3720,
      "à§ĩà¦Ľà¦¿à¦²": 3721,
      "à¬¿à¬°àŃĩ": 3722,
      "inal": 3723,
      "Ġcour": 3724,
      "Ġà¤¸à¤¾à¤®": 3725,
      "Ġpri": 3726,
      "Ġà®µà®´": 3727,
      "ĠàŃ¨": 3728,
      "à¦¤à§įà¦¯": 3729,
      "Ġà´ħà´¤": 3730,
      "Ġinc": 3731,
      "Ġ25": 3732,
      "ĠBut": 3733,
      "à¯ģà®®à¯įà®ª": 3734,
      "ya": 3735,
      "Ġà®ªà¯Ĭ": 3736,
      "à®¿à®¯à®¿à®²à¯į": 3737,
      "à¤¾à¤ļà¥Ģ": 3738,
      "Ġà¦ıà¦Łà¦¾": 3739,
      "opt": 3740,
      "Ġà¦ļà¦²": 3741,
      "Ġà®ķà¯Ĭà®£à¯įà®Ł": 3742,
      "à²²à³Ĩ": 3743,
      "Ġà¦ıà¦ĸà¦¨": 3744,
      "Ġàª®àª¹": 3745,
      "Ġsupport": 3746,
      "Ġoften": 3747,
      "Ġmethod": 3748,
      "itive": 3749,
      "à°¤à±ĭ": 3750,
      "à§ĭà§±à¦¾à§°": 3751,
      "àŃģà¬£": 3752,
      "Ġà¦ķà§ĭà¦¨à§ĭ": 3753,
      "pre": 3754,
      "à¬ĻàŃįà¬Ĺ": 3755,
      "Ġconsid": 3756,
      "Ġsol": 3757,
      "Ġà¦¨à¦¿à¦°": 3758,
      "Ġà¦Ĩà¦ľ": 3759,
      "default": 3760,
      "à°¿à°¯à±ģ": 3761,
      "Ġà¦ł": 3762,
      "ety": 3763,
      "ull": 3764,
      "à¥įà¤¯à¤¾à¤¨": 3765,
      "Ġà°µà±Ĩ": 3766,
      "Ġà¬ķà¬°à¬¿à¬¬": 3767,
      "Ġà¦ķà¦¿à¦Ľ": 3768,
      "à§įà¦°à§Ģ": 3769,
      "Ġà®ĩà®°à¯ģà®¨à¯įà®¤": 3770,
      "Ġcountry": 3771,
      "à¤·à¥įà¤Ł": 3772,
      "Ġbus": 3773,
      "Ġarg": 3774,
      "à©±à¨Ł": 3775,
      "à®©à¯įà®±à¯ģ": 3776,
      "à§ĩà§±": 3777,
      "à¬¾à¬¶": 3778,
      "à®¾à®ļ": 3779,
      "à¦¾à¦Ń": 3780,
      "à§ĭà¦§": 3781,
      "àµĭà´Ĺ": 3782,
      "onse": 3783,
      "arn": 3784,
      "Ġà¤¹à¤®": 3785,
      "à±ĭà°Ĺ": 3786,
      "Ġstill": 3787,
      "Ġà¨²à©ĭà¨ķ": 3788,
      "àªľà«Ģ": 3789,
      "els": 3790,
      "Ġà¨®à¨¹": 3791,
      "à®¿à®°à¯ģà®¨à¯įà®¤": 3792,
      "ma": 3793,
      "Ġpos": 3794,
      "à©±à¨Ĺ": 3795,
      "Ġà¬ıà¬¬à¬Ĥ": 3796,
      "gg": 3797,
      "à³ģà²°": 3798,
      "à¤£à¥Ģ": 3799,
      "à¨Łà¨°": 3800,
      "Ġpolic": 3801,
      "Ġà¤¯à¤¾à¤Ĥà¤¨à¥Ģ": 3802,
      "Ġproble": 3803,
      "Ġà¦¤à¦¿à¦¨à¦¿": 3804,
      "à§įà¦¸": 3805,
      "Ġà®ħà®®": 3806,
      "Ġexpl": 3807,
      "àª¡à«Ģ": 3808,
      "ves": 3809,
      "ross": 3810,
      "àª¾àª¨à«ĩ": 3811,
      "ertain": 3812,
      "Ġpat": 3813,
      "Ġà²¸à²°": 3814,
      "à´¿à´ļàµįà´ļàµģ": 3815,
      "¢à¦¼": 3816,
      "Ġàªµàª§": 3817,
      "à¤¾à¤·à¥įà¤Ł": 3818,
      "à¬¾à¬§": 3819,
      "ke": 3820,
      "ann": 3821,
      "à®¿à®ķà®³à¯į": 3822,
      "à§ĩà¦ª": 3823,
      "ĠSc": 3824,
      "Ġtem": 3825,
      "Ġà´¹": 3826,
      "Ġà¨ķà¨¿à¨¹à¨¾": 3827,
      "akes": 3828,
      "Ġactiv": 3829,
      "à¤¿à¤ª": 3830,
      "outh": 3831,
      "àª°à«ĭ": 3832,
      "à³Ĭà²³à³įà²³": 3833,
      "à´§": 3834,
      "à¤°à¤¾": 3835,
      "Ġà¦¸à¦¹": 3836,
      "Ġelect": 3837,
      "Ġà¨¸à¨¨": 3838,
      "Ġà°ķà°¾à°°": 3839,
      "Ġà²¹à²¾à²Ĺ": 3840,
      "Ġredu": 3841,
      "Ġorgan": 3842,
      "Ġàªĵ": 3843,
      "à¨ķà©ĩ": 3844,
      "Ġà¬ķà¬°à¬¿": 3845,
      "Ġà®µà¯ĩà®£à¯įà®Ł": 3846,
      "\"]": 3847,
      "Ġà²¡": 3848,
      "à¦¨à§ĩà¦°": 3849,
      "à¤°à¥įà¤¤": 3850,
      "à´µàµģà´Ĥ": 3851,
      "à´¤àµįà´¤àµĨ": 3852,
      "à´¦àµįà´": 3853,
      "à°¾à°§": 3854,
      "àµģà´°": 3855,
      "Ġà¦ķà§ĩà¦¨": 3856,
      "Ġpercent": 3857,
      "à¤¿à¤ľ": 3858,
      "à°Ĥà°¤à±ĭ": 3859,
      "sc": 3860,
      "à¦Łà§ĭ": 3861,
      "à°¿à°¨à°¿": 3862,
      "ĵà¤Ĥ": 3863,
      "Ġà¦¸à¦¬": 3864,
      "atic": 3865,
      "Ġlim": 3866,
      "sh": 3867,
      "à©°à¨¦à¨°": 3868,
      "à´¿à´®": 3869,
      "Ġlaw": 3870,
      "à¤Ĥà¤¤à¥įà¤°": 3871,
      "à±ĩà°°": 3872,
      "Ġà²ħà²¦": 3873,
      "àª£à«ĩ": 3874,
      "omen": 3875,
      "Ġà¦ķà¦°à¦¾": 3876,
      "à«ĩàª²àª¾": 3877,
      "Ġobject": 3878,
      "Er": 3879,
      "ĠZ": 3880,
      "à±ĩà°¸": 3881,
      "Ġà®İà®©à¯įà®±à¯ģ": 3882,
      "Ġà²®à³Ĥ": 3883,
      "Ġmeas": 3884,
      "Ġà¤¥à¥Ģ": 3885,
      "Ġprogram": 3886,
      "ĠGo": 3887,
      "à¬·àŃįà¬Ł": 3888,
      "Ġà¦ķà§ĭ": 3889,
      "ium": 3890,
      "lished": 3891,
      "à¤¾à¤Ĥà¤¤": 3892,
      "Ġà¤¬à¤¾à¤¦": 3893,
      "à¤¾à¤ļà¤¾": 3894,
      "Ġà®®à¯ģà®Ł": 3895,
      "à¬¾à¬¨àŃįà¬¤": 3896,
      "Ġà¦ĩà¦¯à¦¼": 3897,
      "ĠHowever": 3898,
      "))": 3899,
      "àª¾àª¥à«Ģ": 3900,
      "Ġoper": 3901,
      "Ġà¤¦à¥įà¤µ": 3902,
      "à°¾à°¨à±įà°¨à°¿": 3903,
      "Ġà´ĵ": 3904,
      "Ġà¦Ĩà§°": 3905,
      "à²²à³į": 3906,
      "Ġàª®à«ĭ": 3907,
      "Ġà¤īà¤¨à¥įà¤¹": 3908,
      "Ġinfl": 3909,
      "Ġopen": 3910,
      "à¤¾à¤µà¤°": 3911,
      "à²¾à²§": 3912,
      "à°¸à±įà°¤": 3913,
      "Ġà®µà®¨à¯įà®¤": 3914,
      "ĠĠĠĠĠĠĠĠĠĠĠĠĠĠĠĠĠĠĠĠĠĠ": 3915,
      "py": 3916,
      "à¤¾à¤¨à¥Ģ": 3917,
      "Ġà¦ķà¦²": 3918,
      "à«įàª¯àª¾àª°à«ĩ": 3919,
      "Ġà¤¹à¥ĭà¤¤à¥Ģ": 3920,
      "à©ģà¨°à©Ĥ": 3921,
      "à¬¯": 3922,
      "Ġà¦ķà¦¾à¦°": 3923,
      "à±ģà°ª": 3924,
      "stand": 3925,
      "Ġà¦īà¦ł": 3926,
      "Ġhist": 3927,
      "ek": 3928,
      "ech": 3929,
      "Ġà¤²à¤¾à¤Ĺ": 3930,
      "itions": 3931,
      "à¤¦à¥ĩà¤¶": 3932,
      "àŃĭà¬Ł": 3933,
      "Ġtreat": 3934,
      "à¬°à¬¿": 3935,
      "à«ĩàª¨": 3936,
      "àª¯à«ĭ": 3937,
      "Ġà°ļà±ĩà°¯": 3938,
      "mon": 3939,
      "à§įà¦Ľ": 3940,
      "Ġà´¡": 3941,
      "Ġà¤¤à¤ķ": 3942,
      "Error": 3943,
      "Ġà¦Ńà¦¾à¦²": 3944,
      "ĠàªĨàªµà«Ģ": 3945,
      "Ġà¤ħà¤ªà¤¨à¥ĩ": 3946,
      "mit": 3947,
      "right": 3948,
      "à¤¡à¥ĩ": 3949,
      "Ġ*": 3950,
      "Ġà¨Ľ": 3951,
      "Ġgu": 3952,
      "à¤¾à¤Ĥà¤¨à¤¾": 3953,
      "Ġà°ħà°µ": 3954,
      "à±ĩà°µ": 3955,
      "Ġknown": 3956,
      "à´¿à´²àµģà´Ĥ": 3957,
      "àµģà´¨àµįà´¨à´¤àµį": 3958,
      "Ġ50": 3959,
      "Ġà´Ī": 3960,
      "Ġà¦Ĩà¦¦": 3961,
      "à³įà²¤à³ģ": 3962,
      "à®£à¯įà®£": 3963,
      "ajor": 3964,
      "Ġmillion": 3965,
      "Ġà¦ľà§Ģ": 3966,
      "Ġà¤®à¤¿à¤²": 3967,
      "Ġless": 3968,
      "Ġà®ķà¯ĭ": 3969,
      "ĠMin": 3970,
      "à¤°à¥įà¤¥": 3971,
      "Ġà®İà®©à¯įà®ª": 3972,
      "vironment": 3973,
      "à¥ĩà¤¡": 3974,
      "Ġà²¹à³ĩà²³": 3975,
      "Ġà®¤à¯Ĭà®Ł": 3976,
      "Ġland": 3977,
      "Ġtype": 3978,
      "Ġà¦¬à§ģà¦²à¦¿": 3979,
      "à¦¬à§ĭà§°": 3980,
      "Ġà¤ķà¥įà¤·": 3981,
      "iversity": 3982,
      "Ġà¦¤à¦¾à§°": 3983,
      "à¨¾à¨īà¨£": 3984,
      "à³įà²£": 3985,
      "eter": 3986,
      "à±įà°°à°®": 3987,
      "Ġà¨ħà¨¸": 3988,
      "à¥ĩà¤ľ": 3989,
      "Ġcurrent": 3990,
      "à´«": 3991,
      "Ġà¦¹à¦¬à§ĩ": 3992,
      "ization": 3993,
      "à¯Īà®ķà®³": 3994,
      "Ġpublic": 3995,
      "Ġtyp": 3996,
      "à¨¿à©°": 3997,
      "à´¾à´ľ": 3998,
      "Ġleg": 3999,
      "oney": 4000,
      "à¦¾à§°à¦¤": 4001,
      "à´¾à´¯à´¿à´°àµģà´¨àµįà´¨àµģ": 4002,
      "à´¾à´§": 4003,
      "Ġà´ªàµįà´°à´¤": 4004,
      "Ġwant": 4005,
      "ior": 4006,
      "Ġ_{": 4007,
      "Ġpur": 4008,
      "ternational": 4009,
      "ĠAct": 4010,
      "Ġ100": 4011,
      "ĠThere": 4012,
      "à«Ģàªĵ": 4013,
      "Ġà¦¹à¦ĩ": 4014,
      "Ġàªħàª®": 4015,
      "Ġsince": 4016,
      "ained": 4017,
      "Ġà¦īà¦¦": 4018,
      "Ġtrad": 4019,
      "à¤µà¥įà¤¹": 4020,
      "Ġà´ķàµĬ": 4021,
      "Ġcommon": 4022,
      "Ġeduc": 4023,
      "à±ĩà°Ł": 4024,
      "à¨Łà©Ģ": 4025,
      "à¤¤à¤¾à¤¤": 4026,
      "Ġà¨¦à©ģ": 4027,
      "Ġà¤¦à¤¿à¤¯à¤¾": 4028,
      "uro": 4029,
      "Ġà¨¬à¨¹à©ģ": 4030,
      "à³ģà²ķ": 4031,
      "Ġrequest": 4032,
      "à±Ģà°µ": 4033,
      "Ġà°ķà±Ĥà°¡": 4034,
      "à¦¿à¦ķà§įà¦·": 4035,
      "à§°à¦¾": 4036,
      "Ġsk": 4037,
      "ina": 4038,
      "Ġcle": 4039,
      "ify": 4040,
      "à°®à±įà°®": 4041,
      "à°¦à±įà°¦": 4042,
      "[\"": 4043,
      "Ġcare": 4044,
      "Ġà®¨à¯Ģ": 4045,
      "à§Ĥà¦²": 4046,
      "ds": 4047,
      "Ġà¦®à¦§": 4048,
      "àª¤àª¾àªĤ": 4049,
      "Ġchang": 4050,
      "à¬¿à¬ı": 4051,
      "Ġà¦¬à¦¿à¦¶à§įà¦¬": 4052,
      "ission": 4053,
      "à®©à¯Ī": 4054,
      "ĠAd": 4055,
      "à°¤à°¿": 4056,
      "à©°à¨¡": 4057,
      "à¯ģà®³à¯įà®³à®¤à¯ģ": 4058,
      ":`": 4059,
      "ception": 4060,
      "ĠUnited": 4061,
      "Ġà¦ľà¦¨à§įà¦¯": 4062,
      "line": 4063,
      "Ġwithout": 4064,
      "à§ģà¦ľ": 4065,
      "à§ĭà¦ª": 4066,
      "à²¤à²¿": 4067,
      "à¨²à¨¾": 4068,
      "àŃįà¬¸": 4069,
      "à°¿à°Ł": 4070,
      "à¦ªà§įà¦°": 4071,
      "àŃįà¬Ń": 4072,
      "Ġà¨¸à©°à¨": 4073,
      "Ġmonth": 4074,
      "}\\": 4075,
      "àµįà´ķ": 4076,
      "àª¹à«Ģ": 4077,
      "Ġperiod": 4078,
      "Ġbo": 4079,
      "ential": 4080,
      "à¬°àŃįà¬·": 4081,
      "Ġpresent": 4082,
      "Ġstandard": 4083,
      "SE": 4084,
      "ately": 4085,
      "Ġàª¤à«ĭ": 4086,
      "à¥ģà¤¤": 4087,
      "Ġà¨µà¨°": 4088,
      "à¤®à¤§à¥įà¤¯à¥ĩ": 4089,
      "Ġà¤īà¤¤": 4090,
      "Ġà¦²à§ĭà¦ķ": 4091,
      "à¦ī": 4092,
      "Ġaff": 4093,
      "à±ĭà°µ": 4094,
      "Ġà²ķà³Ĭ": 4095,
      "à¬¿à¬®": 4096,
      "Ġà®¨à®¿à®²": 4097,
      "Ġ&": 4098,
      "à¦¾à¦·": 4099,
      "à¤Ĺà¥Ģ": 4100,
      "Ġoffic": 4101,
      "à®¿à®ª": 4102,
      ".,": 4103,
      "Ġmult": 4104,
      "à©ĭà¨°": 4105,
      "à«ģàª°": 4106,
      "àŃĢàŃŁ": 4107,
      "Ġà°®à°°à°¿à°¯à±ģ": 4108,
      "Ġchildren": 4109,
      "à°¾à°£": 4110,
      "ĠCl": 4111,
      "Ġà¦¹à¦¯à¦¼à§ĩ": 4112,
      "Ġà²ı": 4113,
      "à¤ķà¥įà¤¤": 4114,
      "à®¤à®¾à®ķ": 4115,
      "Ġà¤®à¤¿à¤": 4116,
      "à©±à¨§": 4117,
      "Ġà´¸à´Ĥà´": 4118,
      "Ġaccount": 4119,
      "Ġà¦ļà§°": 4120,
      "Ġàªµàª°à«įàª": 4121,
      "Ġwrit": 4122,
      "Ġà²ľà²¨": 4123,
      "à³ģà²µà³ģà²¦à³ģ": 4124,
      "inc": 4125,
      "à²¿à²Ł": 4126,
      "Ġfore": 4127,
      "à«įàªķ": 4128,
      "à¤¸à¤¾": 4129,
      "ram": 4130,
      "ĠX": 4131,
      "ality": 4132,
      "uthor": 4133,
      "à¤Ĺà¤°": 4134,
      "àµĭà´³": 4135,
      "à¤®à¥ĩà¤Ĥ": 4136,
      "à±įà°¸à±į": 4137,
      "à¯įà®ķà¯įà®ķ": 4138,
      "ĠCon": 4139,
      "Ġà°ħà°Ĥà°¦": 4140,
      "à¥įà¤¯à¤µ": 4141,
      "Ġà®ħà®Ł": 4142,
      "Ġfinancial": 4143,
      ",âĢĿ": 4144,
      "àª¾àªĵ": 4145,
      "Ġcell": 4146,
      "Ġà®ªà®¾à®°": 4147,
      "oint": 4148,
      "à±ģà°¨à±įà°¨à°¾à°°à±ģ": 4149,
      "ec": 4150,
      "à´ļ": 4151,
      "orld": 4152,
      "Ġà¦¸à§įà¦¥": 4153,
      "ĠWh": 4154,
      "Ġà¬Ĩà¬¸": 4155,
      "Ġà¦¸à¦ķ": 4156,
      "ĠCent": 4157,
      "Ġgreat": 4158,
      "redit": 4159,
      "por": 4160,
      "à°¿à°Ĥà°Ĺ": 4161,
      "It": 4162,
      "à¤Ĥà¤ª": 4163,
      "à°¿à°·": 4164,
      "Ġàª®àª³": 4165,
      "ived": 4166,
      "à®¿à®±à¯įà®ķ": 4167,
      "Ġplace": 4168,
      "à±Į": 4169,
      "Ġfew": 4170,
      "Ġà¦®à¦¨": 4171,
      "Ġà¤¸à¥ĭ": 4172,
      "à²°à³Ĥ": 4173,
      "àªķàª¾àª°": 4174,
      "ĠĠĠĠĠĠĠĠĠĠĠĠĠĠĠĠĠĠĠĠĠĠĠĠ": 4175,
      "Ġà°īà°¨à±įà°¨": 4176,
      "tle": 4177,
      "Ġà¤¯à¥ĩ": 4178,
      "version": 4179,
      "Ġà¬¦àŃĩà¬ĸ": 4180,
      "à§°à§°": 4181,
      "Ġfut": 4182,
      "Ġà¤Ĩà¤¯": 4183,
      "Ġà¤²à¥ĭà¤Ĺ": 4184,
      "ouse": 4185,
      "à®¿à®¤à¯įà®¤à¯ģ": 4186,
      "à¦ħ": 4187,
      "Ġà¦Ĩà¦ķ": 4188,
      "à®¤à¯įà®¤à¯Ī": 4189,
      "Ġà¬ħà¬§": 4190,
      "me": 4191,
      "à¤¤à¥ĭ": 4192,
      "à¯Īà®ļ": 4193,
      "Ġà²Ĩà²Ĺ": 4194,
      "ccess": 4195,
      "à´¾à´¨àµį": 4196,
      "à¨¾à¨¡": 4197,
      "Ġlangu": 4198,
      "ĠPh": 4199,
      "Ġstudy": 4200,
      "Ġnon": 4201,
      "à®µà¯ĩ": 4202,
      "Ġhere": 4203,
      "itional": 4204,
      "âģł": 4205,
      "Ġsom": 4206,
      "à²¤à³įà²¯": 4207,
      "Ġà¬Ľ": 4208,
      "Ġà¦Ĩà¦Ľà¦¿à¦²": 4209,
      "Ġà¨¨à¨¾": 4210,
      "Ġà¤¦à¥ĩà¤ĸ": 4211,
      "à°¾à°°à°Ĥ": 4212,
      "Ġà¨ľà¨¿à¨¸": 4213,
      "Ġà¦¸à¦Ń": 4214,
      "Ġà¤®à¥ĩ": 4215,
      "à°¨à±ĩ": 4216,
      "à°¿à°Ĥà°ļà°¾à°°à±ģ": 4217,
      "Ġà¦¯à¦¦": 4218,
      "Ġà¨Ĺà¨Ī": 4219,
      "Ġà¤ķà¤¿à¤¸": 4220,
      "à©Ģà¨ľ": 4221,
      "med": 4222,
      "Ġfour": 4223,
      "unc": 4224,
      "arent": 4225,
      "à³ģà²¦à³ģ": 4226,
      "Ġà²Ł": 4227,
      "àŃģà¬®": 4228,
      "Ġanother": 4229,
      "Ġdefault": 4230,
      "à¨ī": 4231,
      "ĠEng": 4232,
      "Ġcost": 4233,
      "Ġà¦ĺà¦Ł": 4234,
      "à³įà²Ĺà³Ĩ": 4235,
      "Ġà´ı": 4236,
      "à±ģà°®": 4237,
      "à´¿à´¨àµĨ": 4238,
      "Ġadv": 4239,
      "à¦²à¦¾": 4240,
      "à±ģà°ķà±ģ": 4241,
      "Ġà¤µà¤¿à¤ķ": 4242,
      "à²¿à²¸à²¿": 4243,
      "Ġresearch": 4244,
      "Ġtax": 4245,
      "âĢĶ": 4246,
      "Ġà¨ªà©ģ": 4247,
      "Ġprice": 4248,
      "à®¿à®°à¯ģà®ķà¯įà®ķ": 4249,
      "set": 4250,
      "à¤§à¥Ģ": 4251,
      "here": 4252,
      "Ġprom": 4253,
      "Ġà¦¸à¦¾à¦¹": 4254,
      "Ġà´¸àµįà´µ": 4255,
      "à¯ģà®ķà®³": 4256,
      "Ġsl": 4257,
      "Ġopp": 4258,
      "Ġà¤Ĩà¤°": 4259,
      "Ġbeh": 4260,
      "Ġà¤°à¥Ĥà¤ª": 4261,
      "Ġà²«": 4262,
      "Ġla": 4263,
      "request": 4264,
      "à²¿à²³": 4265,
      "Ġà¦¸à¦°": 4266,
      "Ġel": 4267,
      "Ġprof": 4268,
      "à´¤àµįà´¤à´¿àµ½": 4269,
      "Ġà¬²àŃĭà¬ķ": 4270,
      "hi": 4271,
      "¸à¤¾à¤łà¥Ģ": 4272,
      "àªĿ": 4273,
      "à±ģà°¦": 4274,
      "Ġrece": 4275,
      "Ġà¨ªà¨¹": 4276,
      "Ġmajor": 4277,
      "à¬¤à¬¾": 4278,
      "à¦¨à§įà¦¨": 4279,
      "Ġz": 4280,
      "à²¿à²¡": 4281,
      "à±ģà°¡": 4282,
      "Ġà¤Ĩà¤ľ": 4283,
      "Ġà°ķà°²": 4284,
      "à§įà§°à§Ģ": 4285,
      "Ġopt": 4286,
      "Ġdue": 4287,
      "Ġà¦ªà¦¡à¦¼": 4288,
      "ource": 4289,
      "Ġdesc": 4290,
      "à²ĥ": 4291,
      "à§Ģà¦¯à¦¼à§ĩ": 4292,
      "àŃįà¬ľ": 4293,
      "Ġà¦¨à¦¿à§°": 4294,
      "Ġà²®à³ĩ": 4295,
      "Ġà®ļà¯Ĭ": 4296,
      "à¤¾à¤ļà¥ĩ": 4297,
      "Ġà¨¬à¨¹à©ģà¨¤": 4298,
      "Ġmight": 4299,
      "à²µà²¾à²¦": 4300,
      "à®µà¯ģà®®à¯į": 4301,
      "à©ĭà¨Ĺ": 4302,
      "Ġà¦¦à¦¿à¦¯à¦¼à§ĩ": 4303,
      "Ġà¬ªà¬°àŃĩ": 4304,
      "Ġà¬Ĩà¬": 4305,
      "à§įà¦¯à¦ķ": 4306,
      "Ġà¤¸à¤¹": 4307,
      "Ġprot": 4308,
      "Ġà²µà³įà²¯": 4309,
      "ailable": 4310,
      "Ġamount": 4311,
      "Ġà¤µà¤°à¥įà¤·": 4312,
      "Ġspe": 4313,
      "à¦£à§ĩ": 4314,
      "à²¬à³įà²¬": 4315,
      "18": 4316,
      "path": 4317,
      "son": 4318,
      "Ġà¤ĳ": 4319,
      "à«įàª¯àª¾àªĤ": 4320,
      "àŃģà¬¤": 4321,
      "à°¡à°Ĥ": 4322,
      "Ġ{\\": 4323,
      "àªµà«ģàªĤ": 4324,
      "Ġà¬¬àŃĭà¬²": 4325,
      "ocial": 4326,
      "à§ģà¦¦à§įà¦§": 4327,
      "raph": 4328,
      "ering": 4329,
      "Ġcond": 4330,
      "ways": 4331,
      "à«Ģàª¨à«ĩ": 4332,
      "à´¾à´ķ": 4333,
      "Ġà¦¨à¦¿à¦¯à¦¼à§ĩ": 4334,
      "Ġàªħàª¨": 4335,
      "Ġà®µà¯Ģ": 4336,
      "à¨ł": 4337,
      "Ġà®ľ": 4338,
      "orth": 4339,
      "à®¿à®¨à¯įà®¤": 4340,
      "Ġproject": 4341,
      "less": 4342,
      "à§įà¦¶": 4343,
      "ently": 4344,
      "ĠPr": 4345,
      "ively": 4346,
      "à¬£àŃįà¬¡": 4347,
      "à²Łà³į": 4348,
      "Ġà°ķà±Ĥà°¡à°¾": 4349,
      "Ġà¤Ĺà¥įà¤°": 4350,
      "mb": 4351,
      "à°Ĥà°ª": 4352,
      "à°²à±įà°²": 4353,
      "à¥Įà¤°": 4354,
      "à¬¾à¬Ł": 4355,
      "à¤¾à¤Ĥà¤¨à¥Ģ": 4356,
      "Ļàµįà´Ļ": 4357,
      "àµģà´£àµįà´Łàµį": 4358,
      "=\"": 4359,
      "à´ķà´³": 4360,
      "à§§": 4361,
      "Ġcal": 4362,
      "à±įà°Ĺ": 4363,
      "à´±à´¿à´¯": 4364,
      "ote": 4365,
      "ured": 4366,
      "Ġà¬ķà¬°à¬¾à¬¯": 4367,
      "à³Ĩà²¯à²²à³įà²²à²¿": 4368,
      "Ġà®ħà®©": 4369,
      "àŃĩà¬³àŃĩ": 4370,
      "Ġlarge": 4371,
      "//": 4372,
      "Ġà¦ķà¦¾à¦®": 4373,
      "ļà¤¾": 4374,
      "ĠUS": 4375,
      "----": 4376,
      "ha": 4377,
      "Ġrest": 4378,
      "à¥Īà¤Ĥà¤ķ": 4379,
      "Ġà¤¤à¥ģà¤®": 4380,
      "à§ĥà¦·à§įà¦Ł": 4381,
      "ead": 4382,
      "Ġà®ħà®±": 4383,
      "ends": 4384,
      "à¤°à¤£": 4385,
      "à§ĩà¦¸": 4386,
      "à²¿à²ķà³Ĩ": 4387,
      "Ġà¬¯àŃĩ": 4388,
      "bs": 4389,
      "à®Łà®¿": 4390,
      "Ġà¤ķà¥ĩà¤²à¥ĩ": 4391,
      "Ġsit": 4392,
      "à´¾à´³": 4393,
      "Ġà®ªà®²": 4394,
      "à©±à¨¡": 4395,
      "à´²àµį": 4396,
      "à²¿à²¦à³įà²¦à³ģ": 4397,
      "à´¿à´ļàµįà´ļàµį": 4398,
      "key": 4399,
      "lish": 4400,
      "à®ĩ": 4401,
      "Ġele": 4402,
      "view": 4403,
      "à¤¾à¤°à¥ĩ": 4404,
      "Ġà¤¦à¥ĩà¤¶": 4405,
      "Ġdesign": 4406,
      "Ġmet": 4407,
      "à§ĭà¦¹": 4408,
      "Ġà¦¬à¦Ľ": 4409,
      "||": 4410,
      "ense": 4411,
      "à²¤à³įà²°": 4412,
      "§à«": 4413,
      "à¨¿à¨®": 4414,
      "Ġà®ªà®¯": 4415,
      "Ġà¦ķà¦°à¦¤à§ĩ": 4416,
      "Ġà²®à²¾à²¤": 4417,
      "\".": 4418,
      "Ġsay": 4419,
      "à³įà²¡": 4420,
      "12": 4421,
      "ued": 4422,
      "à´¿à´±": 4423,
      "à¤ķà¥ĭ": 4424,
      "Ġà¤¸à¥ģ": 4425,
      "Ġà¦¸à§ĩ": 4426,
      "Ġà°²à±ĭ": 4427,
      "Ġbusiness": 4428,
      "à©ĭà¨²": 4429,
      "Ġmean": 4430,
      "Ġbas": 4431,
      "à¨¨à¨¾à¨Ĥ": 4432,
      "à¤¾à¤¤à¥Ģà¤²": 4433,
      "à¯įà®°": 4434,
      "à²¾à²°à²¿": 4435,
      "à¤Ĥà¤¤à¥įà¤°à¥Ģ": 4436,
      "Ġsever": 4437,
      "à¥Ģà¤°": 4438,
      "Ġà¤ķà¥ģà¤": 4439,
      "Ġtop": 4440,
      "Ġdon": 4441,
      "iving": 4442,
      "Ġà´µàµĢ": 4443,
      "orn": 4444,
      "à°¾à°¬": 4445,
      "Ġà¤®à¤¿à¤³": 4446,
      "Ġà¤°à¤¹à¥ĩ": 4447,
      "à²ªà³įà²ª": 4448,
      "Ġà²¹à³Ĩà²ļà³įà²ļ": 4449,
      "à¬¢": 4450,
      "Ġà¤Ĩà¤µ": 4451,
      "à²¤à³Ĩ": 4452,
      "à¦§à¦¾à¦¨": 4453,
      "à¤¾à¤ģ": 4454,
      "à°¿à°Ĥà°ļà°¿": 4455,
      "Ġà®®à¯Ĥ": 4456,
      "àŃįà¬ł": 4457,
      "Ġorder": 4458,
      "à©Ģà¨µ": 4459,
      "à¦¿à¦Ĺ": 4460,
      "Ġà¤ľà¤¨": 4461,
      "Ġà°ħà°¯": 4462,
      "ividual": 4463,
      "}{": 4464,
      "rop": 4465,
      "Ġà°ªà±ĭ": 4466,
      "à¨¿à©°à¨Ĺ": 4467,
      "pect": 4468,
      "à§įà¦¯à¦¾à¦¨": 4469,
      "Ġpress": 4470,
      "à®¿à®¯à®¾à®ķ": 4471,
      "Ġperform": 4472,
      "gin": 4473,
      "Ġà¤ªà¤¾à¤°": 4474,
      "à²Ĥà²Ĺ": 4475,
      "à±ģà°Ĥà°¦": 4476,
      "ule": 4477,
      "ĠAt": 4478,
      "Ġbre": 4479,
      "à±įà°°à±Ģ": 4480,
      "Ġchange": 4481,
      "par": 4482,
      "à§°à¦£": 4483,
      "ier": 4484,
      "igh": 4485,
      "Ġanal": 4486,
      "Ġkey": 4487,
      "ources": 4488,
      "à¦ŀà§įà¦ļ": 4489,
      "Ġview": 4490,
      "ron": 4491,
      "agement": 4492,
      "Ġexpected": 4493,
      "50": 4494,
      "idd": 4495,
      "Ġà¦¨à¦¹": 4496,
      "Ġplan": 4497,
      "Ġà®ļà¯Ĩà®¯à¯įà®¯": 4498,
      "Ġà´¸à´®": 4499,
      "ians": 4500,
      "à²¾à²¹": 4501,
      "urance": 4502,
      "à¥įà¤¯à¤®": 4503,
      "Ġgre": 4504,
      "ems": 4505,
      "Ġà¦Ĺà§įà¦°": 4506,
      "à¨¾à¨¨à©Ĥà©°": 4507,
      "à¬«": 4508,
      "à®ķà¯į": 4509,
      "à¥įà¤¯à¤ķà¥įà¤¤": 4510,
      "Ġà´¨à´¿à´¨àµįà´¨": 4511,
      "Ġà¬¸à¬°": 4512,
      "lo": 4513,
      "à¤¿à¤¦": 4514,
      "Ġstat": 4515,
      "à²ķà³įà²¤": 4516,
      "à³ĩà²°": 4517,
      "Ġhead": 4518,
      "\"),": 4519,
      "à¦ªà¦°": 4520,
      "Ġpost": 4521,
      "Ġàªªàª¹": 4522,
      "Ġà®µà¯Ĩà®³": 4523,
      "Ġà¥§à¥": 4524,
      "arc": 4525,
      "à¥įà¤¯à¤¾à¤µ": 4526,
      "Ġmoney": 4527,
      "à°¿à°ļ": 4528,
      "Ġvis": 4529,
      "Ġnorm": 4530,
      "Ġà¨¦à©ĭ": 4531,
      "ĠTrue": 4532,
      "Ġà¤Ĩà¤®": 4533,
      "ables": 4534,
      "Ġà¬ħà¬Ń": 4535,
      "ots": 4536,
      "Ġà¤²à¥ĭà¤ķ": 4537,
      "Ġà¦¤à§ĩà¦ĵà¦ģà§°": 4538,
      "ling": 4539,
      "Ġà¦¸à¦¾à¦®": 4540,
      "ĠQ": 4541,
      "Ġlarg": 4542,
      "à¦¬à¦¾à¦°": 4543,
      "Ġà¤¯à¥ĩà¤": 4544,
      "à¤¿à¤¤à¥Ģ": 4545,
      "ST": 4546,
      "à¯ģà®£": 4547,
      "Ġà¦¤à¦¾à¦ģ": 4548,
      "à®²à¯Ī": 4549,
      "alk": 4550,
      "à¨ķà¨°": 4551,
      "Ġà°®à±Ģ": 4552,
      "Ġdevelopment": 4553,
      "If": 4554,
      "Ġà¤¬à¤¹": 4555,
      "Ġà¬¥": 4556,
      "Ġà®®à¯ģà®¤": 4557,
      "Ġapplic": 4558,
      "://": 4559,
      "Ġâ": 4560,
      "àŃįà¬¤àŃįà¬¤": 4561,
      "ument": 4562,
      "à¨¦à¨°": 4563,
      "Ġà¨ªà©°à¨ľ": 4564,
      "à®®à®¾à®©": 4565,
      "Ġà°²à±ĩà°¦": 4566,
      "stit": 4567,
      "Ġà¤ľà¤¾": 4568,
      "Ġà²¸à³ģ": 4569,
      "à°®à±Īà°¨": 4570,
      "à®®à®¿à®´": 4571,
      "Ġnews": 4572,
      "aim": 4573,
      "Ġà¤®à¤¨": 4574,
      "Ġà®ªà¯ĩ": 4575,
      "Ġà¦Ĩà¦®à¦¾à¦°": 4576,
      "Ġstudents": 4577,
      "Ġà¨¸à¨°à¨ķà¨¾à¨°": 4578,
      "ged": 4579,
      "Ġà®¨à®¿à®±": 4580,
      "à¯ĭà®¤à¯ģ": 4581,
      "à¥ĩà¤°": 4582,
      "Ġà¦¸à¦Ļà§įà¦Ĺ": 4583,
      "à«ģàªķ": 4584,
      "Ġcome": 4585,
      "àª£à«Ģ": 4586,
      "Ġ198": 4587,
      "à¯ģà®Łà®©à¯į": 4588,
      "Ġà¤¦à¥įà¤µà¤¾à¤°à¤¾": 4589,
      "cul": 4590,
      "à¤¯à¥ĩ": 4591,
      "Ġinclude": 4592,
      "Ġtoo": 4593,
      "ĠThese": 4594,
      "Ġseveral": 4595,
      "ought": 4596,
      "à¯Īà®ªà¯į": 4597,
      "Ġ/": 4598,
      "Ġà¤®à¤¾à¤¨": 4599,
      "Ġlow": 4600,
      "Ġà¤µà¥įà¤¯à¤ķà¥įà¤¤": 4601,
      "Ġà¦°à¦¾à¦ľ": 4602,
      "à§İà¦¸": 4603,
      "Ġfollowing": 4604,
      "Ġà¨¦à©Ģà¨Ĩà¨Ĥ": 4605,
      "à±ģà°Ĥà°Ł": 4606,
      "Ġhuman": 4607,
      "iver": 4608,
      "à©±à¨¤": 4609,
      "Ġà¤¨à¤¿à¤¯": 4610,
      "Ġà°ļà±ĩà°¸à±įà°¤": 4611,
      "ĠYou": 4612,
      "à¤µà¤¾à¤°": 4613,
      "Ġwithin": 4614,
      "Ġàª°à«Ĥ": 4615,
      "àªĨ": 4616,
      "à¥įà¤¯à¥Ĥ": 4617,
      "à±ģà°²à±ĭ": 4618,
      "à¤Łà¥Ģ": 4619,
      "Ġàª²à«ĭàªķ": 4620,
      "àµĨà´¨àµįà´¨àµģà´Ĥ": 4621,
      "ton": 4622,
      "Ġche": 4623,
      "à¤Ĥà¤ļ": 4624,
      "àªĤàª§": 4625,
      "à´¤àµįà´¤à´¿à´¯": 4626,
      "Ġbro": 4627,
      "Ġà¤ĩà¤¨": 4628,
      "à¯ģà®ķà¯į": 4629,
      "à¨¨à©ĩ": 4630,
      "àªµà«ĩ": 4631,
      "à°ķà±įà°¤": 4632,
      "àµįà´¯à´®": 4633,
      "à¤¢à¤¼": 4634,
      "Ġsum": 4635,
      "à¤¤à¤¿": 4636,
      "à´¾à´ª": 4637,
      "Ġthink": 4638,
      "rain": 4639,
      "à¥įà¤ŀ": 4640,
      "à¤°à¥įà¤ľ": 4641,
      "à«įàª¯à«ģ": 4642,
      "Ġà¨ļà¨¾à¨¹": 4643,
      "Ġavailable": 4644,
      "ger": 4645,
      "àŃģà¬¹": 4646,
      "Ġà°µà°¾à°°": 4647,
      "Ġà´ĩà´¤": 4648,
      "Ġà¨°à¨¹à©ĩ": 4649,
      "Ġà´ļàµĨà´¯àµįà´¯": 4650,
      "à¤¾à¤¢": 4651,
      "à±ĭà°ľ": 4652,
      "à¯įà®¨": 4653,
      "à¥ĩà¤·": 4654,
      "Ġà¬¨à¬¾à¬¹à¬¿à¬ģ": 4655,
      "à¤¾à¤ĵà¤Ĥ": 4656,
      "Ġport": 4657,
      "à¦¯à¦¼à¦¾à¦°": 4658,
      "à±ĩà°·": 4659,
      "à²¸à³įà²¥": 4660,
      "Ġà¤ļà¤¾à¤¹": 4661,
      "not": 4662,
      "Ġàª¹àª¤à«ĭ": 4663,
      "à©ĩà¨Ĺà¨¾": 4664,
      "Ġ+": 4665,
      "Ġrele": 4666,
      "àªĽà«Ģ": 4667,
      "ats": 4668,
      "Ġnext": 4669,
      "ĠWorld": 4670,
      "Ġindust": 4671,
      "Ġà¤¹à¤¾": 4672,
      "Ġà¬¸àŃįà¬¥": 4673,
      "urther": 4674,
      "à§ģà¦§": 4675,
      "à±Ĥà°ª": 4676,
      "à´¨àµįà´¦": 4677,
      "Ġemploy": 4678,
      "Ġbased": 4679,
      "Ġdel": 4680,
      "à¦®à¦¨": 4681,
      "àªķà«ĩ": 4682,
      "à³įà²°à³Ģ": 4683,
      "Ġà¬¹àŃĩà¬²": 4684,
      "Ġeas": 4685,
      "à¤ªà¥įà¤°": 4686,
      "Ġunt": 4687,
      "Ġàª°à«Ģ": 4688,
      "Ġinte": 4689,
      "Ġbook": 4690,
      "à¤¿à¤·": 4691,
      "Ġmove": 4692,
      "Ġà¤¨à¤¿à¤µ": 4693,
      "Ġhapp": 4694,
      "Ġet": 4695,
      "Ġdise": 4696,
      "obal": 4697,
      "Ġà¤¹à¥ģà¤ı": 4698,
      "Ġà¤Ńà¤¾à¤°à¤¤": 4699,
      "Ġà®®à¯ģà®©": 4700,
      "min": 4701,
      "®à¥ģà¤³à¥ĩ": 4702,
      "ourn": 4703,
      "True": 4704,
      "à²³à³ģ": 4705,
      "à´¤àµįà´¤àµį": 4706,
      "Ġà¦¹à¦¯à¦¼à§ĩà¦Ľà§ĩ": 4707,
      "Ġoccur": 4708,
      "à¥įà¤¡": 4709,
      "Ġà¤īà¤¦": 4710,
      "à¤¬à¤°": 4711,
      "Ġà¨¤à©ģà¨¹": 4712,
      "._": 4713,
      "Ġpract": 4714,
      "Ġà¨¸à¨¾à¨¹": 4715,
      "à§įà¦¯à¦¾à¦²": 4716,
      "Ġà¤ķà¥ĩà¤²à¥Ģ": 4717,
      "à´¸àµįà´¥": 4718,
      "à¦¿à¦¯": 4719,
      "à¦¦à¦¿à¦¨": 4720,
      "aken": 4721,
      "oke": 4722,
      "():": 4723,
      "Ġes": 4724,
      "Ġfac": 4725,
      "Ġà®®à®©": 4726,
      "Ġsuccess": 4727,
      "à²¿à²Ĥà²Ĺ": 4728,
      "ĠàªĹà«ģ": 4729,
      "Ġbest": 4730,
      "Ġà¦īà¦¤à§įà¦¤": 4731,
      "Ġfamily": 4732,
      "Ġident": 4733,
      "Ġà¦¦à¦²": 4734,
      "Ġà°®à±Ĭ": 4735,
      "Ġà²Ĵà²Ĥà²¦à³ģ": 4736,
      "Ġà¬¨à¬¿": 4737,
      "à²¬à²¹": 4738,
      "duct": 4739,
      "à°¿à°Ĥà°ļà°¿à°¨": 4740,
      "à°¿à°²à±įà°²": 4741,
      "à¦£à§įà¦¡": 4742,
      "Ġà¨°à¨¿à¨¹à¨¾": 4743,
      "à§įà¦Ľà§ĩ": 4744,
      "Ġà¤¶à¤ķ": 4745,
      "ended": 4746,
      "àª¾àª¬": 4747,
      "à§ģà¦ª": 4748,
      "à±ģà°Ł": 4749,
      "Ġà¦ªà¦¾à§°": 4750,
      "à²²à²¾à²Ĺ": 4751,
      "à¤¾à¤µà¤¾": 4752,
      "Ġdistribution": 4753,
      "Ġve": 4754,
      "Ġbank": 4755,
      "àµĨà´Ļàµįà´ķ": 4756,
      "à¬¸àŃįà¬¥": 4757,
      "Ġàª°àª¾àªľ": 4758,
      "à¨¾à¨ĩà¨Ĩ": 4759,
      "enef": 4760,
      "à¦¾à¦ī": 4761,
      "Ġà¤ħà¤Ń": 4762,
      "à´ªàµįà´ªàµĨà´Ł": 4763,
      "200": 4764,
      "over": 4765,
      "à¬ĻàŃįà¬ķà¬°": 4766,
      "Ġà²ħà²µà²°à³ģ": 4767,
      "Ġquest": 4768,
      "Ġà¬ħà¬¨àŃģà¬": 4769,
      "Ġà¤ĵ": 4770,
      "à¯Īà®¨à¯įà®¤": 4771,
      "Ġindividual": 4772,
      "ĠNational": 4773,
      "Ġcontrol": 4774,
      "run": 4775,
      "à¥ĩà¤¨": 4776,
      "à´¯àµģà´ŁàµĨ": 4777,
      "Ġà°°à±Ĩ": 4778,
      "à°¿à°²à±ĭ": 4779,
      "à´¾à´¤àµįà´°": 4780,
      "à¨°à¨¸": 4781,
      "ides": 4782,
      "Ġà¤°à¤¹": 4783,
      "àµįà´¯à´Ĥ": 4784,
      "Ġàª¬àª¨": 4785,
      "Ġamong": 4786,
      "Ġà¨ªà¨¹à¨¿à¨²": 4787,
      "ze": 4788,
      "Ġàªķàª°à«ĩ": 4789,
      "Ġà®ħà®¤à®¿à®ķ": 4790,
      "Ġnear": 4791,
      "Ġà¨ľà¨¾": 4792,
      "oper": 4793,
      "ĠFr": 4794,
      "Ġà¨²à©Ī": 4795,
      "Ġà¦ªà§įà§°à¦¤": 4796,
      "Åĭ": 4797,
      "à±ģà°Ĺà°¾": 4798,
      "Ġà¤Ĺà¤Ī": 4799,
      "Ġà¦®à¦¨à§įà¦¤": 4800,
      "à®ķà¯ģà®¤": 4801,
      "Ġà®ķà¯Ĥà®±": 4802,
      "Ġà²¹à²¾à²Ĺà³Ĥ": 4803,
      "Ġà¬¬àŃĭà¬²à¬¿": 4804,
      "à´¿à´¨àµįà´¨": 4805,
      "Ġà¤ķà¤°à¤¤à¥ĩ": 4806,
      "},": 4807,
      "Ġà¬ķà¬°à¬¿à¬¬à¬¾": 4808,
      "Ġàª¹àª¤à«ģàªĤ": 4809,
      "à´¨àµįà´¤àµįà´°": 4810,
      "tal": 4811,
      "Ġtimes": 4812,
      "à¦¿à¦Ń": 4813,
      "Ġmil": 4814,
      "Ġà²ķà³ģ": 4815,
      "Ġàª¹à«ĭàª¯": 4816,
      "uk": 4817,
      "à¥ĩà¤µ": 4818,
      "à¦¯à¦¼à§ĭ": 4819,
      "osp": 4820,
      "Ġà´µà´°": 4821,
      "ustom": 4822,
      "ĠStates": 4823,
      "àµĮ": 4824,
      "ĠOn": 4825,
      "Ġprovide": 4826,
      "back": 4827,
      "à§ĩà¦ļ": 4828,
      "à°¤à±įà°¯": 4829,
      "à´ªàµįà´ªàµĨà´Łàµįà´Ł": 4830,
      "à¬¨àŃįà¬§": 4831,
      "Ġi": 4832,
      "Ġàªĩ": 4833,
      "hers": 4834,
      "à°®à±ģ": 4835,
      "ffic": 4836,
      "Ġbuild": 4837,
      "Ġpolicy": 4838,
      "Re": 4839,
      "han": 4840,
      "à®©à®¾à®²à¯į": 4841,
      "rict": 4842,
      "Ġà°īà°Ĥà°Ł": 4843,
      "Ġà¬¡": 4844,
      "à§ĩà¦·à§įà¦Ł": 4845,
      "à«ĩàª¡": 4846,
      "Ġabove": 4847,
      "Ġparticular": 4848,
      "ww": 4849,
      "Ġfar": 4850,
      "Ġà¦ķà¦¾à¦ľ": 4851,
      "Ġà¤µà¥ĩ": 4852,
      "Ġàªķàª°àªµàª¾àª®àª¾àªĤ": 4853,
      "Ġà´¤àµģà´Ł": 4854,
      "Ġcountries": 4855,
      "ļà¥ĩ": 4856,
      "àŃįà¬°à¬®": 4857,
      "Ġà¤°à¤¹à¤¾": 4858,
      "à¦¥à¦®": 4859,
      "à¯Īà®ķà¯į": 4860,
      "Ġà¬¸àŃĩà¬®à¬¾à¬¨": 4861,
      "Ġà²®à³Ĭ": 4862,
      "Ġàª¨à«Ģ": 4863,
      "à³ĭà²¡": 4864,
      "Ġà¤¥à¥ĩ": 4865,
      "Ġcertain": 4866,
      "Ġà¨¸à¨Ń": 4867,
      "Ġà°®à°¾à°°": 4868,
      "àŃĢà¬°": 4869,
      "Ġà°ħà°§": 4870,
      "àªµàª¾àª¨à«Ģ": 4871,
      "of": 4872,
      "ration": 4873,
      "à´¿à´ŀàµįà´ŀ": 4874,
      "à¬¿à¬Ł": 4875,
      "à¦²à§įà¦²": 4876,
      "Ġlik": 4877,
      "à¬¤à¬¿": 4878,
      "à¬¤àŃįà¬¤": 4879,
      "à¬¾à¬ĩà¬Ľà¬¿": 4880,
      "à¤ķà¥įà¤·à¤¾": 4881,
      "à¨¾à¨¸à¨¼": 4882,
      "Ġarea": 4883,
      "resent": 4884,
      "ending": 4885,
      "Ġkeep": 4886,
      "à§ĩà¦Ĺ": 4887,
      "Ġà¤®à¥ģà¤ĸ": 4888,
      "à¤Ĺà¥ĩ": 4889,
      "Ġà´®àµģà´": 4890,
      "Ġà²°à²¾à²ľ": 4891,
      "ilar": 4892,
      "Ġà¨¸à¨¿à©±à¨": 4893,
      "Ġà¦ħà¦°": 4894,
      "ances": 4895,
      "Ġrecord": 4896,
      "ļà°¿": 4897,
      "à©±à¨¥": 4898,
      "Ġà²ķà³Ĩà²²": 4899,
      "àµĨà´¯àµģà´Ĥ": 4900,
      "à¬¥à¬¾": 4901,
      "à²¿à²·": 4902,
      "Ġà´ķà´´": 4903,
      "à¥¤\"": 4904,
      "Ġà¤¦à¥ĭ": 4905,
      "àŃģà¬¦": 4906,
      "à¤¡à¥Ģ": 4907,
      "àµģà´¨àµįà´¨à´¤": 4908,
      "à¥ĩà¤®": 4909,
      "Ġà®ªà®°": 4910,
      "à¦¾à¦¤à§įà¦°": 4911,
      "à³Ĩà²¯à²¨à³įà²¨à³ģ": 4912,
      "Ġtri": 4913,
      "à¯ģà®ļ": 4914,
      "Ġà®®à¯Ģ": 4915,
      "à¯ĩà®©à¯į": 4916,
      "ades": 4917,
      "à©Īà¨ķ": 4918,
      "à±ģà°¨à±ģ": 4919,
      "Ġinvol": 4920,
      "à²¬à³ĩà²ķà³ģ": 4921,
      "ler": 4922,
      "ional": 4923,
      "à¨°à¨¾à¨Ĥ": 4924,
      "Ġà¦®à¦ĩ": 4925,
      "used": 4926,
      "à¯įà®ļà®¿": 4927,
      "à©±à¨ļ": 4928,
      "à²Ĺà²³à²²à³įà²²à²¿": 4929,
      "Ġà°ļà±Ĩà°ªà±įà°ª": 4930,
      "Ġpossible": 4931,
      "my": 4932,
      "Ġcr": 4933,
      "Ġcredit": 4934,
      "à¤¸à¥įà¤Ł": 4935,
      "Ġà®ķà¯ĩ": 4936,
      "mber": 4937,
      "Ġide": 4938,
      "à¦°à§įà¦¤": 4939,
      "Ġenvironment": 4940,
      "math": 4941,
      "ŀàµįà´ļ": 4942,
      "à°¾à°·": 4943,
      "à°ķà°¿": 4944,
      "à§ģà¦£": 4945,
      "àµįà´°àµĢ": 4946,
      "Ġà¦¬à¦¿à¦ľ": 4947,
      "à®¿à®²à¯įà®²à¯Ī": 4948,
      "Ġ21": 4949,
      "Ġà¤¬à¥Īà¤Ĥà¤ķ": 4950,
      "à¤¾à¤Ĥà¤ļà¥įà¤¯à¤¾": 4951,
      "à²¿à²¤à³ģ": 4952,
      "Ġà¨¦à¨¿à©±à¨¤à¨¾": 4953,
      "àŃįà¬¯àŃįàŃŁ": 4954,
      "Ġà¦¤à§ĭà¦®": 4955,
      "Ġà²ĸ": 4956,
      "ories": 4957,
      "à©Īà¨¸": 4958,
      "à´£àµįà´": 4959,
      "à¯ģà®ķà®¿à®±à®¤à¯ģ": 4960,
      "Ġsays": 4961,
      "Ġà¦²à§Ī": 4962,
      "àŃ¨": 4963,
      "Ġnet": 4964,
      "Ġà¥¨": 4965,
      "à¬°àŃįà¬¯àŃįàŃŁ": 4966,
      "Ġà¤ľà¤¾à¤¤à¤¾": 4967,
      "rist": 4968,
      "àª¿àª¸": 4969,
      "Ġà®ļà®¿à®±": 4970,
      "à²¸à³įà²¤": 4971,
      "à´µà´°": 4972,
      "ĠUniversity": 4973,
      "à¤¾à¤¥": 4974,
      "Ġà¦¨à¦¿à¦¯à¦¼": 4975,
      "Ġà¤ĩà¤¤": 4976,
      "command": 4977,
      "Ġà¬¹àŃĭà¬ĩ": 4978,
      "Ġà¬¨à¬¿à¬ľ": 4979,
      "acter": 4980,
      "oid": 4981,
      "yn": 4982,
      "à¤Ĥà¤ľ": 4983,
      "Ġà°ħà°¨à±įà°¨": 4984,
      "Ġà²¬à²³": 4985,
      "à²£à³įà²£": 4986,
      "àª¿àªŁ": 4987,
      "Ġà¬ķà¬²": 4988,
      "iance": 4989,
      "Ġà®ħà®°à®ļ": 4990,
      "ware": 4991,
      "Ġbody": 4992,
      "utions": 4993,
      "ief": 4994,
      "Ġà´ªà´±à´ŀàµįà´ŀ": 4995,
      "Ġwin": 4996,
      "Ġà®ķà®°": 4997,
      "ļà¥Ģ": 4998,
      "à¥§": 4999,
      "Ġà¦Ľà¦¿à¦²": 5000,
      "Ġput": 5001,
      "Ġà¦®à¦¾à¦ľ": 5002,
      "ples": 5003,
      "http": 5004,
      "Ġfood": 5005,
      "à¨¾à¨ľà¨¼": 5006,
      "Ġseries": 5007,
      "head": 5008,
      "Ġhome": 5009,
      "à¨¿à¨ĸ": 5010,
      "à¥Ĥà¤®": 5011,
      "Ġàª¸à«įàªµ": 5012,
      "Ġàª¤à«ĩàª¨àª¾": 5013,
      "ana": 5014,
      "Ġà¤®à¤¾à¤°": 5015,
      "à§Ģà¦ķà§įà¦·": 5016,
      "Ġà¦ħà¦¤": 5017,
      "ember": 5018,
      "Ġeng": 5019,
      "Ġà¦®à¦¾à¦¨à§ģà¦¹": 5020,
      "à«Į": 5021,
      "Ġà¬ķà¬°à¬¿à¬¥à¬¿à¬²àŃĩ": 5022,
      "Ġà¦¦à§įà¦¬": 5023,
      "Ġsing": 5024,
      "à¨¾à¨«": 5025,
      "à§įà¦¯à¦¾": 5026,
      "ĠFalse": 5027,
      "St": 5028,
      "iple": 5029,
      "gress": 5030,
      "à©ľà©ĩ": 5031,
      "Ġ40": 5032,
      "cy": 5033,
      "Ġà¨ķà©°à¨®": 5034,
      "à²¡à³Ĩà²¯": 5035,
      "Ġà®ĩà®Ł": 5036,
      "à¯Īà®¯à¯Ī": 5037,
      "Ġearly": 5038,
      "Ġold": 5039,
      "Ġ24": 5040,
      "Ġlocal": 5041,
      "à¤¿à¤¹": 5042,
      "Ġà¤¸à¥įà¤Ł": 5043,
      "ĠĠĠĠĠĠĠĠĠĠĠĠĠĠĠĠĠĠĠĠĠĠĠĠĊ": 5044,
      "une": 5045,
      "à´®àµįà´ª": 5046,
      "à²¿à²¤à³įà²¤à³ģ": 5047,
      "ĠTe": 5048,
      "à¥Ĥà¤²": 5049,
      "à¤°à¥įà¤¶": 5050,
      "Ġà¨ľà¨¦": 5051,
      "à²¡à³ģ": 5052,
      "à¨ĩà¨Ĩ": 5053,
      "à¦¾à¦°à¦¾": 5054,
      "cli": 5055,
      "Ġshort": 5056,
      "à¥ĩà¤¤à¥įà¤°": 5057,
      "àµįà´ķàµįà´ķàµį": 5058,
      "********": 5059,
      "ention": 5060,
      "à«įàª°à«ĭ": 5061,
      "à«ĩàªµ": 5062,
      "à«Ģàª®": 5063,
      "ĠAll": 5064,
      "àªķà«ĭ": 5065,
      "Ġà¬®à¬¨": 5066,
      "Ġà²ħà²§": 5067,
      "Ġà¤ħà¤¸à¥ĩ": 5068,
      "à§ĭà¦·": 5069,
      "Ġà¤®à¥ģ": 5070,
      "Ġà¦ķà§°à¦¿à¦Ľà§ĩ": 5071,
      "Ġàª¨àª¿": 5072,
      "ining": 5073,
      "à®¤à®¿": 5074,
      "Ġà²¸à³įà²µ": 5075,
      "Ġbetter": 5076,
      "Ġunderstand": 5077,
      "àŃįà¬£": 5078,
      "à¤¹à¤°": 5079,
      "à±ĩà°Ĥà°¦": 5080,
      "à²¿à²¸à³ģà²µ": 5081,
      "à²¿à²¯à²²à³įà²²à²¿": 5082,
      "Ġà¨ªà©°à¨ľà¨¾à¨¬": 5083,
      "Ġparam": 5084,
      "à´¾àµ½": 5085,
      "Ġhold": 5086,
      "à¥įà¤¯à¤¾à¤ª": 5087,
      "à¤°à¥įà¤Ł": 5088,
      "àª¦à«įàª": 5089,
      "Ġà¤ħà¤¸à¤²à¥įà¤¯à¤¾à¤": 5090,
      "Ġà¦¤à§ĩà¦ĵà¦ģà¦²à§ĭ": 5091,
      "11": 5092,
      "ither": 5093,
      "Ġà¦¬à¦¸": 5094,
      "à¤ľà¥ĩ": 5095,
      "Ġà¦¶à¦¿à¦ķà§įà¦·": 5096,
      "Ġà¨¹à©ĭà¨£": 5097,
      "vious": 5098,
      "¨à§įà¦¤": 5099,
      "Ġturn": 5100,
      "à§ģà¦¸": 5101,
      "Ġà¤¦à¥ĭà¤¨": 5102,
      "à¥ĩà¤¬": 5103,
      "à¬¬à¬°": 5104,
      "à°¡à±įà°¡": 5105,
      "Ġà¬ķà¬°àŃģà¬": 5106,
      "à´¨àµįà´±": 5107,
      "à®£à¯įà®Łà¯ģ": 5108,
      "Ġàª¨à«ĩ": 5109,
      "à¤¾à¤¸à¥įà¤¤": 5110,
      "Ġàª¥àª¾àª¯": 5111,
      "Ġà®µà®¾à®": 5112,
      "Ġà²¸à³įà²¥": 5113,
      "Ġà¬ĵà¬¡à¬¼": 5114,
      "Ġgeneral": 5115,
      "rel": 5116,
      "Ġfre": 5117,
      "à¨¸à¨¤": 5118,
      "Ġà¤¬à¤¾à¤¤": 5119,
      "àª²à«ĩ": 5120,
      "acy": 5121,
      "à³Ĭà²Ĥà²¦": 5122,
      "à¬¸à¬¿": 5123,
      "Ġà¦¬à¦¿à¦·à¦¯à¦¼": 5124,
      "à¬ŀàŃįà¬ļ": 5125,
      "à¤¾à¤«": 5126,
      "à°Ĥà°ķ": 5127,
      "à²¿à²¦à³įà²¦à²°à³ģ": 5128,
      "à¦¾à¦ł": 5129,
      "à²¾à²³": 5130,
      "à²¦à³įà²¦": 5131,
      "à¤¾à¤Ĥà¤ļà¥Ģ": 5132,
      "Ġà¦¥à¦ķà¦¾": 5133,
      "à¥ĩà¤ķ": 5134,
      "Ġà®¤à®²": 5135,
      "Ġà²Ĩà²°": 5136,
      "Ġà´ķàµįà´": 5137,
      "à´®à´¾à´¯à´¿": 5138,
      "Ġà¬Ĩà¬®": 5139,
      "Ġà´Ĩà´°": 5140,
      "Ġà¨ķà©ģà¨Ŀ": 5141,
      "àª¤à«įàª¤": 5142,
      "Ġà¤°à¤¾à¤¹": 5143,
      "à¬ģ": 5144,
      "à§ĩà§°": 5145,
      "à®¤à®¿à®°": 5146,
      "à¦¿à¦¨à§įà¦¨": 5147,
      "Ġà´¸à´Ĥ": 5148,
      "à°¿à°Ĥà°¦": 5149,
      "Ġbecome": 5150,
      "Ġpopulation": 5151,
      "Ġà®µà¯ĩà®£à¯įà®Łà¯ģà®®à¯į": 5152,
      "dom": 5153,
      "àª¾àª¶": 5154,
      "à¥įà¤¯à¥ĭà¤Ĥ": 5155,
      "à´¾à´Ĺ": 5156,
      "Ġà¦®à¦¨à§ĩ": 5157,
      "Ġàªľà«Ģ": 5158,
      "Ġà²İà²Ĥà²¬": 5159,
      "à°¿à°Ĥà°Ĺà±į": 5160,
      "ox": 5161,
      "Ġà°§": 5162,
      "Ġàª¸àª°": 5163,
      "à¥ĭà¤§": 5164,
      "Ġlog": 5165,
      "imate": 5166,
      "though": 5167,
      "Ġà¤ªà¥įà¤°à¤ķ": 5168,
      "Ġà¨¸à¨ķà¨¦à¨¾": 5169,
      "Ġtre": 5170,
      "à¦¿à§±": 5171,
      "Ġàª®àª¾àªĤ": 5172,
      "Ġdeb": 5173,
      "Ġà¬ıà¬¹à¬¾": 5174,
      "Ġà²Ĩà²¦à²°à³Ĩ": 5175,
      "Ġà®ĵ": 5176,
      "anks": 5177,
      "idence": 5178,
      "Ġdev": 5179,
      "à¨«à¨¼": 5180,
      "à«¦": 5181,
      "à«ĭàª¡": 5182,
      "Ġà¤ħà¤®": 5183,
      "Ġà¦¹à¦¾à¦¤": 5184,
      "ush": 5185,
      "Ġàªīàªªàª°": 5186,
      "Ġà¨¹à¨°": 5187,
      "à¨ķà©Ģ": 5188,
      "Ġàª¸àª¾àª®": 5189,
      "Ġeducation": 5190,
      "à¦¢à¦¼": 5191,
      "Ġbenef": 5192,
      "à¤¿à¤Ĺ": 5193,
      "verage": 5194,
      "Ġà¦¯à§ĩà¦¨": 5195,
      "fer": 5196,
      "Ġbig": 5197,
      "Ġà¤ľà¤¬": 5198,
      "à´¨àµįà´±àµĨ": 5199,
      "Ġà¤ĺà¤°": 5200,
      "amb": 5201,
      "à¤µà¥Ģ": 5202,
      "Ġà¬ªàŃĤ": 5203,
      "à´¿à´¯àµģà´ŁàµĨ": 5204,
      "à´¨àµįà´§": 5205,
      "type": 5206,
      "à¬ı": 5207,
      "Ġinit": 5208,
      "Ġà¦¬à§ĥ": 5209,
      "Ġà¤ħà¤µ": 5210,
      "Ġà¨®à©Īà¨Ĥ": 5211,
      "Ġà¨¹à©ĭà¨°": 5212,
      "à°¿à°¦": 5213,
      "Ġà¤¦à¥Ģ": 5214,
      "Ġà²¨à²¡à³Ĩ": 5215,
      "Ġà¦ķà§°à¦¾à§°": 5216,
      "anies": 5217,
      "à¬¿à¬¹": 5218,
      "olution": 5219,
      "Ġà®ªà®¤": 5220,
      "Ġà®¤à®©": 5221,
      "ager": 5222,
      "àŃĭà¬°": 5223,
      "Ġà°¤à°¨": 5224,
      "à¬°àŃįà¬®": 5225,
      "Ġevent": 5226,
      "change": 5227,
      "ĠàªªàªĽà«Ģ": 5228,
      "Ġà¨²à¨Ĺ": 5229,
      "Ġsignific": 5230,
      "à®ħ": 5231,
      "à²¿à²ľ": 5232,
      "Ġà¤ªà¤£": 5233,
      "à¨¨à©ģ": 5234,
      "Ġà²®à²¨": 5235,
      "à´¿à´²àµĩ": 5236,
      "à´¤àµįà´¤à´¿à´²àµį": 5237,
      "Ġàª°àª¾àªĸ": 5238,
      "à¨¾à¨µà¨¾à¨Ĥ": 5239,
      "ĠAss": 5240,
      "erc": 5241,
      "Ġà¦¤à¦¥": 5242,
      "à¤¿à¤ķà¥įà¤·": 5243,
      "à±įà°Łà±įà°°": 5244,
      "à¬¾à¬¤àŃįà¬°": 5245,
      "Ġvarious": 5246,
      "Ġà¤¦à¤¿à¤µ": 5247,
      "à¤¬à¤Ĥà¤§": 5248,
      "Ġchar": 5249,
      ">>>": 5250,
      "Ġà¤ªà¥ĭ": 5251,
      "Ġà¦Ńà¦¿à¦¤": 5252,
      "ĠâĢĶ": 5253,
      "urope": 5254,
      "oot": 5255,
      "à¦¿à¦¡": 5256,
      "Ġà¤ķà¤¾à¤¹à¥Ģ": 5257,
      "Ġà¦¬à¦²à§ĩ": 5258,
      "Ġà°µà°ļà±įà°ļ": 5259,
      "à©°à¨§": 5260,
      "à®ķà®°": 5261,
      "Ġà®İà®©à¯įà®©": 5262,
      "Ġareas": 5263,
      "Ġà´µàµįà´¯": 5264,
      "à¯Ĥà®°": 5265,
      "à±ĩà°²": 5266,
      "Ġà¤ľà¤¿à¤²": 5267,
      "Ġà®¤à®®à®¿à®´": 5268,
      "à²¿à²Ĺà²³à³ģ": 5269,
      "by": 5270,
      "Ġà¤¸à¤¬": 5271,
      "Ġà¦Ĺà§Ī": 5272,
      "ĠGod": 5273,
      "à²Ĥà²¦à³įà²°": 5274,
      "à´£àµįà´Łàµį": 5275,
      "à¬¾à¬ĩà¬¬": 5276,
      "cer": 5277,
      "Ġà¤°à¤¹à¥Ģ": 5278,
      "à³Ģà²°": 5279,
      "ĠAmerican": 5280,
      "Ġà¦®à§ĭà§°": 5281,
      "à¦¸à§įà¦ķ": 5282,
      "Ġimpro": 5283,
      "Ġhigher": 5284,
      "Ġà¨ķà©ĭà¨Ī": 5285,
      "Ġà¤ķà¥ģà¤Ľ": 5286,
      "ŀà¯įà®ļ": 5287,
      "atural": 5288,
      "à§Ģà¦ķ": 5289,
      "à´³àµįà´³": 5290,
      "Ġà¦Ńà¦¾à§°à¦¤": 5291,
      "Ġà¬¬à¬¿à¬¶": 5292,
      "Ġpriv": 5293,
      "ĠPl": 5294,
      "Ġà²İà²²à³įà²²": 5295,
      "Ġener": 5296,
      "Ġà¤ķà¤¾à¤°à¤£": 5297,
      "à¦¨à¦¾à¦°": 5298,
      "Ġàªªàª¡": 5299,
      "à©Īà¨¨": 5300,
      "ateg": 5301,
      "à¯ģà®µà®¤": 5302,
      "à¤¾à¤·à¥įà¤Łà¥įà¤°": 5303,
      "à¦¿à¦§": 5304,
      "àª¾àªı": 5305,
      "ises": 5306,
      "à¦¨à¦¤": 5307,
      "Ġà®ħà®¨à¯įà®¤": 5308,
      "ĠBank": 5309,
      "à¦¨à§įà¦®": 5310,
      "Ġmeans": 5311,
      "Ġà°ļà±ĩà°¶": 5312,
      "à¨Ĩà¨Ĥ": 5313,
      "à²¾à²¶": 5314,
      "Ġà¦ħà§±": 5315,
      "ee": 5316,
      "ring": 5317,
      "à¬ĥ": 5318,
      "à¯įà®ªà¯įà®ª": 5319,
      "à¤ªà¤°": 5320,
      "Ġà°¤à±Ģà°¸": 5321,
      "à¯Ģà®°": 5322,
      "Ġsocial": 5323,
      "à±įà°¬": 5324,
      "à²¿à²ª": 5325,
      "Ġà¦ıà¦¤": 5326,
      "Ġorig": 5327,
      "Ġà¤ªà¥įà¤°à¤ķà¤¾à¤°": 5328,
      "à¤¥à¤¾": 5329,
      "Ġà¨¹à©ģà©°": 5330,
      "Ġtotal": 5331,
      "à«įàªļ": 5332,
      "à¥ģà¤Ĺ": 5333,
      "à¤¨à¥ĩà¤ķ": 5334,
      "Ġà«§à«": 5335,
      "Ø§": 5336,
      "Ġà®ªà¯Ĩà®°": 5337,
      "à¤¦à¥įà¤§": 5338,
      "à¤¾à¤²à¤¯": 5339,
      "à§įà¦¯à¦®": 5340,
      "Ġà¤µà¤¿à¤Ń": 5341,
      "Ġestab": 5342,
      "à²µà³Ĩ": 5343,
      "à¥ģà¤·": 5344,
      "âģ¡": 5345,
      "Ġà¤ķà¥įà¤·à¥ĩà¤¤à¥įà¤°": 5346,
      "à¬¿à¬Ĥ": 5347,
      "Ġà¨Ĺà¨ı": 5348,
      "Ġà´ļàµĨà´¯àµįà´¤": 5349,
      "ament": 5350,
      "Ġà®ªà®¾à®¤": 5351,
      "Ġà¤ªà¥įà¤°à¤¶": 5352,
      "à²£à³Ĩ": 5353,
      "Ġà¬ķà¬¾à¬°àŃįà¬¯àŃįàŃŁ": 5354,
      "à©Ģà¨¤": 5355,
      "Ġà¨®à¨¿à¨²": 5356,
      "Ġà¤ĺà¤Ł": 5357,
      "Ġintegr": 5358,
      "àŃĪ": 5359,
      "pper": 5360,
      "Ġfuture": 5361,
      "ĠTr": 5362,
      "à©ĭà©ľ": 5363,
      "Ġà¤Ĩà¤²à¥ĩ": 5364,
      "Ġà¦ıà¦°": 5365,
      "âĢľ": 5366,
      "àª¾àªµà«Ģ": 5367,
      "Ġphys": 5368,
      "rodu": 5369,
      "Ġstruct": 5370,
      "ilities": 5371,
      "Ġloss": 5372,
      "Ġant": 5373,
      "Ġcompany": 5374,
      "à§ģà¦Ĺ": 5375,
      "à°°à±įà°µ": 5376,
      "Ġà°ľà°°": 5377,
      "à¥įà¤Ľ": 5378,
      "àŃĩà¬£": 5379,
      "Ġà¬¸àŃįà¬¬": 5380,
      "rick": 5381,
      "à°¾à°¹": 5382,
      "à¤Ĥà¤Ł": 5383,
      "à¦°à§ĩà¦°": 5384,
      "(\"/": 5385,
      "à¬®à¬¾à¬¨àŃĩ": 5386,
      "Ġdeterm": 5387,
      "IO": 5388,
      "reg": 5389,
      "à§ĩà¦ģ": 5390,
      "à©°à¨¬": 5391,
      "à´Ĥà´Ĺ": 5392,
      "Ġà¬¸à¬°à¬ķà¬¾à¬°": 5393,
      "Ġaut": 5394,
      "à§ĭà¦®": 5395,
      "Ġà¦¸à¦Ļà§įà¦Ĺà§ĩ": 5396,
      ".âĢĿ": 5397,
      "dict": 5398,
      "à¦¿à¦·à§įà¦Ł": 5399,
      "Ġfive": 5400,
      "à²µà²°à³ģ": 5401,
      "Ġà¤¦à¤°": 5402,
      "Ġà´ķàµĩ": 5403,
      "ored": 5404,
      "à¬£à¬¾": 5405,
      "Ġà°Ĺà±ģà°°": 5406,
      "Ġà¦¸à¦¾à¦§": 5407,
      "ĠJew": 5408,
      "à¤¤à¥Ģà¤¯": 5409,
      "à¬·": 5410,
      "àŃĩà¬°": 5411,
      "Ġalong": 5412,
      "Ġleast": 5413,
      "Ġspecial": 5414,
      "Ġpot": 5415,
      "Ġà¤®à¥Ģ": 5416,
      "àªĵ": 5417,
      "Ġfield": 5418,
      "àªµàª¿": 5419,
      "Ġà¤ħà¤²": 5420,
      "à¦¿à¦¬à¦²à§Ī": 5421,
      "Ġà¬ªàŃįà¬°à¬ķ": 5422,
      "Ġpolit": 5423,
      "Ġà®ķà®¾à®²": 5424,
      "Ġà¤ķà¤°à¤¨à¤¾": 5425,
      "à°¸à±į": 5426,
      "Ġà¤¹à¥ĭà¤¤": 5427,
      "Ġà¤¹à¥ĭà¤¨à¥ĩ": 5428,
      "Ġà´¤à´¿à´°": 5429,
      "Ġà²Ńà²¾à²°": 5430,
      "alf": 5431,
      "Ġlater": 5432,
      "Ġcomput": 5433,
      "à¤£à¥įà¤¯à¤¾à¤¤": 5434,
      "àŃĩà¬īà¬ģ": 5435,
      "atives": 5436,
      "Ġà¦ıà¦¸": 5437,
      "Ġà¦ķà¦¬": 5438,
      "àŃģà¬¨": 5439,
      "ird": 5440,
      "à¤¿à¤¯à¥ĩ": 5441,
      "ials": 5442,
      "Ġwomen": 5443,
      "Ġlab": 5444,
      "Ġà¤¬à¥Ģ": 5445,
      "à±Ģà°²": 5446,
      "Ġà¨®à©Į": 5447,
      "à®¾à®°à®£": 5448,
      "à¥įà¤£": 5449,
      "ane": 5450,
      "à¦ķà§Ī": 5451,
      "à±ĭà°¯": 5452,
      "\\\\": 5453,
      "lim": 5454,
      "pend": 5455,
      "à§©": 5456,
      "ĠàªĨàªµà«ĩ": 5457,
      "à¬ĹàŃįà¬°": 5458,
      "àª¹à«ĢàªĤ": 5459,
      "Ġbond": 5460,
      "ctx": 5461,
      "à«ģàª²": 5462,
      "à¤ªà¥Ģ": 5463,
      "à¬¿à¬²àŃįà¬²": 5464,
      "Ġà¬Ńà¬¾à¬¬": 5465,
      "Ġà®Ĩà®ķ": 5466,
      "à¥ģà¤ķà¥įà¤¤": 5467,
      "30": 5468,
      "à°¿à°ľ": 5469,
      "à¨°à¨®": 5470,
      "Ġà¤¸à¤¾à¤Ĥà¤Ĺ": 5471,
      "à°Ĥà°¬": 5472,
      "àŃŁà¬°àŃĩ": 5473,
      "ĠPol": 5474,
      "à¥ĭà¤Ĥà¤¨à¥ĩ": 5475,
      "Ġuntil": 5476,
      "Ġoption": 5477,
      "Ġà¦¬à¦¾à¦¡à¦¼": 5478,
      "Ġnational": 5479,
      "Ġàª®à«ĩàª": 5480,
      "Ġà²ħà²¨": 5481,
      "Ġà¤Ĺà¥ĭ": 5482,
      "à«ĩàª²à«Ģ": 5483,
      "ara": 5484,
      "à¦¨à§Ģ": 5485,
      "à¬¿à¬¯": 5486,
      "ĠMan": 5487,
      "ival": 5488,
      "Ġincrease": 5489,
      "Ġàª²à«ĭàªķà«ĭ": 5490,
      "àµº": 5491,
      "à¬¤àŃįàŃŁ": 5492,
      "à°¾à°²à°¨à°¿": 5493,
      "à¥įà¤¯à¤ķà¥įà¤·": 5494,
      "ĠWhen": 5495,
      "We": 5496,
      "Ġà¦Ĩà¦ĩ": 5497,
      "Ġprobability": 5498,
      "Ġeconomic": 5499,
      "inv": 5500,
      "à±ģà°ļ": 5501,
      "Ġà²ĩà²¦à³ģ": 5502,
      "Ġàª¦à«įàªµ": 5503,
      "Ġneg": 5504,
      "Ġà®ħà®µà®°à¯į": 5505,
      "Ġàª¸à«ģàª§à«Ģ": 5506,
      "Ġà¤ķà¤¿à¤¸à¥Ģ": 5507,
      "Ġlight": 5508,
      "à³įà²°à³Ĩ": 5509,
      "à³ĭà²Ł": 5510,
      "à°¯à°Ĥ": 5511,
      "Ġleft": 5512,
      "à¥įà¤¹à¥Ģ": 5513,
      "à²¿à²ķà³Ĭà²Ĥà²¡": 5514,
      "Ġà¬¦àŃĩà¬¬": 5515,
      "Ġàª¶àªķà«ĩ": 5516,
      "NA": 5517,
      "Ġauthor": 5518,
      "ably": 5519,
      "à¦¾à¦²à§Ģ": 5520,
      "ĠEurope": 5521,
      "à¤¿à¤¤à¥įà¤°": 5522,
      "Ġà²¯à²¾à²µ": 5523,
      "à¦¿à¦ļà¦¾à¦ª": 5524,
      "Ġà¨¥": 5525,
      "iting": 5526,
      "Ġà¦ķà¦°à§ĩà¦¨": 5527,
      "Ġà¦®à¦§à§įà¦¯à§ĩ": 5528,
      "à¤¿à¤ĸ": 5529,
      "Ġmater": 5530,
      "à¤ļà¥įà¤ļ": 5531,
      "à²³à³Ĩ": 5532,
      "Ġàª¸à«įàª¥": 5533,
      "à§ĩà¦¯à¦¼à§ĩ": 5534,
      "à¦¾à§İ": 5535,
      "à¤¿à¤ķà¤¾": 5536,
      "plic": 5537,
      "à¬¾à¬¹à¬¾": 5538,
      "à¥īà¤²": 5539,
      "face": 5540,
      "à¬¾à¬ī": 5541,
      "à¯ĭà®¤": 5542,
      "à®¾à®°à¯įà®ķà®³à¯į": 5543,
      "aps": 5544,
      "print": 5545,
      "Ġgrowth": 5546,
      "àŃª": 5547,
      "Ġfree": 5548,
      "à²¦à²¿à²Ĥà²¦": 5549,
      "à²Ĥà²Ł": 5550,
      "à¤¾à¤Ĥà¤¸": 5551,
      "à¦¾à¦ķà¦¾": 5552,
      "Ġlit": 5553,
      "ĠCol": 5554,
      "Ġ22": 5555,
      "Ġiter": 5556,
      "Ġexist": 5557,
      "Ġà¤Ĺà¥ģ": 5558,
      "Ġà®īà®£": 5559,
      "à²Ĥà²¤à²°": 5560,
      "work": 5561,
      "à¤¾à¤Ń": 5562,
      "à¬¿à¬Ľà¬¨àŃįà¬¤à¬¿": 5563,
      "Ġà¦ªà¦¿à¦Ľ": 5564,
      "Ġà²®à²¹": 5565,
      "à§įà¦¬à§°": 5566,
      "Ġsecur": 5567,
      "à§Ĥà¦¹": 5568,
      "à®¿à®±à®¤à¯ģ": 5569,
      "ĠàªĿ": 5570,
      "Ġà¦¸à¦¦": 5571,
      "à°Ĥà°§": 5572,
      "Ġà¨µà©ĩ": 5573,
      "Ġaccess": 5574,
      "Ġà¬°à¬¾à¬ľàŃįàŃŁ": 5575,
      "Ġcapital": 5576,
      "Ġlanguage": 5577,
      "à§«": 5578,
      "à§°à§įà¦®": 5579,
      "Ġcult": 5580,
      "àª°àª£": 5581,
      "à¨ķà¨¿": 5582,
      "à¯Ĩà®©": 5583,
      "à±ģà°Ĥà°ļà°¿": 5584,
      "Ġsw": 5585,
      "Ġder": 5586,
      "Ġgame": 5587,
      "à¨¾à¨ħà¨¦": 5588,
      "Ġsect": 5589,
      "à°¾à°¶": 5590,
      "Ġàªªà«ģ": 5591,
      "àµįà´¤àµįà´¤": 5592,
      "ĠBl": 5593,
      "Ġàªķàª°àªµàª¾": 5594,
      "à§ĩà¦²à§ĩ": 5595,
      "Ġà¦¥à¦¾à¦ķà§ĩ": 5596,
      "à±Ĩà°Ł": 5597,
      "Ġà°ªà±įà°°à°Ń": 5598,
      "ences": 5599,
      "à²·à³įà²Łà³ģ": 5600,
      "Ġà´µàµĨ": 5601,
      "Ġà®īà®Ł": 5602,
      "à§ª": 5603,
      "Ġair": 5604,
      "Ġcases": 5605,
      "àŃĩà¬·": 5606,
      "à¥įà¤¯à¤¾à¤¯": 5607,
      "àµĢà´µ": 5608,
      "à¬¦àŃįà¬§": 5609,
      "à¦ķà¦²à§°": 5610,
      "àŃĩà¬¸": 5611,
      "ung": 5612,
      "à²°à²¿à²Ĥà²¦": 5613,
      "à¨¸à¨¼à¨¨": 5614,
      "à¥įà¤°à¥Ģà¤¯": 5615,
      "Ġà¤Ŀà¤¾à¤²": 5616,
      "ready": 5617,
      "à¯ģà®²": 5618,
      "à¥Īà¤¸à¥ĩ": 5619,
      "àŃĢà¬¨": 5620,
      "à©Ģà¨ħ": 5621,
      "Ġconsum": 5622,
      "à°³à±įà°²": 5623,
      "à®¸à¯į": 5624,
      "For": 5625,
      "icle": 5626,
      "à¤ķà¤¿à¤¨": 5627,
      "à¤¯à¥ĭà¤Ĺ": 5628,
      "Ġà²µà²°à³įà²": 5629,
      "Ġà®ıà®±à¯įà®ª": 5630,
      "à§ģà¦·à§įà¦ł": 5631,
      "à´¿à´±àµįà´±": 5632,
      "à²¬à²¹à³ģà²¦à³ģ": 5633,
      "Ġcentury": 5634,
      "Ġà¤ķà¤°à¤£à¥įà¤¯à¤¾à¤¤": 5635,
      "ape": 5636,
      "wh": 5637,
      "à¬Ĩ": 5638,
      "Ġà¦Ĩà¦²": 5639,
      "Ġà¨¬à¨¾à¨ħà¨¦": 5640,
      "Ġenergy": 5641,
      "As": 5642,
      "Ġdri": 5643,
      "Ġhard": 5644,
      "à¤§à¤¾à¤°": 5645,
      "à¤¤à¥Ģà¤²": 5646,
      "Ġmodel": 5647,
      "à¦ŀà§įà¦ľ": 5648,
      "Ġà²§": 5649,
      "àª¿àª¨": 5650,
      "Ġà¨µà¨§": 5651,
      "resp": 5652,
      "ĠState": 5653,
      "Ġà¦¯à¦¦à¦¿": 5654,
      "xy": 5655,
      "Ġà®µà®¿à®Ł": 5656,
      "à±ĩà°®": 5657,
      "à°µà°°": 5658,
      "Ġlet": 5659,
      "Ġàª¥àªĪ": 5660,
      "Ġobs": 5661,
      "à±įà°·": 5662,
      "Ġmar": 5663,
      "Ġexam": 5664,
      "à°¿à°¤à±ĩ": 5665,
      "à«ĩàª®": 5666,
      "flag": 5667,
      "gen": 5668,
      "Ġpast": 5669,
      "Ġbi": 5670,
      "aster": 5671,
      "à¨¿à¨ī": 5672,
      "import": 5673,
      "Ġà¦¹à¦¿à¦ļà¦¾à¦ª": 5674,
      "à´®à´¾à´£àµį": 5675,
      "Ġà´ħà´¨": 5676,
      "à®Ļà¯įà®ķà®³à®¿à®²à¯į": 5677,
      "Ġà§¨à§¦": 5678,
      "à±įà°£": 5679,
      "asing": 5680,
      "Ġà¦Ĩà¦¶": 5681,
      "pped": 5682,
      "à´¤àµįà´¤à´¿à´¨àµįà´±àµĨ": 5683,
      "à¨Ĺà©ĩ": 5684,
      "ĠâĢĺ": 5685,
      "Ġà®¤à¯Ĭà®Łà®°": 5686,
      "à«įàª¨": 5687,
      "à®¾à®ľ": 5688,
      "à§įà¦°à¦®": 5689,
      "Ġà¦¶à§ĩà¦·": 5690,
      "Ġà¤¸à¤®à¤¯": 5691,
      "Ġresults": 5692,
      "Ġà´ķàµĤà´Ł": 5693,
      "Ġvalues": 5694,
      "Ġàª°à«Ģàª¤à«ĩ": 5695,
      "Ġfail": 5696,
      "à¤ķà¤¿": 5697,
      "à´¯àµģà´Ĥ": 5698,
      "Ġà¨¤à¨°": 5699,
      "ĠFl": 5700,
      "Ġà¬ħà¬¬": 5701,
      "ER": 5702,
      "mp": 5703,
      "Ġversion": 5704,
      "Ġdays": 5705,
      "Ġht": 5706,
      "Ġà¨¦à¨°": 5707,
      "Ġà´ħà´Ł": 5708,
      "Ġenc": 5709,
      "Ġà²®à³Ĥà²²": 5710,
      "à´¾à´¦": 5711,
      "àªķà«Ģ": 5712,
      "Ġà¤°à¥ģà¤ª": 5713,
      "à¯Ĩà®¯": 5714,
      "ills": 5715,
      "à±įà°¯à°Ĥ": 5716,
      "Ġcontract": 5717,
      "Ġà¦ķà¦¿à¦Ľà§ģ": 5718,
      "à¤Ŀ": 5719,
      "à¨¯": 5720,
      "ĠàªĪ": 5721,
      "Ġcrit": 5722,
      "Ġthings": 5723,
      "à©ĭà¨Ł": 5724,
      "Ġà¦¤à¦¾à¦ĩ": 5725,
      "Ġà°ħà°¨à°¿": 5726,
      "ĠâĤ": 5727,
      "Ġà°ĵ": 5728,
      "atory": 5729,
      "Ġpar": 5730,
      "aining": 5731,
      "Ġà¬¦àŃģà¬": 5732,
      "à¯ģà®ķà®³à¯į": 5733,
      "Ġothers": 5734,
      "Ġà®²": 5735,
      "Ġdom": 5736,
      "Ġret": 5737,
      "Ġà¦ıà¦ķà¦Łà¦¿": 5738,
      "Ġà¦¦à§ĩà¦ĸà¦¾": 5739,
      "Ġà²µà²¿à²¶": 5740,
      "Ġindex": 5741,
      "Ġclick": 5742,
      "Ġàª²àª¾àªĹ": 5743,
      "What": 5744,
      "Ġà¨ı": 5745,
      "ĠTo": 5746,
      "à¨¸à©Ģ": 5747,
      "Ġà¤¦à¤¿à¤¨": 5748,
      "à³Ģà²µ": 5749,
      "à°¾à°¨à°¿": 5750,
      "à«Ĥàª°à«įàª": 5751,
      "Ġà¨¹à©ĭà¨ı": 5752,
      "Ġà¦ĵà¦ª": 5753,
      "Ġtreatment": 5754,
      "Ġbillion": 5755,
      "à§ĥà¦·": 5756,
      "aid": 5757,
      "ble": 5758,
      "Ġside": 5759,
      "à¯ģà®´": 5760,
      "à²¨à³ĩ": 5761,
      "Ġà®ªà®£": 5762,
      "à¤¦à¤¾": 5763,
      "Ġà²ħà²Ń": 5764,
      "Ġà´¤à´¨àµįà´¨": 5765,
      "Ġrepresent": 5766,
      "à¦ķà¦¾à¦¶": 5767,
      "àµĭà´Łàµįà´Ł": 5768,
      "Ġàª¤à«ĩàª¨à«ĩ": 5769,
      "Ġgoing": 5770,
      "Ġà¬ħà¬§à¬¿à¬ķ": 5771,
      "16": 5772,
      "har": 5773,
      "Ġmen": 5774,
      "à¤ķà¥įà¤¸": 5775,
      "Ġà¦®à§ĭ": 5776,
      "à®²à¯įà®µ": 5777,
      "à®¿à®²à¯ģà®®à¯į": 5778,
      "à²¿à²¸à²²à³ģ": 5779,
      "Ġhistory": 5780,
      "Ġà¤ħà¤¨à¥ĩà¤ķ": 5781,
      "ope": 5782,
      "à¯ĭà®®à¯į": 5783,
      "àµĢà´¸àµį": 5784,
      "àµ¼à´¤àµįà´¤": 5785,
      "aut": 5786,
      "à«ĭàª²": 5787,
      "àª¤à«įàª°": 5788,
      "Ġà¦¤à¦¾à¦¹": 5789,
      "àµģà´ķàµ¾": 5790,
      "wards": 5791,
      "Ġmov": 5792,
      "à¤²à¤Ĥ": 5793,
      "Ġà¦¬à§Ī": 5794,
      "à¦¾à¦°à§ĩ": 5795,
      "Ġsignificant": 5796,
      "à§°à§ģà§±": 5797,
      "Ġwhether": 5798,
      "à§ĩà¦²à¦¾": 5799,
      "Ġà®¤à¯Ĩà®°à®¿à®µ": 5800,
      "Ġà¦ľà§Ģà§±": 5801,
      "à®²à®ķ": 5802,
      "à±ĩà°¤": 5803,
      "à¤ľà¥Ģ": 5804,
      "Ġà¦¬à¦¿à¦¦": 5805,
      "Ġable": 5806,
      "ieve": 5807,
      "Ġacross": 5808,
      "Ġà´ªà´°à´¿à´": 5809,
      "let": 5810,
      "à²²à²¾à²Ĺà²¿à²¦à³Ĩ": 5811,
      "à§įà§°à¦¹": 5812,
      "Ġseen": 5813,
      "à´Ļàµįà´Ļà´³àµį": 5814,
      "à®¾à®³à¯į": 5815,
      "ĠComp": 5816,
      "Ġàª¤àª®à«ĩ": 5817,
      "ging": 5818,
      "à®¿à®³": 5819,
      "à¨¿à¨£": 5820,
      "à¤ªà¤¾à¤¸": 5821,
      "Ġconc": 5822,
      "à¨µà©ĩ": 5823,
      "Ġflow": 5824,
      "Ġmus": 5825,
      "Ġà¤¸à¥įà¤ª": 5826,
      "Ġà¦¦à¦¿à¦¯à¦¼": 5827,
      "à¥įà¤¯à¤¾à¤²": 5828,
      "Ġà¤ķà¥ĩà¤²à¤¾": 5829,
      "raw": 5830,
      "Ġà´ķà´¾à´°": 5831,
      "Ġcomb": 5832,
      "à§°à¦¾à¦ķ": 5833,
      "Ġà¤ķà¤Ĥà¤ª": 5834,
      "à¤ļà¥įà¤Ľ": 5835,
      "Ġà®İà®´": 5836,
      "àª¦à«Ģ": 5837,
      "Ġà²¤à²¿à²³": 5838,
      "à¤¾à¤£à¥Ģ": 5839,
      "à²«": 5840,
      "Ġtaken": 5841,
      "à¬¾à¬ļ": 5842,
      "ĠAf": 5843,
      "ĠShe": 5844,
      "à¥Ĥà¤¸": 5845,
      "Ġà¬¬à¬°àŃįà¬·": 5846,
      "Ġseason": 5847,
      "àµĩà´£àµįà´Ł": 5848,
      "Ġà¤ķà¥ĭà¤Ī": 5849,
      "ards": 5850,
      "Ġà²¦à²¿à²¨": 5851,
      "à°ªà±įà°ªà±ģà°¡à±ģ": 5852,
      "Ġà²ķà²¾à²°à³įà²¯": 5853,
      "àªł": 5854,
      "àŃĩà¬ĸ": 5855,
      "à²ķà²¾à²°": 5856,
      "Ġà²¸à²¹": 5857,
      "plate": 5858,
      "Ġpropert": 5859,
      "Ġàªµàª°à«įàª·": 5860,
      "à¦¾à¦Ľà§ĩ": 5861,
      "Ġà¤¸à¥Ģ": 5862,
      "àª¤à«ĭ": 5863,
      "Ġà¤ħà¤¤": 5864,
      "à³įà²°à²®": 5865,
      "à¬¿à¬²àŃĩ": 5866,
      "aper": 5867,
      "Ġ[\"": 5868,
      "ID": 5869,
      "ators": 5870,
      "Ġwar": 5871,
      "Ġfall": 5872,
      "Ġmaking": 5873,
      "Ġà¦¬à¦¾à¦Ĥ": 5874,
      "à¨¦à¨¾à¨°": 5875,
      "Ġalways": 5876,
      "Ġà®ĩà®²à¯įà®²": 5877,
      "à´¨à´Ĥ": 5878,
      "mark": 5879,
      "à°ģ": 5880,
      "à´ŀàµįà´ļ": 5881,
      "Ġà¤ķà¤¹": 5882,
      "à¦¬à§°": 5883,
      "à²Ĥà²ª": 5884,
      "Ġà¦ķà§°à¦¿à¦Ľà¦¿à¦²": 5885,
      "Ġà¨°à©±à¨ĸ": 5886,
      "à¦¾à¦¸à§įà¦¤": 5887,
      "Ġà¨ĸà¨¼": 5888,
      "Ġà¨²à©ĭà¨ķà¨¾à¨Ĥ": 5889,
      "Ġclear": 5890,
      "à¦¾à¦·à§įà¦Ł": 5891,
      "à±įà°³": 5892,
      "à¦¤à§įà¦°": 5893,
      "Ġline": 5894,
      "à©ģà¨ķ": 5895,
      "à®¿à®¯à¯Ī": 5896,
      "Ġà¦¯à§ĭà¦Ĺ": 5897,
      "à°·à±įà°Ł": 5898,
      "à²ĸà³įà²¯": 5899,
      "àª¨àª¾àªĤ": 5900,
      "Ġà¨ķà¨¹": 5901,
      "Ġmeet": 5902,
      "Ġà¤²à¥ĩà¤ķà¤¿à¤¨": 5903,
      "à§Ń": 5904,
      "Ġtoday": 5905,
      "Ġconn": 5906,
      "à¬ªàŃįà¬°": 5907,
      "Ġà°¤à±Ģà°¸à±ģà°ķ": 5908,
      "àµįà´¨": 5909,
      "Ġà¦ķà¦¯à¦¼": 5910,
      "Ġà¦¹à¦²": 5911,
      "Ġrates": 5912,
      "Ġà¦¶à§ģà¦¨": 5913,
      "à¬¿à¬¨àŃįà¬¤": 5914,
      "Ġà¬¦àŃĩà¬ĩà¬": 5915,
      "foo": 5916,
      "àŃ§": 5917,
      "Ġà¤ķà¥įà¤°": 5918,
      "à²¦à²²": 5919,
      "Ġà¦Ńà¦¾à¦¬": 5920,
      "à°¾à°Ĥà°¤": 5921,
      "à´¾à´Łàµįà´Ł": 5922,
      "Ġchanges": 5923,
      "Ġdisease": 5924,
      "Wh": 5925,
      "à®¤à¯Ī": 5926,
      "à²¾à²°à³ģ": 5927,
      "Ġhowever": 5928,
      "Ġsimilar": 5929,
      "Ġur": 5930,
      "Ġà¤ķà¤¾à¤¯": 5931,
      "left": 5932,
      "Ġalready": 5933,
      "Ġà¨ľà©ĩ": 5934,
      "Ġà¤ĺà¥ĩà¤¤": 5935,
      "ification": 5936,
      "Ġinsurance": 5937,
      "ĠâĤ¹": 5938,
      "à¦¿à¦£": 5939,
      "à¨¾à¨ı": 5940,
      "Ġà¦¬à¦¾à¦¹": 5941,
      "à´¤à´¿": 5942,
      "à´¤à´¿à´°": 5943,
      "ĠCan": 5944,
      "Ġà¨µà©±à¨²": 5945,
      "Ġà¬ªà¬¾à¬°": 5946,
      "à´¸àµįà´±àµįà´±": 5947,
      "Ġà¬¦à¬¿à¬¨": 5948,
      "à¥ģà¤Ł": 5949,
      "à¨¸à©Ģà¨Ĥ": 5950,
      "Ġà¦¤à¦¾à¦¦à§ĩà¦°": 5951,
      "ĠFin": 5952,
      "Ġà¬ĹàŃįà¬°": 5953,
      "Ġsingle": 5954,
      "IN": 5955,
      "Ġlin": 5956,
      "à²¤à²¿à²¯": 5957,
      "istic": 5958,
      "Ġà²¬à²Ĺ": 5959,
      "à²¿à²¸à³ģà²¤à³įà²¤": 5960,
      "à°Łà°¿": 5961,
      "Ġà°¦à±Ģ": 5962,
      "Ġscient": 5963,
      "àŃĩà¬¬àŃĩ": 5964,
      "data": 5965,
      "ising": 5966,
      "à§ĩà¦¡": 5967,
      "Ġpath": 5968,
      "à´¾à´¹": 5969,
      "Ġà¬ķà¬³": 5970,
      "ĠWhat": 5971,
      "Ġà¦®à¦¾à¦¨à§ģà¦·": 5972,
      "Ġàªªà«ĭàª¤": 5973,
      "mission": 5974,
      "à¬°à¬£": 5975,
      "à©ĭà¨ľ": 5976,
      "Ġà°¨à±ģà°Ĥà°ļà°¿": 5977,
      "à¬³à¬°àŃĩ": 5978,
      "Ġà¦§à¦°": 5979,
      "Ġspace": 5980,
      "Any": 5981,
      "::": 5982,
      "Ġà¤¸à¥Ĥ": 5983,
      "Ġà¦ªà¦¾à¦²": 5984,
      "Ġà´ªàµĬ": 5985,
      "Ġ197": 5986,
      "à°Ĥà°¤à±įà°°": 5987,
      "à´ķàµįà´¤": 5988,
      "à¯Īà®ķà®³à¯į": 5989,
      "Ġà®¸": 5990,
      "agn": 5991,
      "result": 5992,
      "Ġà®ĩà®¯": 5993,
      "à®¤à¯įà®¤à®¿à®©à¯į": 5994,
      "Ġhaving": 5995,
      "Ġà¤µà¤¿à¤¦": 5996,
      "Ġà¬īà¬ªà¬°àŃĩ": 5997,
      "eb": 5998,
      "àŃĩà¬Ł": 5999,
      "à®ķà¯įà®ķà¯ģ": 6000,
      "à¯ģà®³à¯į": 6001,
      "Ġà¤īà¤¤à¥įà¤ª": 6002,
      "à¥ģà¤µ": 6003,
      "Ġvol": 6004,
      "ength": 6005,
      "Ġ;": 6006,
      "à¥¨": 6007,
      "Ġfurther": 6008,
      "à±Ĩà°Ĥà°Ł": 6009,
      "Ġà¦ļà¦¾à¦ĩ": 6010,
      "Ġà¤Ĺà¤ı": 6011,
      "ĠEn": 6012,
      "ogn": 6013,
      "Ġnormal": 6014,
      "ole": 6015,
      "à¬Ľ": 6016,
      "ĠSouth": 6017,
      "à©±à¨ľ": 6018,
      "Ġà§©": 6019,
      "à©Ģà¨Ł": 6020,
      "Ġà²¬à²Ĥà²¦": 6021,
      "ports": 6022,
      "Ġmanagement": 6023,
      "IT": 6024,
      "Ġà¦¢": 6025,
      "àªĤàªļ": 6026,
      "Ġà¤¬à¤¾à¤°": 6027,
      "Ġrequire": 6028,
      "Ĭà¤¨": 6029,
      "à°¾à°³": 6030,
      "ctions": 6031,
      "Ġà¤ħà¤¶": 6032,
      "Ġask": 6033,
      "Ġà¨ħà¨ľ": 6034,
      "Ġà¤īà¤¤à¥įà¤¤": 6035,
      "à±ģà°¸": 6036,
      "Ġà¦¨à¦¤": 6037,
      "àª¾àª°à«ĭ": 6038,
      "àµĭàµ¾": 6039,
      "Ġrange": 6040,
      "à¦¿à¦¤à¦¾": 6041,
      "à©ľà©Ģ": 6042,
      "Ġà¦ħà¦¨à§ĩà¦ķ": 6043,
      "Ġanim": 6044,
      "Ġdescrib": 6045,
      "Ġà¤¯à¥ĩà¤¥": 6046,
      "isc": 6047,
      "Ġà¤ªà¥Ģ": 6048,
      "àª¿àªĤàªĹ": 6049,
      "Ġstep": 6050,
      "à¤¦à¥įà¤°": 6051,
      "à«ĩàªĸ": 6052,
      "umb": 6053,
      "Ġà¬®à¬¾à¬¨": 6054,
      "Ġàªµà«įàª¯": 6055,
      "Ġà¨ĸà©ĩ": 6056,
      "ĠNews": 6057,
      "Ġà¦¬à§įà¦¯à¦¬": 6058,
      "add": 6059,
      "à¤Ĺà¥įà¤°": 6060,
      "àŃĭà¬°àŃįà¬": 6061,
      "Ġàª¤à«ĩàª¨à«Ģ": 6062,
      "Ġclaim": 6063,
      "ological": 6064,
      "Ġà¤ħà¤¨à¥įà¤¯": 6065,
      "Ġàª°àª¹à«ĩ": 6066,
      "Ġà¤ľà¥Ģà¤µ": 6067,
      "Ġà¤ķà¤°à¤¤à¤¾": 6068,
      "Ġà¤Ńà¤¾à¤Ĺ": 6069,
      "à°¡à°¾à°¨à°¿à°ķà°¿": 6070,
      "Ġcho": 6071,
      "Ġà¤Ŀà¤¾à¤²à¥ĩ": 6072,
      "most": 6073,
      "ada": 6074,
      "ĠMed": 6075,
      "à®µà¯Ī": 6076,
      "à¤¡à¥Ĥà¤¨": 6077,
      "Ġà²¨à²¿à²®": 6078,
      "Ġàªıàª®": 6079,
      "Ġà¤°à¤¾à¤ľà¥įà¤¯": 6080,
      "Ġhttp": 6081,
      "ump": 6082,
      "à³Ĥà²°à³ģ": 6083,
      "à§įà¦¯à¦¤": 6084,
      "Ġà¤¤à¥įà¤¯à¤¾à¤®à¥ģà¤³à¥ĩ": 6085,
      "Ġexpress": 6086,
      "side": 6087,
      "Ġaway": 6088,
      "à¤¿à¤§": 6089,
      "àŃĩà¬ª": 6090,
      "à±Ģà°¯": 6091,
      "ĠBrit": 6092,
      "Ġà¬Ĩà¬ª": 6093,
      "à¯įà®¸": 6094,
      "à«Ģàª°": 6095,
      "ĠSp": 6096,
      "à¤°à¥įà¤Ĺ": 6097,
      "à¨¾à¨°à¨¤": 6098,
      "àª¾àª£à«Ģ": 6099,
      "Ġà¬ĺà¬Ł": 6100,
      "Ġsqu": 6101,
      "Ġsix": 6102,
      "Ġà¬¸àŃģà¬": 6103,
      "à¬¿à¬¬à¬¾à¬°": 6104,
      "à§ĩà¦¤à§ĩ": 6105,
      "Ġà¦ķà§°à¦¿à¦¬à¦²à§Ī": 6106,
      "Ġà¦¬à¦¿à¦Ńà¦¿à¦¨à§įà¦¨": 6107,
      "15": 6108,
      "Ġcame": 6109,
      "à¤°à¥ĭ": 6110,
      "à²³à³įà²³": 6111,
      "à®µà¯įà®µ": 6112,
      "àªľà«ĩ": 6113,
      "Ġservices": 6114,
      "à©Ģà¨°": 6115,
      "à©°à¨¨": 6116,
      "istan": 6117,
      "Ġcompanies": 6118,
      "Ġà²Ńà²¾à²°à²¤": 6119,
      "sy": 6120,
      "à§ĩà¦£": 6121,
      "à°¿à°Ĺà°¾": 6122,
      "Ġà²ķà³Ĥ": 6123,
      "Ġà¦ĩà¦¤": 6124,
      "201": 6125,
      "à¥ģà¤¸à¤¾à¤°": 6126,
      "Ġà¦¬à¦°": 6127,
      "Ġà¤ľà¤¾à¤ı": 6128,
      "àªªà«įàª°": 6129,
      "Ġà¨Ĺà©±à¨²": 6130,
      "Ġblood": 6131,
      "à¥Ģà¤®à¤¾": 6132,
      "à´¨àµįà´¨àµį": 6133,
      "à±ģà°²à°¨à±ģ": 6134,
      "Ġà¦ıà¦ķà¦Łà¦¾": 6135,
      "à²¿à²¤à³įà²°": 6136,
      "Ġà¤¸à¤ķà¤¤à¤¾": 6137,
      "Ġà¦¬à§įà¦¯à§±": 6138,
      "Ġà¨¸à¨¹": 6139,
      "ĠMay": 6140,
      "à´¾à´¤àµįà´¤": 6141,
      "bar": 6142,
      "à¬ĩ": 6143,
      "Ġage": 6144,
      "à§ĭà¦¸": 6145,
      "à¤¦à¤¾à¤¨": 6146,
      "à§įà¦¯à§°": 6147,
      "à±ĩà°ª": 6148,
      "Ġà°µà±Ī": 6149,
      "Ġusually": 6150,
      "à´±àµįà´±àµį": 6151,
      "àª¨à«įàª¸": 6152,
      "Ġà¤Ńà¤¾à¤°à¤¤à¥Ģà¤¯": 6153,
      "Ġà¦ĩà¦¯à¦¼à¦¾à§°": 6154,
      "lying": 6155,
      "Ġà¤ľà¤®": 6156,
      "à°ķà°°": 6157,
      "andom": 6158,
      "Ġàªµàª¾àª¤": 6159,
      "Ġà¤īà¤¨à¥įà¤¹à¥ĭà¤Ĥà¤¨à¥ĩ": 6160,
      "pass": 6161,
      "Ġtheory": 6162,
      "Ġà¤ªà¥ģà¤°": 6163,
      "Ġstates": 6164,
      "àŃĢà¬¬": 6165,
      "àµģà´®àµįà´ª": 6166,
      "uation": 6167,
      "à¦¿à¦ī": 6168,
      "ĠAust": 6169,
      "ĠSo": 6170,
      "Ġà´¸àµįà´¥": 6171,
      "ternal": 6172,
      "Ġàªķà«ĭàªĪ": 6173,
      "17": 6174,
      "Ġà¤ªà¤¾à¤¹": 6175,
      "ids": 6176,
      "verse": 6177,
      "Ġà®ļà®®": 6178,
      "Ġà¤ķà¤°à¥Ĥà¤¨": 6179,
      "Ġshare": 6180,
      "à¤¾à¤±": 6181,
      "lection": 6182,
      "à¦¬à¦¾": 6183,
      "Ġà°µà°°": 6184,
      "itor": 6185,
      "à²¦à²²à³įà²²": 6186,
      "à¦¾à¦¨à¦¾": 6187,
      "à®µà®°à¯į": 6188,
      "à¬°àŃįà¬¥": 6189,
      "Ġmembers": 6190,
      "àŃĩà¬¨àŃįà¬¦": 6191,
      "à´£àµįà´£": 6192,
      "Ġà¬ĵà¬¡à¬¼à¬¿à¬¶": 6193,
      "hand": 6194,
      "{\"": 6195,
      "à¤ģ": 6196,
      "Ġà¨¸à¨¾à¨°à©ĩ": 6197,
      "Ġà¤ħà¤¬": 6198,
      "ules": 6199,
      "Ġà¨ľà¨¾à¨µ": 6200,
      "rix": 6201,
      "indow": 6202,
      "Ġprim": 6203,
      "option": 6204,
      "Ġàª¦à«įàªµàª¾àª°àª¾": 6205,
      "tem": 6206,
      "àªħ": 6207,
      "Ġcause": 6208,
      "Ġà¦¬à§ģà¦": 6209,
      "ctor": 6210,
      "à¦¬à¦¾à¦¦": 6211,
      "à¦¾à§°à§°": 6212,
      "Ġà¦ħà¦¸": 6213,
      "à¯ģà®ķà¯įà®ķà¯ģà®®à¯į": 6214,
      "à¨¾à¨£à©Ģ": 6215,
      "àªĥ": 6216,
      "à¥ĩà¤¦": 6217,
      "Ġà¦ıà¦²": 6218,
      "Ġà¨ªà©Ī": 6219,
      "ortun": 6220,
      "Ġà¤«à¤¿à¤°": 6221,
      "ĠChrist": 6222,
      "Ġà¬ķà¬°à¬¿à¬Ľà¬¨àŃįà¬¤à¬¿": 6223,
      "Ġterms": 6224,
      "à«įàª·": 6225,
      "Ġà´ķàµģà´±": 6226,
      "Ġà¬®à¬¿à¬³": 6227,
      "Ġ--": 6228,
      "à¤ľà¤¨": 6229,
      "àµĢà´°": 6230,
      "ĠOr": 6231,
      "Ġcontext": 6232,
      "à¯ģà®µà®°": 6233,
      "à²¦à³ģà²ķ": 6234,
      "Ġdiscuss": 6235,
      "Ġproblem": 6236,
      "help": 6237,
      "Ġà¬ĩ": 6238,
      "Ġtook": 6239,
      "Ġlat": 6240,
      "erence": 6241,
      "Ġintrodu": 6242,
      "Ġplant": 6243,
      "Ġà¤ĩà¤¸à¤ķà¥ĩ": 6244,
      "Ġà¦¬à¦²à§ĩà¦¨": 6245,
      "Ġà¤µà¤¾à¤²à¥ĩ": 6246,
      "Ġà¤¨à¤µ": 6247,
      "à¤°à¥įà¤¸": 6248,
      "à°¿à°ķà°¾à°°": 6249,
      "à´¿à´ķàµįà´ķàµģà´Ĥ": 6250,
      "àµĩà´¹": 6251,
      "à¤Ĥà¤¦à¥įà¤°": 6252,
      "Ex": 6253,
      "part": 6254,
      "sel": 6255,
      "Ġ}": 6256,
      "à°¸à°Ĥ": 6257,
      "ograph": 6258,
      "ookie": 6259,
      "à¦¯à§ĭà¦Ĺ": 6260,
      "icult": 6261,
      "utes": 6262,
      "à¦¾à¦°à§ĩà¦°": 6263,
      "AN": 6264,
      "Type": 6265,
      "Ġà¨¦à¨¿à¨¨": 6266,
      "à®Łà¯ģ": 6267,
      "ĠAcc": 6268,
      "àªķà«įàª¤": 6269,
      "Ġà®®à®°": 6270,
      "à¥įà¤²à¥Ģ": 6271,
      "cle": 6272,
      "à¥įà¤Ĺ": 6273,
      "Ġparent": 6274,
      "Ġàª¤àª°": 6275,
      "à´¯à´Ĥ": 6276,
      "à®µà¯ģ": 6277,
      "ĠBe": 6278,
      "Ġà°®à°¨": 6279,
      "Ġà²Ĺà³įà²°": 6280,
      "à®¾à®¤à¯ģ": 6281,
      "àµĭà´¦": 6282,
      "Ġà¤ķà¤¾à¤°à¥įà¤¯à¤ķ": 6283,
      "Ġstrong": 6284,
      "Ġà¬®à¬§àŃįàŃŁà¬°àŃĩ": 6285,
      "Ġà¬ĩà¬": 6286,
      "Ġà¤¸à¤¿à¤Ĥ": 6287,
      "àª¿àªĤ": 6288,
      "Ġà¤¬à¥įà¤°": 6289,
      "ĠOne": 6290,
      "Ġrole": 6291,
      "à²¿à²µà³Ĩ": 6292,
      "à´¿à´ķàµįà´ķàµģà´¨àµįà´¨à´¤àµį": 6293,
      "ones": 6294,
      "àª¾àªŁ": 6295,
      "à°¿à°¶": 6296,
      "à¥įà¤¯à¤Ĥà¤¤": 6297,
      "Ġlower": 6298,
      "à«ĭàª°": 6299,
      "Ġà²¸à²¾à²§": 6300,
      "à±ģà°²à°ķà±ģ": 6301,
      "There": 6302,
      "plement": 6303,
      "use": 6304,
      "Ġinternational": 6305,
      "à¬¾à¬ģ": 6306,
      "Ġàªķàª¾àª®": 6307,
      "AT": 6308,
      "à®²à®¾à®®à¯į": 6309,
      "àµĩà´¤": 6310,
      "Ġsugg": 6311,
      "Ġà¤ªà¥įà¤°à¤®": 6312,
      "Ġà´¨à´¿à´°": 6313,
      "à¬¨àŃįà¬¤àŃģ": 6314,
      "Ġà¦Ĩà¦®à¦¾à§°": 6315,
      "Ġimpact": 6316,
      "Ġà¦¨à¦¤à§ģà¦¨": 6317,
      "Ġsuggest": 6318,
      "à´İ": 6319,
      "Ġtry": 6320,
      "à¨¾à¨Ĥà¨Ĺ": 6321,
      "à§ģà¦Ń": 6322,
      "thing": 6323,
      "Ġà´ķàµģà´Ł": 6324,
      "à°¾à°²à°¨à±ģ": 6325,
      "Ġà¨ķà¨°à¨¦à©ĩ": 6326,
      "pecially": 6327,
      "à¤ķà¤°à¤£": 6328,
      "Ġà¤ħà¤ªà¤¨à¥Ģ": 6329,
      "Ġà¨ķà¨¿à¨¸à©ĩ": 6330,
      "Ġcourse": 6331,
      "à°¥": 6332,
      "Ġtext": 6333,
      "Ġsaf": 6334,
      "fil": 6335,
      "¨à¥ĩ": 6336,
      "à¤¾à¤Ĥà¤ļ": 6337,
      "Ġà¨®à©ĩ": 6338,
      "àŃĭà¬·": 6339,
      "Ġàª²à«Ģ": 6340,
      "à«ĩàªŁàª²": 6341,
      "hold": 6342,
      "à¦²à¦¤": 6343,
      "Ġà¤®à¤¾à¤¤à¥įà¤°": 6344,
      "à«Ĥàª°": 6345,
      "}}\\": 6346,
      "à®ŀà¯įà®ļ": 6347,
      "erve": 6348,
      "Ġà¤°à¤ĸ": 6349,
      "Ġà¨¹à©ĭà¨ĩà¨Ĩ": 6350,
      "Ġaccording": 6351,
      "Ġà®Ĭ": 6352,
      "à¬¿à¬Ĺ": 6353,
      "Ġgra": 6354,
      "ĠAb": 6355,
      "Ġà¦¨à¦¯à¦¼": 6356,
      "à´¯à´¿àµ½": 6357,
      "Ġà¦ľà¦¾à¦¤": 6358,
      "Ġnever": 6359,
      "àª¿àª¯àª¾": 6360,
      "Ġà²®à³ĩà²²à³Ĩ": 6361,
      "Ġpressure": 6362,
      ".)": 6363,
      "à«ģàª®": 6364,
      "à¦¾à§°à§Ģ": 6365,
      "Ġà®ķà®Łà¯įà®Ł": 6366,
      "àµģà´®à´¾à´¯à´¿": 6367,
      "à¯įà®¨à¯įà®¤à¯ģ": 6368,
      "code": 6369,
      "func": 6370,
      "àª¾àª¥": 6371,
      "Ġbir": 6372,
      "Ġà¨¹à¨¾à¨Ĥ": 6373,
      "Ġà¤¨à¤¾à¤®": 6374,
      "à§įà¦¯à¦¾à¦¯à¦¼": 6375,
      "à±Ĩà°°": 6376,
      "Ġà¤ıà¤µ": 6377,
      "à¯ģà®ķà®¿à®©à¯įà®±": 6378,
      "Ġà¨µà¨¿à¨¸": 6379,
      "Ġà°µà°¿à°·": 6380,
      "Ġcentral": 6381,
      "à´¾à´±àµįà´±": 6382,
      "Ġ...": 6383,
      "à°¿à°¡": 6384,
      "Ġà¦¬à§ĩà¦¶": 6385,
      "iment": 6386,
      "àŃĭà¬ľ": 6387,
      "à´µà´¿à´": 6388,
      "à´¨àµĨ": 6389,
      "Ġindic": 6390,
      "Ġspecific": 6391,
      "Ġ27": 6392,
      "Ġà¦ħà¦¨à§ģà¦·à§įà¦ł": 6393,
      "à¤¿à¤µà¤¾à¤°": 6394,
      "BI": 6395,
      "file": 6396,
      "reen": 6397,
      "à¬ªàŃģà¬°": 6398,
      "à®¿à®Łà®®à¯į": 6399,
      "Ġà²Ĺà³ģ": 6400,
      "Ġsubject": 6401,
      "ysis": 6402,
      "à¥Ģà¤¸": 6403,
      "Ġcash": 6404,
      "Ġà¨¸à©ĭ": 6405,
      "Ġà¤µà¥įà¤¯à¤µ": 6406,
      "Ġà¬¸à¬¬": 6407,
      "àµ¼à´ķàµįà´ķ": 6408,
      "Ġclient": 6409,
      "Ġà¦¤à§ģà¦²": 6410,
      "à¤¦à¤¿": 6411,
      "ĠMe": 6412,
      "Ġà®ħà®³": 6413,
      "oph": 6414,
      "Ġàªľàª£": 6415,
      "àªĹàª°": 6416,
      "comm": 6417,
      "Ġà¬¸àŃĩà¬¹": 6418,
      "Ġproducts": 6419,
      "25": 6420,
      "àµģà´ªàµįà´ª": 6421,
      "à¤ķà¤¾à¤°à¥Ģ": 6422,
      "Ġdecl": 6423,
      "Ġà´¨à´¿à´²": 6424,
      "Ġbecame": 6425,
      "à´¨àµįà´¤àµįà´¯": 6426,
      "Ġlikely": 6427,
      "Ġpain": 6428,
      "Ġfr": 6429,
      "à¨¿à©°à¨¦": 6430,
      "Ġà¬ªà¬¾à¬": 6431,
      "Ġà¤¬à¥Ī": 6432,
      "ĠWest": 6433,
      "Ġà°īà°Ĥà°¡": 6434,
      "Ġmatch": 6435,
      "Ġà¦¨à¦¹à¦¯à¦¼": 6436,
      "Com": 6437,
      "ients": 6438,
      "à§¬": 6439,
      "à¦¤à¦¿à¦ķ": 6440,
      "Ġà¨¨à¨¿à¨°": 6441,
      "Ġà®µà®¿à®°": 6442,
      "à²¿à²¦à²°à³ģ": 6443,
      "Ġàª¬à«Ģ": 6444,
      "à§ĩà¦Ľà¦¿": 6445,
      "Ġà¦ħà¦Ńà¦¿à¦¯": 6446,
      "à®¾à®±à¯įà®±": 6447,
      "à¬¿à¬·": 6448,
      "Ġà¦¬à¦¿à¦ķ": 6449,
      "Ġeither": 6450,
      "Ġà¬¸à¬¾à¬®": 6451,
      "à´¤àµįà´¤à´¿à´²": 6452,
      "Ġà®İà®¤à®¿à®°": 6453,
      "Ġà¦²à¦¿à¦ĸ": 6454,
      "Ġtoget": 6455,
      "Ġnatural": 6456,
      "Ġà¨¸à¨¥": 6457,
      "à±ĭà°¤": 6458,
      "Ġà¨¤à©±à¨ķ": 6459,
      "à´¿à´¤àµįà´°": 6460,
      "Ġà¦²à¦Ĺà¦¤": 6461,
      "Ġcomplex": 6462,
      "Ġprivate": 6463,
      "Ġtogether": 6464,
      "Ġsent": 6465,
      "anu": 6466,
      "à©ĩà¨µ": 6467,
      "aged": 6468,
      "à¤¿à¤²à¤¾": 6469,
      "cont": 6470,
      "ething": 6471,
      "Ġà¦¬à¦¿à¦¶à§ĩà¦·": 6472,
      "tx": 6473,
      "à¬¿àŃŁ": 6474,
      "Ġà°¸à°¿à°¨": 6475,
      "à¨¾à¨²à©Ģ": 6476,
      "à¤²à¥ĩà¤²à¥įà¤¯à¤¾": 6477,
      "à¤¾à¤ľà¥Ģ": 6478,
      "Ġà¦ªà¦¾à¦°à§ĩ": 6479,
      "Ġfoc": 6480,
      "Ġfile": 6481,
      "à©±à¨¤à¨°": 6482,
      "à°¸à±įà°Ł": 6483,
      "context": 6484,
      "Ġà¬¦àŃĩà¬¶": 6485,
      "à²¾à²·": 6486,
      "à©ģà¨²": 6487,
      "à®¿à®¯à¯ģà®®à¯į": 6488,
      "à°Łà±įà°²à±ģ": 6489,
      "Ġà²ĩà²²à³įà²²": 6490,
      "Ġwords": 6491,
      "Ġworking": 6492,
      "à°¾à°Łà±ģ": 6493,
      "Ġà¬®àŃģà¬ģ": 6494,
      "Ġà¤¸à¤Ńà¥Ģ": 6495,
      "Ġà¦ªà¦¥": 6496,
      "Ġà¨ķà¨®": 6497,
      "à¤ªà¥Ĥ": 6498,
      "à©°à¨ļ": 6499,
      "exp": 6500,
      "à¦Ĥà¦Ĺ": 6501,
      "Ġà¬ħà¬¨àŃįàŃŁ": 6502,
      "Ġinvestment": 6503,
      "Ġà¤¨à¤¿à¤ķ": 6504,
      "à«ĩàªľ": 6505,
      "Ġweek": 6506,
      "Ġà®ħà®µà®°": 6507,
      "Ġglobal": 6508,
      "Ġcalcul": 6509,
      "à¨¿à¨Ł": 6510,
      "à®²à®®à¯į": 6511,
      "Ġspecies": 6512,
      "Ġrespect": 6513,
      "à´¦àµįà´¦": 6514,
      "Ġà¦¸à¦¾à¦¹à¦¿à¦¤": 6515,
      "Ġconcern": 6516,
      "à²Ĥà²Ń": 6517,
      "à¨¸à¨°": 6518,
      "Ġà¨ħà¨§": 6519,
      "ibility": 6520,
      "à²Ĥà²¤à³įà²°": 6521,
      "ique": 6522,
      "Ġsal": 6523,
      "Ġ23": 6524,
      "Ġà¦ħà¦ª": 6525,
      "à´¿à´ļàµįà´ļà´¤àµį": 6526,
      "à±ģà°¤à±ģà°¨à±įà°¨": 6527,
      "ĠMinister": 6528,
      "tes": 6529,
      "ĠÂ": 6530,
      "Ġà¦ķà§Ģ": 6531,
      "àªŁà«Ģ": 6532,
      "Ġappear": 6533,
      "Ġà¤ªà¤¹à¤²à¥ĩ": 6534,
      "Ġproblems": 6535,
      "ges": 6536,
      "à´¿à´ª": 6537,
      "Ġà¨¸à¨¾à¨²": 6538,
      "àªĤàªķ": 6539,
      "Ġà¦²à¦ķà§įà¦·": 6540,
      "Ġà´°à´¾à´ľ": 6541,
      "Ġcommunity": 6542,
      "fact": 6543,
      "ļà¥įà¤¯à¤¾": 6544,
      "uted": 6545,
      "à¤¾à¤¸à¤¨": 6546,
      "à©ľà©įà¨¹": 6547,
      "PI": 6548,
      "enn": 6549,
      "Ġà¤ľà¤¾à¤¨": 6550,
      "à±Ĩà°ķ": 6551,
      "Ġà²¨à³ĭà²¡": 6552,
      "à°Ĥà°Łà±ĩ": 6553,
      "Ġà¤²à¥ĭà¤Ĺà¥ĭà¤Ĥ": 6554,
      "Ġà²¬à²Ĺà³įà²Ĺà³Ĩ": 6555,
      "yd": 6556,
      "omet": 6557,
      "Ġgive": 6558,
      "àªµàª¾àª°": 6559,
      "à¬®àŃįà¬Ń": 6560,
      "à³Ģà²¯": 6561,
      "Ġà¦Ńà¦¾à¦·": 6562,
      "à¨¿à¨Ĩà¨°": 6563,
      "Ġà¬¬à¬¿à¬ľ": 6564,
      "Ġà®®à¯ĩà®²": 6565,
      "pytest": 6566,
      "Ġmot": 6567,
      "àµģà´¨": 6568,
      "Ġ194": 6569,
      "Ġàª²à«ĩ": 6570,
      "Ġàªļàª¾àª²": 6571,
      "Ġà´µà´¿à´µ": 6572,
      "Ġrespons": 6573,
      "Ġà¤µà¤¿à¤¶à¥įà¤µ": 6574,
      "init": 6575,
      "ĠMar": 6576,
      "Ġvar": 6577,
      "Ġà¦ļà¦¿à¦¨": 6578,
      "à°¨à±įà°¨à°¾à°°à±ģ": 6579,
      "à¯ģà®³à¯įà®³à®¾à®°à¯į": 6580,
      "Ġtechnology": 6581,
      "à§§à§": 6582,
      "Ġà¤¹à¤ľ": 6583,
      "à¦¾à¦®à§Ģ": 6584,
      "Ġà¬°à¬ĸ": 6585,
      "Ġàª¦àª¿àªµ": 6586,
      "à¨¬à¨°": 6587,
      "Ġà°Ńà°¾à°°": 6588,
      "à¯ģà®ªà¯į": 6589,
      "Ġà¨¤à©ģà¨¸à©Ģà¨Ĥ": 6590,
      "à¥ĩà¤³à¥Ģ": 6591,
      "lam": 6592,
      "¦àµįà´": 6593,
      "inary": 6594,
      "Ġdone": 6595,
      "Ġà¦¬à¦¨à§įà¦§": 6596,
      "à¨¿à¨ľ": 6597,
      "Ġà¨¦à©±à¨¸": 6598,
      "à¦¾à§°à¦£": 6599,
      "à²¿à²ķà³Ĭà²³à³įà²³": 6600,
      "Ġà®īà®°": 6601,
      "à°°à±įà°ª": 6602,
      "Ġà¦Ĩà¦®à¦¾à¦¦à§ĩà¦°": 6603,
      "Ġlittle": 6604,
      "à±ģà°ĸ": 6605,
      "àŃģà¬ķàŃįà¬¤": 6606,
      "àŃĩà¬¹": 6607,
      "àª®à«Ģ": 6608,
      "Ġdemand": 6609,
      "Ġà¦ķà¦°à§įà¦®": 6610,
      "ĠWith": 6611,
      "à°¾à°¨à±ģ": 6612,
      "Ġplac": 6613,
      "Ġà¦°à¦¾à¦ĸ": 6614,
      "à¯Īà®¤à¯įà®¤à¯ģ": 6615,
      "Ġthought": 6616,
      "Ġà¦ªà¦¦": 6617,
      "Ġà¦¨à§ĩà¦¤": 6618,
      "Ġà¤µà¥įà¤¹": 6619,
      "Ġà®®à®¾à®µ": 6620,
      "Ġà¨ľà©Ģ": 6621,
      "à¦¦à¦¾à¦¨": 6622,
      "ours": 6623,
      "Ġà¤¸à¤Ĥà¤¬à¤Ĥà¤§": 6624,
      "Ġà¬¬à¬¿à¬Ń": 6625,
      "à¦¸à§įà¦¥à¦¾": 6626,
      "Ġà¨Ĩà¨ªà¨£à©Ģ": 6627,
      "Ġinflu": 6628,
      "à¤ĩ": 6629,
      "à°«": 6630,
      "à¬ħ": 6631,
      "Ġhalf": 6632,
      "à¦²à§ĩà¦¨": 6633,
      "etic": 6634,
      "à²Ĥà²§": 6635,
      "Ġà¦¦à¦¿à¦¯à¦¼à¦¾": 6636,
      "Ġà¤¬à¤¤": 6637,
      "Ġdeath": 6638,
      "àª¸à«Ģ": 6639,
      "output": 6640,
      "à°¾à°¤à±įà°°": 6641,
      "Ġincreased": 6642,
      "à´¾à´¨àµįà´": 6643,
      "à§ģà¦ģ": 6644,
      "ands": 6645,
      "à³ĭà²¦": 6646,
      "à±ģà°¤à±įà°µ": 6647,
      "à´¾à´²àµį": 6648,
      "Ġindepend": 6649,
      "à²¿à²İ": 6650,
      "Ġà¦¹à§ĭà§±à¦¾": 6651,
      "à©°à¨Ł": 6652,
      "Ġworks": 6653,
      "à¤¿à¤Ĥà¤¦": 6654,
      "Ġà¤¹à¥ģà¤Ĩ": 6655,
      "Ġà¦ħà¦§à¦¿à¦ķ": 6656,
      "=\\": 6657,
      "à¦¾à¦«": 6658,
      "Ġsite": 6659,
      "Ġcity": 6660,
      "Ġmax": 6661,
      "Ġà¤®à¥Į": 6662,
      "uses": 6663,
      "Ġà²¤à²®à³įà²®": 6664,
      "à¬¾à¬¹à¬¾à¬°": 6665,
      "Ġàªīàª¤": 6666,
      "ĠGovernment": 6667,
      "Ġà¨¸à¨¿à©±à¨ĸ": 6668,
      "Ġà®µà®¾à®´": 6669,
      "à¥įà¤ł": 6670,
      "à³Ĩà²°": 6671,
      "Ġà¬ķàŃįà¬·": 6672,
      "Ġà¦¬à¦¿à¦ļ": 6673,
      "Ġàªµàª§à«ģ": 6674,
      "Ġà¦¸à¦ķà¦²à§ĭ": 6675,
      "rite": 6676,
      "à¬°àŃįà¬¤àŃįà¬¤": 6677,
      "Ġà¦¸à¦ķà¦²": 6678,
      "à²¡à³įà²¡": 6679,
      "Ġà°¸à±įà°µ": 6680,
      "à¯ģà®µà®©": 6681,
      "Ġà°Ĩà°¯": 6682,
      "à®Ļà¯įà®ķà®³à¯Ī": 6683,
      "ixed": 6684,
      "Ġà²¸à²°à³įà²ķ": 6685,
      "Ind": 6686,
      "Ġbool": 6687,
      "àª¨à«įàªŁ": 6688,
      "Ġà¤µà¥Ī": 6689,
      "Ġà¬ķà¬¿à¬Ľà¬¿": 6690,
      "Ġàª¦àª°": 6691,
      "Ġabs": 6692,
      "Ġens": 6693,
      "Ġà¬Ńà¬¾à¬°": 6694,
      "Ġbehav": 6695,
      "invoke": 6696,
      "CC": 6697,
      "à¥įà¤¬": 6698,
      "oms": 6699,
      "à¨¿à¨¬": 6700,
      "Ġà¤µà¤¿à¤°": 6701,
      "Ġà¦¤à§ģà¦®": 6702,
      "à®¾à®®à®²à¯į": 6703,
      "à®±à¯įà®ķà¯ģ": 6704,
      "time": 6705,
      "Ńà´µ": 6706,
      "Ġhouse": 6707,
      "à¤¾à¤¦à¥Ģ": 6708,
      "à¦¸à§įà¦¥à¦¿à¦¤": 6709,
      "Ġà´ªà´±à´¯": 6710,
      "à²¿à²Ĥà²Ĺà³į": 6711,
      "Ġ__": 6712,
      "Ġonce": 6713,
      "à®¤à¯įà®¤à®¿à®±à¯įà®ķ": 6714,
      "à¦Ńà¦¾à§±": 6715,
      "Ġcontrib": 6716,
      "ĠàŃ©": 6717,
      "à®¿à®ķà¯įà®ķà®ªà¯įà®ªà®Łà¯įà®Ł": 6718,
      "à°¿à°¤à±įà°°": 6719,
      "à¥ĥà¤·": 6720,
      "Ġà²®à³ģà²Ĥà²¦": 6721,
      "à¥ģà¤¦à¥įà¤§": 6722,
      "Ġfull": 6723,
      "ilt": 6724,
      "à¥Ĥà¤Ĥ": 6725,
      "à¥įà¤¯à¤¾à¤¸": 6726,
      "Ġà°¸à±įà°¥": 6727,
      "Ġà¦¯à¦¾à¦¬": 6728,
      "à®¾à®¯à¯į": 6729,
      "Ġbelow": 6730,
      "Ġà¨µà¨¾à¨²à©ĩ": 6731,
      "\"],": 6732,
      "env": 6733,
      "Ġstock": 6734,
      "Ġà¤¬à¤¦": 6735,
      "à°¾à°²à±ĭ": 6736,
      "à¨µà¨°": 6737,
      "ĠàªıàªŁ": 6738,
      "à´¿à´°àµģà´¨àµįà´¨": 6739,
      "à±Ģà°°à±ģ": 6740,
      "Ġàª¯à«ģ": 6741,
      "Ġà¨ļà¨¾à¨¹à©Ģ": 6742,
      "àª¦à«įàª§": 6743,
      "EN": 6744,
      "af": 6745,
      "¡àµį": 6746,
      "àŃ©": 6747,
      "à®¾à®ª": 6748,
      "ĠIm": 6749,
      "à±Ĩà°¨": 6750,
      "àŃĭà¬§": 6751,
      "Ġenough": 6752,
      "à¤Ńà¤¾à¤µ": 6753,
      "Ġà¬¸à¬®à¬¸àŃįà¬¤": 6754,
      "à§¯": 6755,
      "Ġter": 6756,
      "Ġà¤¸à¤¾à¤²": 6757,
      "Ġà¤®à¤¾à¤¹": 6758,
      "imum": 6759,
      "à°°à°Ĥ": 6760,
      "à¨ķà¨¾": 6761,
      "à«ĩàª¦": 6762,
      "Ġà°®à°¹": 6763,
      "Ġà¨²à©±à¨Ĺ": 6764,
      "à¤¬à¥Ģ": 6765,
      "à°¾à°²à°¿": 6766,
      "à®¿à®ķà¯į": 6767,
      "à´¿à´ķàµ¾": 6768,
      "Ġespecially": 6769,
      "ero": 6770,
      "Ġreally": 6771,
      "ĠHis": 6772,
      "à¦Ĥà¦¶": 6773,
      "Ġexpect": 6774,
      "Ġrecent": 6775,
      "àªĤàª¤à«ģ": 6776,
      "à¤ķà¥įà¤ķ": 6777,
      "à¦¤à§įà¦¬": 6778,
      "à§ĭà¦ļ": 6779,
      "Ġà¦¤à¦¾": 6780,
      "Ġà°ķà°¨": 6781,
      "Ġà¨¤à©Įà¨°": 6782,
      "Ġà²¤à²¨à³įà²¨": 6783,
      "à®·": 6784,
      "à¯ģà®¨": 6785,
      "Ġ26": 6786,
      "Ġà¦ļà¦ķ": 6787,
      "Ġà¤ķà¤°à¤¤": 6788,
      "à¯Ĭà®°": 6789,
      "Ġàª¦à«ģ": 6790,
      "à°°à±įà°¶": 6791,
      "à¥ĩà¤¶à¤¨": 6792,
      "Ġdifficult": 6793,
      "Ġconsider": 6794,
      "Ġcells": 6795,
      "cing": 6796,
      "Ġbanks": 6797,
      "à´¾à´´": 6798,
      "Ġnecess": 6799,
      "Ġassoci": 6800,
      "Ġrequired": 6801,
      "Ġtemper": 6802,
      "ES": 6803,
      "à®¾à®¨": 6804,
      "vert": 6805,
      "Ġàª¸à«įàªŁ": 6806,
      "empt": 6807,
      "à¨¿à¨Ĩà¨¨": 6808,
      "à©Ĥà¨°à©Ģ": 6809,
      "Ġrather": 6810,
      "Ġà¦¨à¦¿à¦¶": 6811,
      "Ġà®ªà¯ĭà®²": 6812,
      "à§®": 6813,
      "à¯ģà®©": 6814,
      "à¬Łà¬¿": 6815,
      "Ġà¨¸à¨®à©ĩà¨Ĥ": 6816,
      "Ġà®µà¯Ĩà®³à®¿à®¯": 6817,
      "hest": 6818,
      "à¥ĭà¤¡": 6819,
      "Ġà¦ķà§Ī": 6820,
      "Ġà¦Ĩà¦²à§ĭ": 6821,
      "à¥Ĥà¤ķ": 6822,
      "Ġà¤¤à¤¥à¤¾": 6823,
      "artment": 6824,
      "à¥įà¤Łà¥Ģ": 6825,
      "Ġà¤µà¤¿à¤ļ": 6826,
      "Ġà®µà®¿à®³": 6827,
      "Ġestim": 6828,
      "Ġà¬Ĩà¬ªà¬£": 6829,
      "no": 6830,
      "wargs": 6831,
      "Ġsize": 6832,
      "à¤ļà¤¾à¤°": 6833,
      "à¬°àŃįà¬£": 6834,
      "à²¿à²¯à²¨à³įà²¨à³ģ": 6835,
      "à¤¾à¤ªà¥įà¤¤": 6836,
      "Ġàª¸àª®àª¯": 6837,
      "Ġcreate": 6838,
      "à¬ŀàŃįà¬ľ": 6839,
      "Ġmonths": 6840,
      "Ġdig": 6841,
      "Ġà¦®à§ĥà¦¤": 6842,
      "à¦ªà§įà§°": 6843,
      "Ġà®ļà®°": 6844,
      "Ġà´ķà´£àµįà´Ł": 6845,
      "à´¤àµįà´¤à´¿à´¨àµį": 6846,
      "Ġà¨¬à¨¾à¨°à©ĩ": 6847,
      "Ġà´ĩà´¨àµįà´¤àµįà´¯": 6848,
      "Ġà°Ĺà±įà°°": 6849,
      "à®±à¯įà®±à¯ģ": 6850,
      "à²ľà³įà²": 6851,
      "Ġaddress": 6852,
      "Ġà²¨à³Ģà²µà³ģ": 6853,
      "AS": 6854,
      "Ġà¦¸à§Ī": 6855,
      "oll": 6856,
      "à²¤à²°": 6857,
      "Ġà¦Ĺà¦¤": 6858,
      "ĠJu": 6859,
      "Ġàª®àª¾àª¤": 6860,
      "à¥ĩà¤²à¥įà¤¯à¤¾": 6861,
      "Ġà¤²à¤ķà¥įà¤·": 6862,
      "Ġsystems": 6863,
      "à¤¿à¤£": 6864,
      "Ġà¦ªà¦¾à¦¨": 6865,
      "à¦®à§įà¦Ń": 6866,
      "à¬¿à¬¬à¬¾à¬ķàŃģ": 6867,
      "à¤ıà¤¸": 6868,
      "Ġà°ªà±įà°°à°Ńà±ģà°¤à±įà°µ": 6869,
      "Ġà°¸à°¿à°¨à°¿à°®": 6870,
      "Ġà´ŀ": 6871,
      "à®¾à®ªà¯įà®ª": 6872,
      "Ġà¤µà¤¾à¤¢": 6873,
      "ĠMus": 6874,
      "Ġàª¤à«įàª¯àª¾àª°à«ĩ": 6875,
      "Ġyield": 6876,
      "ĠàªĨàªĹ": 6877,
      "Ġà¨°à¨¾à¨ľ": 6878,
      "à±Ĥà°¨": 6879,
      "à±Īà°¤": 6880,
      "Ġàª¦à«Ģ": 6881,
      "heme": 6882,
      "Ġmeasure": 6883,
      "Ġobserv": 6884,
      "Ġà¦¬à¦¾à¦Ĥà¦²": 6885,
      "oman": 6886,
      "Ġà¨¸à¨¿à¨°": 6887,
      "Ġà¨¨à¨µ": 6888,
      "Ġà²ķà²°": 6889,
      "Ġkind": 6890,
      "ricult": 6891,
      "Ġà®Ĩà®¯": 6892,
      "Ġcompet": 6893,
      "Ġ60": 6894,
      "Ġbuy": 6895,
      "AR": 6896,
      "ires": 6897,
      "àŃ«": 6898,
      "ĠSy": 6899,
      "Ġà¤¬à¤¢à¤¼": 6900,
      "Ġwhy": 6901,
      "à§įà¦¯à¦¨à§įà¦¤": 6902,
      "mu": 6903,
      "atures": 6904,
      "ley": 6905,
      "Ġthough": 6906,
      "à¨¤à¨¾à¨Ĥ": 6907,
      "Ġà¦¹à¦¾à¦ľ": 6908,
      "à¦¿à¦¨à§įà¦¦": 6909,
      "Ġà¦ķà¦°à¦¾à¦°": 6910,
      "ĠGu": 6911,
      "Ġà¬¨àŃĩà¬ĩ": 6912,
      "Ġaddition": 6913,
      "Ġà¤īà¤¨à¤ķà¥ĩ": 6914,
      "Ġà¨ķà¨¾à¨°à¨¨": 6915,
      "Ġsomething": 6916,
      "13": 6917,
      "urs": 6918,
      "Ġà¬¸à¬¾à¬¹": 6919,
      "Ġà¤¤à¥įà¤¯à¤¾": 6920,
      "ĠNo": 6921,
      "à¤¾à¤¤à¤¾": 6922,
      "à¦¿à¦²à¦¾": 6923,
      "à´¤àµįà´¤à´¿à´¨": 6924,
      "Ġà¤µà¤¿à¤§": 6925,
      "à®Ĩ": 6926,
      "Ġà¦ªà¦¾à¦ĩ": 6927,
      "Ġà®ļà®¿à®²": 6928,
      "ĠGen": 6929,
      "à´ªàµįà´°": 6930,
      "à¦¾à¦¦à¦ķ": 6931,
      "Ġpoints": 6932,
      "Ġprovided": 6933,
      "Ġaverage": 6934,
      "Ġà¨¸à¨¼à©ģà¨°à©Ĥ": 6935,
      "à¤¸à¥įà¤¥à¤¾": 6936,
      "#:": 6937,
      "14": 6938,
      "àªĤàª¡": 6939,
      "raise": 6940,
      "opy": 6941,
      "à³įà²¨à²²à³įà²²à²¿": 6942,
      "àª£àª¾": 6943,
      "Ġlearn": 6944,
      "Ġ196": 6945,
      "àª°à«įàª®": 6946,
      "ohn": 6947,
      "Ġtypes": 6948,
      "àŃĩà¬¨àŃįà¬¦àŃįà¬°": 6949,
      "pos": 6950,
      "à±įà°§": 6951,
      "Ġà¤®à¤¾à¤®": 6952,
      "Ġ28": 6953,
      "à°¾à°°à°¾": 6954,
      "à²¨à³įà²¨à³Ĥ": 6955,
      "à°ªà±Ī": 6956,
      "à®Łà¯įà®Łà¯ģ": 6957,
      "Ġà¨ķà¨°à¨¦à¨¾": 6958,
      "Ġà¦ªà§įà¦°à¦¶": 6959,
      "àµĤà´Łàµįà´Ł": 6960,
      "Ġà¬ľà¬¿à¬²àŃįà¬²": 6961,
      "ĠThat": 6962,
      "Ġrelations": 6963,
      "Ġcharacter": 6964,
      "False": 6965,
      "ani": 6966,
      "à³ģà²¨": 6967,
      "Ġlot": 6968,
      "Ġà¤Ĩà¤¤": 6969,
      "à¤°à¥įà¤¦": 6970,
      "àŃĢà¬¤": 6971,
      "à®¨à¯įà®¤à¯ģ": 6972,
      "à±Ĥà°²": 6973,
      "ublic": 6974,
      "Ġneeds": 6975,
      "Ġà´ªàµĭà´²": 6976,
      "Ġà²µà²°à³įà²·": 6977,
      "ĠAfric": 6978,
      "ches": 6979,
      "à´¥": 6980,
      "à¨ĥ": 6981,
      "à¥Ģà¤¯": 6982,
      "ĠAm": 6983,
      "Ġbegin": 6984,
      "à¦¾à¦¤à§įà§°": 6985,
      "Ġsuper": 6986,
      "Ġàªªàª°àªĤàª¤à«ģ": 6987,
      "Ïĥ": 6988,
      "à°ĥ": 6989,
      "à®Łà¯įà®ļ": 6990,
      "à´¤à´¿à´¯": 6991,
      "Ġà¤Ĩà¤¤à¤¾": 6992,
      "Ġflask": 6993,
      "Ġfeel": 6994,
      "load": 6995,
      "Ġà¤µà¤¿à¤Ńà¤¾à¤Ĺ": 6996,
      "Ġà®ķà®²": 6997,
      "Ġà¨¹à©ĭà¨Ī": 6998,
      "Ġfilm": 6999,
      "Ġmakes": 7000,
      "Ġstri": 7001,
      "ĠĠĠĠĠĠĠĠĠĠĠĠĠĠĠĠĠĠĠĠĠĠĠĠĠĠ": 7002,
      "Ġà¤¯à¥ĩà¤¤": 7003,
      "ĠHind": 7004,
      "à§ģà¦²à§ĭ": 7005,
      "Ġitself": 7006,
      "Ġà°¬à±įà°°": 7007,
      "Ġprevent": 7008,
      "Ġadded": 7009,
      "Ġreported": 7010,
      "Ġindustry": 7011,
      "à°¾à°·à±įà°Łà±įà°°": 7012,
      "ricket": 7013,
      "Ġà¤¸à¤¿à¤Ĥà¤¹": 7014,
      "Ļà¯įà®ķà®³à¯į": 7015,
      "à²İ": 7016,
      "à§ĩà¦ī": 7017,
      "à²ķà³Ĩ": 7018,
      "à´¯à´¿à´²àµį": 7019,
      "à¤°à¥įà¤¡": 7020,
      "ivity": 7021,
      "Ġà§«": 7022,
      "Ġà°°à°¾à°ľ": 7023,
      "à¥įà¤¹à¤¾": 7024,
      "Ġprevious": 7025,
      "à§ĩà¦¤à¦¿à¦¯à¦¼à¦¾": 7026,
      "à§įà¦¯à¦¾à¦²à¦¯à¦¼": 7027,
      "inst": 7028,
      "à©Ģà¨¨": 7029,
      "Ġà¦Ĩà¦¤": 7030,
      "à²¨à³Ĩà²¯": 7031,
      "Ġstream": 7032,
      "Ġà¦ħà§°": 7033,
      "Ġissues": 7034,
      "lier": 7035,
      "go": 7036,
      "rest": 7037,
      "arning": 7038,
      "Ġmess": 7039,
      "Ġà¦¦à§ģà¦ĩ": 7040,
      "Ġà°ķà°¾à°¨": 7041,
      "Ġà®ļà¯ĩà®°": 7042,
      "Ġheld": 7043,
      "àµĢà´ķà´°": 7044,
      "à¯įà®ļà¯įà®ļ": 7045,
      "à®¾à®¤à¯įà®¤": 7046,
      "Ġà¦¹à§Īà¦Ľà¦¿à¦²": 7047,
      "Ġà¤¹à¥ģà¤Ī": 7048,
      "ledge": 7049,
      "à¨¾à¨¡à©ĩ": 7050,
      "sw": 7051,
      "year": 7052,
      "ĠàªĬ": 7053,
      "à®Łà®¿à®¯": 7054,
      "ĠAg": 7055,
      "à¦Ĺà§įà¦°": 7056,
      "Ġà´ķàµĭà´Ł": 7057,
      "Ġà¦²à¦¾à¦Ń": 7058,
      "Ġà¦¬à¦¿à¦ª": 7059,
      "Ġà¦īà¦²à§įà¦²": 7060,
      "à¯Ĥà®°à¯į": 7061,
      "Ġà²İà²°": 7062,
      "Ġà¨ļà©ģ": 7063,
      "Ġrights": 7064,
      "ET": 7065,
      "Ġà¤ķà¤Ī": 7066,
      "icro": 7067,
      "ĠSome": 7068,
      "igma": 7069,
      "Ġà¬ķà¬®": 7070,
      "à§įà¦¬à¦¾à¦ļ": 7071,
      "à°¾à°²à±įà°²à±ĭ": 7072,
      "Ġyoung": 7073,
      "à¤¿à¤¸à¥įà¤¤": 7074,
      "Ġà¨«à¨¼": 7075,
      "Ġdeveloped": 7076,
      "à¬¿à¬¨àŃįà¬¤àŃģ": 7077,
      "Ġcustom": 7078,
      "Ġeffort": 7079,
      "à²¾à²Ĥà²Ĺ": 7080,
      "àª¥àª¾": 7081,
      "Ġà¦¬à§įà¦¯à¦ķ": 7082,
      "Ġparticip": 7083,
      "à¨¿à¨īà¨Ĥ": 7084,
      "Ġà®®à®¾à®µà®Łà¯įà®Ł": 7085,
      "uments": 7086,
      "à¤¨à¥įà¤¦": 7087,
      "Ġà¤¹à¤°": 7088,
      "ĠApp": 7089,
      "ĠSing": 7090,
      "Ġà®ħà®£": 7091,
      "à¦¾à¦ķà§įà¦¤": 7092,
      "Ġà´¸àµĨ": 7093,
      "Ġà¦īà¦ļ": 7094,
      "à°Łà±įà°²": 7095,
      "Ġclose": 7096,
      "Ġjob": 7097,
      "Ġà²°à³Ĥ": 7098,
      "Ġà¨¹à©ģà¨£": 7099,
      "Ġà¦¬à§įà¦¯à¦ķà§įà¦¤": 7100,
      "bl": 7101,
      "Ġrat": 7102,
      "ript": 7103,
      "Ġà°¸à±įà°Ł": 7104,
      "Ġà¬ıà¬¥": 7105,
      "à¬¾à¬¸à¬¨": 7106,
      "à²¿à²Łà³įà²Ł": 7107,
      "Ġàª¬àª¨àª¾àªµ": 7108,
      "Ġoil": 7109,
      "à«ĩàªķ": 7110,
      "Ġground": 7111,
      "Ġà¤ķà¤°à¥ĩà¤Ĥ": 7112,
      "Ġà²¹à³ģ": 7113,
      "Ġexperience": 7114,
      "à§ĥà¦·à§įà¦Łà¦¿": 7115,
      "Ġà²ĵ": 7116,
      "à°¾à°ļ": 7117,
      "à¬¿à¬¦": 7118,
      "à²µà³ĩ": 7119,
      "à¯ĩà®ļ": 7120,
      "Ġà¤Ńà¤°": 7121,
      "Ġàª¬àª¹": 7122,
      "Ġlevels": 7123,
      "Ġà°ķà°¾à°°à±įà°¯": 7124,
      "à´¦àµįà´§": 7125,
      "}^{": 7126,
      "à§Ģà¦®": 7127,
      "Ġà¦ıà¦¨": 7128,
      "Ġà¦ıà¦¨à§ĩ": 7129,
      "à¬¨àŃįà¬¤àŃįà¬°àŃĢ": 7130,
      "Ġà¬¯àŃĩà¬īà¬ģ": 7131,
      "Ġà¤¤à¤°à¤¹": 7132,
      "Ġà¬®àŃģà¬ĸ": 7133,
      "Ġà°ļà±ĩà°¶à°¾à°°à±ģ": 7134,
      "ED": 7135,
      "à±ĭà°Ĥà°¦à°¿": 7136,
      "à¬¾à¬°àŃĢ": 7137,
      "à¦¿à¦²à§ĩà¦¨": 7138,
      "Ġà°ħà°²": 7139,
      "Ġcannot": 7140,
      "oute": 7141,
      "à¯ģà®Łà¯Īà®¯": 7142,
      "à¤¡à¤¼à¤¾": 7143,
      "à¤¡à¤¼à¥ĩ": 7144,
      "Ġà´²à´Ń": 7145,
      "echo": 7146,
      "Ġà¤¸à¤¦": 7147,
      "Ġà¤®à¤¾à¤Ĺ": 7148,
      "Ġà¨¸à¨ª": 7149,
      "à¤®à¤¾à¤¨": 7150,
      "Ġà¦¨à§ĩà¦ĩ": 7151,
      "Ġà¬¬à¬¹": 7152,
      "Ġrandom": 7153,
      "à¦¿à¦ķà¦¾": 7154,
      "Ġà°ħà°¤": 7155,
      "Ġà°ļà°¾à°²": 7156,
      "à´¿à´ķàµįà´ķàµģà´ķà´¯": 7157,
      "Ġimplement": 7158,
      "à²°à³įà²¥": 7159,
      "à°Ĥà°¡à°¿": 7160,
      "Ġattack": 7161,
      "Ġàªķàª¹à«įàª¯à«ģàªĤ": 7162,
      "Ġà¤®à¥įà¤¹à¤£à¥Ĥà¤¨": 7163,
      "Ġà¨ľà¨¦à©ĭà¨Ĥ": 7164,
      "Ġà¨µà¨¿à¨¸à¨¼": 7165,
      "Ġà¬ł": 7166,
      "à¨¿à¨ª": 7167,
      "à¬¾à¬°à¬¾": 7168,
      "ĠPre": 7169,
      "à¦¿à¦¨à§Ģ": 7170,
      "ueprint": 7171,
      "Ġà´®à´¨": 7172,
      "à³ĭà²ľ": 7173,
      "Ġimm": 7174,
      "à¦¾à¦¦à§ĩà¦¶": 7175,
      "Ġà¤ħà¤¸à¥Ĥà¤¨": 7176,
      "à§įà¦¦à§ĩà¦¶": 7177,
      "Ġnumbers": 7178,
      "Ġinstead": 7179,
      "à§ģà§±à¦¾": 7180,
      "eds": 7181,
      "à¥įà¤¯à¤¾à¤¦": 7182,
      "à´°à´Ĥ": 7183,
      "Ġà¬ªàŃģà¬°": 7184,
      "Ġà°ªà±Ĭ": 7185,
      "à¤ľà¤°": 7186,
      "Ġà°ĩà°¦à°¿": 7187,
      "Ġà¤®à¤¹à¤¾à¤°": 7188,
      "Ġconsidered": 7189,
      "operator": 7190,
      "à¤Ľ": 7191,
      "à¬¿à¬ĻàŃįà¬Ĺ": 7192,
      "Ġà¦ķà¦¾à¦²": 7193,
      "Ġconduct": 7194,
      "à¤¿à¤¤à¤¾": 7195,
      "Ġdetail": 7196,
      "Ġeffects": 7197,
      "ĠEnglish": 7198,
      "ison": 7199,
      "Ġà¤®à¥Īà¤Ĥ": 7200,
      "à¦¾à¦¨à§°": 7201,
      "Ġà®®à®ķà¯įà®ķ": 7202,
      "àµĭàµ¼": 7203,
      "Ġà¨²à¨¿à¨Ĩ": 7204,
      "àµ½à´ķ": 7205,
      "Ġà¦ħà¦¨à§įà¦¤": 7206,
      "à¬¨àŃįà¬¨": 7207,
      "à°¬à°¡": 7208,
      "à´¿à´µà´¸": 7209,
      "Ġà¤¤à¥įà¤¯à¤¾à¤Ĥà¤¨à¥Ģ": 7210,
      "br": 7211,
      "Ġill": 7212,
      "aring": 7213,
      "ĠAfter": 7214,
      "à§įà§°à¦®": 7215,
      "Ġà°ħà°Ń": 7216,
      "Ġà®¨à®¾à®©à¯į": 7217,
      "Ġà®¨à¯ĩà®°": 7218,
      "Ġàª¨àª¾àª®": 7219,
      "Ġà¦Ĩà¦®à¦°à¦¾": 7220,
      "Ġrelated": 7221,
      "Ġphot": 7222,
      "à¤ķà¥įà¤Ł": 7223,
      "àŃĩà¬ĩà¬": 7224,
      "à©Ĥà¨²": 7225,
      "earch": 7226,
      "Ġà¬Ĩà¬°": 7227,
      "Ġfinal": 7228,
      "àµĩà´°à´³": 7229,
      "iterable": 7230,
      "Ġconditions": 7231,
      "à¬°àŃįà¬£àŃįà¬£": 7232,
      "You": 7233,
      "na": 7234,
      "à´¾à´·": 7235,
      "Ġstory": 7236,
      "Ġà¤¤à¥Ģà¤¨": 7237,
      "à¤°à¥įà¤§": 7238,
      "Ġà§§": 7239,
      "à¤¾à¤¸à¤¾à¤łà¥Ģ": 7240,
      "Ġresponse": 7241,
      "Ġà¤¹à¤ľà¤¾à¤°": 7242,
      "Ġsource": 7243,
      "Ġàªľàª¾àª£": 7244,
      "Ġà¤ļà¥Į": 7245,
      "Ġà°ªà±įà°°à°ķ": 7246,
      "Ġà¤µà¤¿à¤µ": 7247,
      "Ġà®Ĩà®©à®¾à®²à¯į": 7248,
      "à¯įà®µà¯ģ": 7249,
      "Ġà¤ķà¤¿à¤Ĥ": 7250,
      "Ġreason": 7251,
      "à¥Īà¤¨": 7252,
      "Ġàª¹à«ģàªĤ": 7253,
      "à³įà²Łà³į": 7254,
      "Ġà¤Ŀà¤¾à¤²à¤¾": 7255,
      "Ġpublished": 7256,
      "Ġàª¦àª¿àªµàª¸": 7257,
      "How": 7258,
      "Ġâģł": 7259,
      "itiz": 7260,
      "à²¿à²¬": 7261,
      "ĠNorth": 7262,
      "Ġà²¬à²°": 7263,
      "à¨¾à¨¨à©Ģ": 7264,
      "à±Ĭà°ķà±įà°ķ": 7265,
      "Ġà¤¡à¥ī": 7266,
      "Ġcollect": 7267,
      "Ġà§§à§¯": 7268,
      "Ġà¦ħà¦°à§įà¦¥": 7269,
      "à§ĭà¦ľ": 7270,
      "à°°à°£": 7271,
      "ĠDep": 7272,
      "Ġà¬Ĩà¬ľ": 7273,
      "Ġà¦ªà§įà¦°à¦¥à¦®": 7274,
      "operatorname": 7275,
      "ares": 7276,
      "Ġcir": 7277,
      "à¤²à¥įà¤ª": 7278,
      "adi": 7279,
      "Ġà¦¤à¦ĸà¦¨": 7280,
      "Ġà¤īà¤¸à¥ĩ": 7281,
      "à´¸àµįà´¸": 7282,
      "à²ªà³įà²°": 7283,
      "Ġsurface": 7284,
      "Ġà²ªà²°à²¿à²": 7285,
      "Ġà¦ķà§ĩà¦¨à§įà¦¦": 7286,
      "ĠØ": 7287,
      "à¦¾à¦¯": 7288,
      "Ġsens": 7289,
      "Ġwon": 7290,
      "à¦¤à§°": 7291,
      "Ġlive": 7292,
      "àª®àª¾àªĤàª¥à«Ģ": 7293,
      "à²°à³įà²®": 7294,
      "order": 7295,
      "Ġmodern": 7296,
      "medi": 7297,
      "Ġaction": 7298,
      "à´¤àµįà´°": 7299,
      "à®µà®¿à®²à¯įà®²à¯Ī": 7300,
      "Ġà¨ħà¨¨à©ģ": 7301,
      "Ġà¤ªà¥įà¤°à¤µ": 7302,
      "Ġparty": 7303,
      "àµĨà´¯à´¾à´£àµį": 7304,
      "à¯ģà®±à¯Ī": 7305,
      "à´¦àµįà´¯": 7306,
      "Ġàª¤à«ĩàª£": 7307,
      "Ġlimit": 7308,
      "Ġà¨¦à©ģà¨Ĩ": 7309,
      "selves": 7310,
      "ederal": 7311,
      "à§ĭà¦¬": 7312,
      "à±ĩà°¨": 7313,
      "à©Ģà¨¡": 7314,
      "ights": 7315,
      "Ġà¬ĹàŃĭà¬Ł": 7316,
      "Ġregard": 7317,
      "Ġproduction": 7318,
      "àª¨à«įàª¡": 7319,
      "Ġà¦¸à¦°à¦ķà¦¾à¦°": 7320,
      "à¦¯à¦¼à§ĭà¦ľà¦¨": 7321,
      "àŃģà¬ķ": 7322,
      "à©°à¨¸": 7323,
      "àµĭà´ķ": 7324,
      "à´£àµį": 7325,
      "Ġà°¤à°°": 7326,
      "à¬¿à¬²à¬¾": 7327,
      "Ġà¬¯àŃĭà¬Ĺ": 7328,
      "àŃĥà¬·àŃįà¬Ł": 7329,
      "àŃģà¬¦àŃįà¬§": 7330,
      "mathb": 7331,
      "à®İ": 7332,
      "àªĺ": 7333,
      "ala": 7334,
      "Ġà®ªà¯ģà®¤": 7335,
      "Ġà¬ķàŃĮ": 7336,
      "Ġà¦¤à¦¬à§ĩ": 7337,
      "ĠMarch": 7338,
      "à¤¾à¤Ĥà¤ļà¤¾": 7339,
      "Ġà²ķà³Ĩ": 7340,
      "Ġà¬Ĩà¬¦": 7341,
      "Ġà°°à°¾à°·à±įà°Łà±įà°°": 7342,
      "Ġà¦°à¦¯à¦¼": 7343,
      "Ġà¬ĹàŃģà¬": 7344,
      "Ġà¤¨à¤¿à¤°à¥įà¤®": 7345,
      "Ġà¤µà¤¿à¤ļà¤¾à¤°": 7346,
      "Ġtaking": 7347,
      "Ġcro": 7348,
      "à¦²à§įà¦ª": 7349,
      "ili": 7350,
      "à¦¬à§įà¦¯": 7351,
      "Ġà¤¨à¤¾à¤Ĺ": 7352,
      "Ġà¦¦à§ģ": 7353,
      "à±Ģà°ľ": 7354,
      "à²¿à²¨à³įà²¨": 7355,
      "ension": 7356,
      "ĠChina": 7357,
      "Ġà²īà²ª": 7358,
      "Ġà¬Ĩà¬ī": 7359,
      "OR": 7360,
      "word": 7361,
      "Ġyet": 7362,
      "Ġà²ħà²¨à³ģ": 7363,
      "à´£à´®": 7364,
      "à´¾à´°à´Ĥ": 7365,
      "Ġà¨°à¨¹à©Ģ": 7366,
      "Ġà¤¸à¥ģà¤°à¥Ĥ": 7367,
      "Ġà¨¤à©ģà¨¹à¨¾à¨¨à©Ĥà©°": 7368,
      "oor": 7369,
      "Ġach": 7370,
      "Ġfri": 7371,
      "Ġred": 7372,
      "Ġà¨¸à©Ĥ": 7373,
      "à²Ĥà²ķ": 7374,
      "à²Ĥà²ļ": 7375,
      "Ġà¦ıà¦®à¦¨": 7376,
      "hern": 7377,
      "ĠBy": 7378,
      "ĠGl": 7379,
      "Ġà°ķà±ĭà°¸à°Ĥ": 7380,
      "Ġfunds": 7381,
      "Ġmultiple": 7382,
      "sum": 7383,
      "uff": 7384,
      "à¦²à¦¾à¦ĩ": 7385,
      "à¤®à¥Ģ": 7386,
      "Ġà¦®à¦¤": 7387,
      "Ġà¨µà©±à¨¡": 7388,
      "Ġà®¤à®°": 7389,
      "Ġà¦ļà¦¿à¦ķ": 7390,
      "place": 7391,
      "Ġà¤¶à¤¿à¤µ": 7392,
      "à°¾à°¨à±į": 7393,
      "ĠYork": 7394,
      "àªµàª¾àª¨à«ģàªĤ": 7395,
      "Ġcapt": 7396,
      "Ġpolitical": 7397,
      "à¥įà¤ľ": 7398,
      "Ġey": 7399,
      "à¦¾à§°à¦¿": 7400,
      "à¤¶à¥įà¤¯à¤ķ": 7401,
      "Ġgovern": 7402,
      "à³įà²¸à³į": 7403,
      "à¤Ĥà¤¬à¤Ī": 7404,
      "Ġoptions": 7405,
      "ĠNe": 7406,
      "Ġà¤ªà¥įà¤°à¤¦à¥ĩà¤¶": 7407,
      "Ġà²İà²Ĥà²¦": 7408,
      "Ġà¤Łà¥įà¤°": 7409,
      "à¤¡à¤¼à¥Ģ": 7410,
      "Ġrunner": 7411,
      "à¬¢à¬¼": 7412,
      "oard": 7413,
      "Ġtarg": 7414,
      "à±įà°¦": 7415,
      "à¤ķà¥ĭà¤Ĥ": 7416,
      "ĠĠĠĠĠĠĠĠĠĠĠĠĠĠĠĠĠĠĠĠĠĠĠĠĠĠĊ": 7417,
      "rab": 7418,
      "àª¾àª°à«įàª": 7419,
      "Ġà¦¬à¦¿à¦¬": 7420,
      "except": 7421,
      "àª¨à«įàª¦": 7422,
      "Ġprinc": 7423,
      "Ġà¤®à¥ĭà¤ł": 7424,
      "Ġservice": 7425,
      "template": 7426,
      "rast": 7427,
      "à¬°à¬°àŃĩ": 7428,
      "à°¾à°ĸ": 7429,
      "à¤¸à¥įà¤µ": 7430,
      "ĠII": 7431,
      "Ġà®ªà®ķà¯ģà®¤": 7432,
      "Ġà®ħà®ªà¯įà®ª": 7433,
      "à¯Ĩà®Ł": 7434,
      "Ġàª¨àª¾": 7435,
      "à³ĭà²°": 7436,
      "ĠàªĹàª¯àª¾": 7437,
      "àª³à«Ģ": 7438,
      "Ġà¨«à¨¿à¨°": 7439,
      "à¦°à§įà¦ķ": 7440,
      "Ġà¦Ĩà¦ģ": 7441,
      "Ġà¬ħà¬ª": 7442,
      "duc": 7443,
      "overed": 7444,
      "Ġà¬°à¬¹à¬¿à¬Ľà¬¿": 7445,
      "Ġàª¤à«ĩàªĵ": 7446,
      "à®ľ": 7447,
      "Ġà¦Ĺà§ĩà¦²": 7448,
      "Ġà¤¶à¤¾à¤®": 7449,
      "Ġà¤ļà¤²": 7450,
      "Ġà¦ªà§°à§Ģà¦ķà§įà¦·": 7451,
      "}}}": 7452,
      "Ġregul": 7453,
      "àµĨà´Łàµģà´¤àµįà´¤": 7454,
      "à®µà®°à¯įà®ķà®³": 7455,
      "à¦¿à¦·à§įà¦ł": 7456,
      "à²¿à²¸à²¿à²¦à²°à³ģ": 7457,
      "Ġmethods": 7458,
      "à¥įà¤«": 7459,
      "stream": 7460,
      "Ġà¤ªà¤¾à¤¸": 7461,
      "Ġformer": 7462,
      "sequ": 7463,
      "Ġà¬ķà¬¿à¬¨àŃįà¬¤àŃģ": 7464,
      "aka": 7465,
      "à³Ĭà²Ĥà²¦à³ģ": 7466,
      "Ġà¨°à©Ĥ": 7467,
      "à°¯à±įà°¯": 7468,
      "à±ģà°¨à°¿": 7469,
      "Ġago": 7470,
      "Ġentire": 7471,
      "Ġà¤¦à¤¿à¤²à¥įà¤²à¥Ģ": 7472,
      "Ġà¤¬à¤¹à¥ģà¤¤": 7473,
      "à´¿à´²àµĩà´ķàµįà´ķàµį": 7474,
      "Ġsecurity": 7475,
      "PA": 7476,
      "When": 7477,
      "àª¿àª°": 7478,
      "ula": 7479,
      "Ġà¤¤à¤°à¥Ģ": 7480,
      "Ġà¬¬à¬¾": 7481,
      "ried": 7482,
      "à®±à¯ģ": 7483,
      "à§ĩà¦¨à§įà¦¦": 7484,
      "ideo": 7485,
      "à°°à±įà°ļ": 7486,
      "ociety": 7487,
      "None": 7488,
      "call": 7489,
      "¥à¬¾à¬ı": 7490,
      "à¦¾à¦Ľà¦¿à¦²": 7491,
      "Ġled": 7492,
      "chang": 7493,
      "Ġà¤¬à¤¾à¤ľ": 7494,
      "Ġdeal": 7495,
      "à´¿à´ķàµįà´ķàµį": 7496,
      "Ġà¨ľà¨¾à¨Ĥà¨¦à¨¾": 7497,
      "à±Ģà°Ĩ": 7498,
      "ĠàŃ¨àŃ¦": 7499,
      "Ġà¬¹àŃĩà¬²àŃĩ": 7500,
      "Ġetc": 7501,
      "Ġà¨¸à¨¾à¨¹à¨¿à¨¬": 7502,
      "Ġà¨¹à©ģà©°à¨¦à¨¾": 7503,
      "Ġà²®à³Ĥà²²à²ķ": 7504,
      "rs": 7505,
      "Ġà°ĸ": 7506,
      "pping": 7507,
      "Ġà´ķàµĩà´°à´³": 7508,
      "Ġcancer": 7509,
      "Ġàª¬à«ĩ": 7510,
      "à®ļà®¿à®¯": 7511,
      "Ġà²ĩà²°": 7512,
      "Ġupon": 7513,
      "Ġapplication": 7514,
      "à³Ĭà²Ĥà²¦à²¿à²Ĺà³Ĩ": 7515,
      "Ġà¨¤à¨°à©įà¨¹à¨¾à¨Ĥ": 7516,
      "bin": 7517,
      "à¦²à¦¾à¦®": 7518,
      "Ġexc": 7519,
      "Ġà¨¤à¨ķ": 7520,
      "akistan": 7521,
      "Ġà´¨àµ½à´ķ": 7522,
      "à®¾à®³à®°à¯į": 7523,
      "Ġinstit": 7524,
      "Ġà¤µà¤¿à¤¶à¥ĩà¤·": 7525,
      "Ġce": 7526,
      "Ġà¤Ĩà¤²à¥Ģ": 7527,
      "Ġà²¨à²®à³įà²®": 7528,
      "ĠEar": 7529,
      "Ġprovides": 7530,
      "da": 7531,
      "àª¾àªŃ": 7532,
      "à¬¾à¬īà¬": 7533,
      "Ġà¤ħà¤°à¥įà¤¥": 7534,
      "Ġà¤ľà¤¾à¤¨à¥ĩ": 7535,
      "à¤¯à¤¾à¤°": 7536,
      "Ġà®īà®¯": 7537,
      "Ġwhole": 7538,
      "Ġevents": 7539,
      "Ġà®ļà¯Ĩà®¯à®²": 7540,
      "Ġpopular": 7541,
      "Ġà°ļà±ĩà°¸à°¿à°¨": 7542,
      "ournal": 7543,
      "Ġà¤Ĩà¤Ī": 7544,
      "à©Īà¨²": 7545,
      "Ġvir": 7546,
      "à¥ģà¤Ń": 7547,
      "elling": 7548,
      "Ġà´µà´¿à´¦": 7549,
      "Ġà¤¸à¤ķà¤¤à¥ĩ": 7550,
      "Ġà®µà®´à®Ļà¯įà®ķ": 7551,
      "ef": 7552,
      "Ġà°·": 7553,
      "isions": 7554,
      "à¤²à¥įà¤²": 7555,
      "à®©à¯įà®ª": 7556,
      "Ġgot": 7557,
      "Ġà¤¦à¤¿à¤¸": 7558,
      "à°¾à°°à±įà°Ł": 7559,
      "Ġà®ļà®¨à¯įà®¤": 7560,
      "Ġà°®à°¾à°Ł": 7561,
      "à²¸à³įà²¯": 7562,
      "à²¿à²Ĥà²¤": 7563,
      "Ġforeign": 7564,
      "ĠWhile": 7565,
      "à´¨àµįà´¦àµįà´°": 7566,
      "Al": 7567,
      "sigma": 7568,
      "à¥Ģà¤Ĥ": 7569,
      "à²²à³ĩ": 7570,
      "àŃĩà¬ľ": 7571,
      "à¦¾à¦¨à§ĩà¦°": 7572,
      "à¤£à¤¾": 7573,
      "Ġà¦ħà¦¹": 7574,
      "Ġà¬¬àŃĩà¬³àŃĩ": 7575,
      "Ġalmost": 7576,
      "istics": 7577,
      "illed": 7578,
      "conf": 7579,
      "Ġà¬¤àŃĩà¬¬àŃĩ": 7580,
      "Ġà¨ķà¨°à¨¨à¨¾": 7581,
      "Ġà¤ķà¤Ĥà¤ªà¤¨à¥Ģ": 7582,
      "Ġà¨µà©±à¨²à©ĭà¨Ĥ": 7583,
      "¦àµįà´§": 7584,
      "nces": 7585,
      "à²°à²¿à²Ĺà³Ĩ": 7586,
      "Ġà¤®à¤¦": 7587,
      "Ġàªķàª²": 7588,
      "à²¡à²¿": 7589,
      "à¦¿à¦¤à§įà¦¬": 7590,
      "rought": 7591,
      "Ġà²Ĩà²¯": 7592,
      "Ġà¨Ĩà¨ī": 7593,
      "Ġà¬ľàŃĢà¬¬": 7594,
      "Ġà¬ªàŃįà¬°à¬¶": 7595,
      "Ġà°īà°Ĥà°¦à°¿": 7596,
      "Ġapproach": 7597,
      "Ġà¦ķà§įà¦·à§ĩà¦¤": 7598,
      "Ġannoun": 7599,
      "Ġinflation": 7600,
      "Ġquestion": 7601,
      "à¬¾à¬¡à¬¼": 7602,
      "à²µà²¾": 7603,
      "Ġà¥¥": 7604,
      "Ġàªªàª¾àª¸": 7605,
      "Ġconcept": 7606,
      "Ġà¨ħà¨ķ": 7607,
      "Ġà¨Ĺà©ģ": 7608,
      "Ġcontent": 7609,
      "à²¿à²¨à²²à³įà²²à²¿": 7610,
      "ruction": 7611,
      "à¤¾à¤§à¤¿à¤ķ": 7612,
      "Ġàªķàª¹à«ĩ": 7613,
      "Ġà¦ļà§°à¦ķà¦¾à§°": 7614,
      "Ġà¦¤à§ģà¦®à¦¿": 7615,
      "Ġà¤ħà¤¶à¥Ģ": 7616,
      "Ġà¬¸àŃĤ": 7617,
      "à¨µà¨¾à¨Ī": 7618,
      "Ġà¤¶à¤¿à¤ķà¥įà¤·": 7619,
      "Ġà¦īà¦ªà¦¸à§įà¦¥à¦¿à¦¤": 7620,
      "Ġposition": 7621,
      "Ġà¤¦à¤¿à¤µà¤¸": 7622,
      "à¤¿à¤¡": 7623,
      "Ġà¦¬à¦¿à§°": 7624,
      "Ġna": 7625,
      "à°°à±ģ": 7626,
      "à¤µà¤³": 7627,
      "Ġàªľà«įàª¯àª¾àª°à«ĩ": 7628,
      "ĠGerm": 7629,
      "à³ĭà²ª": 7630,
      "à¦Ńà¦¾à¦¬à§ĩ": 7631,
      "à¦¾à¦Łà§ĭ": 7632,
      "à¤ıà¤®": 7633,
      "Ġà¤ķà¤¾à¤°à¥įà¤¯": 7634,
      "à°¾à°Ĥà°Ł": 7635,
      "ĠHealth": 7636,
      "Ġà¬¸àŃįà¬¥à¬¾à¬¨": 7637,
      "ĠAustral": 7638,
      "Ġà´·": 7639,
      "à°¿à°§": 7640,
      "à²Ĥà²Ĺà²³": 7641,
      "Ġ29": 7642,
      "Ġà²¬à³ĩ": 7643,
      "Ġà¬ħà¬¸": 7644,
      "rug": 7645,
      "Ġquality": 7646,
      "Ġàªľà«ĭàªĪ": 7647,
      "pril": 7648,
      "Ġdecision": 7649,
      "Ġà¦īà¦²à§įà¦²à§ĩà¦ĸ": 7650,
      "ery": 7651,
      "à¤ªà¥ģà¤°": 7652,
      "à¤¿à¤¤à¥įà¤¤": 7653,
      "à°¸à±įà°¯": 7654,
      "Ġà²Īà²Ĺ": 7655,
      "Ġà¤Ĩà¤ªà¤²à¥įà¤¯à¤¾": 7656,
      "Ġestablished": 7657,
      "rec": 7658,
      "Ġdate": 7659,
      "à®¤à®¾à®²à¯į": 7660,
      "Ġà¤¨à¥įà¤¯à¤¾à¤¯": 7661,
      "Ġà²®à²¾à²°": 7662,
      "Ġà¨ľà¨¨": 7663,
      "à´²à´¯": 7664,
      "Ġchall": 7665,
      "à¦¨à§įà¦¯à¦": 7666,
      "Ġà¬¶àŃįà¬°àŃĢ": 7667,
      "Ġcolor": 7668,
      "à¬ķàŃįà¬·à¬¾": 7669,
      "Ġà´¶àµįà´°": 7670,
      "Ġperformance": 7671,
      "rect": 7672,
      "à¬¿à¬ľ": 7673,
      "ama": 7674,
      "ĠCor": 7675,
      "Ġà¤ľà¥Ģ": 7676,
      "à«ĩàªª": 7677,
      "à¤¾à¤Ĥà¤ļà¥ĩ": 7678,
      "Ġà¤²à¤¾à¤ĸ": 7679,
      "à®®à¯ģà®®à¯į": 7680,
      "à±ģà°¤à±ģà°Ĥà°¦à°¿": 7681,
      "Ġà´īà´ª": 7682,
      "Ġà¤īà¤¸à¤ķà¥ĩ": 7683,
      ")}": 7684,
      "40": 7685,
      "Ġà¨ķà¨Ī": 7686,
      "Ġà¨¸à¨µ": 7687,
      "ott": 7688,
      "Ġà°ķà°¾à°²": 7689,
      "à¨£à©ĩ": 7690,
      "à°¿à°Ĥà°ª": 7691,
      "Ġà¬¹àŃĩà¬īà¬": 7692,
      "Ġà¤¸à¤Ĥà¤ĺ": 7693,
      "à´¾à´¨à´Ĥ": 7694,
      "Ġregion": 7695,
      "Ġactivities": 7696,
      "Ġà¤īà¤¤à¥įà¤¤à¤°": 7697,
      "Ġdivid": 7698,
      "à¤²à¤¬": 7699,
      "Ġà¨¦à©Įà¨°": 7700,
      "ĠCons": 7701,
      "irm": 7702,
      "à§ģà¦¶": 7703,
      "Ġà¨ĩà¨²": 7704,
      "à°®à±Ĩ": 7705,
      "à§ĩà¦¨à§įà¦Ł": 7706,
      "à°Ĺà±įà°Ĺ": 7707,
      "ĠàŃ«": 7708,
      "à±Ĥà°°à±įà°¤": 7709,
      "Ġà¬ķà¬°à¬¿à¬¬à¬¾à¬ķàŃģ": 7710,
      "Ġpositive": 7711,
      "Ġà¤¬à¥Īà¤ł": 7712,
      "={\\": 7713,
      "He": 7714,
      "Ġà²ĺ": 7715,
      "Ġcamp": 7716,
      "Ġà¦ķà§įà¦°": 7717,
      "à¯Īà®®": 7718,
      "Ġà®ķà®£": 7719,
      "ĠPres": 7720,
      "Ġà®¤à®µ": 7721,
      "à±ĩà°¯": 7722,
      "istry": 7723,
      "àªªàª°": 7724,
      "à²¿à²ķà²¾à²°": 7725,
      "àµĭà´´": 7726,
      "Ġsoft": 7727,
      "Ġrecogn": 7728,
      "Ġissue": 7729,
      "Ġà¤µà¤¿à¤ķà¤¾à¤¸": 7730,
      "iddle": 7731,
      "Ġhappen": 7732,
      "Ġà²¸à²°à³įà²ķà²¾à²°": 7733,
      "à°¾à°Ĥ": 7734,
      "Ġà¨¨à¨¿à¨": 7735,
      "Ġà²¸à²¾à²®": 7736,
      "Ġprogress": 7737,
      "à¬£à¬¸à¬¿": 7738,
      "Ġà²µà²¿à²µ": 7739,
      "Ġà¨Ĺà©ģà¨°à©Ĥ": 7740,
      "Ġà®ªà¯ĭà®Łà¯įà®Ł": 7741,
      "hib": 7742,
      "ĠWar": 7743,
      "à¯Īà®¯à®¾à®ķ": 7744,
      "à´²à´¿à´¯": 7745,
      "Ġincome": 7746,
      "Ġà°ħà°§à°¿à°ķà°¾à°°": 7747,
      "Ġàªľà«Ģàªµ": 7748,
      "based": 7749,
      "à¤±": 7750,
      "à§ĭà¦¦": 7751,
      "àŃģà¬ı": 7752,
      "à¯ĩà®¯": 7753,
      "Ġà®ĩà®¤à¯ģ": 7754,
      "àªļàª¾àª°": 7755,
      "Ġà¤Ŀà¤¾à¤²à¥Ģ": 7756,
      "Ġàª°àª¹à«Ģ": 7757,
      "Ġmedia": 7758,
      "Ġmedical": 7759,
      "minist": 7760,
      "Ġà´¤à´¨àµįà´¨àµĨ": 7761,
      "à²ĺ": 7762,
      "à¤¸à¤Ĥ": 7763,
      "à§Ģà¦²": 7764,
      "amed": 7765,
      "ĠCont": 7766,
      "Ġà²ħà²Ĥà²¤": 7767,
      "aches": 7768,
      "Ġà²ªà³ģ": 7769,
      "à°°à±įà°®": 7770,
      "à¦Ľà§ĩà¦¨": 7771,
      "Ġfunctions": 7772,
      "à°ķà±įà°ķà°¡": 7773,
      "Ġanalysis": 7774,
      "Ġderiv": 7775,
      "Ġà¤ıà¤µà¤Ĥ": 7776,
      "Ġrev": 7777,
      "ĠIS": 7778,
      "Ġà®µà®¿à®µ": 7779,
      "à§įà¦¬à§įà¦¬": 7780,
      "ivil": 7781,
      "acc": 7782,
      "à¦¾à¦Ĺà§°": 7783,
      "Ġà²īà²¤à³įà²¤": 7784,
      "Ġaccept": 7785,
      "Ġcreated": 7786,
      "Ġà®¨à®¿à®±à¯ģà®µà®©": 7787,
      "wa": 7788,
      "àŃģà¬·": 7789,
      "ĠDr": 7790,
      "Ġàªªà«ĭàª²à«Ģ": 7791,
      "On": 7792,
      "Ġess": 7793,
      "Ġdest": 7794,
      "Ġà¦¹à¦ĵ": 7795,
      "à¬³à¬¿": 7796,
      "Ġà¬īà¬¦": 7797,
      "ĠàªŃàª¾àª°": 7798,
      "Ġà²¹à³Ĭà²°": 7799,
      "àª¯à«ĭàªĹ": 7800,
      "Ġà®®à¯ģà®¤à®²à¯į": 7801,
      "Ġ#": 7802,
      "à¤ī": 7803,
      "Ġà¤®à¥ģà¤¦": 7804,
      "Ġàªªàª¾àª": 7805,
      "à¦¸à§įà¦¯": 7806,
      "Ġà®ķà®¿à®°": 7807,
      "ithm": 7808,
      "Ġheart": 7809,
      "Ġà¨¦à©ĩà¨ĸ": 7810,
      "à°¦à±įà°¯": 7811,
      "Ġà²µà³Ī": 7812,
      "Ġà¨°à©ģ": 7813,
      "à¤¾à¤¯à¤ķ": 7814,
      "comes": 7815,
      "Ġà¤ªà¥Ĥà¤°à¥įà¤µ": 7816,
      "Ġresearc": 7817,
      "Ġà¤Ĩà¤µà¤¶à¥įà¤¯à¤ķ": 7818,
      "Ġà®¤à¯Ĩà®°à®¿à®µà®¿à®¤à¯įà®¤": 7819,
      "à§ĭà¦ĸ": 7820,
      "roll": 7821,
      "Ġà¨®à¨¨": 7822,
      "àŃįàŃŁà¬¾": 7823,
      "ached": 7824,
      "àªľàª¨": 7825,
      "Ġcoll": 7826,
      "Ġà¨¸à¨ķà¨¦à©ĩ": 7827,
      "Ġà¦¨à¦¿à¦ľà§°": 7828,
      "Ġà¦¸à¦¾à¦Ĥ": 7829,
      "ĠRs": 7830,
      "à¦£à¦¾": 7831,
      "ĠInstit": 7832,
      "Ġà¤īà¤¤à¥įà¤ªà¤¾à¤¦": 7833,
      "Ġà²ķà³Ĥà²¡": 7834,
      "fix": 7835,
      "var": 7836,
      "ĠSu": 7837,
      "Ġà®®à®ķ": 7838,
      "Ġà®®à®Łà¯įà®Ł": 7839,
      "Ġà®¤à¯ĭ": 7840,
      "à¦¾à¦²à§Ī": 7841,
      "Ġà¤Ĺà¤¾à¤Ĥ": 7842,
      "à²¸à³įà²¸": 7843,
      "à§ĩà¦¤à¦¿à¦¯à¦¼": 7844,
      "àª·à«įàª": 7845,
      "runner": 7846,
      "Ġà¨ªà¨¹à¨¿à¨²à¨¾à¨Ĥ": 7847,
      "Ã©": 7848,
      "Ġface": 7849,
      "Ġà¤ªà¥ĭà¤²": 7850,
      "à®²à®¿à®²à¯į": 7851,
      "Ġà®ħà®²à¯įà®²": 7852,
      "Ġà´ªàµģà´±": 7853,
      "Ġexchange": 7854,
      "à®¤à¯įà®¤à®¿à®¯": 7855,
      "à¬¨àŃįà¬¤àŃįà¬°": 7856,
      "à¤¾à¤ľà¤ª": 7857,
      "Ġà¤µà¤¿à¤¨": 7858,
      "à±ģà°ķà±ĭà°µ": 7859,
      "Ġtrue": 7860,
      "Ġà²ļà²¿à²¤à³įà²°": 7861,
      "Ġà²¹à³Ĭà²Ĥà²¦": 7862,
      "fol": 7863,
      "mod": 7864,
      "à¥ĩà¤¯": 7865,
      "à¬¾à¬¥": 7866,
      "ided": 7867,
      "Ġà®®à®¿à®ķ": 7868,
      "Ġà´¸à´¹": 7869,
      "Ġà°°à±ĭà°ľ": 7870,
      "Ġevidence": 7871,
      "Ġà¦ĵà¦ªà§°à¦¤": 7872,
      "Con": 7873,
      "het": 7874,
      "à«įàª¹": 7875,
      "Ġliter": 7876,
      "à²¤à³į": 7877,
      "Ġà¦¨à¦Ĺ": 7878,
      "Ġà¤¬à¤¸": 7879,
      "Ġà²ķà²¾à²²": 7880,
      "Ġà²ħà²²à³įà²²": 7881,
      "Ġà²ħà²¥": 7882,
      "Ġsepar": 7883,
      "Ġà´ħà´±à´¿à´¯": 7884,
      "ĠJohn": 7885,
      "Ġà¦¦à§ĩà¦¬": 7886,
      "Ġà¬¸à¬®àŃįà¬ª": 7887,
      "àµĭà´ŁàµĨ": 7888,
      "Ġà¦łà¦¿à¦ķ": 7889,
      "Ġà¬Ńà¬¾à¬°à¬¤": 7890,
      "kwargs": 7891,
      "à²°à²²à³įà²²à²¿": 7892,
      "Ġà¤®à¤¤": 7893,
      "elt": 7894,
      "ĠCal": 7895,
      "Ġà®¨à®¾à®Ł": 7896,
      "à©Ģà¨¬": 7897,
      "à¬¿à¬ķàŃģ": 7898,
      "Ġtrade": 7899,
      "à¯Īà®ļà¯į": 7900,
      "anuary": 7901,
      "Ġà°Ĩà°¯à°¨": 7902,
      ")\\": 7903,
      "Ġfarm": 7904,
      "à´¯àµįà´ķàµįà´ķ": 7905,
      "àŃĤà¬ª": 7906,
      "ban": 7907,
      "like": 7908,
      "Ġchem": 7909,
      "à´¿à´·": 7910,
      "à³ģà²Ĥà²¬": 7911,
      "Ġemer": 7912,
      "Ġge": 7913,
      "Ġà®ħà®´": 7914,
      "Ġà´ªà´¿à´¨àµįà´¨": 7915,
      "àµĢà´¸": 7916,
      "Ġà¬Ĩà¬ķ": 7917,
      "ĠInternational": 7918,
      "à²°à³įà²¶": 7919,
      "à®¿à®ķà¯įà®ķà¯ģ": 7920,
      "à²¾à²¨à³ģ": 7921,
      "Ġà®°à¯Ĥ": 7922,
      "Ġfrequ": 7923,
      "Ġàªªà«ĭàª²à«Ģàª¸": 7924,
      "à®¾à®Ļà¯įà®ķ": 7925,
      "à¦²à¦¿": 7926,
      "à²²à²¿": 7927,
      "à±ĭà°Ł": 7928,
      "Ġund": 7929,
      "Ġà¦¯à¦¿": 7930,
      "Ġà´®à´¾à´¤àµįà´°": 7931,
      "Ġà°ľà°¿à°²à±įà°²": 7932,
      "à´¦àµĩà´¶": 7933,
      "Ġpotential": 7934,
      "àŃ¬": 7935,
      "à²µà²¾à²Ĺà²¿à²¦à³Ĩ": 7936,
      "àŃĩà¬ģ": 7937,
      "Ġà¦®à§Ĥà¦²": 7938,
      "Ġà¦¦à¦¿": 7939,
      "Ġà¤¯à¥ĭà¤Ĺ": 7940,
      "Ġàª¹àªµà«ĩ": 7941,
      "Ġsure": 7942,
      "ptember": 7943,
      "Ġàª¨àª¹": 7944,
      "à¥ģà¤Ŀ": 7945,
      "à§ĥà¦¤à¦¿": 7946,
      "à¬³àŃįà¬ª": 7947,
      "Ġà¬²à¬¾à¬Ĺ": 7948,
      "à²¾à²µà³ģ": 7949,
      "à¦¾à¦¡à¦¼à¦¾": 7950,
      "Ġà¨¦à¨¿à©±à¨¤à©Ģ": 7951,
      "Ġà®¤à¯ĩà®µ": 7952,
      "Ġà¦¸à§įà¦¥à¦¾à¦¨": 7953,
      "Ch": 7954,
      "inf": 7955,
      "àµĭà´²": 7956,
      "Ġà°ķà±įà°°": 7957,
      "à³Ĥà²°à³įà²": 7958,
      "à°¿à°¨à±įà°¨": 7959,
      "àª·à«įàªŁ": 7960,
      "à³ĩà²µà³Ĩ": 7961,
      "Ġà¨ķà¨¿à¨¸à¨¾à¨¨": 7962,
      "Pro": 7963,
      "à¬ĺ": 7964,
      "Ġà¦Ŀ": 7965,
      "Ġà¤ªà¥ģ": 7966,
      "Ġà¦¤à¦¾à¦ķ": 7967,
      "Ġà²¹à²¿à²Ĥà²¦": 7968,
      "àµĤàµ¼": 7969,
      "à°¿à°Ĥà°ļà°¿à°Ĥà°¦à°¿": 7970,
      "Ġà¤ıà¤ķà¤¾": 7971,
      "Ġà®Ĩà®°": 7972,
      "Ġà´ļà´¿à´¤àµįà´°": 7973,
      "Ġà°īà°ª": 7974,
      "Ġà¬¸à¬¹à¬¿à¬¤": 7975,
      "àµĥà´¤": 7976,
      "Ġà®ªà¯Ĭà®°": 7977,
      "--------": 7978,
      "Ġà®®à¯ģà®©à¯įà®©": 7979,
      "à±Ĩà°ķà±įà°Ł": 7980,
      "Ġmass": 7981,
      "à¬¨à¬°": 7982,
      "Ġà¦¦à¦¿à¦¬": 7983,
      "à²¾à²°à³į": 7984,
      "Ġà¨īà¨ª": 7985,
      "à¬°àŃįà¬¶": 7986,
      "Ġà²Ĩà²¸": 7987,
      "à°³à±įà°³": 7988,
      "ĠBritish": 7989,
      "CO": 7990,
      "now": 7991,
      "leg": 7992,
      "à°¨à°Ĥ": 7993,
      "Ġà¦¹à¦ļ": 7994,
      "à¥ĩà¤Ĥà¤Ł": 7995,
      "à³ĭà²·": 7996,
      "à²Ĺà²³à²¿à²Ĺà³Ĩ": 7997,
      "àª§àª¾": 7998,
      "à®¾à®²à¯ģà®®à¯į": 7999,
      "àªļà«įàªļ": 8000,
      "àµĭà´Łàµį": 8001,
      "Ġà¤²à¥ĩà¤ķà¤°": 8002,
      "Ġà¨µà¨°à¨¤": 8003,
      "Ġà°ħà°¯à°¿à°¤à±ĩ": 8004,
      "rv": 8005,
      "Ġcoun": 8006,
      "Ġctx": 8007,
      "à¦¤à¦¾à§°": 8008,
      "Ġsex": 8009,
      "ĠUN": 8010,
      "àµĤà´ª": 8011,
      "à¤ĸà¥įà¤¯à¤¾": 8012,
      "Ġà®ķà¯Ĭà®³à¯įà®³": 8013,
      "à®¾à®£à¯įà®Ł": 8014,
      "attr": 8015,
      "à±Ģà°İ": 8016,
      "Ġrequests": 8017,
      "à©Ģà¨ľà¨¼": 8018,
      "Ġà°ļà°¾à°²à°¾": 8019,
      "esp": 8020,
      "à³ģà²Ĺ": 8021,
      "Ġà¤¤à¤¿à¤": 8022,
      "ĠPakistan": 8023,
      "Ġà¦ļà¦¾à¦²": 8024,
      "Ġà¨¸à¨¼à¨¾à¨®": 8025,
      "Ġstudies": 8026,
      "Ġschools": 8027,
      "Ġactivity": 8028,
      "Ġà¦¸à¦¾à¦¹à¦¿à¦¤à§įà¦¯": 8029,
      "PL": 8030,
      "ym": 8031,
      "Ġwent": 8032,
      "Ġà¦¬à¦¾à¦¬": 8033,
      "à¦°à§įà¦¶": 8034,
      "Ġà¦ªà¦¾à§°à§ĩ": 8035,
      "ils": 8036,
      "Ġbegan": 8037,
      "à¤°à¥įà¤·": 8038,
      "à¯ĭà®°": 8039,
      "à¤§à¤¾à¤¨": 8040,
      "Ġà¦¶à§ģà¦°": 8041,
      "à¨ľà©ĩ": 8042,
      "à©°à¨¦à©Ģ": 8043,
      "Ġà²¨à²¡à³Ĩà²¸": 8044,
      "dd": 8045,
      "vest": 8046,
      "xim": 8047,
      "Ġà¤¸à¥įà¤¤": 8048,
      "àª¤à«įàª¯": 8049,
      "cember": 8050,
      "à¦¾à¦¨à¦¿": 8051,
      "àª¾àªĤàª¤": 8052,
      "ĠMod": 8053,
      "à¦¹à¦¾à¦°": 8054,
      "àŃįàŃŁà¬®": 8055,
      "Ġà¤¶à¥įà¤°à¥Ģ": 8056,
      "Ġà¤¶à¤¹à¤°": 8057,
      "Ġwebs": 8058,
      "à§ĩà¦ķà§įà¦·": 8059,
      "Ġà¤¸à¤Ĥà¤ª": 8060,
      "Ġà²¦à³ĩà²µ": 8061,
      "Ġreceived": 8062,
      "Ġà¬ªàŃĤà¬°àŃįà¬¬": 8063,
      "Ġà¦¬à¦¾à¦Ĥà¦²à¦¾à¦¦à§ĩà¦¶": 8064,
      "aff": 8065,
      "tain": 8066,
      "where": 8067,
      "Ġut": 8068,
      "ona": 8069,
      "ĠInt": 8070,
      "Ġà¦ıà¦ľà¦¨": 8071,
      "à¤°à¥įà¤¨": 8072,
      "ĠRaj": 8073,
      "Ġà®İà®²à¯įà®²": 8074,
      "Ġà¤ķà¥ĭà¤£": 8075,
      "à°°à±įà°¸": 8076,
      "à´¾à´°àµį": 8077,
      "Ġà°²à°ķà±įà°·": 8078,
      "Ġelse": 8079,
      "à²ħ": 8080,
      "Ġtool": 8081,
      "Ġden": 8082,
      "à¯ĭà®ķ": 8083,
      "à¦¨à§įà¦¥": 8084,
      "à°¨à±įà°¨à°¿": 8085,
      "à¦¾à¦Ĥà¦¶": 8086,
      "Ġà´¦à´¿à´µà´¸": 8087,
      "à§ĩà¦·à§įà¦Łà¦¾": 8088,
      "Ġà¤ľà¥Ģà¤µà¤¨": 8089,
      "Ġà¤ķà¤°à¥įà¤®": 8090,
      "à´¾à´¶": 8091,
      "Ġà¦¸à§įà¦ķ": 8092,
      "iles": 8093,
      "Ġà¦¦à¦¿à¦ķà§ĩ": 8094,
      "Ġà¬¬à¬¿à¬°": 8095,
      "à§±à§°": 8096,
      "à´¿à´¯àµģà´Ĥ": 8097,
      "Ġà¦¬à¦¿à¦°": 8098,
      "Ġà¦ĩà¦Ĥ": 8099,
      "Ġà°¦à±įà°µ": 8100,
      "à°¾à°Ĥà°ķ": 8101,
      "Ġà´ľà´¨": 8102,
      "Ġà¦ķà¦¾à§°à¦£à§ĩ": 8103,
      "Ġà®ļà¯Ĭà®²à¯įà®²": 8104,
      "Ġà²°à²¾à²ľà³įà²¯": 8105,
      "Ġà²¨à²¿à²®à³įà²®": 8106,
      "à¥ĩà¤¹": 8107,
      "à§įà¦ĺ": 8108,
      "Ġà¤ªà¥ģà¤²": 8109,
      "Ġà¦®à¦¾à¦°": 8110,
      "Ġà°¸à±įà°ª": 8111,
      "à²°à³ģà²¤à³įà²¤": 8112,
      "Ġà°Ĩà°°": 8113,
      "Ġquant": 8114,
      "Ġthemselves": 8115,
      "Ġassum": 8116,
      "à¯Īà®ªà¯Ĩ": 8117,
      "à¤¤à¥įà¤¨": 8118,
      "Ġthird": 8119,
      "ĠCour": 8120,
      "Ġà¤¦à¥Įà¤°": 8121,
      "à±Ģà°Ł": 8122,
      "Ġàª®à«Ĥ": 8123,
      "ĠàªĽà«ĭ": 8124,
      "Ġcomes": 8125,
      "Ġà¦ķà§°à¦¿à¦²à§ĩ": 8126,
      "à°¦à±ģ": 8127,
      "Ġ195": 8128,
      "ips": 8129,
      "àµĬà´°": 8130,
      "ĠUnion": 8131,
      "à®ªà¯įà®ªà®Łà¯ģà®®à¯į": 8132,
      "Ġà°ªà±Ĩà°Łà±įà°Ł": 8133,
      "Ġpayment": 8134,
      "ga": 8135,
      "àŃ®": 8136,
      "Ġwid": 8137,
      "Ġways": 8138,
      "oura": 8139,
      "Ġdoc": 8140,
      "Ġà¤®à¥ĥà¤¤": 8141,
      "à±ĭà°¡": 8142,
      "Ġà¨µà¨¾à¨°": 8143,
      "Ġàª®àª¨": 8144,
      "à¤°à¥įà¤Ń": 8145,
      "Ġà²ķà³Ī": 8146,
      "Ġsequ": 8147,
      "Ġà®īà®±": 8148,
      "Ġappl": 8149,
      "Ġ500": 8150,
      "Ġcommit": 8151,
      "Ġpolice": 8152,
      "Ġasset": 8153,
      "à³ĥà²¤": 8154,
      "Ġà¦ľà§Ģà¦¬": 8155,
      "Ġà²ħà²¥à²µà²¾": 8156,
      "ÙĦ": 8157,
      "Ġlay": 8158,
      "à¦¿à¦¨à¦¿": 8159,
      "à¦¾à¦ķà§Ī": 8160,
      "à§Ĥà¦®": 8161,
      "action": 8162,
      "àª°à«įàªŁ": 8163,
      "Ġà¬¹àŃĭà¬ĩà¬Ľà¬¿": 8164,
      "Ġknowledge": 8165,
      "jar": 8166,
      "Ġdou": 8167,
      "àª°àª¸": 8168,
      "Ġà¦ħà¦«": 8169,
      "Ġà®®à®£": 8170,
      "à¨Ĺà©Ģ": 8171,
      "Ġneeded": 8172,
      "à¨¿à¨µà©ĩà¨Ĥ": 8173,
      "Ġà¤¨à¤¿à¤¯à¤®": 8174,
      "log": 8175,
      "Ġcode": 8176,
      "Ġbar": 8177,
      "Ġà¤ªà¥Ī": 8178,
      "Ġà¤ªà¥ģà¤¨": 8179,
      "Ġà®ªà®¿à®±": 8180,
      "Ġà¤¤à¤¸à¥ĩ": 8181,
      "Ġà®ĩà®±": 8182,
      "Ġà¬®àŃĭ": 8183,
      "Ġàª²àªĹ": 8184,
      "Ġà²ªà³įà²°à²¤": 8185,
      "àµģà´¤à´¿à´¯": 8186,
      "Ġstarted": 8187,
      "Ġreduce": 8188,
      "à±ĩà°Ĥà°¦à±įà°°": 8189,
      "Ġdam": 8190,
      "à§įà¦¯à¦¾à¦¸": 8191,
      "Ġà®ħà®²": 8192,
      "à¨®à¨¾à¨¨": 8193,
      "Ġà²¨à²Ĥà²¤à²°": 8194,
      "Ġà¤ªà¥įà¤°à¤¸": 8195,
      "ĠGe": 8196,
      "à¬¿à¬¬àŃĩ": 8197,
      "Ġà¤¹à¥ĭà¤Ĺà¤¾": 8198,
      "Ġ31": 8199,
      "à§įà¦¯à¦¸": 8200,
      "Ġà¬ľà¬®": 8201,
      "aries": 8202,
      "à²¾à²ĸ": 8203,
      "à®®à¯įà®®": 8204,
      "ĠàŃª": 8205,
      "Ġà¤«à¤¿à¤²": 8206,
      "àµĭà´§": 8207,
      "Ġcommand": 8208,
      "Ġactually": 8209,
      "Ġà¦¸à¦Ĥà¦Ĺ": 8210,
      "Ġmatrix": 8211,
      "Ġreturns": 8212,
      "Ġopportun": 8213,
      "Ġlargest": 8214,
      "Ġà¬ķàŃĮà¬£à¬¸à¬¿": 8215,
      "inde": 8216,
      "à¦¿à§İà¦¸": 8217,
      "Ġà¦ªà¦¾à¦ł": 8218,
      "à¯įà®Łà¯į": 8219,
      "à§ģà¦ļ": 8220,
      "àŃĢà¬ĻàŃįà¬ķ": 8221,
      "Ġà¤Ńà¥Ĥà¤®": 8222,
      "Ġà´®à´°": 8223,
      "clus": 8224,
      "Ġword": 8225,
      "àµĤà´°": 8226,
      "à±įà°µà°°": 8227,
      "Ġà²ľà³Ĭ": 8228,
      "Ġà¬¸à¬®àŃŁà¬°àŃĩ": 8229,
      "Ġà´¨à´¿à´Ļàµįà´Ļ": 8230,
      "à°¦à±įà°§": 8231,
      "Ġgroups": 8232,
      "Ġà¤¬à¤¤à¤¾à¤¯à¤¾": 8233,
      "à°ħ": 8234,
      "Ġcreat": 8235,
      "lex": 8236,
      "ĠApril": 8237,
      "Ġonline": 8238,
      "à±Ģà°¡": 8239,
[...]
