{
  "version": "1.0",
  "truncation": null,
  "padding": null,
  "added_tokens": [
    {
      "id": 0,
      "content": "<|bos|>",
      "single_word": false,
      "lstrip": false,
      "rstrip": false,
      "normalized": false,
      "special": true
    },
    {
      "id": 1,
      "content": "<|eos|>",
      "single_word": false,
      "lstrip": false,
      "rstrip": false,
      "normalized": false,
      "special": true
    },
    {
      "id": 2,
      "content": "<|pad|>",
      "single_word": false,
      "lstrip": false,
      "rstrip": false,
      "normalized": false,
      "special": true
    },
    {
      "id": 3,
      "content": "<|reserved_0|>",
      "single_word": false,
      "lstrip": false,
      "rstrip": false,
      "normalized": false,
      "special": true
    },
    {
      "id": 4,
      "content": "<|reserved_1|>",
      "single_word": false,
      "lstrip": false,
      "rstrip": false,
      "normalized": false,
      "special": true
    },
    {
      "id": 5,
      "content": "<|reserved_2|>",
      "single_word": false,
      "lstrip": false,
      "rstrip": false,
      "normalized": false,
      "special": true
    },
    {
      "id": 6,
      "content": "<|reserved_3|>",
      "single_word": false,
      "lstrip": false,
      "rstrip": false,
      "normalized": false,
      "special": true
    },
    {
      "id": 7,
      "content": "<|reserved_4|>",
      "single_word": false,
      "lstrip": false,
      "rstrip": false,
      "normalized": false,
      "special": true
    },
    {
      "id": 8,
      "content": "<|reserved_5|>",
      "single_word": false,
      "lstrip": false,
      "rstrip": false,
      "normalized": false,
      "special": true
    },
    {
      "id": 9,
      "content": "<|reserved_6|>",
      "single_word": false,
      "lstrip": false,
      "rstrip": false,
      "normalized": false,
      "special": true
    },
    {
      "id": 10,
      "content": "<|reserved_7|>",
      "single_word": false,
      "lstrip": false,
      "rstrip": false,
      "normalized": false,
      "special": true
    },
    {
      "id": 11,
      "content": "<|reserved_8|>",
      "single_word": false,
      "lstrip": false,
      "rstrip": false,
      "normalized": false,
      "special": true
    },
    {
      "id": 12,
      "content": "<|reserved_9|>",
      "single_word": false,
      "lstrip": false,
      "rstrip": false,
      "normalized": false,
      "special": true
    },
    {
      "id": 13,
      "content": "<|reserved_10|>",
      "single_word": false,
      "lstrip": false,
      "rstrip": false,
      "normalized": false,
      "special": true
    },
    {
      "id": 14,
      "content": "<|reserved_11|>",
      "single_word": false,
      "lstrip": false,
      "rstrip": false,
      "normalized": false,
      "special": true
    },
    {
      "id": 15,
      "content": "<|reserved_12|>",
      "single_word": false,
      "lstrip": false,
      "rstrip": false,
      "normalized": false,
      "special": true
    },
    {
      "id": 16,
      "content": "<|reserved_13|>",
      "single_word": false,
      "lstrip": false,
      "rstrip": false,
      "normalized": false,
      "special": true
    },
    {
      "id": 17,
      "content": "<|reserved_14|>",
      "single_word": false,
      "lstrip": false,
      "rstrip": false,
      "normalized": false,
      "special": true
    },
    {
      "id": 18,
      "content": "<|reserved_15|>",
      "single_word": false,
      "lstrip": false,
      "rstrip": false,
      "normalized": false,
      "special": true
    },
    {
      "id": 19,
      "content": "<|reserved_16|>",
      "single_word": false,
      "lstrip": false,
      "rstrip": false,
      "normalized": false,
      "special": true
    },
    {
      "id": 20,
      "content": "<|reserved_17|>",
      "single_word": false,
      "lstrip": false,
      "rstrip": false,
      "normalized": false,
      "special": true
    },
    {
      "id": 21,
      "content": "<|reserved_18|>",
      "single_word": false,
      "lstrip": false,
      "rstrip": false,
      "normalized": false,
      "special": true
    },
    {
      "id": 22,
      "content": "<|reserved_19|>",
      "single_word": false,
      "lstrip": false,
      "rstrip": false,
      "normalized": false,
      "special": true
    },
    {
      "id": 23,
      "content": "<|reserved_20|>",
      "single_word": false,
      "lstrip": false,
      "rstrip": false,
      "normalized": false,
      "special": true
    },
    {
      "id": 24,
      "content": "<|reserved_21|>",
      "single_word": false,
      "lstrip": false,
      "rstrip": false,
      "normalized": false,
      "special": true
    },
    {
      "id": 25,
      "content": "<|reserved_22|>",
      "single_word": false,
      "lstrip": false,
      "rstrip": false,
      "normalized": false,
      "special": true
    },
    {
      "id": 26,
      "content": "<|reserved_23|>",
      "single_word": false,
      "lstrip": false,
      "rstrip": false,
      "normalized": false,
      "special": true
    },
    {
      "id": 27,
      "content": "<|reserved_24|>",
      "single_word": false,
      "lstrip": false,
      "rstrip": false,
      "normalized": false,
      "special": true
    },
    {
      "id": 28,
      "content": "<|reserved_25|>",
      "single_word": false,
      "lstrip": false,
      "rstrip": false,
      "normalized": false,
      "special": true
    },
    {
      "id": 29,
      "content": "<|reserved_26|>",
      "single_word": false,
      "lstrip": false,
      "rstrip": false,
      "normalized": false,
      "special": true
    },
    {
      "id": 30,
      "content": "<|reserved_27|>",
      "single_word": false,
      "lstrip": false,
      "rstrip": false,
      "normalized": false,
      "special": true
    },
    {
      "id": 31,
      "content": "<|reserved_28|>",
      "single_word": false,
      "lstrip": false,
      "rstrip": false,
      "normalized": false,
      "special": true
    },
    {
      "id": 32,
      "content": "<|reserved_29|>",
      "single_word": false,
      "lstrip": false,
      "rstrip": false,
      "normalized": false,
      "special": true
    },
    {
      "id": 33,
      "content": "<|reserved_30|>",
      "single_word": false,
      "lstrip": false,
      "rstrip": false,
      "normalized": false,
      "special": true
    },
    {
      "id": 34,
      "content": "<|reserved_31|>",
      "single_word": false,
      "lstrip": false,
      "rstrip": false,
      "normalized": false,
      "special": true
    },
    {
      "id": 35,
      "content": "<|reserved_32|>",
      "single_word": false,
      "lstrip": false,
      "rstrip": false,
      "normalized": false,
      "special": true
    },
    {
      "id": 36,
      "content": "<|reserved_33|>",
      "single_word": false,
      "lstrip": false,
      "rstrip": false,
      "normalized": false,
      "special": true
    },
    {
      "id": 37,
      "content": "<|reserved_34|>",
      "single_word": false,
      "lstrip": false,
      "rstrip": false,
      "normalized": false,
      "special": true
    },
    {
      "id": 38,
      "content": "<|reserved_35|>",
      "single_word": false,
      "lstrip": false,
      "rstrip": false,
      "normalized": false,
      "special": true
    },
    {
      "id": 39,
      "content": "<|reserved_36|>",
      "single_word": false,
      "lstrip": false,
      "rstrip": false,
      "normalized": false,
      "special": true
    },
    {
      "id": 40,
      "content": "<|reserved_37|>",
      "single_word": false,
      "lstrip": false,
      "rstrip": false,
      "normalized": false,
      "special": true
    },
    {
      "id": 41,
      "content": "<|reserved_38|>",
      "single_word": false,
      "lstrip": false,
      "rstrip": false,
      "normalized": false,
      "special": true
    },
    {
      "id": 42,
      "content": "<|reserved_39|>",
      "single_word": false,
      "lstrip": false,
      "rstrip": false,
      "normalized": false,
      "special": true
    },
    {
      "id": 43,
      "content": "<|reserved_40|>",
      "single_word": false,
      "lstrip": false,
      "rstrip": false,
      "normalized": false,
      "special": true
    },
    {
      "id": 44,
      "content": "<|reserved_41|>",
      "single_word": false,
      "lstrip": false,
      "rstrip": false,
      "normalized": false,
      "special": true
    },
    {
      "id": 45,
      "content": "<|reserved_42|>",
      "single_word": false,
      "lstrip": false,
      "rstrip": false,
      "normalized": false,
      "special": true
    },
    {
      "id": 46,
      "content": "<|reserved_43|>",
      "single_word": false,
      "lstrip": false,
      "rstrip": false,
      "normalized": false,
      "special": true
    },
    {
      "id": 47,
      "content": "<|reserved_44|>",
      "single_word": false,
      "lstrip": false,
      "rstrip": false,
      "normalized": false,
      "special": true
    },
    {
      "id": 48,
      "content": "<|reserved_45|>",
      "single_word": false,
      "lstrip": false,
      "rstrip": false,
      "normalized": false,
      "special": true
    },
    {
      "id": 49,
      "content": "<|reserved_46|>",
      "single_word": false,
      "lstrip": false,
      "rstrip": false,
      "normalized": false,
      "special": true
    },
    {
      "id": 50,
      "content": "<|reserved_47|>",
      "single_word": false,
      "lstrip": false,
      "rstrip": false,
      "normalized": false,
      "special": true
    },
    {
      "id": 51,
      "content": "<|reserved_48|>",
      "single_word": false,
      "lstrip": false,
      "rstrip": false,
      "normalized": false,
      "special": true
    },
    {
      "id": 52,
      "content": "<|reserved_49|>",
      "single_word": false,
      "lstrip": false,
      "rstrip": false,
      "normalized": false,
      "special": true
    },
    {
      "id": 53,
      "content": "<|reserved_50|>",
      "single_word": false,
      "lstrip": false,
      "rstrip": false,
      "normalized": false,
      "special": true
    },
    {
      "id": 54,
      "content": "<|reserved_51|>",
      "single_word": false,
      "lstrip": false,
      "rstrip": false,
      "normalized": false,
      "special": true
    },
    {
      "id": 55,
      "content": "<|reserved_52|>",
      "single_word": false,
      "lstrip": false,
      "rstrip": false,
      "normalized": false,
      "special": true
    },
    {
      "id": 56,
      "content": "<|reserved_53|>",
      "single_word": false,
      "lstrip": false,
      "rstrip": false,
      "normalized": false,
      "special": true
    },
    {
      "id": 57,
      "content": "<|reserved_54|>",
      "single_word": false,
      "lstrip": false,
      "rstrip": false,
      "normalized": false,
      "special": true
    },
    {
      "id": 58,
      "content": "<|reserved_55|>",
      "single_word": false,
      "lstrip": false,
      "rstrip": false,
      "normalized": false,
      "special": true
    },
    {
      "id": 59,
      "content": "<|reserved_56|>",
      "single_word": false,
      "lstrip": false,
      "rstrip": false,
      "normalized": false,
      "special": true
    },
    {
      "id": 60,
      "content": "<|reserved_57|>",
      "single_word": false,
      "lstrip": false,
      "rstrip": false,
      "normalized": false,
      "special": true
    },
    {
      "id": 61,
      "content": "<|reserved_58|>",
      "single_word": false,
      "lstrip": false,
      "rstrip": false,
      "normalized": false,
      "special": true
    },
    {
      "id": 62,
      "content": "<|reserved_59|>",
      "single_word": false,
      "lstrip": false,
      "rstrip": false,
      "normalized": false,
      "special": true
    },
    {
      "id": 63,
      "content": "<|reserved_60|>",
      "single_word": false,
      "lstrip": false,
      "rstrip": false,
      "normalized": false,
      "special": true
    },
    {
      "id": 64,
      "content": "<|reserved_61|>",
      "single_word": false,
      "lstrip": false,
      "rstrip": false,
      "normalized": false,
      "special": true
    },
    {
      "id": 65,
      "content": "<|reserved_62|>",
      "single_word": false,
      "lstrip": false,
      "rstrip": false,
      "normalized": false,
      "special": true
    },
    {
      "id": 66,
      "content": "<|reserved_63|>",
      "single_word": false,
      "lstrip": false,
      "rstrip": false,
      "normalized": false,
      "special": true
    }
  ],
  "normalizer": {
    "type": "Sequence",
    "normalizers": [
      {
        "type": "Replace",
        "pattern": {
          "Regex": "\\r\\n"
        },
        "content": "\n"
      },
      {
        "type": "Replace",
        "pattern": {
          "Regex": "\\r"
        },
        "content": "\n"
      },
      {
        "type": "Replace",
        "pattern": {
          "String": "﻿"
        },
        "content": ""
      },
      {
        "type": "NFC"
      }
    ]
  },
  "pre_tokenizer": {
    "type": "Sequence",
    "pretokenizers": [
      {
        "type": "Split",
        "pattern": {
          "Regex": " ?[\\p{L}\\p{M}‍‌]+| ?\\p{N}{1,3}| ?[^\\s\\p{L}\\p{M}\\p{N}‍‌]+|\\s+"
        },
        "behavior": "Isolated",
        "invert": false
      },
      {
        "type": "ByteLevel",
        "add_prefix_space": false,
        "trim_offsets": true,
        "use_regex": false
      }
    ]
  },
  "post_processor": null,
  "decoder": {
    "type": "ByteLevel",
    "add_prefix_space": true,
    "trim_offsets": true,
    "use_regex": true
  },
  "model": {
    "type": "BPE",
    "dropout": null,
    "unk_token": null,
    "continuing_subword_prefix": null,
    "end_of_word_suffix": null,
    "fuse_unk": false,
    "byte_fallback": false,
    "ignore_merges": false,
    "vocab": {
      "<|bos|>": 0,
      "<|eos|>": 1,
      "<|pad|>": 2,
      "<|reserved_0|>": 3,
      "<|reserved_1|>": 4,
      "<|reserved_2|>": 5,
      "<|reserved_3|>": 6,
      "<|reserved_4|>": 7,
      "<|reserved_5|>": 8,
      "<|reserved_6|>": 9,
      "<|reserved_7|>": 10,
      "<|reserved_8|>": 11,
      "<|reserved_9|>": 12,
      "<|reserved_10|>": 13,
      "<|reserved_11|>": 14,
      "<|reserved_12|>": 15,
      "<|reserved_13|>": 16,
      "<|reserved_14|>": 17,
      "<|reserved_15|>": 18,
      "<|reserved_16|>": 19,
      "<|reserved_17|>": 20,
      "<|reserved_18|>": 21,
      "<|reserved_19|>": 22,
      "<|reserved_20|>": 23,
      "<|reserved_21|>": 24,
      "<|reserved_22|>": 25,
      "<|reserved_23|>": 26,
      "<|reserved_24|>": 27,
      "<|reserved_25|>": 28,
      "<|reserved_26|>": 29,
      "<|reserved_27|>": 30,
      "<|reserved_28|>": 31,
      "<|reserved_29|>": 32,
      "<|reserved_30|>": 33,
      "<|reserved_31|>": 34,
      "<|reserved_32|>": 35,
      "<|reserved_33|>": 36,
      "<|reserved_34|>": 37,
      "<|reserved_35|>": 38,
      "<|reserved_36|>": 39,
      "<|reserved_37|>": 40,
      "<|reserved_38|>": 41,
      "<|reserved_39|>": 42,
      "<|reserved_40|>": 43,
      "<|reserved_41|>": 44,
      "<|reserved_42|>": 45,
      "<|reserved_43|>": 46,
      "<|reserved_44|>": 47,
      "<|reserved_45|>": 48,
      "<|reserved_46|>": 49,
      "<|reserved_47|>": 50,
      "<|reserved_48|>": 51,
      "<|reserved_49|>": 52,
      "<|reserved_50|>": 53,
      "<|reserved_51|>": 54,
      "<|reserved_52|>": 55,
      "<|reserved_53|>": 56,
      "<|reserved_54|>": 57,
      "<|reserved_55|>": 58,
      "<|reserved_56|>": 59,
      "<|reserved_57|>": 60,
      "<|reserved_58|>": 61,
      "<|reserved_59|>": 62,
      "<|reserved_60|>": 63,
      "<|reserved_61|>": 64,
      "<|reserved_62|>": 65,
      "<|reserved_63|>": 66,
      "!": 67,
      "\"": 68,
      "#": 69,
      "$": 70,
      "%": 71,
      "&": 72,
      "'": 73,
      "(": 74,
      ")": 75,
      "*": 76,
      "+": 77,
      ",": 78,
      "-": 79,
      ".": 80,
      "/": 81,
      "0": 82,
      "1": 83,
      "2": 84,
      "3": 85,
      "4": 86,
      "5": 87,
      "6": 88,
      "7": 89,
      "8": 90,
      "9": 91,
      ":": 92,
      ";": 93,
      "<": 94,
      "=": 95,
      ">": 96,
      "?": 97,
      "@": 98,
      "A": 99,
      "B": 100,
      "C": 101,
      "D": 102,
      "E": 103,
      "F": 104,
      "G": 105,
      "H": 106,
      "I": 107,
      "J": 108,
      "K": 109,
      "L": 110,
      "M": 111,
      "N": 112,
      "O": 113,
      "P": 114,
      "Q": 115,
      "R": 116,
      "S": 117,
      "T": 118,
      "U": 119,
      "V": 120,
      "W": 121,
      "X": 122,
      "Y": 123,
      "Z": 124,
      "[": 125,
      "\\": 126,
      "]": 127,
      "^": 128,
      "_": 129,
      "`": 130,
      "a": 131,
      "b": 132,
      "c": 133,
      "d": 134,
      "e": 135,
      "f": 136,
      "g": 137,
      "h": 138,
      "i": 139,
      "j": 140,
      "k": 141,
      "l": 142,
      "m": 143,
      "n": 144,
      "o": 145,
      "p": 146,
      "q": 147,
      "r": 148,
      "s": 149,
      "t": 150,
      "u": 151,
      "v": 152,
      "w": 153,
      "x": 154,
      "y": 155,
      "z": 156,
      "{": 157,
      "|": 158,
      "}": 159,
      "~": 160,
      "¡": 161,
      "¢": 162,
      "£": 163,
      "¤": 164,
      "¥": 165,
      "¦": 166,
      "§": 167,
      "¨": 168,
      "©": 169,
      "ª": 170,
      "«": 171,
      "¬": 172,
      "®": 173,
      "¯": 174,
      "°": 175,
      "±": 176,
      "²": 177,
      "³": 178,
      "´": 179,
      "µ": 180,
      "¶": 181,
      "·": 182,
      "¸": 183,
      "¹": 184,
      "º": 185,
      "»": 186,
      "¼": 187,
      "½": 188,
      "¾": 189,
      "¿": 190,
      "À": 191,
      "Á": 192,
      "Â": 193,
      "Ã": 194,
      "Ä": 195,
      "Å": 196,
      "Æ": 197,
      "Ç": 198,
      "È": 199,
      "É": 200,
      "Ê": 201,
      "Ë": 202,
      "Ì": 203,
      "Í": 204,
      "Î": 205,
      "Ï": 206,
      "Ð": 207,
      "Ñ": 208,
      "Ò": 209,
      "Ó": 210,
      "Ô": 211,
      "Õ": 212,
      "Ö": 213,
      "×": 214,
      "Ø": 215,
      "Ù": 216,
      "Ú": 217,
      "Û": 218,
      "Ü": 219,
      "Ý": 220,
      "Þ": 221,
      "ß": 222,
      "à": 223,
      "á": 224,
      "â": 225,
      "ã": 226,
      "ä": 227,
      "å": 228,
      "æ": 229,
      "ç": 230,
      "è": 231,
      "é": 232,
      "ê": 233,
      "ë": 234,
      "ì": 235,
      "í": 236,
      "î": 237,
      "ï": 238,
      "ð": 239,
      "ñ": 240,
      "ò": 241,
      "ó": 242,
      "ô": 243,
      "õ": 244,
      "ö": 245,
      "÷": 246,
      "ø": 247,
      "ù": 248,
      "ú": 249,
      "û": 250,
      "ü": 251,
      "ý": 252,
      "þ": 253,
      "ÿ": 254,
      "Ā": 255,
      "ā": 256,
      "Ă": 257,
      "ă": 258,
      "Ą": 259,
      "ą": 260,
      "Ć": 261,
      "ć": 262,
      "Ĉ": 263,
      "ĉ": 264,
      "Ċ": 265,
      "ċ": 266,
      "Č": 267,
      "č": 268,
      "Ď": 269,
      "ď": 270,
      "Đ": 271,
      "đ": 272,
      "Ē": 273,
      "ē": 274,
      "Ĕ": 275,
      "ĕ": 276,
      "Ė": 277,
      "ė": 278,
      "Ę": 279,
      "ę": 280,
      "Ě": 281,
      "ě": 282,
      "Ĝ": 283,
      "ĝ": 284,
      "Ğ": 285,
      "ğ": 286,
      "Ġ": 287,
      "ġ": 288,
      "Ģ": 289,
      "ģ": 290,
      "Ĥ": 291,
      "ĥ": 292,
      "Ħ": 293,
      "ħ": 294,
      "Ĩ": 295,
      "ĩ": 296,
      "Ī": 297,
      "ī": 298,
      "Ĭ": 299,
      "ĭ": 300,
      "Į": 301,
      "į": 302,
      "İ": 303,
      "ı": 304,
      "Ĳ": 305,
      "ĳ": 306,
      "Ĵ": 307,
      "ĵ": 308,
      "Ķ": 309,
      "ķ": 310,
      "ĸ": 311,
      "Ĺ": 312,
      "ĺ": 313,
      "Ļ": 314,
      "ļ": 315,
      "Ľ": 316,
      "ľ": 317,
      "Ŀ": 318,
      "ŀ": 319,
      "Ł": 320,
      "ł": 321,
      "Ń": 322,
      "Ġà": 323,
      "à¦": 324,
      "à¤": 325,
      "à®": 326,
      "à²": 327,
      "ĠĠ": 328,
      "à°": 329,
      "à´": 330,
      "à¬": 331,
      "à¨": 332,
      "àª": 333,
      "à¯": 334,
      "à§": 335,
      "à¥": 336,
      "Ġà¤": 337,
      "àµ": 338,
      "ĠĠĠĠ": 339,
      "Ġà¦": 340,
      "à³": 341,
      "à±": 342,
      "à¯į": 343,
      "Ġà¨": 344,
      "àµį": 345,
      "à©": 346,
      "Ġt": 347,
      "à¤¾": 348,
      "à«": 349,
      "Ġà²": 350,
      "Ġà®": 351,
      "à¦¾": 352,
      "Ġà°": 353,
      "àŃ": 354,
      "Ġàª": 355,
      "à¯įà®": 356,
      "àµįà´": 357,
      "Ġa": 358,
      "he": 359,
      "in": 360,
      "Ġà¬": 361,
      "Ġà´": 362,
      "à¤¾à¤": 363,
      "à³į": 364,
      "à¦¾à¦": 365,
      "à§ĩ": 366,
      "ĠĠĠĠĠĠĠĠ": 367,
      "à±į": 368,
      "à³įà²": 369,
      "à¦¿": 370,
      "re": 371,
      "à¥į": 372,
      "à¥įà¤": 373,
      "à§į": 374,
      "à¯ģ": 375,
      "à²¿": 376,
      "on": 377,
      "à®¿": 378,
      "à¥ĩ": 379,
      "à±įà°": 380,
      "Ġthe": 381,
      "à§įà¦": 382,
      "àª¾": 383,
      "à°¿": 384,
      "er": 385,
      "à´¿": 386,
      "à®¿à®": 387,
      "at": 388,
      "à±ģ": 389,
      "à¦¿à¦": 390,
      "à²¿à²": 391,
      "à°¾": 392,
      "à§°": 393,
      "Ġs": 394,
      "Ġo": 395,
      "à¨¾": 396,
      "à´¿à´": 397,
      "à³ģ": 398,
      "à¥Ģ": 399,
      "en": 400,
      "à¯ģà®": 401,
      "à²¾": 402,
      "àª¾àª": 403,
      "à¬¾": 404,
      "àŃį": 405,
      "es": 406,
      "à°¾à°": 407,
      "is": 408,
      "Ġc": 409,
      "an": 410,
      "à²¾à²": 411,
      "à¤¿": 412,
      "à¤°": 413,
      "or": 414,
      "à¬°": 415,
      "it": 416,
      "àµģ": 417,
      "à§ĩà¦": 418,
      "al": 419,
      "à«ĩ": 420,
      "Ġw": 421,
      "à®¾": 422,
      "à°¿à°": 423,
      "à¬¿": 424,
      "ed": 425,
      "à®¾à®": 426,
      "Ġà¤ķ": 427,
      "Ġp": 428,
      "à³Ĩ": 429,
      "à¨¾à¨": 430,
      "Ġf": 431,
      "Ġb": 432,
      "Ĥà°": 433,
      "nd": 434,
      "à¤¿à¤": 435,
      "à´¾": 436,
      "ar": 437,
      "àµģà´": 438,
      "Ġof": 439,
      "Ġin": 440,
      "à´¾à´": 441,
      "ing": 442,
      "à¤Ĥ": 443,
      "à±ģà°": 444,
      "àŃįà¬": 445,
      "à©Ģ": 446,
      "à²°": 447,
      "à¥¤": 448,
      "Ġm": 449,
      "ion": 450,
      "à©ĩ": 451,
      "ic": 452,
      "ou": 453,
      "à²¦": 454,
      "à¨¿": 455,
      "¯à¦": 456,
      "à¬¾à¬": 457,
      "Ġto": 458,
      "à¯įà®ķ": 459,
      "à®°": 460,
      "Ġand": 461,
      "à«Ģ": 462,
      "à¥ĭ": 463,
      "à¤¨": 464,
      "àŃĩ": 465,
      "à§ģ": 466,
      "Ġd": 467,
      "à«į": 468,
      "à¦¨": 469,
      "à«įàª": 470,
      "à¤¤": 471,
      "as": 472,
      "à¨°": 473,
      "à¬¿à¬": 474,
      "à¯Ī": 475,
      "le": 476,
      "à®¤": 477,
      "à¯įà®¤": 478,
      "¯à¦¼": 479,
      "om": 480,
      "Ġà¦ķ": 481,
      "à¤ķ": 482,
      "à¦¤": 483,
      "à¥įà¤¯": 484,
      "àª¨": 485,
      "à§ĭ": 486,
      "ent": 487,
      "à¦ķ": 488,
      "Ġh": 489,
      "àµĨ": 490,
      "Ġà¤¸": 491,
      "à¤²": 492,
      "à¦²": 493,
      "à²µ": 494,
      "à°¨": 495,
      "à°Ĥà°": 496,
      "à®©": 497,
      "Ġà¦¬": 498,
      "à¦°": 499,
      "à²¨": 500,
      "st": 501,
      "¨àµįà´": 502,
      "à²²": 503,
      "àª°": 504,
      "à°°": 505,
      "à®Ł": 506,
      "à±ĩ": 507,
      "à´¤": 508,
      "Ġth": 509,
      "ct": 510,
      "à²Ĥ": 511,
      "Ġà¦ª": 512,
      "à¨¿à¨": 513,
      "Ġre": 514,
      "Ġà¦¸": 515,
      "il": 516,
      "à²¤": 517,
      "Ġe": 518,
      "à±ĭ": 519,
      "ro": 520,
      "®à¯į": 521,
      "àŃģ": 522,
      "Ġn": 523,
      "à¤¸": 524,
      "Ġà¤®": 525,
      "Ġà¤¹": 526,
      "Ġà¤ª": 527,
      "Ġl": 528,
      "à¥ģ": 529,
      "el": 530,
      "ķàµįà´": 531,
      "et": 532,
      "à®³": 533,
      "à§Ģ": 534,
      "Ġà¨¦": 535,
      "à¯įà®ª": 536,
      "à¦®": 537,
      "à¤¹": 538,
      "Ġà¦Ĩ": 539,
      "Ġà®ª": 540,
      "à¨¤": 541,
      "à«ĭ": 542,
      "à²Ĺ": 543,
      "Ġà¨ķ": 544,
      "Ġis": 545,
      "am": 546,
      "Ġà¨¸": 547,
      "à°²": 548,
      "ĠT": 549,
      "à¤¾à¤°": 550,
      "ĠĠĊ": 551,
      "à´°": 552,
      "à¯Īà®": 553,
      "à¥įà¤°": 554,
      "à©°": 555,
      "ķà¯įà®ķ": 556,
      "ur": 557,
      "à®²": 558,
      "Ġà®ķ": 559,
      "Ġ(": 560,
      "à²ķ": 561,
      "à²³": 562,
      "im": 563,
      "Ġà®µ": 564,
      "ation": 565,
      "à¯įà®Ł": 566,
      "id": 567,
      "ĠĠĠĠĠĠĠĠĠĠĠĠ": 568,
      "¨àµįà´¨": 569,
      "ve": 570,
      "ķàµįà´ķ": 571,
      "à¤®": 572,
      "ut": 573,
      "Ġg": 574,
      "Ġà¨¹": 575,
      "à©ĭ": 576,
      "à±Ģ": 577,
      "à°ķ": 578,
      "ol": 579,
      "Ġà²®": 580,
      "à¦¬": 581,
      "à¦¯à¦¼": 582,
      "à¨¨": 583,
      "à¨¸": 584,
      "ĠI": 585,
      "àŃĩà¬": 586,
      "à©±": 587,
      "à³ĩ": 588,
      "ce": 589,
      "àª¤": 590,
      "ĠA": 591,
      "à«ģ": 592,
      "Ġà¦®": 593,
      "Ġ1": 594,
      "àª¿": 595,
      "ĠS": 596,
      "Ġà¤Ĩ": 597,
      "Ġà°ª": 598,
      "Ġà®®": 599,
      "ot": 600,
      "Ġbe": 601,
      "Ġà²¸": 602,
      "àª®": 603,
      "à¯ĩ": 604,
      "ch": 605,
      "ly": 606,
      "à¦¾à¦°": 607,
      "ay": 608,
      "àªµ": 609,
      "à´¯": 610,
      "à®¿à®²": 611,
      "Ġfor": 612,
      "à¤µ": 613,
      "Ġà¦¨": 614,
      "à®µ": 615,
      "à°¾à°°": 616,
      "se": 617,
      "ad": 618,
      "àµįà´¤": 619,
      "Ġà¨¨": 620,
      "Ġà®¤": 621,
      "à¨ķ": 622,
      "à±įà°°": 623,
      "Ġà¤µ": 624,
      "Ġà¤ħ": 625,
      "Ġàªķ": 626,
      "ver": 627,
      "à¬¨": 628,
      "ig": 629,
      "Ġà®ħ": 630,
      "Ġon": 631,
      "ow": 632,
      "àªķ": 633,
      "à¦¾à§°": 634,
      "Ġà´ª": 635,
      "à±Ĩ": 636,
      "Ġà¦¹": 637,
      "àªĤ": 638,
      "Ġà¤¨": 639,
      "ul": 640,
      "à±ĩà°": 641,
      "ĠC": 642,
      "àµĭ": 643,
      "Ġà¦ı": 644,
      "Ġà²ķ": 645,
      "à¤ª": 646,
      "Ġà¦¦": 647,
      "à¦¾à¦¨": 648,
      "à¥Ī": 649,
      "à¨¹": 650,
      "Ġà¥": 651,
      "à¯ģà®®à¯į": 652,
      "Ġà¬ķ": 653,
      "Ġ2": 654,
      "Ġu": 655,
      "Ġst": 656,
      "à´Ł": 657,
      "Ġà°ķ": 658,
      "à¥Ĥ": 659,
      "à¨¦": 660,
      "âĢ": 661,
      "Ġà®ļ": 662,
      "à¤ļ": 663,
      "à³įà²²": 664,
      "à¯Ĩ": 665,
      "à®¿à®¯": 666,
      "à²¿à²¦": 667,
      "Ġà¬¸": 668,
      "à¤£": 669,
      "à²¡": 670,
      "à´Ĥ": 671,
      "à³įà²°": 672,
      "Ġàªª": 673,
      "Ġà¨µ": 674,
      "Ġà°µ": 675,
      "à¨Ĥ": 676,
      "à³įà²¤": 677,
      "Ġà¤¤": 678,
      "à¦¸": 679,
      "à¥įà¤¯à¤¾à¤": 680,
      "ĠĠĠĠĠĠĠĠĠĠĠĠĠĠĠĠ": 681,
      "Ġà°®": 682,
      "Ġà¦¤": 683,
      "à©ģ": 684,
      "à³įà²¨": 685,
      "Ġthat": 686,
      "à§įà¦¤": 687,
      "à¤¦": 688,
      "ir": 689,
      "¨à¯įà®¤": 690,
      "Ġà¬ª": 691,
      "à¨¼": 692,
      "à²¾à²°": 693,
      "à©Ī": 694,
      "Ġà´ķ": 695,
      "Ġà¤ľ": 696,
      "àµĩ": 697,
      "ith": 698,
      "est": 699,
      "Ġà°¸": 700,
      "à®±": 701,
      "Ġà¤¦": 702,
      "àŃŁ": 703,
      "àµįà´Ł": 704,
      "à¬ķ": 705,
      "Ġà²¨": 706,
      "à¨²": 707,
      "à§įà¦¯": 708,
      "àª¾àªĤ": 709,
      "ªà¯įà®ª": 710,
      "ĠM": 711,
      "à¤Ĺ": 712,
      "Ġà®ĩ": 713,
      "Ġas": 714,
      "à´¿à´²": 715,
      "Ġà¤ķà¥ĩ": 716,
      "à©Ĥ": 717,
      "ra": 718,
      "à°®": 719,
      "à§įà¦°": 720,
      "Ġà¤¬": 721,
      "à´®": 722,
      "Ġà¥¤": 723,
      "Ġà²ħ": 724,
      "Ġà°ħ": 725,
      "Ġàª¸": 726,
      "Ġà¦ħ": 727,
      "Ġ\"": 728,
      "Ġà®¨": 729,
      "à¯įà®±": 730,
      "à¨¾à¨Ĥ": 731,
      "à®®": 732,
      "à§ĩà¦°": 733,
      "if": 734,
      "à¥ĩà¤Ĥ": 735,
      "à°¤": 736,
      "à²²à³įà²²": 737,
      "à¦ª": 738,
      "àµģà´Ĥ": 739,
      "à°Ĥ": 740,
      "àŃģà¬": 741,
      "à¬¾à¬°": 742,
      "à²¾à²Ĺ": 743,
      "Ġàª¤": 744,
      "ment": 745,
      "à®£": 746,
      "ĠP": 747,
      "à²¸": 748,
      "à¯ĭ": 749,
      "Ġcon": 750,
      "à³Ĥ": 751,
      "Ġà´µ": 752,
      "à²¯": 753,
      "Ġà²ª": 754,
      "ter": 755,
      "Ġà¨ª": 756,
      "à³įà²¯": 757,
      "àŃįà¬°": 758,
      "Ġan": 759,
      "à«ĩàª": 760,
      "Ġy": 761,
      "Ġà²¹": 762,
      "Ġà´¸": 763,
      "à±įà°¯": 764,
      "her": 765,
      "à´³": 766,
      "à²¨à³įà²¨": 767,
      "Ġà¬¬": 768,
      "Ġwith": 769,
      "à§ģà¦": 770,
      "àª¾àª°": 771,
      "à´¤àµįà´¤": 772,
      "Ġit": 773,
      "Ġpro": 774,
      "Ġàª®": 775,
      "à¤°à¥įà¤": 776,
      "à®ķ": 777,
      "à´¿à´¯": 778,
      "ab": 779,
      "à®¿à®²à¯į": 780,
      "à±įà°¨": 781,
      "àµįà´°": 782,
      "od": 783,
      "ag": 784,
      "ĠB": 785,
      "à©±à¨": 786,
      "Ġal": 787,
      "Ġà¤¯": 788,
      "Ġà¤¹à¥Ī": 789,
      "Ġà¨ľ": 790,
      "à®¤à¯įà®¤": 791,
      "Ġà®İ": 792,
      "à°¿à°Ĥà°": 793,
      "à¤¾à¤Ĥ": 794,
      "Ġare": 795,
      "à¤¾à¤¨": 796,
      "à´µ": 797,
      "Ġà¤°": 798,
      "à¦¹": 799,
      "Ġwh": 800,
      "à®¿à®°": 801,
      "ist": 802,
      "à¤¯": 803,
      "Ġà°ļ": 804,
      "pp": 805,
      "à®¤à¯ģ": 806,
      "ĠThe": 807,
      "Ġà²¬": 808,
      "à³Ģ": 809,
      "Ġà°¨": 810,
      "àŃĭ": 811,
      "à°µ": 812,
      "Ġde": 813,
      "à³Ĭ": 814,
      "à¯įà®ķà®³": 815,
      "Ġr": 816,
      "ate": 817,
      "à²¤à³įà²¤": 818,
      "à²¿à²¸": 819,
      "àŃįà¬¤": 820,
      "à´£": 821,
      "à¨®": 822,
      "and": 823,
      "Ġà¨ħ": 824,
      "à¥ĩà¤": 825,
      "Ġà´ħ": 826,
      "Ġà´¨": 827,
      "à¯Īà®¯": 828,
      "Ġà¤²": 829,
      "à´¨": 830,
      "à§±": 831,
      "à²Ĥà²¦": 832,
      "à®¾à®°": 833,
      "ri": 834,
      "à«įàª¯": 835,
      "à°¾à°²": 836,
      "Ġà´®": 837,
      "qu": 838,
      "à³ĭ": 839,
      "ers": 840,
      "op": 841,
      "à¦¿à¦¯à¦¼": 842,
      "à´¸": 843,
      "à®¯": 844,
      "Ġ'": 845,
      "à±įà°²": 846,
      "ĠN": 847,
      "à°¸": 848,
      "à´²": 849,
      "à¬°àŃĩ": 850,
      "àª¨à«ĩ": 851,
      "res": 852,
      "à¬®": 853,
      "à¦¦": 854,
      "rom": 855,
      "Ġex": 856,
      "Ġor": 857,
      "à°¦": 858,
      "à¨¾à¨°": 859,
      "à¤¾à¤¤": 860,
      "Ġv": 861,
      "ill": 862,
      "à¦Ĺ": 863,
      "th": 864,
      "à§įà§°": 865,
      "un": 866,
      "à´±": 867,
      "à®®à¯į": 868,
      "à¯Ĭ": 869,
      "Ġ-": 870,
      "à®¿à®©": 871,
      "à±įà°¤": 872,
      "à§Ī": 873,
      "à¦¿à¦²": 874,
      "Ġàªľ": 875,
      "àµįà´ª": 876,
      "à²®": 877,
      "ĠàªĽ": 878,
      "Ġà¨®": 879,
      "Ġà¨¤": 880,
      "Ġàªħ": 881,
      "à¦Ł": 882,
      "à´¨àµįà´¨": 883,
      "um": 884,
      "à¤¡": 885,
      "à«įàª°": 886,
      "Ġby": 887,
      "Ġà¦ľ": 888,
      "à¦¾à¦²": 889,
      "à¦¿à¦¤": 890,
      "ĠR": 891,
      "àŃĢ": 892,
      "à¯ģà®¤": 893,
      "Ġà°¤": 894,
      "ĠàªĨ": 895,
      "àµįà´¯": 896,
      "ect": 897,
      "Ġ=": 898,
      "à¥įà¤¯à¤¾": 899,
      "Ġà¨ĩ": 900,
      "Ġcom": 901,
      "à´ª": 902,
      "àŃįàŃŁ": 903,
      "ere": 904,
      "ĠH": 905,
      "Ġà¬®": 906,
      "à°ª": 907,
      "à®Łà¯įà®Ł": 908,
      "à¦¿à¦ķ": 909,
      "us": 910,
      "à¬¤": 911,
      "ess": 912,
      "Ġà²µ": 913,
      "à´¾à´¯": 914,
      "àµĢ": 915,
      "ies": 916,
      "àµģà´¨àµįà´¨": 917,
      "ity": 918,
      "à°¡": 919,
      "em": 920,
      "ak": 921,
      "à¤¾à¤²": 922,
      "à¨£": 923,
      "Ġà¦ļ": 924,
      "àµįà´ļ": 925,
      "os": 926,
      "ort": 927,
      "Ġà¦Ĺ": 928,
      "Ġàªµ": 929,
      "àª²": 930,
      "à±ģà°²": 931,
      "Ġhe": 932,
      "Ġ20": 933,
      "à³ģà²µ": 934,
      "à°Ł": 935,
      "Ġà¨¦à©ĩ": 936,
      "iv": 937,
      "ore": 938,
      "à§įà¦¬": 939,
      "à°¾à°¨": 940,
      "à¯ģà®ķà¯įà®ķ": 941,
      "à®Ļ": 942,
      "ac": 943,
      "Ġà¤ķà¤°": 944,
      "à¬¹": 945,
      "Ġà¦¯": 946,
      "àµ½": 947,
      "à¦ĩ": 948,
      "à²Ĺà²³": 949,
      "ĠàªĽà«ĩ": 950,
      "ld": 951,
      "Ġà§": 952,
      "à°¯": 953,
      "à°¿à°¨": 954,
      "à¦¾à¦ĩ": 955,
      "ĠF": 956,
      "nt": 957,
      "à³įà²¦": 958,
      "à¦¿à¦¨": 959,
      "à®°à¯į": 960,
      "à§ĩà¦¨": 961,
      "à®¨à¯įà®¤": 962,
      "ĠD": 963,
      "à¤¿à¤ķ": 964,
      "Ġat": 965,
      "à²¨à³įà²¨à³ģ": 966,
      "Ġà¨²": 967,
      "à¤ľ": 968,
      "Ļàµįà´": 969,
      "à²¿à²¯": 970,
      "à¦¾à¦ķ": 971,
      "à´ķ": 972,
      "Ġà¤Ĺ": 973,
      "àµ¼": 974,
      "à®¾à®ķ": 975,
      "ain": 976,
      "à²²à³įà²²à²¿": 977,
      "à©°à¨": 978,
      "à¦¾à¦¤": 979,
      "Ġà¨¹à©Ī": 980,
      "à²°à³ģ": 981,
      "à±Ĥà°": 982,
      "Ġàª¹": 983,
      "Ġsu": 984,
      "àª¾àª¨": 985,
      "à®¾à®©": 986,
      "à°¿à°ķ": 987,
      "à¥įà¤¤": 988,
      "Ġà¤®à¥ĩà¤Ĥ": 989,
      "à²¿à²Ĺ": 990,
      "our": 991,
      "à²ª": 992,
      "à®¿à®±": 993,
      "à©į": 994,
      "pl": 995,
      "Ġà¤ī": 996,
      "ĠE": 997,
      "à¤§": 998,
      "à²¬": 999,
      "à©Ģà¨": 1000,
      "Ġà¦ķà§°": 1001,
      "à¬¬": 1002,
      "à¥ĭà¤Ĥ": 1003,
      "ĻàŃįà¬": 1004,
      "à¤¬": 1005,
      "Ġà²Ĩ": 1006,
      "à²Ł": 1007,
      "Ġwas": 1008,
      "Ġà¨¬": 1009,
      "Ġà¦¶": 1010,
      "..": 1011,
      "à¦¾à¦¯à¦¼": 1012,
      "à´¿à´ķàµįà´ķ": 1013,
      "Ġà¤ªà¥įà¤°": 1014,
      "Ľà§ĩ": 1015,
      "à¤¿à¤¯": 1016,
      "Ġfrom": 1017,
      "à±įà°Ł": 1018,
      "àª¸": 1019,
      "à¤Ł": 1020,
      "àŃĭà¬": 1021,
      "à¦£": 1022,
      "ue": 1023,
      "ht": 1024,
      "ive": 1025,
      "Ġà¦²": 1026,
      "à±Ī": 1027,
      "Ġha": 1028,
      "àª¹": 1029,
      "Ġà²¤": 1030,
      "pt": 1031,
      "ĠĠĠĠĠĠĠĠĊ": 1032,
      "Ġse": 1033,
      "Ġnot": 1034,
      "à®ªà¯įà®ª": 1035,
      "Ġà¦ķà¦°": 1036,
      "à®ļ": 1037,
      "à´ķàµįà´ķ": 1038,
      "Ġà°°": 1039,
      "ĠW": 1040,
      "à«ģàªĤ": 1041,
      "àªª": 1042,
      "à´¾à´£": 1043,
      "à¤¨à¥ĩ": 1044,
      "à±ģà°¨": 1045,
      "ļàµįà´ļ": 1046,
      "Ġà¦Ń": 1047,
      "ant": 1048,
      "Ġà²ĩ": 1049,
      "ew": 1050,
      "Ġà¤Ń": 1051,
      "à¨¤à©ĩ": 1052,
      "àª¯": 1053,
      "oc": 1054,
      "àµįà´±": 1055,
      "à¤¿à¤¤": 1056,
      "à¬¸": 1057,
      "àª£": 1058,
      "ĠG": 1059,
      "Ġàª¨": 1060,
      "à¯Ĥ": 1061,
      "à©Ĥà©°": 1062,
      "à¦ľ": 1063,
      "à¯Ģ": 1064,
      "à³Ĩà²¯": 1065,
      "à°Ĥà°¦": 1066,
      "à¯ģà®ķ": 1067,
      "Ġà¬ħ": 1068,
      "à³įà²Ł": 1069,
      "à´Ļàµįà´": 1070,
      "à¨¿à¨Ĩ": 1071,
      "ial": 1072,
      "à´¨àµįà´": 1073,
      "Ġà´¤": 1074,
      "Ġk": 1075,
      "Ġà¬¨": 1076,
      "ud": 1077,
      "Ġà¤ķà¥Ģ": 1078,
      "Ġàª°": 1079,
      "à³įà²ķ": 1080,
      "à²¿à²ķ": 1081,
      "à¯įà®ļ": 1082,
      "à¨µ": 1083,
      "pe": 1084,
      "à²¹": 1085,
      "Ġà¤¶": 1086,
      "ĠĠĠĠĠĠĠĠĠĠĊ": 1087,
      "ure": 1088,
      "à¬¾à¬¨": 1089,
      "art": 1090,
      "ia": 1091,
      "Ġà¤ķà¥ĭ": 1092,
      "ult": 1093,
      "Ġà¬ı": 1094,
      "Ġà¬¦": 1095,
      "cl": 1096,
      "à¦¾à¦¬": 1097,
      "Ġà®ī": 1098,
      "à¦¾à¦®": 1099,
      "end": 1100,
      "ĩà¬": 1101,
      "à´¿à´°": 1102,
      "à¨¾à¨²": 1103,
      "Ġà²İ": 1104,
      "à¬¿à¬¬": 1105,
      "00": 1106,
      "Ġà¨ī": 1107,
      "ĠL": 1108,
      "ass": 1109,
      "à°Ĺ": 1110,
      "all": 1111,
      "Ġà¤¹à¥ĭ": 1112,
      "Ġà®İà®©": 1113,
      "Ġà´İ": 1114,
      "Ġà¦¬à¦¿à¦": 1115,
      "Ġà¦ī": 1116,
      "ĻàŃįà¬ķ": 1117,
      "Ġà¬¹": 1118,
      "à°¿à°Ĥà°ļ": 1119,
      "Ġsh": 1120,
      "à±Ĭ": 1121,
      "à²¿à²¦à³įà²¦": 1122,
      "à¬£": 1123,
      "àµĤ": 1124,
      "à°¾à°°à±ģ": 1125,
      "à®¿à®ķ": 1126,
      "à¯ģà®µ": 1127,
      "à¨ª": 1128,
      "à±ģà°Ĥà°": 1129,
      "Ġà°ªà±įà°°": 1130,
      "à¯įà®³": 1131,
      "à¥ģà¤": 1132,
      "à®¾à®²": 1133,
      "Ġà¨°": 1134,
      "ef": 1135,
      "à´¿à´¨": 1136,
      "Ġà¬ķà¬°": 1137,
      "Ġà¨¨à©Ĥà©°": 1138,
      "Ġch": 1139,
      "Ġhave": 1140,
      "à¨Ł": 1141,
      "à²£": 1142,
      "àª¨àª¾": 1143,
      "ex": 1144,
      "ions": 1145,
      "Ġà¨Ĺ": 1146,
      "Ġà°Ĩ": 1147,
      "àªĹ": 1148,
      "à¤¹à¥ĩ": 1149,
      "àª®àª¾àªĤ": 1150,
      "Ġàªķàª°": 1151,
      "à®¿à®Ł": 1152,
      "à¨ľ": 1153,
      "à²¿à²°": 1154,
      "Ġcan": 1155,
      "à®´": 1156,
      "à²¿à²Ĥ": 1157,
      "à¤¾à¤¹": 1158,
      "à¤¾à¤µ": 1159,
      "àª¾àª®": 1160,
      "à°°à±įà°": 1161,
      "Ġà¨¦à©Ģ": 1162,
      "Ġàª¤à«ĩ": 1163,
      "à®©à¯į": 1164,
      "ĠU": 1165,
      "ear": 1166,
      "à®¿à®¤": 1167,
      "Ġà¤ļ": 1168,
      "one": 1169,
      "à°¨à°¿": 1170,
      "à§įà¦·": 1171,
      "Ġà¬Ĩ": 1172,
      "Ġà¤ĩ": 1173,
      "àª¦": 1174,
      "Ġ3": 1175,
      "out": 1176,
      "à¦¿à¦¬": 1177,
      "à¦¨à§įà¦": 1178,
      "à²¿à²¨": 1179,
      "Ġthis": 1180,
      "à´¾à´£àµį": 1181,
      "à±ģà°ķ": 1182,
      "==": 1183,
      "à¨Ĺ": 1184,
      "Ġà¤ı": 1185,
      "Ġàª¬": 1186,
      "Ġle": 1187,
      "à´¿à´ļàµįà´ļ": 1188,
      "ge": 1189,
      "à¤¾à¤¸": 1190,
      "à¦¼": 1191,
      "The": 1192,
      "à¬°àŃįà¬": 1193,
      "Ġà²°": 1194,
      "à¦ļ": 1195,
      "Ġà¨ķà¨°": 1196,
      "àµģà´Ł": 1197,
      "ich": 1198,
      "ight": 1199,
      "à´Ļàµįà´Ļ": 1200,
      "ust": 1201,
      "à²¿à²¤": 1202,
      "à´¾à´°": 1203,
      "à§įà¦Ł": 1204,
      "âĢĻ": 1205,
      "ost": 1206,
      "à¤¿à¤²": 1207,
      "à§Ĥ": 1208,
      "à«Ĥ": 1209,
      "à¯įà®ķà®³à¯į": 1210,
      "à¤¶": 1211,
      "à®ķà¯įà®ķ": 1212,
      "à´¿àµ½": 1213,
      "ard": 1214,
      "ĠĠĠĠĊ": 1215,
      "ĠĠĠĠĠĠĊ": 1216,
      "ical": 1217,
      "Ġà¬°": 1218,
      "og": 1219,
      "ame": 1220,
      "à®ª": 1221,
      "à¨Ī": 1222,
      "Ġà´ĩ": 1223,
      "Ġà¤¸à¥ĩ": 1224,
      "ĠJ": 1225,
      "Ġint": 1226,
      "ated": 1227,
      "age": 1228,
      "Ġhas": 1229,
      "Ġyou": 1230,
      "ĠO": 1231,
      "àªľ": 1232,
      "à¤¾à¤®": 1233,
      "Ġà®Ĩ": 1234,
      "Ġà²®à²¾à²": 1235,
      "ould": 1236,
      "rou": 1237,
      "Ġàªı": 1238,
      "à²°à³įà²": 1239,
      "à®£à¯įà®Ł": 1240,
      "àµ»": 1241,
      "à§ĥ": 1242,
      "Ġà¤Ĩà¤¹à¥ĩ": 1243,
      "),": 1244,
      "Ġà¤ªà¤°": 1245,
      "à§ĩà¦ĩ": 1246,
      "à³ģà²¦": 1247,
      "àµĩà´": 1248,
      "ok": 1249,
      "àµģà´ķ": 1250,
      "à¤¾à¤¯": 1251,
      "Ġà´ļ": 1252,
      "à¬ª": 1253,
      "à¤¤à¤¾": 1254,
      "Ġà°¦": 1255,
      "Ġà²ªà³įà²°": 1256,
      "Ġim": 1257,
      "àª¨à«Ģ": 1258,
      "à¬¿à¬²": 1259,
      "à¦Ĥ": 1260,
      "à¯įà®²": 1261,
      "àµįà´²": 1262,
      "are": 1263,
      "à¦¶": 1264,
      "ther": 1265,
      "Ġà¦ªà§įà¦°": 1266,
      "ome": 1267,
      "à¤¨à¤¾": 1268,
      "à±įà°ª": 1269,
      "Ġà®ļà¯Ĩ": 1270,
      "Ġà´Ĩ": 1271,
      "à³ģà²¤à³įà²¤": 1272,
      "à¦¾à¦ľ": 1273,
      "ert": 1274,
      "à¤²à¥ĩ": 1275,
      "à´¾à´¨": 1276,
      "à¦¤à§ĩ": 1277,
      "ian": 1278,
      "à®±à¯įà®±": 1279,
      "à§°à§ģ": 1280,
      "à´¤àµį": 1281,
      "à¥įà¤Ł": 1282,
      "à¥įà¤µ": 1283,
      "àª¡": 1284,
      "Ġà°Ĺ": 1285,
      "à±įà°µ": 1286,
      "àª§": 1287,
      "ple": 1288,
      "Ġà¤Ķ": 1289,
      "port": 1290,
      "¡à¦¼": 1291,
      "{\\": 1292,
      "Ġà°ĩ": 1293,
      "à®¿à®ķà¯įà®ķ": 1294,
      "à¦Ń": 1295,
      "ell": 1296,
      "Ġpl": 1297,
      "à¦ģ": 1298,
      "Ġà¨Ĩ": 1299,
      "Ġàª¦": 1300,
      "Ġab": 1301,
      "à©įà¨°": 1302,
      "Ġà°ī": 1303,
      "Ġus": 1304,
      "Ġà¦¸à¦®": 1305,
      "à¥įà¤¹": 1306,
      "ap": 1307,
      "able": 1308,
      "Ġà°¬": 1309,
      "ast": 1310,
      "à¦¾à¦¸": 1311,
      "Ġres": 1312,
      "Ġwor": 1313,
      "ĠIn": 1314,
      "Ġà°²": 1315,
      "¥à«Ģ": 1316,
      "Ġwhich": 1317,
      "à²¶": 1318,
      "à¯įà®µ": 1319,
      "ĠK": 1320,
      "à¨¾à¨¨": 1321,
      "Ġà²Ĺ": 1322,
      "cc": 1323,
      "iz": 1324,
      "du": 1325,
      "Ġà²¦": 1326,
      "Ġà¤Ķà¤°": 1327,
      "Ġà²ľ": 1328,
      "Ġwill": 1329,
      "à¯ģà®®": 1330,
      "à²ļ": 1331,
      "Ġà°ļà±ĩà°": 1332,
      "à¦¾à¦¹": 1333,
      "Ġà¨ħà¨¤à©ĩ": 1334,
      "à²¿à²¦à³Ĩ": 1335,
      "à¬ĻàŃįà¬ķ": 1336,
      "à§ģà¦²": 1337,
      "Ġcont": 1338,
      "Ġ19": 1339,
      "à²Ĥà²¤": 1340,
      "à¦§": 1341,
      "à¨¸à¨¼": 1342,
      "à®¿à®©à¯į": 1343,
      "à´¿à´ķ": 1344,
      "à®¾à®¤": 1345,
      "àµ¾": 1346,
      "Ġà¨µà¨¿à¨": 1347,
      "à¯ģà®³": 1348,
      "Ĺà°¾": 1349,
      "à§įà¦¯à¦": 1350,
      "à´Łàµįà´Ł": 1351,
      "Ġall": 1352,
      "à¦¾à¦¦": 1353,
      "à²¾à²¨": 1354,
      "à´ªàµįà´ª": 1355,
      "Ġàª¶": 1356,
      "ine": 1357,
      "Ġcl": 1358,
      "à¬³": 1359,
      "à¯ģà®¤à¯įà®¤": 1360,
      "ff": 1361,
      "act": 1362,
      "à¬¨àŃįà¬¤": 1363,
      "à¥Ĥà¤¨": 1364,
      "à®²à¯į": 1365,
      "à¥įà¤·": 1366,
      "à°¨à±įà°¨": 1367,
      "ĠInd": 1368,
      "Ġwe": 1369,
      "Ġà¦°": 1370,
      "àµĬ": 1371,
      "à§Ģà¦¯à¦¼": 1372,
      "à¨¿à©±à¨": 1373,
      "àµĨà´¯": 1374,
      "à°¾à°¯": 1375,
      "Ľà¦¿à¦²": 1376,
      "à°¿à°¤": 1377,
      "Ġàªħàª¨à«ĩ": 1378,
      "à°Ĥà°Ł": 1379,
      "à©ĭà¨Ĥ": 1380,
      "orm": 1381,
      "Ġà§°": 1382,
      "Ġàª²": 1383,
      "Ġtheir": 1384,
      "ĠâĢ": 1385,
      "Ġwhe": 1386,
      "ĠĠĠĠĠĠĠĠĠĠĠĠĠĠĠĠĠĠĠĠ": 1387,
      "à¤¾à¤ļ": 1388,
      "àµĭà´": 1389,
      "¦à°¿": 1390,
      "à°ķà±įà°": 1391,
      "ance": 1392,
      "so": 1393,
      "à¤¾à¤ľ": 1394,
      "ib": 1395,
      "Ġà¬ľ": 1396,
      "à§įà¦¥": 1397,
      "Ġà¬ªàŃįà¬°": 1398,
      "ric": 1399,
      "ary": 1400,
      "à²¾à²¦": 1401,
      "\",": 1402,
      "à²Ĥà²¦à³ģ": 1403,
      "à¬¿à¬ķ": 1404,
      "elf": 1405,
      "àª°à«įàª": 1406,
      "à¦¥": 1407,
      "Ġen": 1408,
      "ik": 1409,
      "à²¿à²Ĺà³Ĩ": 1410,
      "ations": 1411,
      "Ġà¦¥": 1412,
      "ong": 1413,
      "à§ĩà¦ķ": 1414,
      "à¯ģà®Ł": 1415,
      "Ġad": 1416,
      "à¤¹à¥Ģ": 1417,
      "Ġà¨¹à©ĭ": 1418,
      "ire": 1419,
      "Ġà°ľ": 1420,
      "à¤¿à¤¸": 1421,
      "Ġgo": 1422,
      "à®¾à®Ł": 1423,
      "à¤¤à¥Ģ": 1424,
      "Ġ.": 1425,
      "ans": 1426,
      "à¦ĸ": 1427,
      "à¤Ń": 1428,
      "Ġà´ªàµįà´°": 1429,
      "ount": 1430,
      "àª¶": 1431,
      "ous": 1432,
      "àªŁ": 1433,
      "à±ģà°¨à±įà°¨": 1434,
      "con": 1435,
      "à®¾à®°à¯į": 1436,
      "Ġ5": 1437,
      "à²ķà³įà²ķ": 1438,
      "àµģà´®": 1439,
      "à°¿à°¯": 1440,
      "ide": 1441,
      "Ġà¦ıà¦ķ": 1442,
      "Ġà¦ªà§°": 1443,
      "à§ĩà¦²": 1444,
      "à®Ļà¯įà®ķ": 1445,
      "Ġà¬¤": 1446,
      "¸à±įà°¤": 1447,
      "ry": 1448,
      "Ġà¬Ĺ": 1449,
      "ĠĊ": 1450,
      "Ġà¦Ĩà§°à§ģ": 1451,
      "à°ļ": 1452,
      "à®¿à®µ": 1453,
      "Ġà¬¯": 1454,
      "à³įà²®": 1455,
      "à¤Ĥà¤¤": 1456,
      "à²°à³Ĩ": 1457,
      "Ġapp": 1458,
      "ind": 1459,
      "à¤¤à¥ĩ": 1460,
      "gh": 1461,
      "à¬²": 1462,
      "Ġper": 1463,
      "Ġà¦ĵ": 1464,
      "à¬¦": 1465,
      "à©Ģà¨Ĩ": 1466,
      "Ġà¤µà¤¿à¤": 1467,
      "Ġà¤ķà¤¾": 1468,
      "à°Ĥà°¤": 1469,
      "à´¿à´²àµį": 1470,
      "àª¾àªµ": 1471,
      "ip": 1472,
      "\"\"": 1473,
      "Ġà¦ªà§įà§°": 1474,
      "à¤¼": 1475,
      "à¤¨à¥Ģ": 1476,
      "Ġà¤ħà¤¸": 1477,
      "Ġà¦¦à§ĩà¦": 1478,
      "Ġà¤ıà¤ķ": 1479,
      "ual": 1480,
      "à°¿à°²": 1481,
      "ru": 1482,
      "Ġà¤¸à¤Ĥ": 1483,
      "à´£àµįà´Ł": 1484,
      "à§įà¦®": 1485,
      "urn": 1486,
      "Ġà¬Ń": 1487,
      "Ġj": 1488,
      "Ġà¦ıà¦ĩ": 1489,
      "ase": 1490,
      "à®¿à®¤à¯įà®¤": 1491,
      "Ġà¦ĸ": 1492,
      "ack": 1493,
      "Ġme": 1494,
      "Ġ4": 1495,
      "àµģà´¤": 1496,
      "¡à±ģ": 1497,
      "Ġà®ĩà®°": 1498,
      "à¯ģà®±": 1499,
      "def": 1500,
      "Ġà°İ": 1501,
      "à±ģà°¤": 1502,
      "à¤²à¤¾": 1503,
      "Ġà¦ĩ": 1504,
      "Ġà¦¹à¦¯à¦¼": 1505,
      "**": 1506,
      "ĠàŃ": 1507,
      "à´¦": 1508,
      "à¦¿à§°": 1509,
      "per": 1510,
      "ime": 1511,
      "Ġdis": 1512,
      "à¦¿à¦°": 1513,
      "à¨¦à¨¾": 1514,
      "ile": 1515,
      "ang": 1516,
      "ction": 1517,
      "à²¿à²Ĥà²¦": 1518,
      "à³įà²µ": 1519,
      "à¯įà®©": 1520,
      "ĠàªĹ": 1521,
      "vel": 1522,
      "Ġmore": 1523,
      "Ġalso": 1524,
      "à¨¬": 1525,
      "Ġne": 1526,
      "Ġhis": 1527,
      "à¦¾à¦ª": 1528,
      "Ġman": 1529,
      "à³Ī": 1530,
      "ep": 1531,
      "Ġdo": 1532,
      "Ġwere": 1533,
      "à¦¾à¦Ĺ": 1534,
      "à¬¿à¬¤": 1535,
      "à®²à¯įà®²": 1536,
      "ĠTh": 1537,
      "ress": 1538,
      "à©ľ": 1539,
      "à°¨à±ģ": 1540,
      "Ġcomp": 1541,
      "à²·": 1542,
      "à²Ĥà²¡": 1543,
      "Ġbut": 1544,
      "à¤¿à¤¯à¤¾": 1545,
      "à²¾à²Ĺà²¿": 1546,
      "à¤¿à¤¨": 1547,
      "à´ķàµįà´": 1548,
      "Ġà¨¦à¨¾": 1549,
      "à¬¼": 1550,
      "Ġother": 1551,
      "à®©à¯įà®±": 1552,
      "à¤²à¥Ģ": 1553,
      "Ġà¤ĸ": 1554,
      "Ġthey": 1555,
      "Ġà¦Ĩà¦®": 1556,
      "à¨¿à¨¸": 1557,
      "à²¾à²¯": 1558,
      "à¤°à¥Ģ": 1559,
      "à°ľ": 1560,
      "ign": 1561,
      "à§ĩà¦ĵ": 1562,
      "à´¿à´Ł": 1563,
      "ord": 1564,
      "Ġà°µà°¿à°": 1565,
      ").": 1566,
      "à¬¾à¬ĩà¬": 1567,
      "Ġone": 1568,
      "Ġun": 1569,
      "à®³à¯į": 1570,
      "ub": 1571,
      "à¤¾à¤Ĺ": 1572,
      "Ġà®Ĵ": 1573,
      "):": 1574,
      "Ġtr": 1575,
      "à§ĭà§±": 1576,
      "à®¾à®²à¯į": 1577,
      "à²¾à²µ": 1578,
      "Ġà¤«": 1579,
      "Ġà´°": 1580,
      "à±Ĩà°²": 1581,
      "àµįà´³": 1582,
      "Ġà¤¤à¥įà¤¯à¤¾à¤": 1583,
      "ence": 1584,
      "à¬¾à¬¹": 1585,
      "Ġàª¹àª¤": 1586,
      "Ġà²¶": 1587,
      "à²Ĺà³Ĩ": 1588,
      "Ġout": 1589,
      "Ġ201": 1590,
      "à°ķà±ģ": 1591,
      "àµĨà´¨àµįà´¨": 1592,
      "à±ģà°²à±ģ": 1593,
      "à±įà°ļ": 1594,
      "à¦²à§ĩ": 1595,
      "ick": 1596,
      "Ġà¨¨à©ĩ": 1597,
      "à²ľ": 1598,
      "Ġà²®à²¾à²¡": 1599,
      "Ġà¤¨à¥ĩ": 1600,
      "Ġar": 1601,
      "Ġsa": 1602,
      "Ġà¨ļ": 1603,
      "Ġà¨ĩà¨¸": 1604,
      "à¤¾à¤¦": 1605,
      "Ġà¨ķà¨¿": 1606,
      "Ġà²Ī": 1607,
      "ach": 1608,
      "àª¾àª¯": 1609,
      "Ġà´¬": 1610,
      "àµģà´ŁàµĨ": 1611,
      "Ġits": 1612,
      "à¦Ľà§ĩ": 1613,
      "ber": 1614,
      "Ľà¬¿": 1615,
      "Ġwho": 1616,
      "ark": 1617,
      "àª³": 1618,
      "àª¥à«Ģ": 1619,
      "à©įà¨¹": 1620,
      "à¯ģà®³à¯įà®³": 1621,
      "à²¾à²²": 1622,
      "à¤ļà¥įà¤¯à¤¾": 1623,
      "à¥ĩà¤¶": 1624,
      "Ġà®ļà¯Ĩà®¯": 1625,
      "Ġup": 1626,
      "Ġag": 1627,
      "Ġà®ķà¯Ĭ": 1628,
      "à²§": 1629,
      "à©Ģà¨Ĩà¨Ĥ": 1630,
      "Ġà¤ĺ": 1631,
      "ake": 1632,
      "Ġà²ħà²µ": 1633,
      "ext": 1634,
      "ors": 1635,
      "à¦¿à¦¯à¦¼à§ĩ": 1636,
      "à°¹": 1637,
      "ath": 1638,
      "Ġpart": 1639,
      "±àµĨ": 1640,
      "ory": 1641,
      "int": 1642,
      "alue": 1643,
      "Ġsc": 1644,
      "ĠĠĠĠĠĠĠĠĠĠĠĠĊ": 1645,
      "ook": 1646,
      "à°ªà±įà°ª": 1647,
      "ice": 1648,
      "àµģà´¨àµįà´¨àµģ": 1649,
      "ition": 1650,
      "à²¿à²²": 1651,
      "yle": 1652,
      "Ġà¤ĩà¤¸": 1653,
      "àªļ": 1654,
      "Ġà¤¥": 1655,
      "av": 1656,
      "à±įà°®": 1657,
      "ates": 1658,
      "ely": 1659,
      "à³įà²·": 1660,
      "Ġàª®àª¾àª": 1661,
      "Ġà´Ĵ": 1662,
      "à°¿à°°": 1663,
      "ĠSt": 1664,
      "Ġ:": 1665,
      "Ġà¦«": 1666,
      "ens": 1667,
      "Ġà¬¶": 1668,
      "àª¬": 1669,
      "Ġpre": 1670,
      "à¤ķà¥įà¤·": 1671,
      "à¥įà¤¥": 1672,
      "à°Ĥà°¡": 1673,
      "à¬§": 1674,
      "ail": 1675,
      "à¨¤à¨¾": 1676,
      "ĠĠĠĠĠĠĠĠĠĠ": 1677,
      "Ġà®ħà®µ": 1678,
      "¥à¬¿à¬²": 1679,
      "ĠV": 1680,
      "à¯ģà®¨à¯įà®¤": 1681,
      "à§įà¦ª": 1682,
      "·à§įà¦Ł": 1683,
      "ace": 1684,
      "Ġà²®à²¤à³įà²¤": 1685,
      "à¨¦à©ĩ": 1686,
      "Ġà¦ħà¦¨": 1687,
      "à±įà°¸": 1688,
      "¡à¬¼": 1689,
      "à²¿à²µ": 1690,
      "Ġà¤¹à¥Īà¤Ĥ": 1691,
      "form": 1692,
      "à¤¿à¤µ": 1693,
      "ĠCh": 1694,
      "ĠàªĨàªµ": 1695,
      "à«ĩàª²": 1696,
      "à²Ń": 1697,
      "à¨¿à©±à¨ļ": 1698,
      "com": 1699,
      "à¨ļ": 1700,
      "Ġev": 1701,
      "ite": 1702,
      "Ġà®ªà¯ĭ": 1703,
      "à¨¤à©Ģ": 1704,
      "à¦ķà§įà¦·": 1705,
      "à°¿à°ķà°¿": 1706,
      "àµģà´³": 1707,
      "ater": 1708,
      "à°²à±ģ": 1709,
      "à²¦à²²à³įà²²à²¿": 1710,
      "ose": 1711,
      "Ġà´ī": 1712,
      "à´¾à´¯à´¿": 1713,
      "Ġà¨²à¨Ī": 1714,
      "Ġà¦§": 1715,
      "ĠĠĠĠĠĠĠĠĠĠĠĠĠĠĊ": 1716,
      "Ġà¨µà¨¿à©±à¨ļ": 1717,
      "àµĪ": 1718,
      "à®³à¯įà®³": 1719,
      "à´¾à´¤": 1720,
      "au": 1721,
      "Ġbeen": 1722,
      "ish": 1723,
      "Ġà¨ķà©Ģ": 1724,
      "à®Ļà¯įà®ķà®³": 1725,
      "Ġà¬ĵ": 1726,
      "à´Ļàµįà´Ļà´³": 1727,
      "à®¾à®µ": 1728,
      "Ġso": 1729,
      "à°¿à°ª": 1730,
      "à§ĩà¦¤": 1731,
      "à´¿à´¨àµįà´": 1732,
      "²à±ĭ": 1733,
      "ĠĠĠĠĠĠĠĠĠĠĠĠĠĠĠĠĊ": 1734,
      "Ġàªªà«įàª°": 1735,
      "à°¾à°¤": 1736,
      "àŃĤ": 1737,
      "à¥ģà¤°": 1738,
      "Ġà¨µà¨¿à¨ļ": 1739,
      "nder": 1740,
      "à«įàª¤": 1741,
      "àŃĩà¬¬": 1742,
      "à´±àµįà´±": 1743,
      "Ġà®µà®°": 1744,
      "Ġexp": 1745,
      "à¥ī": 1746,
      "à¤Ī": 1747,
      "style": 1748,
      "Ġàª¥": 1749,
      "arg": 1750,
      "à«įàªŁ": 1751,
      "à°Ĥà°²à±ĭ": 1752,
      "Ġyear": 1753,
      "Ġà®ħà®¤": 1754,
      "à®¾à®³": 1755,
      "play": 1756,
      "à°°à±į": 1757,
      "ks": 1758,
      "Ġà´µà´¿à´": 1759,
      "}}": 1760,
      "Ġsp": 1761,
      "Ġà¨ªà©įà¨°": 1762,
      "à°¾à°Ĥà°": 1763,
      "à©Į": 1764,
      "ob": 1765,
      "à¤¿à¤ı": 1766,
      "à¤¿à¤Ĥ": 1767,
      "à©±à¨ķ": 1768,
      "à¬Ĺ": 1769,
      "à¤£à¥įà¤¯à¤¾à¤": 1770,
      "Ġind": 1771,
      "turn": 1772,
      "à¯ģà®ķà¯įà®ķà¯ģ": 1773,
      "àªµàª¾": 1774,
      "à¯Īà®ķ": 1775,
      "à¥ĥ": 1776,
      "Ġcomm": 1777,
      "vers": 1778,
      "Ġà²ļ": 1779,
      "Ġàªī": 1780,
      "à²²à³ģ": 1781,
      "à§ģà¦°": 1782,
      "Ġà¤¯à¤¾": 1783,
      "Ġte": 1784,
      "à¤¾à¤°à¥Ģ": 1785,
      "Ġà²ī": 1786,
      "àµįà´®": 1787,
      "à°£": 1788,
      "Ġà²Ń": 1789,
      "Ġà²¯": 1790,
      "Ġà¬ī": 1791,
      "à¦ķà§ĩ": 1792,
      "own": 1793,
      "Ġà²Ĵ": 1794,
      "Ġà°Ī": 1795,
      "à¤ĸ": 1796,
      "à¬¾à¬ķ": 1797,
      "Ġà¬²": 1798,
      "very": 1799,
      "dis": 1800,
      "Ġàªķà«ĩ": 1801,
      "à¦¡à¦¼": 1802,
      "anc": 1803,
      "à¥ĩà¤¤": 1804,
      "à´Ĥà´": 1805,
      "à¬Ĥ": 1806,
      "ree": 1807,
      "à°¾à°®": 1808,
      "Ġ6": 1809,
      "à¨Ĩ": 1810,
      "à¦Ľ": 1811,
      "à´¨àµįà´¤": 1812,
      "à®¾à®¯": 1813,
      "à¨¾à¨¹": 1814,
      "Ġà¨ĸ": 1815,
      "Ġqu": 1816,
      "à§ĭà¦¨": 1817,
      "ments": 1818,
      "Ġover": 1819,
      "Ġà°¶": 1820,
      "self": 1821,
      "Ġà²®à²¤à³įà²¤à³ģ": 1822,
      "Ġyour": 1823,
      "à¦²à§Ī": 1824,
      "Ġàªĸ": 1825,
      "Ġà¦ĺ": 1826,
      "Ġà¨¨à¨¾à¨²": 1827,
      "Ġà¤¸à¤®": 1828,
      "Ġà¨¸à¨¼": 1829,
      "à®¾à®©à¯į": 1830,
      "à²¾à²¸": 1831,
      "à²¾à²°à³Ĩ": 1832,
      "àª¾àª®àª¾àªĤ": 1833,
      "à²Ĥà²¬": 1834,
      "à¥Į": 1835,
      "à§ĩà¦¶": 1836,
      "à¦¾à¦Ł": 1837,
      "Ġàªµàª¿": 1838,
      "red": 1839,
      "à³įà²ª": 1840,
      "Ġàªļ": 1841,
      "Ġà´ľ": 1842,
      "Ġabout": 1843,
      "àµįà´µ": 1844,
      "Ġà¤ķà¤¿": 1845,
      "à¬¿à¬¬à¬¾": 1846,
      "ĠàªŃ": 1847,
      "à§įà¦¦": 1848,
      "àµģà´µ": 1849,
      "Ġthan": 1850,
      "àª¾àª¤": 1851,
      "à²¦à³Ĩ": 1852,
      "à§įà¦§": 1853,
      "à©Ģà¨Ĥ": 1854,
      "ild": 1855,
      "à²¦à³ģ": 1856,
      "Ġà¦¨à¦¿à¦": 1857,
      "ŀàµįà´": 1858,
      "display": 1859,
      "à¤¸à¥ĩ": 1860,
      "Ġà´İà´¨àµįà´¨": 1861,
      "displaystyle": 1862,
      "à²¾à²Ĥ": 1863,
      "ĠIndia": 1864,
      "à°¾à°Ł": 1865,
      "àŃįà¬¬": 1866,
      "ents": 1867,
      "àŃįà¬Ł": 1868,
      "à¬¿à¬¨": 1869,
      "à´¾à´²": 1870,
      "wo": 1871,
      "ie": 1872,
      "àµģà´³àµįà´³": 1873,
      "à«Ģàª": 1874,
      "rib": 1875,
      "à°Ĥà°Ĺà°¾": 1876,
      "àŃįà¬·": 1877,
      "à®¿à®ªà¯įà®ª": 1878,
      "à¨°à©Ģ": 1879,
      "ound": 1880,
      "à´´": 1881,
      "Ġ200": 1882,
      "à¬¨àŃįà¬": 1883,
      "irst": 1884,
      "à¯Ĩà®°": 1885,
      "hed": 1886,
      "à¯ģà®ªà¯įà®ª": 1887,
      "Ġà°Ń": 1888,
      "low": 1889,
      "Ġà¤Ĩà¤£": 1890,
      "à§ģà§°": 1891,
      "à§ĭà§°": 1892,
      "à°¬": 1893,
      "àŃĥ": 1894,
      "à¤³": 1895,
      "à¨¿à¨¹": 1896,
      "à±ģà°°": 1897,
      "à§ģà¦ķ": 1898,
      "ational": 1899,
      "à²Łà³įà²Ł": 1900,
      "Ġthere": 1901,
      "Ġhad": 1902,
      "Ġà¬¸à¬®": 1903,
      "à°§": 1904,
      "Ġoff": 1905,
      "Ġmay": 1906,
      "Ġà®İà®©à¯įà®±": 1907,
      "ĠIt": 1908,
      "(\"": 1909,
      "Ġà¦Ł": 1910,
      "Ġnew": 1911,
      "Ġpe": 1912,
      "à´¿à´¤": 1913,
      "Ġà¦ªà¦°": 1914,
      "Ġacc": 1915,
      "à§ģà¦¨": 1916,
      "Ġà¨Ń": 1917,
      "à¦ĵ": 1918,
      "pec": 1919,
      "âĢĿ": 1920,
      "à¤¾à¤ª": 1921,
      "ays": 1922,
      "erv": 1923,
      "Ġ{": 1924,
      "à®ªà¯įà®ªà®Łà¯įà®Ł": 1925,
      "Ġif": 1926,
      "à§įà¦ķ": 1927,
      "``": 1928,
      "Ġà²¨à³Ģ": 1929,
      "à¤ı": 1930,
      "ities": 1931,
      "Ġtime": 1932,
      "ject": 1933,
      "Ġà°¯": 1934,
      "à¥Ģà¤²": 1935,
      "ªàµįà´ª": 1936,
      "à®¿à®Łà¯įà®Ł": 1937,
      "à¦¾à¦ģ": 1938,
      "ŀàµįà´ŀ": 1939,
      "à®¾à®®": 1940,
      "we": 1941,
      "à°Ń": 1942,
      "à§įà¦Ĺ": 1943,
      "à¤ķà¥ĩ": 1944,
      "ings": 1945,
      "Ġà¨¸à©Ģ": 1946,
      "ĠĠĠĠĠĠĠĠĠĠĠĠĠĠ": 1947,
      "à²¾à²®": 1948,
      "reat": 1949,
      "à¬¾à¬®": 1950,
      "Ġà¨«": 1951,
      "Ġ==": 1952,
      "à®¤à¯įà®¤à®¿à®²à¯į": 1953,
      "Ġà¬ıà¬¹": 1954,
      "fter": 1955,
      "Ġà®°": 1956,
      "Ġà¨¤à©ĭà¨Ĥ": 1957,
      "à¬Ł": 1958,
      "Ġà¨¹à¨¨": 1959,
      "à³ĩà²ķ": 1960,
      "old": 1961,
      "...": 1962,
      "Ġsome": 1963,
      "à§ĭà¦Ĺ": 1964,
      "Ġà¬¬à¬¿à¬": 1965,
      "à¯Īà®¯à®¿à®²à¯į": 1966,
      "à¦¿à¦¯à¦¼à¦¾": 1967,
      "à¤¾à¤£": 1968,
      "à¬¶": 1969,
      "à°Łà±įà°Ł": 1970,
      "Ġsy": 1971,
      "à°ļà±įà°ļ": 1972,
      "Ġam": 1973,
      "à¥įà¤°à¥Ģ": 1974,
      "Ġinv": 1975,
      "à¦¨à§įà¦¦": 1976,
      "à©ģà¨°": 1977,
      "à±Ĥ": 1978,
      "Ġà®µà¯ĩ": 1979,
      "à¬Ń": 1980,
      "Ġthem": 1981,
      "à°ķà±įà°ķ": 1982,
      "ĠY": 1983,
      "Ġàªªàª°": 1984,
      "à¨¿à¨²": 1985,
      "à¦¤à¦¿": 1986,
      "Ġà¤Ńà¥Ģ": 1987,
      "à©°à¨¦": 1988,
      "à²Ĺà²³à³ģ": 1989,
      "Ġwhen": 1990,
      "à¨¿à©°à¨": 1991,
      "Ġro": 1992,
      "à±įà°²à±ĭ": 1993,
      "Ġà¤Ł": 1994,
      "Ġà¦Ľ": 1995,
      "Ġbet": 1996,
      "à°¨à±į": 1997,
      "clud": 1998,
      "à°²à±ĭ": 1999,
      "Ġà²¸à²Ĥ": 2000,
      "à¯įà®®": 2001,
      "à±ģà°µ": 2002,
      "ove": 2003,
      "à²ķà³įà²ķà³Ĩ": 2004,
      "Ġà¦¨à¦¾": 2005,
      "àª¾àª¸": 2006,
      "à¦Ļ": 2007,
      "rit": 2008,
      "cre": 2009,
      "iff": 2010,
      "Ġunder": 2011,
      "à¨¾à¨Ī": 2012,
      "Ġà´¶": 2013,
      "à´¶": 2014,
      "Ġà¦¹à§Ī": 2015,
      "ĠNone": 2016,
      "à¦¨à§įà¦¤": 2017,
      "à°¾à°µ": 2018,
      "Ġà¦¬à¦²": 2019,
      "Ġ7": 2020,
      "--": 2021,
      "àªŃ": 2022,
      "à¥įà¤®": 2023,
      "àªĸ": 2024,
      "Ġà¤Ĩà¤£à¤¿": 2025,
      "à³ģà²µà³ģà²¦": 2026,
      "ov": 2027,
      "à¥įà¤ª": 2028,
      "àµģà´£": 2029,
      "à¤¾à¤¹à¥Ģ": 2030,
      "à¥ĭà¤Ĺ": 2031,
      "ike": 2032,
      "Ġany": 2033,
      "àµįà´ķàµįà´ķ": 2034,
      "Ġà¬ļ": 2035,
      "à¤ķà¤°": 2036,
      "à³įà²¸": 2037,
      "ari": 2038,
      "mer": 2039,
      "à¬¥": 2040,
      "à²µà³ģ": 2041,
      "à¤¿à¤°": 2042,
      "app": 2043,
      "à¬ķàŃģ": 2044,
      "à¬¾à¬¸": 2045,
      "tern": 2046,
      "Ġ8": 2047,
      "Ġà®Ĵà®°": 2048,
      "Ġrec": 2049,
      "Ġà²®à³ģ": 2050,
      "à¤ķà¤¾à¤°": 2051,
      "Ġ10": 2052,
      "Ġcons": 2053,
      "à¬¨àŃįà¬¤à¬¿": 2054,
      "à²ķà³įà²·": 2055,
      "ey": 2056,
      "Ġà´²": 2057,
      "à°¾à°²à±ģ": 2058,
      "à´¿à´¨àµįà´±àµĨ": 2059,
      "erm": 2060,
      "à¯ĩà®°": 2061,
      "à¦¨à§ĩ": 2062,
      "ally": 2063,
      "ĠThis": 2064,
      "à¬ľ": 2065,
      "à´¾à´ķàµįà´ķ": 2066,
      "lic": 2067,
      "Ġsaid": 2068,
      "row": 2069,
      "à®Łà¯ģà®¤à¯įà®¤": 2070,
      "Ġdef": 2071,
      "Ġinto": 2072,
      "à¤¾à¤ķ": 2073,
      "Ġsuch": 2074,
      "à§ĩà¦Ľà§ĩ": 2075,
      "à¬¾à¬¬": 2076,
      "à¨¾à¨µ": 2077,
      "à¨ĸ": 2078,
      "à°¾à°¦": 2079,
      "Ġà²µà²¿à²": 2080,
      "à¥įà¤¸": 2081,
      "Ġà¤ķà¤¾à¤°": 2082,
      "Ġà¨µà©Ģ": 2083,
      "ph": 2084,
      "ĠâĢľ": 2085,
      "à§Ģà§°": 2086,
      "à¦Łà¦¾": 2087,
      "Ġfirst": 2088,
      "à©įà¨¹à¨¾à¨Ĥ": 2089,
      "ility": 2090,
      "enc": 2091,
      "à¦²à§ĭ": 2092,
      "assert": 2093,
      "Ġwould": 2094,
      "à±Īà°¨": 2095,
      "àªĪ": 2096,
      "vern": 2097,
      "à³ĥ": 2098,
      "ool": 2099,
      "lect": 2100,
      "ll": 2101,
      "àª¿àªķ": 2102,
      "Ġact": 2103,
      "à¨¾à¨¸": 2104,
      "à´²àµįà´²": 2105,
      "Ġreg": 2106,
      "à¯Īà®ķà¯įà®ķ": 2107,
      "à¨§": 2108,
      "àª¤àª¾": 2109,
      "à«įàªµ": 2110,
      "ise": 2111,
      "Ġkn": 2112,
      "à¨¿à¨°": 2113,
      "Ġà¬¹àŃĭà¬": 2114,
      "Ġà¦¡": 2115,
      "ople": 2116,
      "à§ĩà¦ĵà¦ģ": 2117,
      "Ġà®¨à®Ł": 2118,
      "à´¿à´µ": 2119,
      "ific": 2120,
      "à²¿à²²à³įà²²": 2121,
      "Ġ,": 2122,
      "à¦ĸà¦¨": 2123,
      "à´¿à´²àµįà´²": 2124,
      "Ġà¬¦àŃĩà¬": 2125,
      "ons": 2126,
      "à¤¾à¤¨à¥ĩ": 2127,
      "à²¿à²Ĺà²³": 2128,
      "aram": 2129,
      "àµĨà´Ł": 2130,
      "Ġà®¤à¯Ĭ": 2131,
      "ade": 2132,
      "à²¨à³Ĩ": 2133,
      "Ġno": 2134,
      "cept": 2135,
      "Ġ[": 2136,
      "Ġà®ĩà®¨à¯įà®¤": 2137,
      "Ġà®µà®¿à®": 2138,
      "Ġà¤ħà¤ª": 2139,
      "à¤ļà¥Ģ": 2140,
      "Ġà¨ķà¨°à¨¨": 2141,
      "à¤¡à¤¼": 2142,
      "à±ģà°Ĺ": 2143,
      "ient": 2144,
      "à¦¾à¦§": 2145,
      "te": 2146,
      "à²µà²¨à³įà²¨à³ģ": 2147,
      "àª°à«Ģ": 2148,
      "à¬¡à¬¼": 2149,
      "àµįà´¥": 2150,
      "Ġ202": 2151,
      "olog": 2152,
      "ood": 2153,
      "à³įà²Ĺ": 2154,
      "à¬¾à¬°àŃĩ": 2155,
      "Ġbec": 2156,
      "àµĭà´Ł": 2157,
      "à³įà²¥": 2158,
      "à²¨à³ģ": 2159,
      "à¦¿à¦®": 2160,
      "Ġpol": 2161,
      "Ġà¦¤à§ĩà¦ĵà¦ģ": 2162,
      "Ġtwo": 2163,
      "ah": 2164,
      "à¤Ĥà¤¦": 2165,
      "à¥ĩà¤²": 2166,
      "ative": 2167,
      "Ġà¦¸à¦Ĥ": 2168,
      "ution": 2169,
      "Ġ?": 2170,
      "Ġàªªàª£": 2171,
      "cess": 2172,
      "Ġà¤¡": 2173,
      "à´¿à´²àµĨ": 2174,
      "àª¾àª²": 2175,
      "à¤¹à¥Ģà¤Ĥ": 2176,
      "àŃģà¬°": 2177,
      "Ġwork": 2178,
      "Ġass": 2179,
      "à®®à¯įà®ª": 2180,
      "Ġprov": 2181,
      "à±ĥ": 2182,
      "ren": 2183,
      "eth": 2184,
      "Ġà´Ĵà´°": 2185,
      "à´¾à´Ł": 2186,
      "ange": 2187,
      "Ġtest": 2188,
      "à§¦": 2189,
      "Ġhig": 2190,
      "à´¹": 2191,
      "Ġgen": 2192,
      "à°¾à°ķ": 2193,
      "à±įà°ķ": 2194,
      "ĠUn": 2195,
      "à°¿à°µ": 2196,
      "Ġà°¹": 2197,
      "als": 2198,
      "Ġinclud": 2199,
      "Ġdiff": 2200,
      "àµįà´¸": 2201,
      "ft": 2202,
      "à®Ļà¯įà®ķà®³à¯į": 2203,
      "_{": 2204,
      "à°¿à°Ĺ": 2205,
      "Ġà¨ĩà¨¹": 2206,
      "à¬¾à¬¤": 2207,
      "à¤·": 2208,
      "Ġstr": 2209,
      "Ġ9": 2210,
      "Ġdes": 2211,
      "Ġà¦¯à§ĩ": 2212,
      "Ġà¨¤à©ĩ": 2213,
      "Ġimport": 2214,
      "ata": 2215,
      "Ġonly": 2216,
      "à¦ł": 2217,
      "à¥įà¤²": 2218,
      "oss": 2219,
      "à¦¬à§ĩ": 2220,
      "Ġà¤Ŀ": 2221,
      "get": 2222,
      "à²°à³į": 2223,
      "In": 2224,
      "âĪ": 2225,
      "à¤¾à¤ł": 2226,
      "Ġob": 2227,
      "à´¿à´°àµģà´¨àµįà´¨àµģ": 2228,
      "à²¿à²¦à³įà²¦à²¾à²°à³Ĩ": 2229,
      "à²¿à²®": 2230,
      "à®±à¯įà®ķ": 2231,
      "à§įà¦²": 2232,
      "àµģà´£àµįà´Ł": 2233,
      "à¨¡": 2234,
      "à¦¾à¦ĵ": 2235,
      "à´¾àµ»": 2236,
      "Ġthese": 2237,
      "Ġà¤¹à¥Ģ": 2238,
      "à§įà¦ļ": 2239,
      "Ġà¤®à¤¹": 2240,
      "Ġà°Ĵ": 2241,
      "à§ģà¦®": 2242,
      "Ġmost": 2243,
      "\"\"\"": 2244,
      "à°³": 2245,
      "iss": 2246,
      "oy": 2247,
      "à±ĩà°¦": 2248,
      "à°¿à°Ĥà°¦à°¿": 2249,
      "lp": 2250,
      "Ġà¤²à¤¿à¤ı": 2251,
      "à©±à¨²": 2252,
      "Ġà¤ħà¤¨": 2253,
      "ased": 2254,
      "à¨¾à¨£": 2255,
      "ied": 2256,
      "Ġstud": 2257,
      "gr": 2258,
      "à¨ľà¨¼": 2259,
      "à´¸àµį": 2260,
      "aw": 2261,
      "Ġà®ı": 2262,
      "Ġà°®à°°": 2263,
      "à¥ģà¤ķ": 2264,
      "à¦«": 2265,
      "Ġem": 2266,
      "à´¾à´µ": 2267,
      "Ġà¦¦à§ĩà¦ĸ": 2268,
      "ĠAs": 2269,
      "à±įà°²à±ģ": 2270,
      "Ġpeople": 2271,
      "Ġà¤Ĩà¤ª": 2272,
      "à¦¿à¦Ľ": 2273,
      "Ġrel": 2274,
      "à®ªà¯įà®ªà®Ł": 2275,
      "ax": 2276,
      "Ġà°ı": 2277,
      "à¯ģà®ª": 2278,
      "Ġà¬¸àŃĩà¬": 2279,
      "à®¸": 2280,
      "à±ģà°Ĥà°¦à°¿": 2281,
      "à²¨à³į": 2282,
      "Ġàªıàªķ": 2283,
      "Ġprodu": 2284,
      "àª¿àª¯": 2285,
      "ond": 2286,
      "à³ĩà²¶": 2287,
      "velop": 2288,
      "à§įà¦¨": 2289,
      "Ġsub": 2290,
      "àµĩà´°": 2291,
      "àµģà´±": 2292,
      "ype": 2293,
      "à¦¿à¦¸": 2294,
      "stem": 2295,
      "à¤°à¥įà¤µ": 2296,
      "ause": 2297,
      "rough": 2298,
      "à°¿à°¸à±įà°¤": 2299,
      "à§İ": 2300,
      "à§ĥà¦¤": 2301,
      "ank": 2302,
      "Ġà¤¦à¥ĩ": 2303,
      "à¨¾à¨ĩ": 2304,
      "à¤ļà¥ĩ": 2305,
      "les": 2306,
      "à³įà²ļ": 2307,
      "ict": 2308,
      "àª¿àª¤": 2309,
      "Ġuse": 2310,
      "Ġadd": 2311,
      "à²¡à³Ĩ": 2312,
      "Ġà´¨à´¿à´": 2313,
      "à§Į": 2314,
      "Łà«ĩ": 2315,
      "à´ķàµįà´·": 2316,
      "Ġà®ķà¯Ĥ": 2317,
      "à¤¾à¤¬": 2318,
      "à³Ĭà²³": 2319,
      "à¦¾à¦¬à§ĩ": 2320,
      "à¬°àŃģ": 2321,
      "à¬¾à¬ľ": 2322,
      "ics": 2323,
      "ĠĠĠĠĠĠĠĠĠĠĠĠĠĠĠĠĠĠĊ": 2324,
      "à°ķà±įà°·": 2325,
      "à¬¾à¬ĩ": 2326,
      "à²¾à²ľ": 2327,
      "à®¾à®®à¯į": 2328,
      "Ġà¦ľà¦¨": 2329,
      "¥à¬¿à¬²àŃĩ": 2330,
      "à¦¾à¦ļ": 2331,
      "Ġform": 2332,
      "Ġused": 2333,
      "uring": 2334,
      "Ġbl": 2335,
      "à¯Īà®¤à¯įà®¤": 2336,
      "und": 2337,
      "ix": 2338,
      "Ġco": 2339,
      "à©±à¨ĸ": 2340,
      "Ġà®µà¯Ĩ": 2341,
      "Ġà¦īà¦ª": 2342,
      "à³įà²³": 2343,
      "Ġàªľà«ĩ": 2344,
      "à¥įà¤ķ": 2345,
      "Ġà¦®à¦¾à¦¨": 2346,
      "à²®à³įà²®": 2347,
      "Ġà¨Ĩà¨ª": 2348,
      "Ġàª«": 2349,
      "à§įà¦¡": 2350,
      "à´¿à´ķàµįà´ķàµģà´¨àµįà´¨": 2351,
      "à¥ģà¤²": 2352,
      "à®µà®°": 2353,
      "à¦¾à¦¶": 2354,
      "àµģà´¤àµįà´¤": 2355,
      "Ġfl": 2356,
      "Ġà¤ħà¤§": 2357,
      "ĠHe": 2358,
      "Ġà¤īà¤¨": 2359,
      "fl": 2360,
      "quest": 2361,
      "ures": 2362,
      "Ġresult": 2363,
      "Ġà¤¯à¤¾à¤Ĥ": 2364,
      "à²·à³įà²Ł": 2365,
      "Ġà¦ķà¦°à§ĩ": 2366,
      "Ġfin": 2367,
      "à¤ł": 2368,
      "\")": 2369,
      "à§ĩà¦Ł": 2370,
      "à¯ģà®°": 2371,
      "Ġget": 2372,
      "à´¡": 2373,
      "Ġà¬ķà¬°à¬¿à¬": 2374,
      "Ġhow": 2375,
      "ck": 2376,
      "Ġà²²": 2377,
      "ating": 2378,
      "Ġnum": 2379,
      "ĠĠĠĠĠĠĠĠĠĠĠĠĠĠĠĠĠĠ": 2380,
      "Ġà¤¤à¥ĭ": 2381,
      "20": 2382,
      "Ġcol": 2383,
      "à±Ģà°¸": 2384,
      "à«įàª¯àª¾": 2385,
      "Ġcount": 2386,
      "Ġeff": 2387,
      "à°·": 2388,
      "Ġà°¡": 2389,
      "Ġà¬ĸ": 2390,
      "pro": 2391,
      "àªµàª¾àª¨": 2392,
      "Ġmat": 2393,
      "àª¨à«įàª": 2394,
      "Ġà°¸à°Ĥà°": 2395,
      "Ġà²İà²Ĥà²¦à³ģ": 2396,
      "à°¶": 2397,
      "à´¿à´Łàµįà´Ł": 2398,
      "Ġà´¦": 2399,
      "Ġcall": 2400,
      "Ġà¨ķà©ĩ": 2401,
      "à¯Īà®µ": 2402,
      "à´·": 2403,
      "à´¿à´ªàµįà´ª": 2404,
      "à²¾à²Ĺà²¿à²¦à³Ĩ": 2405,
      "Ġspec": 2406,
      "à¬¾à¬ķàŃģ": 2407,
      "à¤«": 2408,
      "Ġà°ļà±Ĩ": 2409,
      "à±Ĥà°°": 2410,
      "Ġàª°àª¹": 2411,
      "ning": 2412,
      "à²¾à²ķ": 2413,
      "àª¾àªľ": 2414,
      "Ġafter": 2415,
      "Ľà¬¨àŃįà¬¤à¬¿": 2416,
      "ered": 2417,
      "à¨¿à¨ķ": 2418,
      "Ġpo": 2419,
      "Ġà¦Ĩà¦°": 2420,
      "à§ĩà¦ĸ": 2421,
      "à²Ĺà²³à²¨à³įà²¨à³ģ": 2422,
      "à±Ĥà°¡": 2423,
      "Ġà¤§": 2424,
      "à¦¨à¦¾": 2425,
      "Ġdist": 2426,
      "ited": 2427,
      "Ġvalue": 2428,
      "Ġ!": 2429,
      "à°¾à°¸": 2430,
      "à¦¸à¦®": 2431,
      "à´ķàµįà´ķàµį": 2432,
      "à°Ĥà°¦à°¿": 2433,
      "à²¿à²°à³ģà²µ": 2434,
      "à°¾à°Ĺ": 2435,
      "à´¿à´¨àµį": 2436,
      "à´ļàµįà´ļ": 2437,
      "à¬ķàŃįà¬·": 2438,
      "à°¤à±įà°¤": 2439,
      "Ġà¦¥à¦¾à¦ķ": 2440,
      "à¦¿à¦ļ": 2441,
      "à³Ĩà²²": 2442,
      "ever": 2443,
      "à¦¸à§įà¦¥": 2444,
      "à±įà°¥": 2445,
      "Ġà°¤à±Ĩà°²": 2446,
      "à§ĩà¦Ľ": 2447,
      "Ġà¤¨à¤¹à¥Ģà¤Ĥ": 2448,
      "Ġthrough": 2449,
      "Ġà´Ĺ": 2450,
      "Ġmod": 2451,
      "à¦·": 2452,
      "()": 2453,
      "àŃįà¬¥": 2454,
      "à°¦à±įà°": 2455,
      "****": 2456,
      "à´¾àµ¼": 2457,
      "Ġà²¹à³Ĩ": 2458,
      "Ġà´ļàµĨà´¯": 2459,
      "à³ĩà²³": 2460,
      "à´°àµį": 2461,
      "Ġneed": 2462,
      "Ġà¤¸à¤¾à¤": 2463,
      "àª¾àª£": 2464,
      "ract": 2465,
      "ces": 2466,
      "Ġà°Ł": 2467,
      "à§Ģà¦°": 2468,
      "ween": 2469,
      "ular": 2470,
      "Ġher": 2471,
      "à¬ļ": 2472,
      "ner": 2473,
      "à¯įà®¯": 2474,
      "à§ģà¦ĸ": 2475,
      "à¬¿à¬°": 2476,
      "à¤ļà¤¾": 2477,
      "à´¾à´¸": 2478,
      "à¨¿à¨¤": 2479,
      "Ġà¤°à¤¾à¤ľ": 2480,
      "à¦ľà¦¨": 2481,
      "vernment": 2482,
      "ault": 2483,
      "alth": 2484,
      "hen": 2485,
      "à¤¯à¤¾": 2486,
      "ues": 2487,
      "Ġ|": 2488,
      "Ġàª¸àª¾àª": 2489,
      "à¯ģà®ķà®¿à®±": 2490,
      "Ġlike": 2491,
      "ys": 2492,
      "à¨«": 2493,
      "Ġàª®àª¾àªŁà«ĩ": 2494,
      "Ġà¨ĩà©±à¨ķ": 2495,
      "__": 2496,
      "à®©à¯įà®©": 2497,
      "à°¾à°¨à°¿à°ķà°¿": 2498,
      "Ġatt": 2499,
      "ock": 2500,
      "à¦¾à¦¡à¦¼": 2501,
      "à¨¥": 2502,
      "round": 2503,
      "à¦Ľà¦¿à¦²": 2504,
      "Ġprob": 2505,
      "Ġset": 2506,
      "à¤¥": 2507,
      "à¤²à¥įà¤¯à¤¾à¤": 2508,
      "Ġà°ªà°°": 2509,
      "vi": 2510,
      "Ġfe": 2511,
      "Ġrem": 2512,
      "à²ĸ": 2513,
      "à¦¿à¦¶": 2514,
      "à¨¾à¨ľ": 2515,
      "Ġà®īà®³à¯įà®³": 2516,
      "à¤¤à¥įà¤¤": 2517,
      "oth": 2518,
      "à°¿à°¸": 2519,
      "return": 2520,
      "à§įà¦ľ": 2521,
      "Ġà²¹à³Ĭ": 2522,
      "à¥įà¤¯à¥ĩ": 2523,
      "Ġà¦ķà¦¥": 2524,
      "à³Ĭà²Ĥà²¡": 2525,
      "à¤ķà¥Ģ": 2526,
      "ĠRe": 2527,
      "Ġshould": 2528,
      "Ġbetween": 2529,
      "à¤¹à¤¾": 2530,
      "à´¾à´±": 2531,
      "à¥įà¤§": 2532,
      "àªĤàªĹ": 2533,
      "à¬¾à¬ª": 2534,
      "à®®à®¾à®ķ": 2535,
      "à°¾à°ľ": 2536,
      "Ġà¨¨à¨¹": 2537,
      "à¥įà¤¦": 2538,
      "Ġfun": 2539,
      "ough": 2540,
      "àª¾àª°à«ĩ": 2541,
      "à¦ķà¦²": 2542,
      "Ġà¬ªà¬°": 2543,
      "àª¨à«ĭ": 2544,
      "Ġà®ªà¯Ĩ": 2545,
      "Ġà¨¸à¨®": 2546,
      "à¥ĩà¤Ł": 2547,
      "Ġra": 2548,
      "à¤¾à¤łà¥Ģ": 2549,
      "à°¾à°¯à°¿": 2550,
      "ced": 2551,
      "àµģà´ķà´³": 2552,
      "à¯Īà®ª": 2553,
      "à±ĩà°¶": 2554,
      "à¨¨à©įà¨¹à¨¾à¨Ĥ": 2555,
      "à¤¾à¤Ī": 2556,
      "à´¬": 2557,
      "Ġ18": 2558,
      "Ġinst": 2559,
      "à§ĭà¦ķ": 2560,
      "àµģà´ķàµįà´ķ": 2561,
      "Ġyears": 2562,
      "à²°à²¿à²¸": 2563,
      "Ġà°ķà±Ĭ": 2564,
      "âĢį": 2565,
      "Ġph": 2566,
      "à¤Ĥà¤Ĺ": 2567,
      "Ġà®®à®±à¯įà®±": 2568,
      "àª¾àªĹ": 2569,
      "Ġmany": 2570,
      "à¨¦à©Ģ": 2571,
      "Ġà®ĩà®¤": 2572,
      "Ġà¤ķà¤¿à¤¯à¤¾": 2573,
      "Ġà®®à¯ģà®": 2574,
      "à§įà¦¤à§ģ": 2575,
      "à«ĩàª¶": 2576,
      "à±ģà°¡à±ģ": 2577,
      "à²ļà³įà²ļ": 2578,
      "hes": 2579,
      "à²¾à²¤": 2580,
      "Ġà²ĩà²¦": 2581,
      "Ġà°¸à°®": 2582,
      "Ġà°ħà°¨": 2583,
      "·àŃįà¬Ł": 2584,
      "à¨Ń": 2585,
      "Ġà´¨à´Ł": 2586,
      "ting": 2587,
      "à¥įà¤¨": 2588,
      "Ġmark": 2589,
      "à¬¾à¬²": 2590,
      "ident": 2591,
      "Ġà°ļà±ĩà°¸": 2592,
      "Ġtra": 2593,
      "Ġac": 2594,
      "à±Ģà°°": 2595,
      "ible": 2596,
      "à°¿à°®": 2597,
      "Ġdevelop": 2598,
      "à´Ļàµįà´ķ": 2599,
      "à³ĩà²µ": 2600,
      "à¤¾à¤²à¤¾": 2601,
      "à°Ĥà°Ĺ": 2602,
      "Ġwhat": 2603,
      "ash": 2604,
      "Ġà®ħà®°": 2605,
      "Ġà¬¹àŃĭà¬ĩà¬": 2606,
      "§à§": 2607,
      "à¬¾à¬ĩà¬ģ": 2608,
      "à®¿à®´": 2609,
      "à¦¾à¦¨à§įà¦¤": 2610,
      "Ġà°«": 2611,
      "Ġ0": 2612,
      "à´Ĺ": 2613,
      "ern": 2614,
      "up": 2615,
      "Ġà°ķà±ĭ": 2616,
      "à®±à¯įà®ª": 2617,
      "ower": 2618,
      "Ġà®Ĵà®°à¯ģ": 2619,
      "à¦¾à¦Ĥ": 2620,
      "Ġmon": 2621,
      "Ġà«": 2622,
      "à¨¾à¨®": 2623,
      "à¥ģà¤¨": 2624,
      "Ġà¦¸à§ĩà¦ĩ": 2625,
      "Ġwhere": 2626,
      "à´Ń": 2627,
      "à¨ı": 2628,
      "Ġà¨Ĩà¨ªà¨£": 2629,
      "Ġàªľà«ĭ": 2630,
      "à¨ķà¨¾à¨°": 2631,
      "fore": 2632,
      "à¯įà®£": 2633,
      "Ġà°ªà±Ĩ": 2634,
      "à¬§àŃįàŃŁ": 2635,
      "Ġà¨°à¨¹": 2636,
      "à¨¿à¨¹à¨¾": 2637,
      "à®¨": 2638,
      "arch": 2639,
      "iel": 2640,
      "Ġà¬ħà¬¨": 2641,
      "à§°à§ĩ": 2642,
      "aj": 2643,
      "à°¦à°¿": 2644,
      "Ġvari": 2645,
      "Ġà¤¯à¤¹": 2646,
      "àªµàª¾àª®àª¾àªĤ": 2647,
      "àŃįà¬ª": 2648,
      "ample": 2649,
      "à²µà²¾à²Ĺà²¿": 2650,
      "Ġcould": 2651,
      "Ġà°Ĵà°ķ": 2652,
      "Ġdiffere": 2653,
      "à«ĩàª°": 2654,
      "à«ĩàªŁ": 2655,
      "Ġbu": 2656,
      "Ġà²ķà²¾à²°": 2657,
      "à¯įà®¤à¯įà®¤": 2658,
      "Ġà¦ķà§ĭà¦¨": 2659,
      "à²¬à³ĩà²ķ": 2660,
      "à©Īà¨Ĥ": 2661,
      "Ġpr": 2662,
      "Ġsupp": 2663,
      "000": 2664,
      "à®¾à®Łà¯įà®Ł": 2665,
      "Ġcent": 2666,
      "Ġà¨īà¨¹": 2667,
      "its": 2668,
      "Ġsystem": 2669,
      "à¨¾à¨¬": 2670,
      "à´®àµįà´®": 2671,
      "Ġà®Ł": 2672,
      "àµįà´±àµįà´±": 2673,
      "ife": 2674,
      "à³Į": 2675,
      "ected": 2676,
      "Ġà¨¦à¨¿": 2677,
      "à®¿à®®": 2678,
      "à¦¿à¦Ľà§ĩ": 2679,
      "Ġà´ħà´µ": 2680,
      "Ġcur": 2681,
      "Ġà¦¸à§įà¦¬": 2682,
      "Ġà¦¯à¦": 2683,
      "à³ģà²¤à³įà²¤à²¦à³Ĩ": 2684,
      "Ġtrans": 2685,
      "Ġhelp": 2686,
      "àªı": 2687,
      "Ġà¨īà¨¸": 2688,
      "irect": 2689,
      "ror": 2690,
      "ĠCom": 2691,
      "àª·": 2692,
      "Ġpres": 2693,
      "àª¾àª³": 2694,
      "ĻàŃįà¬Ĺ": 2695,
      "à®¾à®£": 2696,
      "Ġ15": 2697,
      "Ġà®¤à¯ĩ": 2698,
      "à«įàª¯à«ģàªĤ": 2699,
      "Ġà¨¨à¨¹à©Ģà¨Ĥ": 2700,
      "Ġà®¤à®¿à®°": 2701,
      "àµĩà´·": 2702,
      "à²¸à³į": 2703,
      "à®¤à¯į": 2704,
      "à§ĭà§±à¦¾": 2705,
      "à¥Ģà¤¨": 2706,
      "Ġà®ķà®Ł": 2707,
      "à¦Łà¦¿": 2708,
      "Ġour": 2709,
      "à§ĩà¦®": 2710,
      "Ġà´ªà´±": 2711,
      "Ġins": 2712,
      "à¯įà®¨à¯įà®¤": 2713,
      "gan": 2714,
      "ĠàªŁ": 2715,
      "Ġagain": 2716,
      "io": 2717,
      "à®©à®°à¯į": 2718,
      "Ġà¨¸à¨ķ": 2719,
      "à¥įà¤¯à¤ķ": 2720,
      "Ġà¨®à©ģ": 2721,
      "Ġà¦ķà§°à¦¾": 2722,
      "Ġà¨¡": 2723,
      ".\"": 2724,
      "Ġà¦ķà§°à¦¿": 2725,
      "à¬¾à¬£": 2726,
      "à¦Ļà§įà¦Ĺ": 2727,
      "à´ŀàµįà´ŀ": 2728,
      "à¥ģà¤®": 2729,
      "Ġà´Ĵà´°àµģ": 2730,
      "à§ĩà¦¯à¦¼": 2731,
      "Ġà´ªà´°": 2732,
      "à±ģà°Ĥà°¡": 2733,
      "eral": 2734,
      "Ġà²¨à³Ģà²¡": 2735,
      "ollow": 2736,
      "Ġà¤ľà¤¾à¤¤": 2737,
      "pr": 2738,
      "ars": 2739,
      "Ġàªķàª°à«Ģ": 2740,
      "àµĥ": 2741,
      "à¬¿à¬Ĩ": 2742,
      "Ġà®®à¯ĩ": 2743,
      "à¦¾à¦£": 2744,
      "name": 2745,
      "Ġà¨ªà¨°": 2746,
      "à®¿à®ļ": 2747,
      "Ġà²Ĩà²¦": 2748,
      "Ġà¤īà¤ª": 2749,
      "Ġ===": 2750,
      "Ġà´±": 2751,
      "à¬¾à¬³": 2752,
      "Ġthen": 2753,
      "àŃįà¬§": 2754,
      "cent": 2755,
      "à¬¾àŃŁ": 2756,
      "à¤Ĥà¤¡": 2757,
      "Ġ\\": 2758,
      "à°¾à°ª": 2759,
      "ful": 2760,
      "ont": 2761,
      "à±įà°¡": 2762,
      "à¬¾à¬ĻàŃįà¬ķ": 2763,
      "Ġsur": 2764,
      "à§ĩà¦ķà§ĩ": 2765,
      "à¦¿à¦¤à§ĩ": 2766,
      "à§ģà¦¦": 2767,
      "wn": 2768,
      "ten": 2769,
      "à¥įà¤¯à¤¾à¤Ĥ": 2770,
      "àª¾àª¦": 2771,
      "à±ĩà°ķ": 2772,
      "à©°à¨Ĺ": 2773,
      "uch": 2774,
      "Ġà¦ľà¦¾à¦¨": 2775,
      "Ġà´«": 2776,
      "à³įà²¬": 2777,
      "Ġà¦ªà¦¾à¦°": 2778,
      "à²¿à²¸à²¿à²¦": 2779,
      "Ġà¨Ĺà¨¿à¨Ĩ": 2780,
      "erest": 2781,
      "roup": 2782,
      "Ġà®®à®±à¯įà®±à¯ģà®®à¯į": 2783,
      "à®°à¯įà®ķà®³à¯į": 2784,
      "à¯Īà®¯à¯ģà®®à¯į": 2785,
      "Th": 2786,
      "Ġà®ļà¯Ĩà®¯à¯įà®¤": 2787,
      "àŃ±": 2788,
      "àµģà´ķà´¯": 2789,
      "à´¾à´Ĥ": 2790,
      "à¦¿à¦Ł": 2791,
      "à¯Īà®ªà¯įà®ª": 2792,
      "Ġà®ķà¯ģà®±": 2793,
      "īà¬": 2794,
      "Ġwell": 2795,
      "Ġear": 2796,
      "à®¿à®©à¯įà®±": 2797,
      "ink": 2798,
      "à®¾à®±": 2799,
      "à´¨àµį": 2800,
      "Ġàª¤à«ĩàª®": 2801,
      "ield": 2802,
      "Ġà¦ķà¦¿à¦¨": 2803,
      "ists": 2804,
      "19": 2805,
      "Ġà¦Ĩà¦Ĺ": 2806,
      "à¤µà¤°": 2807,
      "Ġà¤īà¤¸": 2808,
      "à³Ĥà²°": 2809,
      "test": 2810,
      "à°¾à°¡à±ģ": 2811,
      "à¤°à¥įà¤®": 2812,
      "ms": 2813,
      "ins": 2814,
      "Ġresp": 2815,
      "Ġà´Ń": 2816,
      "à¬¾à¬Ĺ": 2817,
      "à±įà°¨à°¿": 2818,
      "à´¾à´®": 2819,
      "à¬¿à¬¶": 2820,
      "\":": 2821,
      "à®¿à®ķà®³": 2822,
      "à¦¿à¦¦": 2823,
      "Ġàª§": 2824,
      "à³Ĩà²Ĺà³Ĩ": 2825,
      "à³ĭà²Ĺ": 2826,
      "ĠIndian": 2827,
      "à¥Ģà¤¤": 2828,
      "Ġà¦¬à¦¿à¦¶": 2829,
      "à²¾à²¡": 2830,
      "ĠàªĨàªª": 2831,
      "any": 2832,
      "Ġinter": 2833,
      "illion": 2834,
      "à°Ĺà°¾": 2835,
      "Ġà¤ľà¥ĭ": 2836,
      "^{": 2837,
      "ng": 2838,
      "àµĤà´Ł": 2839,
      "Ġà´Ł": 2840,
      "à¦¾à¦ĸ": 2841,
      "aking": 2842,
      "àªķà«įàª": 2843,
      "ines": 2844,
      "à²µà²°": 2845,
      "àª¾àª°à«Ģ": 2846,
      "à°¾à°¡": 2847,
      "à±Ģà°": 2848,
      "ives": 2849,
      "Ġà¦ªà§°à¦¾": 2850,
      "à¦·à§įà¦Ł": 2851,
      "Ġà´¯": 2852,
      "à¬¨àŃįà¬¦": 2853,
      "put": 2854,
      "Ġà®ªà®¿à®°": 2855,
      "Ġà¦¤à§ĭ": 2856,
      "àµĨà´Łàµįà´Ł": 2857,
      "Ļà¯įà®ķ": 2858,
      "àµģà´ª": 2859,
      "Ġà¤¤à¤°": 2860,
      "àŃįà¬ļ": 2861,
      "ator": 2862,
      "à²¾à²£": 2863,
      "à§ģà§±": 2864,
      "àŃįà¬¡": 2865,
      "à¬®à¬¾à¬¨": 2866,
      "àªµà«Ģ": 2867,
      "Ġà¬®à¬§àŃįàŃŁ": 2868,
      "Ġà¤¹à¥ģà¤": 2869,
      "à´¿à´¸": 2870,
      "ĠSe": 2871,
      "à¦ı": 2872,
      "à®¾à®ķà¯įà®ķ": 2873,
      "other": 2874,
      "à¤¸à¥įà¤¤": 2875,
      "Ġà°¨à°¿à°°": 2876,
      "Ġà¤ªà¤¹": 2877,
      "à°Ĥà°ļ": 2878,
      "Ġincre": 2879,
      "ĠNew": 2880,
      "Ġà¨ľà©ĭ": 2881,
      "Ġà°µà±įà°¯": 2882,
      "Ġà¦¤à¦¾à¦°": 2883,
      "à´¿à´ķà´³": 2884,
      "à¤¿à¤¶": 2885,
      "ily": 2886,
      "à´ķà´°": 2887,
      "ts": 2888,
      "à¬¿à¬Ľà¬¿": 2889,
      "Ġjust": 2890,
      "àª¥": 2891,
      "à¥ĭà¤ķ": 2892,
      "Ġris": 2893,
      "Ġà¨ķà©ĭ": 2894,
      "Ġà´ªàµĭ": 2895,
      "Ġà¦ķà§°à¦¿à¦¬": 2896,
      "hem": 2897,
      "Ġà¬ĺ": 2898,
      "à´¾à´¯à´¿à´°àµģà´¨àµįà´¨àµģ": 2899,
      "à§ĩà¦·": 2900,
      "à°²à±į": 2901,
      "ption": 2902,
      "àµĩà´¶": 2903,
      "Ġsm": 2904,
      "ets": 2905,
      "Ġà¨¹à©Ģ": 2906,
      "àª¾àªķ": 2907,
      "à§Ģà¦¯à¦¼à¦¾": 2908,
      "Ġà¤¸à¥įà¤µ": 2909,
      "uth": 2910,
      "à¦¨à§įà¦§": 2911,
      "conom": 2912,
      "à¨¿à¨Ĩà¨Ĥ": 2913,
      "Ġà®ªà®Ł": 2914,
      "Ġà¬ıà¬¹à¬¿": 2915,
      "Ġhigh": 2916,
      "à¦¨à§°": 2917,
      "ug": 2918,
      "Ġed": 2919,
      "Ġàª¤àª®": 2920,
      "Ġbeing": 2921,
      "Ġdec": 2922,
      "day": 2923,
      "à¤°à¥ĩ": 2924,
      "Ġ12": 2925,
      "Ġmake": 2926,
      "Ġàªķà«ĭ": 2927,
      "à³įà²§": 2928,
      "Ġà²ªà²°": 2929,
      "Ġà²ħà²µà²°": 2930,
      "],": 2931,
      "àª«": 2932,
      "Ġinvest": 2933,
      "à¦¾à¦¤à§ĩ": 2934,
      "à´ľ": 2935,
      "àµĨà´¨àµįà´¨àµį": 2936,
      "Ġà¤¤à¥įà¤¯à¤¾à¤Ĥ": 2937,
      "Ġà®ĩà®°à¯ģà®ķà¯įà®ķ": 2938,
      "rue": 2939,
      "ted": 2940,
      "uc": 2941,
      "ĠPro": 2942,
      "ward": 2943,
      "à²µà²¾à²Ĺ": 2944,
      "àŃĩà¬²": 2945,
      "Ġà¨ķà©Ģà¨¤à¨¾": 2946,
      "à²¾à²ª": 2947,
      "Ġà®¯": 2948,
      "ĠSh": 2949,
      "Ġà¨īà¨¨à©įà¨¹à¨¾à¨Ĥ": 2950,
      "à´£à´Ĥ": 2951,
      "à²Ĥà²¤à³Ĩ": 2952,
      "ital": 2953,
      "à¤¿à¤®": 2954,
      "àŃįàŃ±": 2955,
      "à¬¾à¬¯": 2956,
      "àª¿àª²": 2957,
      "à¨¾à¨¤": 2958,
      "ually": 2959,
      "à¤¾à¤ĩ": 2960,
      "à§ģà¦¤": 2961,
      "à¨°à©ĩ": 2962,
      "à±ĭà°Ĺ": 2963,
      "Ġworld": 2964,
      "ne": 2965,
      "ral": 2966,
      "àŃįà¬°àŃĢ": 2967,
      "à¤¾à¤°à¤¾": 2968,
      "à°¿à°¯à±ģ": 2969,
      "yp": 2970,
      "¥à¬¿à¬¬à¬¾": 2971,
      "à§ģà¦·": 2972,
      "à¦¿à¦²à§ĩ": 2973,
      "Ġà®¤à¯Ĩà®°": 2974,
      "Ġend": 2975,
      "Ġà¨¸à¨¿à©°à¨": 2976,
      "Ġà²¬à³Ĩ": 2977,
      "ants": 2978,
      "§àŃ": 2979,
      "Ġent": 2980,
      "Ġà²¨à²¿à²°": 2981,
      "Ġinterest": 2982,
      "à¤¾à¤§": 2983,
      "Ġàª¸àª®": 2984,
      "à§ĭà¦ģ": 2985,
      "',": 2986,
      "Ġsame": 2987,
      "à²ķà²°": 2988,
      "Ġfollow": 2989,
      "Ġà¤²à¥ĩ": 2990,
      "àªĤàª¤": 2991,
      "Ġstate": 2992,
      "à¦¾à§°à§ĩ": 2993,
      "Ġà¨ľà¨¾à¨Ĥ": 2994,
      "Ġgovernment": 2995,
      "à®°à¯įà®ķà®³": 2996,
      "à´°àµįà´": 2997,
      "à®ªà¯į": 2998,
      "à¦¾à¦¦à§ĩà¦°": 2999,
      "à§įà¦ł": 3000,
      "à´Ļàµįà´Ļàµ¾": 3001,
      "à®¿à®²à¯įà®²": 3002,
      "à§įà¦£": 3003,
      "click": 3004,
      "ĠAl": 3005,
      "Ġmin": 3006,
      "chn": 3007,
      "âģ": 3008,
      "ural": 3009,
      ".\\": 3010,
      "Ġà¬¸àŃĩ": 3011,
      "Ġà´ħà´¤": 3012,
      "Ġà®ķà¯Ĭà®£à¯įà®Ł": 3013,
      "Ġdet": 3014,
      "Ġhim": 3015,
      "Ġà®ªà¯Ĭ": 3016,
      "à¬¸àŃįà¬¤": 3017,
      "ask": 3018,
      "Ġàª¸à«ģ": 3019,
      "à¤§à¥įà¤¯à¥ĩ": 3020,
      "ince": 3021,
      "à¨¿à¨¨": 3022,
      "à²¥": 3023,
      "Ġà®µà®´": 3024,
      "ages": 3025,
      "Ġdep": 3026,
      "Ġà¦²à¦Ĺ": 3027,
      "àª¨à«ģàªĤ": 3028,
      "àª¾àª°àª¾": 3029,
      "à«įàª¯à«ĭ": 3030,
      "Ġà¤¥à¤¾": 3031,
      "à¨ĩ": 3032,
      "Ġmy": 3033,
      "Ġplay": 3034,
      "eng": 3035,
      "Ġà¤¸à¤°": 3036,
      "à¤¸à¥įà¤¥": 3037,
      "à®¿à®¯à®¿à®²à¯į": 3038,
      "à¯ģà®®à¯įà®ª": 3039,
      "Ġà¦ķà¦¾à§°": 3040,
      "Ġà°µà±Ĩ": 3041,
      "Ġback": 3042,
      "10": 3043,
      "à¦¤à¦¾": 3044,
      "Ġà¤ł": 3045,
      "à¤¾à¤²à¥ĩ": 3046,
      "à®©à¯įà®±à¯ģ": 3047,
      "Ġà¦Ĩà¦Ľà§ĩ": 3048,
      "Ġà²¸à²®": 3049,
      "Ġà¤¨à¤¾à¤¹à¥Ģ": 3050,
      "à¦Ĩ": 3051,
      "à¨²à©ĩ": 3052,
      "à¦¤à§įà¦¤": 3053,
      "Ġeven": 3054,
      "Ġà¨ĺ": 3055,
      "à¤¾à¤³": 3056,
      "Ġà²¹à²¾à²Ĺ": 3057,
      "Ġà¤ķà¤°à¤¨à¥ĩ": 3058,
      "Ġà¦ķà¦¿à¦¨à§įà¦¤à§ģ": 3059,
      "Ġser": 3060,
      "àª¿àªµ": 3061,
      "àª¶à«ĩ": 3062,
      "formation": 3063,
      "à¥Ĥà¤ª": 3064,
      "ically": 3065,
      "à®ļà¯įà®ļ": 3066,
      "ized": 3067,
      "Ġshe": 3068,
      "à¬ķàŃįà¬¤": 3069,
      "Ġà¨¸à¨¿à©°à¨ĺ": 3070,
      "ode": 3071,
      "Ġà®ħà®®": 3072,
      "à²¾à²Ł": 3073,
      "àª¾àª¨àª¾": 3074,
      "led": 3075,
      "Ġà¤®à¥ĭ": 3076,
      "Ġà¦®à¦¹": 3077,
      "Ġpers": 3078,
      "à²²à³Ĩ": 3079,
      "à°¤à±ĭ": 3080,
      "Ġchild": 3081,
      "à®¿à®ķà®³à¯į": 3082,
      "Ġdisc": 3083,
      "àµĭà´Ĺ": 3084,
      "Ġà¨Ł": 3085,
      "à°¾à°§": 3086,
      "Ġà¬ıà¬ķ": 3087,
      "hat": 3088,
      "read": 3089,
      "Ġà¨¹à©ģ": 3090,
      "à°¿à°¨à°¿": 3091,
      "Ġreturn": 3092,
      "à®¿à®°à¯ģà®¨à¯įà®¤": 3093,
      "param": 3094,
      "à®¾à®ļ": 3095,
      "Ġàª¶àªķ": 3096,
      "Ġà²¡": 3097,
      "à§ĩà¦¬": 3098,
      "Ġà®ĩà®°à¯ģà®¨à¯įà®¤": 3099,
      "Ġàªĺ": 3100,
      "Ġà²ħà²¦": 3101,
      "à¤ķà¤¾": 3102,
      "Ġà¤ªà¥Ĥ": 3103,
      "Ġà²¸à²°": 3104,
      "à´¿à´ļàµįà´ļàµģ": 3105,
      "Ġà¤¦à¤¿à¤²": 3106,
      "à¤¾à¤Ł": 3107,
      "ĠFor": 3108,
      "Ġmed": 3109,
      "ivers": 3110,
      "¥à¬¿à¬²à¬¾": 3111,
      "Ġnumber": 3112,
      "à´§": 3113,
      "à¨¾à¨ī": 3114,
      "ices": 3115,
      "à¦¯": 3116,
      "à¬ĻàŃįà¬ķàŃģ": 3117,
      "à¤²à¥įà¤¯à¤¾": 3118,
      "ruct": 3119,
      "àŃįà¬¦": 3120,
      "¥à«ĩ": 3121,
      "à¤¢": 3122,
      "à¥ĭà¤²": 3123,
      "à¥ģà¤¦": 3124,
      "à´¦àµįà´": 3125,
      "Ġà¦ıà¦¬": 3126,
      "Ġsee": 3127,
      "Ġthose": 3128,
      "Ġà¦Ĩà¦¹": 3129,
      "àª¾àªĪ": 3130,
      "àµģà´°": 3131,
      "Ġlong": 3132,
      "à¤¾à¤Ĥà¤Ĺ": 3133,
      "Ġà¤Ńà¤¾à¤°": 3134,
      "ved": 3135,
      "à¥¦": 3136,
      "Ġà´¹": 3137,
      "ĠAn": 3138,
      "à¤¾à¤²à¥Ģ": 3139,
      "Ġsim": 3140,
      "à±ĩà°°": 3141,
      "value": 3142,
      "à¦¿à¦ª": 3143,
      "Ġdifferent": 3144,
      "mand": 3145,
      "Ġcor": 3146,
      "à´µàµģà´Ĥ": 3147,
      "Ġà´¡": 3148,
      "Ġequ": 3149,
      "à¨¤à¨°": 3150,
      "Ġà¬ªà¬¾à¬ĩà¬ģ": 3151,
      "ĠDe": 3152,
      "Ġà²®à³Ĥ": 3153,
      "ared": 3154,
      "Ġà¦¥à§ĩà¦ķà§ĩ": 3155,
      "à§įà¦Ń": 3156,
      "Ġest": 3157,
      "à¬ĸ": 3158,
      "Ġself": 3159,
      "à¥ĭà¤¨": 3160,
      "ases": 3161,
      "à°¤à°¿": 3162,
      "à¤¿à¤¯à¥ĭà¤Ĥ": 3163,
      "Ġfact": 3164,
      "Ġloc": 3165,
      "Ġà¤ªà¥įà¤°à¤¤": 3166,
      "âĪĴ": 3167,
      "à´¤àµįà´¤àµĨ": 3168,
      "à°Ĥà°¤à±ĭ": 3169,
      "à´¾à´§": 3170,
      "à°¸à±įà°¤": 3171,
      "à±ĩà°¸": 3172,
      "ology": 3173,
      "text": 3174,
      "Ġà¦¸à¦®à¦¯à¦¼": 3175,
      "à§ĩà¦¦": 3176,
      "à¥ĭà¤ľ": 3177,
      "Ġà°ļà±ĩà°¯": 3178,
      "Ġà®İà®©à¯įà®±à¯ģ": 3179,
      "à´¿à´®": 3180,
      "Ġà¤®à¥įà¤¹": 3181,
      "à³Ĭà²³à³įà²³": 3182,
      "Ġpub": 3183,
      "Ġevery": 3184,
      "Ġà®µà®¨à¯įà®¤": 3185,
      "à¥ĩà¤ĸ": 3186,
      "àŃįà¬®": 3187,
      "à¦¯à¦¼à¦¾": 3188,
      "Ġduring": 3189,
      "Ġà¤µà¤°à¥įà¤": 3190,
      "à¨¹à©ģ": 3191,
      "à¦ŀ": 3192,
      "Ġà°ķà°¾à°°": 3193,
      "Ġbecause": 3194,
      "Ġà®®à¯ģà®Ł": 3195,
      "land": 3196,
      "à§°à¦¤": 3197,
      "Ġà®µà¯ĩà®£à¯įà®Ł": 3198,
      "à³įà²¤à³ģ": 3199,
      "Ġà¤ħà¤§à¤¿à¤ķ": 3200,
      ",\"": 3201,
      "Ġà´ĵ": 3202,
      "ven": 3203,
      "Ġref": 3204,
      "à±ģà°ª": 3205,
      "Ġà¤¸à¤ķ": 3206,
      "Ġà¦¤à¦¿à¦¨": 3207,
      "à°¾à°¨à±įà°¨à°¿": 3208,
      "à³ģà²°": 3209,
      "Ġà¨¸à¨°": 3210,
      "Ġà¨ľà¨¼": 3211,
      "Ġbel": 3212,
      "à²²à³į": 3213,
      "àŃĭà¬²": 3214,
      "à¦¾à¦²à§ĩ": 3215,
      "Ġà®ķà¯ĭ": 3216,
      "à¦ķà§°": 3217,
      "à±ĩà°µ": 3218,
      "à«įàª®": 3219,
      "Ġappro": 3220,
      "Ġà¦Ĩà¦ª": 3221,
      "Ġà¦ķà¦¥à¦¾": 3222,
      "Ġà¬§": 3223,
      "Ġà§§à§": 3224,
      "à«ĥ": 3225,
      "¯àŃįàŃŁ": 3226,
      "Ġdata": 3227,
      "===": 3228,
      "à¦®à¦¾à¦¨": 3229,
      "imes": 3230,
      "à´¿à´²àµģà´Ĥ": 3231,
      "à¬ł": 3232,
      "Ġmade": 3233,
      "Ġeach": 3234,
      "à²¾à²§": 3235,
      "Ġà¨ķà©ģ": 3236,
      "à±ĩà°Ł": 3237,
      "àµģà´¨àµįà´¨à´¤àµį": 3238,
      "à¦¾à¦Ľ": 3239,
      "à¬¾à¬¦": 3240,
      "Ġà²¹à³ĩà²³": 3241,
      "der": 3242,
      "Ġhealth": 3243,
      "ork": 3244,
      "Ġà¤Ĺà¤¯à¤¾": 3245,
      "à¤ĺ": 3246,
      "à±įà°°à°®": 3247,
      "Ġà°ħà°µ": 3248,
      "Ġeffect": 3249,
      "à¥Īà¤Ĥ": 3250,
      "à¦¾à¦ķà§ĩ": 3251,
      "Ġshow": 3252,
      "ss": 3253,
      "ize": 3254,
      "à¥įà¤¯à¤¾à¤¤": 3255,
      "Ġnow": 3256,
      "à´ļ": 3257,
      "àŃĩà¬¶": 3258,
      "à©ĩà¨Ĥ": 3259,
      "Ġsign": 3260,
      "à§ģà¦¬": 3261,
      "à¯ģà®³à¯įà®³à®¤à¯ģ": 3262,
      "à¯Īà®ķà®³": 3263,
      "Ġà®¤à¯Ĭà®Ł": 3264,
      "Ġà´Ī": 3265,
      "à¨¾à¨¦": 3266,
      "Ġà¬¸à¬¹": 3267,
      "à´¾à´ľ": 3268,
      "Ġà¦¬à§°": 3269,
      "Ġàª¹à«ĭ": 3270,
      "à¥ģà¤³": 3271,
      "ethod": 3272,
      "à°¦à±įà°¦": 3273,
      "Ġà®¨à®¿à®²": 3274,
      "Ġknow": 3275,
      "à´«": 3276,
      "àŃĩà¬¤": 3277,
      "ined": 3278,
      "ability": 3279,
      "Ġright": 3280,
      "à±Ģà°µ": 3281,
      "Ġà®İà®©à¯įà®ª": 3282,
      "Ġbefore": 3283,
      "Ġà°ķà±Ĥà°¡": 3284,
      "àª¾àª¨à«Ģ": 3285,
      "arm": 3286,
      "chool": 3287,
      "àª¤à«Ģ": 3288,
      "à´®à´¾à´¯": 3289,
      "à«ĭàªķ": 3290,
      "à«įàª¥": 3291,
      "the": 3292,
      "oun": 3293,
      "à©Ĥà¨°": 3294,
      "à¤¾à¤¶": 3295,
      "Ġà¬ıà¬¬": 3296,
      "Ġà¤Ĩà¤¹à¥ĩà¤¤": 3297,
      "Ġà°®à°°à°¿à°¯à±ģ": 3298,
      "à¦¿à¦Ľà¦¿à¦²": 3299,
      "Ġwhile": 3300,
      "·à¥įà¤Ł": 3301,
      "iter": 3302,
      "à§Ģà¦¤": 3303,
      "àªĩ": 3304,
      "Ġdoes": 3305,
      "Ġpop": 3306,
      "Ġà¦¬à§įà¦¯à¦": 3307,
      "à©ĭà¨ķ": 3308,
      "Ġà®¨à¯Ģ": 3309,
      "Ġà´ķàµĬ": 3310,
      "à¦°à§ĩ": 3311,
      "Ġrun": 3312,
      "ism": 3313,
      "àªĽ": 3314,
      "à¥ģà¤¸": 3315,
      "à®£à¯įà®£": 3316,
      "Ġprocess": 3317,
      "hip": 3318,
      "Ġà¦ħà¦Ń": 3319,
      "à³įà²£": 3320,
      "Ġrep": 3321,
      "Ġà¦¸à¦®à§įà¦ª": 3322,
      "ĠIf": 3323,
      "Ġà²ı": 3324,
      "à¦¾à¦¥": 3325,
      "Ġagainst": 3326,
      "à®¿à®ª": 3327,
      "à¦¿à¦ľ": 3328,
      "Ġàªīàªª": 3329,
      "à¦¡": 3330,
      "à°¿à°Ł": 3331,
      "à¤¤à¥įà¤°": 3332,
      "à³ģà²µà³ģà²¦à³ģ": 3333,
      "à®©à¯Ī": 3334,
      "Ġà¤²à¤Ĺ": 3335,
      "Ġà¬°à¬¾à¬ľ": 3336,
      "ature": 3337,
      "Ġàª¸àª¾àª¥à«ĩ": 3338,
      "Ġà¬®àŃģà¬": 3339,
      "Ġà´ªàµįà´°à´¤": 3340,
      "àŃįà¬²": 3341,
      "Ġà´¸à´Ĥà´": 3342,
      "ai": 3343,
      "rent": 3344,
      "Ġreport": 3345,
      "à§Ģà¦¨": 3346,
      "ght": 3347,
      "àµįà´ķ": 3348,
      "à¬¿à¬ª": 3349,
      "à°®à±įà°®": 3350,
      "à³ģà²ķ": 3351,
      "à¥Ģà¤®": 3352,
      "à±ĭà°µ": 3353,
      "Ġà¤ķà¤°à¤£à¥įà¤¯à¤¾à¤": 3354,
      "àŃ¦": 3355,
      "ection": 3356,
      "à¥įà¤ļ": 3357,
      "rac": 3358,
      "à§ģà¦²à¦¿": 3359,
      "Ġext": 3360,
      "à¦°à¦¾": 3361,
      "cond": 3362,
      "Ġfound": 3363,
      "Ġà§¨": 3364,
      "Ġà²Ĩà²Ĺ": 3365,
      "àªĤàª¦": 3366,
      "Ġ30": 3367,
      ">>": 3368,
      "Ġcomple": 3369,
      "àµĭà´³": 3370,
      "iron": 3371,
      "à¨Ŀ": 3372,
      "à¬¨à¬¾": 3373,
      "Ġà¦Ĩà¦®à¦¿": 3374,
      "str": 3375,
      "ĠĠĠĠĠĠĠĠĠĠĠĠĠĠĠĠĠĠĠĠĊ": 3376,
      "Ġà¦¨à¦¿à¦ľ": 3377,
      "àŃĭà¬Ĺ": 3378,
      "à¨£à¨¾": 3379,
      "à®¿à®±à¯įà®ķ": 3380,
      "à³įà²Ĺà³Ĩ": 3381,
      "ished": 3382,
      "Ġwater": 3383,
      "Ġà®ħà®Ł": 3384,
      "Ġà¦ħà¦§": 3385,
      "à°¿à°Ĥà°Ĺ": 3386,
      "à¥ĩà¤¸": 3387,
      "Ġàª¡": 3388,
      "Ġpric": 3389,
      "Ġfunction": 3390,
      "à¥ħ": 3391,
      "Ġà¬Ł": 3392,
      "à²¤à²¿": 3393,
      "à¨¨à¨¾": 3394,
      "à°¾à°£": 3395,
      "à®¤à®¾à®ķ": 3396,
      "Ġàªªà«ĭ": 3397,
      "Ġà°ħà°Ĥà°¦": 3398,
      "ĠâĢĵ": 3399,
      "à¯įà®ķà¯įà®ķ": 3400,
      "à±įà°¸à±į": 3401,
      "Ġà°īà°¨à±įà°¨": 3402,
      "à®µà¯ĩ": 3403,
      "à±ģà°¨à±įà°¨à°¾à°°à±ģ": 3404,
      "àª¾àªĩ": 3405,
      "à´¾à´¨àµį": 3406,
      "Ġà¨¦à¨¿à©±": 3407,
      "à²¿à²Ł": 3408,
      "à¤Ĥà¤¬": 3409,
      "àŃĩà¬³": 3410,
      "à¤¾à¤¨à¤¾": 3411,
      "Ġrese": 3412,
      "Ġstand": 3413,
      "Ġcalled": 3414,
      "à²°à³Ĥ": 3415,
      "Ġà²ķà³Ĭ": 3416,
      "Ġeconom": 3417,
      "à¥Ĥà¤°": 3418,
      "à¥ģà¤ĸ": 3419,
      "Ġexample": 3420,
      "ĠHow": 3421,
      "Ġway": 3422,
      "oci": 3423,
      "Ġ)": 3424,
      "Ġà¦¬à§įà¦¯": 3425,
      "Ġ199": 3426,
      "cur": 3427,
      "à«įàª²": 3428,
      "Ġàªķàª¹": 3429,
      "iven": 3430,
      "à§įà¦¯à§ĩ": 3431,
      "à§ģà¦Ł": 3432,
      "à°¿à°Ĥà°ļà°¾à°°à±ģ": 3433,
      "Ġà²ľà²¨": 3434,
      "à§ģà¦ķà§įà¦¤": 3435,
      "vent": 3436,
      "à°¡à°Ĥ": 3437,
      "à¯ģà®ķà®³": 3438,
      "à¤¸à¥Ģ": 3439,
      "à°¾à°°à°Ĥ": 3440,
      "à®¤à¯įà®¤à¯Ī": 3441,
      "Ġrate": 3442,
      "à²ĥ": 3443,
      "à§°à¦¿": 3444,
      "Ġfam": 3445,
      "Ġà®ªà®¾à®°": 3446,
      "Ġ11": 3447,
      "à¦¾à§±": 3448,
      "à¯Īà®ļ": 3449,
      "à²¿à²¸à²¿": 3450,
      "Ġserv": 3451,
      "à°¿à°·": 3452,
      "Ġrequ": 3453,
      "Ġà°ķà°²": 3454,
      "Ġà¨¤à©ģ": 3455,
      "ivid": 3456,
      "Ġboth": 3457,
      "àŃĩà¬ķ": 3458,
      "Ġà¨ĩà¨ķ": 3459,
      "Ġà¬°à¬¹": 3460,
      "à®¿à®¤à¯įà®¤à¯ģ": 3461,
      "à±ģà°®": 3462,
      "Ġà¦ħà¦¸à¦®": 3463,
      "Ġàª¤à«ĩàª": 3464,
      "ather": 3465,
      "Ġlead": 3466,
      "àª¾àªĸ": 3467,
      "à°¨à±ĩ": 3468,
      "Ġà´¸àµįà´µ": 3469,
      "à±ģà°ķà±ģ": 3470,
      "à²¤à³įà²¯": 3471,
      "ĠAr": 3472,
      "Ġvery": 3473,
      "Ġà¤¸à¤¾à¤¥": 3474,
      "à¦¨à¦¿": 3475,
      "Ġà²«": 3476,
      "à±ģà°¡": 3477,
      "à±Į": 3478,
      "Ġop": 3479,
      "Ġmem": 3480,
      "Ġpartic": 3481,
      "Ġfil": 3482,
      "Ġgrow": 3483,
      "ience": 3484,
      "Ġà®µà¯Ģ": 3485,
      "à³ģà²¦à³ģ": 3486,
      "Ġà´ı": 3487,
      "à¦ķà¦¾à¦°": 3488,
      "à¨¨à©Ģ": 3489,
      "Ġthree": 3490,
      "from": 3491,
      "Ġca": 3492,
      "Ġmuch": 3493,
      "à®µà¯ģà®®à¯į": 3494,
      "Ġlist": 3495,
      "Ġlook": 3496,
      "Ġpoint": 3497,
      "à²µà²¾à²¦": 3498,
      "alse": 3499,
      "ute": 3500,
      "à§ĭà¦²": 3501,
      "for": 3502,
      "Ġinf": 3503,
      "Ġà¤¸à¥ģà¤°": 3504,
      "Ġiss": 3505,
      "Ġà¤¨à¤¿": 3506,
      "air": 3507,
      "à¥ģà¤ª": 3508,
      "li": 3509,
      "à¨¾à¨ķ": 3510,
      "à´¾à´ķ": 3511,
      "à§ĭà¦°": 3512,
      "Ġà¬īà¬ª": 3513,
      "à´¿à´¨àµĨ": 3514,
      "Ġà°ķà±Ĥà°¡à°¾": 3515,
      "à²Łà³į": 3516,
      "àµģà´£àµįà´Łàµį": 3517,
      "Ġ``": 3518,
      "à®¿à®°à¯ģà®ķà¯įà®ķ": 3519,
      "Ġàª¹àª¤à«Ģ": 3520,
      "à¤µà¤¾": 3521,
      "àŃĭà¬ķ": 3522,
      "Ġà²®à³ĩ": 3523,
      "Ġhand": 3524,
      "à²¬à³įà²¬": 3525,
      "Ġrisk": 3526,
      "man": 3527,
      "àª¾àª¡": 3528,
      "à´²àµį": 3529,
      "Ġà²Ł": 3530,
      "Ġà°²à±ĭ": 3531,
      "Ġav": 3532,
      "Ġown": 3533,
      "Ġàª¹àª¤àª¾": 3534,
      "to": 3535,
      "à²¿à²³": 3536,
      "ters": 3537,
      "Ġà¬«": 3538,
      "à®¿à®¨à¯įà®¤": 3539,
      "Ġstart": 3540,
      "Ġà¦¬à¦¿à¦·": 3541,
      "Ġcre": 3542,
      "Ġà¤¹à¥ĩ": 3543,
      "à©±à¨¸": 3544,
      "Ġà®ħà®±": 3545,
      "à±ģà°¦": 3546,
      "à¥ģà¤³à¥ĩ": 3547,
      "àª²à«Ģ": 3548,
      "tp": 3549,
      "à²¤à³įà²°": 3550,
      "Ġà®ľ": 3551,
      "à®Łà®¿": 3552,
      "à¦¿à¦·": 3553,
      "Ġà¤®à¥įà¤¹à¤£": 3554,
      "Ġà¬¹àŃĩà¬¬": 3555,
      "Ġà¤Ľ": 3556,
      "Ġà²µà³įà²¯": 3557,
      "Ġà¦²à¦¾à¦Ĺ": 3558,
      "meric": 3559,
      "àŃģà¬²": 3560,
      "Ġterm": 3561,
      "à³Ĩà²¯à²²à³įà²²à²¿": 3562,
      "à´¾à´³": 3563,
      "à©°à¨®": 3564,
      "à¤¾à¤¯à¤¾": 3565,
      "à¬ķà¬¾à¬°": 3566,
      "Ļàµįà´Ļ": 3567,
      "gram": 3568,
      "Ġà®ªà®¯": 3569,
      "Ġà´µàµĢ": 3570,
      "à«Ģàªı": 3571,
      "Ġmarket": 3572,
      "ulation": 3573,
      "à¤¿à¤Ł": 3574,
      "à¨¾à¨°à©ĩ": 3575,
      "Ġprovid": 3576,
      "à±įà°Ĺ": 3577,
      "à°Ĥà°ª": 3578,
      "Ġà®ħà®©": 3579,
      "à¨¾à¨°à©Ģ": 3580,
      "Ġcap": 3581,
      "à°²à±įà°²": 3582,
      "à°¿à°Ĥà°ļà°¿": 3583,
      "Ġà¨¯": 3584,
      "Ġàª¯": 3585,
      "à¯įà®°": 3586,
      "Ġà®ªà®²": 3587,
      "à´¤àµįà´¤à´¿àµ½": 3588,
      "Ġpay": 3589,
      "à´ķà´³": 3590,
      "à¤°à¥įà¤£": 3591,
      "à«įàª°à«Ģ": 3592,
      "à´±à´¿à´¯": 3593,
      "Ġà¦ķà§°à§ĩ": 3594,
      "à²¿à²¡": 3595,
      "Ġà¤¤à¥ĩ": 3596,
      "ially": 3597,
      "Ġdid": 3598,
      "Ġà®ļà¯Ĭ": 3599,
      "gy": 3600,
      "Ġbr": 3601,
      "Ġinformation": 3602,
      "à²ªà³įà²ª": 3603,
      "Ġàª¸àªĤ": 3604,
      "Ġà²¹à³Ĩà²ļà³įà²ļ": 3605,
      "à®ĩ": 3606,
      "à²¾à²¹": 3607,
      "Ġà¨Ĳ": 3608,
      "atch": 3609,
      "à´¿à´ļàµįà´ļàµį": 3610,
      "This": 3611,
      "Ġgood": 3612,
      "Ġà¬¨à¬¿à¬": 3613,
      "à¬¿à¬ģ": 3614,
      "à¦ĥ": 3615,
      "Ġà®µà¯Ĩà®³": 3616,
      "Ġ16": 3617,
      "à²¾à²°à²¿": 3618,
      "Ġà°²à±ĩà°¦": 3619,
      "ving": 3620,
      "à§ĩà¦¹": 3621,
      "à®¿à®¯à®¾à®ķ": 3622,
      "à¦¦à§ĩà¦°": 3623,
      "Ġà°ħà°¯": 3624,
      "à¯ģà®Łà®©à¯į": 3625,
      "az": 3626,
      "àª§à«Ģ": 3627,
      "à³įà²¡": 3628,
      "à´¿à´±": 3629,
      "à²¤à³Ĩ": 3630,
      "à²¿à²¦à³įà²¦à³ģ": 3631,
      "viron": 3632,
      "Ġconf": 3633,
      "Ġà¦ªà§įà¦°à¦¤": 3634,
      "Ġlife": 3635,
      "àª¤àª¿": 3636,
      "Ġà¨§": 3637,
      "ĠEx": 3638,
      "àª¯àª¾": 3639,
      "àª¾àªª": 3640,
      "ĠàŃ§àŃ": 3641,
      "àª¾àª¹": 3642,
      "Ġà¨ķà¨¾à¨°": 3643,
      "Ġàª¨àª¥à«Ģ": 3644,
      "à¤¦à¥Ģ": 3645,
      "à§Ĥà§°": 3646,
      "à©Įà¨°": 3647,
      "Ġà¤¸à¤°à¥įà¤µ": 3648,
      "ries": 3649,
      "Ġà¤¸à¥įà¤¥": 3650,
      "Ġà°ªà±ĭ": 3651,
      "à¥ĭà¤Ł": 3652,
      "Ġ14": 3653,
      "à¦¾à¦¨à§ĩ": 3654,
      "à²¿à²ķà³Ĩ": 3655,
      "à®®à®¿à®´": 3656,
      "Ġà¦¦à§ĩà¦¶": 3657,
      "ale": 3658,
      "Ġprop": 3659,
      "à°¾à°¬": 3660,
      "Ġà¦ķà¦¿": 3661,
      "àª°à«Ĥ": 3662,
      "Ġà®®à¯Ĥ": 3663,
      "à¤¾à¤ļà¥įà¤¯à¤¾": 3664,
      "à¤Ĥà¤¤à¤°": 3665,
      "Ġà¨¤à¨¾à¨Ĥ": 3666,
      "àŃĥà¬¤": 3667,
      "Ġà°®à±Ģ": 3668,
      "à¤¾à¤¡": 3669,
      "à¤¾à¤ı": 3670,
      "à¬¾à¬ı": 3671,
      "Ġà¦¬à¦¾": 3672,
      "Ġimp": 3673,
      "iness": 3674,
      "Ġà´¸à´®": 3675,
      "Ġà¦Ĩà¦¸": 3676,
      "ason": 3677,
      "ames": 3678,
      "à±įà°°à±Ģ": 3679,
      "Ġà²®à²¾à²¤": 3680,
      "Ġà¦Ĩà¦¬": 3681,
      "Ġà²¸à³ģ": 3682,
      "Ġdown": 3683,
      "à±ĭà°ľ": 3684,
      "Ġà¤ķà¤®": 3685,
      "à¦ķà¦¾": 3686,
      "args": 3687,
      "Ġhum": 3688,
      "Ġà®®à¯ģà®¤": 3689,
      "à¤µà¤¿à¤": 3690,
      "à°¿à°ļ": 3691,
      "à³ĩà²°": 3692,
      "Ġvi": 3693,
      "à±ģà°Ĥà°¦": 3694,
      "àª¤à«ĩ": 3695,
      "Ġà®ļà¯Ĩà®¯à¯įà®¯": 3696,
      "Ġà´¨à´¿à´¨àµįà´¨": 3697,
      "à®ķà¯į": 3698,
      "att": 3699,
      "Ġà®ªà¯ĩ": 3700,
      "à¬¡": 3701,
      "Ġ25": 3702,
      "ified": 3703,
      "Ġàªķàª¾àª°": 3704,
      "Ġart": 3705,
      "Ġgr": 3706,
      "à°®à±Īà°¨": 3707,
      "Ġcontin": 3708,
      "à¦¤à§ĭ": 3709,
      "à²Ĥà²Ĺ": 3710,
      "osed": 3711,
      "arge": 3712,
      "à¯ĭà®¤à¯ģ": 3713,
      "Ġà¨Ĩà¨ªà¨£à©ĩ": 3714,
      "amp": 3715,
      "à¦¿à¦Ĥ": 3716,
      "Ġà®¨à®¿à®±": 3717,
      "àªķà«įàª·": 3718,
      "à¬¿à¬¸": 3719,
      "à®²à¯Ī": 3720,
      "à¥ĥà¤¤": 3721,
      "Ġà¦¨à¦¾à¦®": 3722,
      "Ġlevel": 3723,
      "Ġà¨ķà¨¿à¨¸": 3724,
      "ĠIs": 3725,
      "Ġ13": 3726,
      "Ġà¤µà¤¹": 3727,
      "àŃįà¬ķ": 3728,
      "à¤£à¥ĩ": 3729,
      "Ġtechn": 3730,
      "à¦ķà§įà¦¤": 3731,
      "Ġà°®à±Ĭ": 3732,
      "ness": 3733,
      "à¯įà®¨": 3734,
      "à¦ķà¦¾à§°": 3735,
      "à±ģà°²à±ĭ": 3736,
      "oo": 3737,
      "à³įà²°à³Ģ": 3738,
      "à¤¦à¤¾à¤°": 3739,
      "Ġà°ļà±ĩà°¸à±įà°¤": 3740,
      "Ġà¦Ĩà¦¨": 3741,
      "Ġgroup": 3742,
      "à¤Ĥà¤§": 3743,
      "à¬¾à¬°àŃģ": 3744,
      "à¤¶à¥Ģ": 3745,
      "à§ĩà¦ľ": 3746,
      "ĠAmeric": 3747,
      "à¦¦à§įà¦§": 3748,
      "ury": 3749,
      "Ġval": 3750,
      "à¨¿à¨µ": 3751,
      "Ġlast": 3752,
      "à²ķà³įà²¤": 3753,
      "à°®à±ģ": 3754,
      "ession": 3755,
      "Ġusing": 3756,
      "uss": 3757,
      "à±ģà°Ĥà°Ł": 3758,
      "à®®à®¾à®©": 3759,
      "à¯Īà®ªà¯į": 3760,
      "à¦¿à¦ĵ": 3761,
      "Ġà´ĩà´¤": 3762,
      "Ġtake": 3763,
      "à¯ģà®£": 3764,
      "àµįà´¯à´®": 3765,
      "à¬ŀ": 3766,
      "Ġname": 3767,
      "à°ķà±įà°¤": 3768,
      "Ġà¦¨à¦¾à¦ĩ": 3769,
      "Ġday": 3770,
      "à¦¯à¦¼à§ĩ": 3771,
      "à¯ģà®ķà¯į": 3772,
      "Ġcar": 3773,
      "Ġà¦ķà§įà¦·": 3774,
      "Ġ17": 3775,
      "Ġà°µà°¾à°°": 3776,
      "à¤¿à¤Ĥà¤Ĺ": 3777,
      "Ġdirect": 3778,
      "à²¿à²Ĥà²Ĺ": 3779,
      "ream": 3780,
      "à±ģà°Ł": 3781,
      "à«įàª¸": 3782,
      "Ġ->": 3783,
      "à°¿à°²à±ĭ": 3784,
      "ave": 3785,
      "oh": 3786,
      "Ġincluding": 3787,
      "Ġfund": 3788,
      "à¤£à¤¾à¤°": 3789,
      "Ġread": 3790,
      "à«ĩàª¸": 3791,
      "à¥įà¤°à¤®": 3792,
      "Ġreal": 3793,
      "Ġà¦¦à¦¿à¦¨": 3794,
      "àŃįà¬¨": 3795,
      "à§ĩà¦Ľà§ĩà¦¨": 3796,
      "Ġà°°à±Ĩ": 3797,
      "Ġà²¹à²¾à²Ĺà³Ĥ": 3798,
      "àŃĮ": 3799,
      "Ġposs": 3800,
      "àµĨà´Ļàµįà´ķ": 3801,
      "àŃģà¬¬": 3802,
      "à±Ĥà°ª": 3803,
      "ious": 3804,
      "à´¤àµįà´¤à´¿à´¯": 3805,
      "ancial": 3806,
      "Ġà¨µà¨¾à¨²": 3807,
      "à²²à²¾à²Ĺ": 3808,
      "à°¿à°Ĥà°ļà°¿à°¨": 3809,
      "à¤¾à¤ĸ": 3810,
      "à§Ĥà¦ª": 3811,
      "à¤Ĩ": 3812,
      "à¨¾à¨ª": 3813,
      "à±ģà°Ĺà°¾": 3814,
      "Ġà®®à¯ģà®©": 3815,
      "ĠWe": 3816,
      "Ġà²ħà²µà²°à³ģ": 3817,
      "Ġà¬ķà¬¾à¬°": 3818,
      "ision": 3819,
      "Ġà¤¹à¥ĭà¤¤à¤¾": 3820,
      "ired": 3821,
      "à²³à³ģ": 3822,
      "Ġdistrib": 3823,
      "Ġdi": 3824,
      "Ġà®®à®©": 3825,
      "with": 3826,
      "Ġ_": 3827,
      "àŃĩà¬¨": 3828,
      "Ġsmall": 3829,
      "Ġgl": 3830,
      "Ġà¦ıà¦¬à¦Ĥ": 3831,
      "à´¸àµįà´¥": 3832,
      "Ġgener": 3833,
      "àµĨà´¨àµįà´¨àµģà´Ĥ": 3834,
      "bers": 3835,
      "à¦¿à¦¹": 3836,
      "ised": 3837,
      "à¥įà¤¯à¤¾à¤ļ": 3838,
      "Ġà¤µà¤¿à¤¶": 3839,
      "Ġà¬¸à¬Ĥ": 3840,
      "Ġconst": 3841,
      "Ġà¤¹à¥ĭà¤¤à¥ĩ": 3842,
      "Ġà´ļàµĨà´¯àµįà´¯": 3843,
      "ec": 3844,
      "Ġà¬¬àŃįàŃŁ": 3845,
      "à²¬à²¹": 3846,
      "à²¸à³įà²¥": 3847,
      "à®ķà¯ģà®¤": 3848,
      "Ġà¥§": 3849,
      "àµĮ": 3850,
      "Ġteam": 3851,
      "Ġà¬ķà¬¹": 3852,
      "à°¤à±įà°¯": 3853,
      "à´ªàµįà´ªàµĨà´Ł": 3854,
      "à§ģà¦¹": 3855,
      "Ġà¦¹à§Īà¦Ľà§ĩ": 3856,
      "Ġà¦¬à¦¹": 3857,
      "à±ĩà°·": 3858,
      "à¥ĩà¤³": 3859,
      "à´¨àµįà´¦": 3860,
      "à¤Ńà¥Ģ": 3861,
      "Ġà¦®à§ģà¦ĸ": 3862,
      "à´¯àµģà´ŁàµĨ": 3863,
      "ording": 3864,
      "à´¾à´¤àµįà´°": 3865,
      "Ġocc": 3866,
      "àµįà´¯à´Ĥ": 3867,
      "à¦¿à¦ķà§ĩ": 3868,
      "Ġpower": 3869,
      "à´¤àµįà´¤àµį": 3870,
      "Ġmust": 3871,
      "Ġà²ķà³ģ": 3872,
      "Ġà°īà°Ĥà°Ł": 3873,
      "à¤Ĺà¤¾": 3874,
      "Ġà¦ħà¦¬": 3875,
      "ploy": 3876,
      "Ġà²Ĵà²Ĥà²¦à³ģ": 3877,
      "à¨ħ": 3878,
      "à©°à¨ľ": 3879,
      "à¯įà®ļà®¿": 3880,
      "Ġà¤¬à¤¨": 3881,
      "à¨¿à¨¸à¨¼": 3882,
      "à¬°àŃįà¬¬": 3883,
      "Ġcommun": 3884,
      "Ġà®ķà¯Ĥà®±": 3885,
      "Ġà¨ľà¨¾à¨£": 3886,
      "à³ĭà²¡": 3887,
      "à§Ĥà¦°": 3888,
      "ister": 3889,
      "à©ĩà¨Ĺ": 3890,
      "à¯Īà®¨à¯įà®¤": 3891,
      "ody": 3892,
      "à´¨àµįà´¤àµįà´°": 3893,
      "nce": 3894,
      "à¤ħ": 3895,
      "Ġà¬®à¬¹": 3896,
      "àµģà´¨àµįà´¨à´¤": 3897,
      "Ġà²°à²¾à²ľ": 3898,
      "®à¬¾à¬¨": 3899,
      "Ġà°®à°¾à°°": 3900,
      "à¨²à©Ģ": 3901,
      "à°¿à°²à±įà°²": 3902,
      "à§¨": 3903,
      "Ġfind": 3904,
      "à§ĭà¦Ł": 3905,
      "âĢĵ": 3906,
      "ĠAnd": 3907,
      "ļà°¿": 3908,
      "Ġà²®à³Ĭ": 3909,
      "Ġà´ķà´´": 3910,
      "Ġà¬ľà¬£": 3911,
      "à®©à®¾à®²à¯į": 3912,
      "Ġà®ªà®°": 3913,
      "Ġà´¤àµģà´Ł": 3914,
      "à´¿à´¨àµįà´¨": 3915,
      "à´¾à´ª": 3916,
      "ency": 3917,
      "Ġallow": 3918,
      "Ġà®®à¯Ģ": 3919,
      "à¦¸à§įà¦¤": 3920,
      "à¤ĥ": 3921,
      "Ġà°ħà°§": 3922,
      "Ġà´µà´°": 3923,
      "Ġà°ļà±Ĩà°ªà±įà°ª": 3924,
      "à´¿à´ŀàµįà´ŀ": 3925,
      "rol": 3926,
      "àŃĩà¬ĩ": 3927,
      "à¦¿à¦ĸ": 3928,
      "Ġmain": 3929,
      "Ġà¦¬à¦¾à¦¬à§ĩ": 3930,
      "Ġà²¬à²³": 3931,
      "ĠĠĠĠĠĠĠĠĠĠĠĠĠĠĠĠĠĠĠĠĠĠĊ": 3932,
      "frac": 3933,
      "Ġà®ļà®¿à®±": 3934,
      "Ġà®ħà®°à®ļ": 3935,
      "Ġcase": 3936,
      "à©°à¨¤": 3937,
      "url": 3938,
      "à¯ģà®ķà®¿à®±à®¤à¯ģ": 3939,
      "à¯ģà®ļ": 3940,
      "Ġà®ħà®¤à®¿à®ķ": 3941,
      "ŀàµįà´ļ": 3942,
      "Ġlo": 3943,
      "ĠRes": 3944,
      "à±ģà°¨à±ģ": 3945,
      "iqu": 3946,
      "Ġà¬¤à¬¾à¬ĻàŃįà¬ķ": 3947,
      "à²¿à²·": 3948,
      "Ġà²ķà³Ĩà²²": 3949,
      "à´µà´°": 3950,
      "Ġà¨¬à¨£": 3951,
      "à´ªàµįà´ªàµĨà´Łàµįà´Ł": 3952,
      "Ġgiven": 3953,
      "Ġà¤ľà¤¿à¤¸": 3954,
      "Ġà´®àµģà´": 3955,
      "Ġà¦¯à¦¾à¦¯à¦¼": 3956,
      "à¦ĺ": 3957,
      "Ġà®ķà¯ĩ": 3958,
      "angu": 3959,
      "Ġperson": 3960,
      "Ġà¦ķà¦®": 3961,
      "Ġ$": 3962,
      "ination": 3963,
      "àª°à«ĩ": 3964,
      "Ġke": 3965,
      "à§įà¦ŀ": 3966,
      "à²¿à²¤à³įà²¤à³ģ": 3967,
      "Ġproduct": 3968,
      "Ġaround": 3969,
      "à¥Ģà¤µ": 3970,
      "à«įàªª": 3971,
      "à²¡à³ģ": 3972,
      "Ġàª®à«ģ": 3973,
      "ĠThey": 3974,
      "ains": 3975,
      "à´®àµįà´ª": 3976,
      "ran": 3977,
      "Ġà²ĸ": 3978,
      "à¨¾à¨Ĺ": 3979,
      "à²¿à²¤à³ģ": 3980,
      "Ġà¬ªàŃįà¬°à¬¤": 3981,
      "à®¿à®²à¯įà®²à¯Ī": 3982,
      "àŃĩà¬īà¬": 3983,
      "iod": 3984,
      "Ġà¤Ĳ": 3985,
      "à«Ī": 3986,
      "à¥ĭà¤ª": 3987,
      "Ġexper": 3988,
      "Ġà¨ķà©Ģà¨¤à©Ģ": 3989,
      "Ġpass": 3990,
      "à©ĩà¨¸à¨¼": 3991,
      "à°ķà°¿": 3992,
      "Ġà°ħà°¨à±įà°¨": 3993,
      "Ġann": 3994,
      "àª¸à«įàª¤": 3995,
      "Ġx": 3996,
      "à¨°à¨¾": 3997,
      "à¦¾à¦Ļ": 3998,
      "à¯ĩà®©à¯į": 3999,
      "à§ģà¦ĩ": 4000,
      "à¨®à©Ģ": 4001,
      "à¬¾à¬¹à¬¿à¬ģ": 4002,
      "Ġimportant": 4003,
      "ty": 4004,
      "à²¸à³įà²¤": 4005,
      "Ġà¦¬à¦¿à¦Ń": 4006,
      "Ġà¤ķà¤¹à¤¾": 4007,
      "à¤¾à¤¤à¥įà¤°": 4008,
      "à¯Īà®ķà¯į": 4009,
      "à²¬à³ĩà²ķà³ģ": 4010,
      "Ġà¤¸à¤°à¤ķà¤¾à¤°": 4011,
      "Ġer": 4012,
      "à¥ĭà¤°": 4013,
      "Ġà§°à¦¾à¦ľ": 4014,
      "way": 4015,
      "àµįà´£": 4016,
      "à²Ĺà²³à²²à³įà²²à²¿": 4017,
      "Ġ50": 4018,
      "An": 4019,
      "Ġschool": 4020,
      "à¬¿à¬³": 4021,
      "à²¿à²¦à³įà²¦à²°à³ģ": 4022,
      "val": 4023,
      "Ġà¤ķà¤¾à¤®": 4024,
      "ek": 4025,
      "inal": 4026,
      "Ġà¨¸à©ģ": 4027,
      "Ġà®ĩà®Ł": 4028,
      "class": 4029,
      "Ġsecond": 4030,
      "ya": 4031,
      "à¨¾à¨ħ": 4032,
      "Ġclass": 4033,
      "à§ĩà¦Ľà¦¿à¦²": 4034,
      "arn": 4035,
      "Ġà²ħà²§": 4036,
      "àµįà´°àµĢ": 4037,
      "Ġà´ªà´±à´ŀàµįà´ŀ": 4038,
      "Ġinc": 4039,
      "Ġcour": 4040,
      "à¬¿à¬°àŃĩ": 4041,
      "Ġpri": 4042,
      "Ġà¤¸à¤¾à¤®": 4043,
      "ĠàŃ¨": 4044,
      "à¦¤à§įà¦¯": 4045,
      "à´¨àµįà´±": 4046,
      "à°¾à°·": 4047,
      "àµĨà´¯àµģà´Ĥ": 4048,
      "ĠBut": 4049,
      "itive": 4050,
      "à¤¾à¤ļà¥Ģ": 4051,
      "Ġsupport": 4052,
      "Ġà¦ıà¦Łà¦¾": 4053,
      "opt": 4054,
      "Ġà¦ļà¦²": 4055,
      "Ġà¦ıà¦ĸà¦¨": 4056,
      "Ġàª®àª¹": 4057,
      "ma": 4058,
      "Ġmethod": 4059,
      "à®¤à®¿": 4060,
      "ann": 4061,
      "Ġoften": 4062,
      "ull": 4063,
      "à§ĭà§±à¦¾à§°": 4064,
      "eg": 4065,
      "àŃģà¬£": 4066,
      "Ġà¦ķà§ĭà¦¨à§ĭ": 4067,
      "à¬ĻàŃįà¬Ĺ": 4068,
      "à²Ĥà²¦à³įà²°": 4069,
      "Ġà´Ĩà´°": 4070,
      "Ġconsid": 4071,
      "********": 4072,
      "Ġsol": 4073,
      "Ġà¦¨à¦¿à¦°": 4074,
      "à¯Īà®¯à¯Ī": 4075,
      "ety": 4076,
      "Ġà¦Ĩà¦ľ": 4077,
      "Ġ100": 4078,
      "à²¡à³Ĩà²¯": 4079,
      "default": 4080,
      "Ġà¦ł": 4081,
      "Ġbus": 4082,
      "à´¾àµ½": 4083,
      "à¥įà¤¯à¤¾à¤¨": 4084,
      "Ġà¬ķà¬°à¬¿à¬¬": 4085,
      "Ġà¦ķà¦¿à¦Ľ": 4086,
      "à§įà¦°à§Ģ": 4087,
      "Ġcountry": 4088,
      "à±įà°¬": 4089,
      "à²¨à³Ĩà²¯": 4090,
      "ĠCl": 4091,
      "à¤·à¥įà¤Ł": 4092,
      "Ġà²Ĩà²¦à²°à³Ĩ": 4093,
      "Ġarg": 4094,
      "à©±à¨Ł": 4095,
      "à§ĩà§±": 4096,
      "onse": 4097,
      "à¬¾à¬¶": 4098,
      "à®ķà®°": 4099,
      "à¦¾à¦Ń": 4100,
      "à§ĭà¦§": 4101,
      "els": 4102,
      "à³Ĭà²Ĥà²¦": 4103,
      "Ġpos": 4104,
      "Ġà¤¹à¤®": 4105,
      "Ġà²¸à³įà²¥": 4106,
      "Ġstill": 4107,
      "Ġà¨²à©ĭà¨ķ": 4108,
      "à²£à³įà²£": 4109,
      "àªľà«Ģ": 4110,
      "Ġà®ķà®°": 4111,
      "Ġà¨®à¨¹": 4112,
      "à²¿à²ľ": 4113,
      "à²¦à³įà²¦": 4114,
      "à©±à¨Ĺ": 4115,
      "Ġpolic": 4116,
      "Ġà¬ıà¬¬à¬Ĥ": 4117,
      "à®¤à®¿à®°": 4118,
      "à²¿à²¸à³ģà²µ": 4119,
      "Ġà²İà²Ĥà²¬": 4120,
      "Ġproble": 4121,
      "Ġpat": 4122,
      "à¤£à¥Ģ": 4123,
      "à¨Łà¨°": 4124,
      "Ġà¤¯à¤¾à¤Ĥà¤¨à¥Ģ": 4125,
      "Ġà¦¤à¦¿à¦¨à¦¿": 4126,
      "Ġà°§": 4127,
      "à§įà¦¸": 4128,
      "Ġexpl": 4129,
      "Ġà²Ĩà²°": 4130,
      "àª¡à«Ģ": 4131,
      "ves": 4132,
      "ross": 4133,
      "à´®à´¾à´¯à´¿": 4134,
      "à±įà°Łà±įà°°": 4135,
      "ertain": 4136,
      "Ġà²¸à³įà²µ": 4137,
      "àª¾àª¨à«ĩ": 4138,
      "Ġà®ĵ": 4139,
      "à°¿à°Ĥà°Ĺà±į": 4140,
      "¢à¦¼": 4141,
      "Ġà²¨à²¡à³Ĩ": 4142,
      "Ġà°¤à±Ģà°¸": 4143,
      "à²¿à²¯à²²à³įà²²à²¿": 4144,
      "Ġtem": 4145,
      "ĠSc": 4146,
      "akes": 4147,
      "Ġàªµàª§": 4148,
      "à¤¾à¤·à¥įà¤Ł": 4149,
      "à¬¾à¬§": 4150,
      "à´¯àµįà´ķàµįà´ķ": 4151,
      "Ġ*": 4152,
      "à§ĩà¦ª": 4153,
      "Ġà®¤à®©": 4154,
      "Ġà¨ķà¨¿à¨¹à¨¾": 4155,
      "à´¤àµįà´¤à´¿à´²àµį": 4156,
      "à¯Ĥà®°": 4157,
      "Ġactiv": 4158,
      "à¤¿à¤ª": 4159,
      "à±ĩà°²": 4160,
      "outh": 4161,
      "àª°à«ĭ": 4162,
      "Ġelect": 4163,
      "à¤°à¤¾": 4164,
      "Ġà¦¸à¦¹": 4165,
      "Ġà¨¸à¨¨": 4166,
      "Ġà®¤à®²": 4167,
      "Ġà®¤à®®à®¿à®´": 4168,
      "sc": 4169,
      "à±ĩà°Ĥà°¦": 4170,
      "Ġredu": 4171,
      "Ġorgan": 4172,
      "à®£à¯įà®Łà¯ģ": 4173,
      "Ġàªĵ": 4174,
      "à¨ķà©ĩ": 4175,
      "Ġà¬ķà¬°à¬¿": 4176,
      "à´¿à´¯àµģà´ŁàµĨ": 4177,
      "\"]": 4178,
      "à¦¨à§ĩà¦°": 4179,
      "à°Ĥà°ķ": 4180,
      "à¤°à¥įà¤¤": 4181,
      "à´¨àµįà´±àµĨ": 4182,
      "sh": 4183,
      "Ġà¦ķà§ĩà¦¨": 4184,
      "Ġpercent": 4185,
      "à¤¿à¤ľ": 4186,
      "Ġà®ªà®¤": 4187,
      "à²¾à²¶": 4188,
      "à¦Łà§ĭ": 4189,
      "atic": 4190,
      "gg": 4191,
      "ĵà¤Ĥ": 4192,
      "Ġà¦¸à¦¬": 4193,
      "ĠGo": 4194,
      "ĠZ": 4195,
      "omen": 4196,
      "Ġlim": 4197,
      "Ġà´¸à´Ĥ": 4198,
      "à´¿à´²àµĩ": 4199,
      "à©°à¨¦à¨°": 4200,
      "Ġlaw": 4201,
      "à¤Ĥà¤¤à¥įà¤°": 4202,
      "Ġà°¤à°¨": 4203,
      "àª£à«ĩ": 4204,
      "Ġobject": 4205,
      "Ġà®µà®¾à®": 4206,
      "Ġà¦ķà¦°à¦¾": 4207,
      "à«ĩàª²àª¾": 4208,
      "Er": 4209,
      "lished": 4210,
      "à²µà²°à³ģ": 4211,
      "Ġà´µàµįà´¯": 4212,
      "à¤¾à¤Ĥà¤¤": 4213,
      "Ġmeas": 4214,
      "Ġà¤¥à¥Ģ": 4215,
      "à®ħ": 4216,
      "Ġprogram": 4217,
      "à¯Ģà®°": 4218,
      "à¬·àŃįà¬Ł": 4219,
      "Ġà´ķàµįà´": 4220,
      "Ġà¦ķà§ĭ": 4221,
      "à´£àµįà´Łàµį": 4222,
      "ium": 4223,
      "à²¾à²³": 4224,
      "à°¿à°ľ": 4225,
      "à´¨àµįà´§": 4226,
      "Ġà¤¬à¤¾à¤¦": 4227,
      "Ġà®µà¯ĩà®£à¯įà®Łà¯ģà®®à¯į": 4228,
      "à°¿à°¦": 4229,
      "à¤¾à¤ļà¤¾": 4230,
      "ĠHowever": 4231,
      "à°Ĥà°¬": 4232,
      "Ġà°µà°ļà±įà°ļ": 4233,
      "à¬¾à¬¨àŃįà¬¤": 4234,
      "))": 4235,
      "à®¤à®±à¯įà®ķ": 4236,
      "Ġoper": 4237,
      "Ġinfl": 4238,
      "Ġà¦ĩà¦¯à¦¼": 4239,
      "àª¾àª¥à«Ģ": 4240,
      "Ġà®İà®©à¯įà®©": 4241,
      "Ġà¤¦à¥įà¤µ": 4242,
      "Ġopen": 4243,
      "Ġà¦Ĩà§°": 4244,
      "Ġàª®à«ĭ": 4245,
      "à³Ģà²°": 4246,
      "Ġà¤īà¤¨à¥įà¤¹": 4247,
      "ech": 4248,
      "Ġà´¤à´¿à´°": 4249,
      "à¤¾à¤µà¤°": 4250,
      "Ġsk": 4251,
      "à¯įà®ªà¯įà®ª": 4252,
      "py": 4253,
      "à°¡à±įà°¡": 4254,
      "stand": 4255,
      "ĠĠĠĠĠĠĠĠĠĠĠĠĠĠĠĠĠĠĠĠĠĠ": 4256,
      "à¤¾à¤¨à¥Ģ": 4257,
      "Ġà´ļàµĨà´¯àµįà´¤": 4258,
      "Ġà¦ķà¦²": 4259,
      "Ġà®ªà¯Ĩà®°": 4260,
      "à«įàª¯àª¾àª°à«ĩ": 4261,
      "Ġà¤¹à¥ĭà¤¤à¥Ģ": 4262,
      "à©ģà¨°à©Ĥ": 4263,
      "à¬¯": 4264,
      "à²¿à²ª": 4265,
      "à´¾à´Ĺ": 4266,
      "Ġhist": 4267,
      "à°¿à°Ĥà°¦": 4268,
      "Ġà¦ķà¦¾à¦°": 4269,
      "à´³àµįà´³": 4270,
      "Ġà²İà²²à³įà²²": 4271,
      "Ġà¦īà¦ł": 4272,
      "à°°à±įà°µ": 4273,
      "ĠAd": 4274,
      "à³įà²°à³Ĩ": 4275,
      "Ġà¤²à¤¾à¤Ĺ": 4276,
      "itions": 4277,
      "à¤¦à¥ĩà¤¶": 4278,
      "mit": 4279,
      "right": 4280,
      "ĠMin": 4281,
      "àŃĭà¬Ł": 4282,
      "Ġà²Ńà²¾à²°": 4283,
      "mon": 4284,
      "Ġtreat": 4285,
      "à¬°à¬¿": 4286,
      "Ġgu": 4287,
      "à«ĩàª¨": 4288,
      "àª¯à«ĭ": 4289,
      "Ġà°ļà±ĩà°¶": 4290,
      "à§įà¦Ľ": 4291,
      "Ġà¤¤à¤ķ": 4292,
      "Error": 4293,
      "à²¨à³ĩ": 4294,
      "Ġà¦Ńà¦¾à¦²": 4295,
      "ĠàªĨàªµà«Ģ": 4296,
      "Ġà¤ħà¤ªà¤¨à¥ĩ": 4297,
      "à±ĭà°¯": 4298,
      "à¤¡à¥ĩ": 4299,
      "Ġà°ľà°°": 4300,
      "Ġà¨Ľ": 4301,
      "à¤¾à¤Ĥà¤¨à¤¾": 4302,
      "Ġknown": 4303,
      "ajor": 4304,
      "à®¤à¯Ī": 4305,
      "Ġà®ªà®¾à®¤": 4306,
      "à´Ĥà´Ĺ": 4307,
      "Ġà¦Ĩà¦¦": 4308,
      "Ġmillion": 4309,
      "Ġà®ħà®¨à¯įà®¤": 4310,
      "Ġà¦ľà§Ģ": 4311,
      "Ġà¤®à¤¿à¤²": 4312,
      "Ġless": 4313,
      "à¤°à¥įà¤¥": 4314,
      "à²¿à²Ĺà²³à³ģ": 4315,
      "vironment": 4316,
      "pre": 4317,
      "à¥ĩà¤¡": 4318,
      "Ġland": 4319,
      "Ġ&": 4320,
      "à²£à³Ĩ": 4321,
      "Ġtype": 4322,
      "à³ĭà²Ł": 4323,
      "Ġà¦¬à§ģà¦²à¦¿": 4324,
      "à¦¬à§ĭà§°": 4325,
      "oney": 4326,
      "iversity": 4327,
      "à²µà³Ĩ": 4328,
      "Ġà¤ķà¥įà¤·": 4329,
      "Ġpublic": 4330,
      "Ġtyp": 4331,
      "Ġà¦¤à¦¾à§°": 4332,
      "à¨¾à¨īà¨£": 4333,
      "eter": 4334,
      "Ġà¨ħà¨¸": 4335,
      "à¥ĩà¤ľ": 4336,
      "Ġcurrent": 4337,
      "Ġà¦¹à¦¬à§ĩ": 4338,
      "Ġleg": 4339,
      "Ġà°Ĺà±ģà°°": 4340,
      "ization": 4341,
      "ternational": 4342,
      "eb": 4343,
      "Ġwant": 4344,
      "à¨¿à©°": 4345,
      "à®¾à®°à®£": 4346,
      "Ġà®ķà®¾à®²": 4347,
      "ĠAct": 4348,
      "à¦¾à§°à¦¤": 4349,
      "Ġpur": 4350,
      "ior": 4351,
      "Ġtrad": 4352,
      "Ġ_{": 4353,
      "Ġà²ħà²¨": 4354,
      "ĠThere": 4355,
      "à«Ģàªĵ": 4356,
      "ina": 4357,
      "Ġà¦¹à¦ĩ": 4358,
      "Ġàªħàª®": 4359,
      "ained": 4360,
      "Ġsince": 4361,
      "Ġrequest": 4362,
      "Ġà¦īà¦¦": 4363,
      "à¤µà¥įà¤¹": 4364,
      "Ġcommon": 4365,
      "Ġeduc": 4366,
      "Ġà®īà®£": 4367,
      "à¨Łà©Ģ": 4368,
      "uro": 4369,
      "à¤¤à¤¾à¤¤": 4370,
      "Ġà¨¦à©ģ": 4371,
      "Ġà¤¦à¤¿à¤¯à¤¾": 4372,
      "Ġà¨¬à¨¹à©ģ": 4373,
      "Ġcle": 4374,
      "à¦¿à¦ķà§įà¦·": 4375,
      "à§°à¦¾": 4376,
      "ŀà¯įà®ļ": 4377,
      "Ġcare": 4378,
      "ify": 4379,
      "Ġchang": 4380,
      "[\"": 4381,
      "à§Ĥà¦²": 4382,
      "ission": 4383,
      "Ġà¦®à¦§": 4384,
      "Ġà´ķàµĩ": 4385,
      "SE": 4386,
      "àª¤àª¾àªĤ": 4387,
      "Ġà²µà²°à³įà²": 4388,
      "ds": 4389,
      "line": 4390,
      "à¬¿à¬ı": 4391,
      "Ġà¦¬à¦¿à¦¶à§įà¦¬": 4392,
      ".,": 4393,
      "ĠUnited": 4394,
      "à²Ĥà²Ł": 4395,
      "à²¿à²ķà³Ĭà²Ĥà²¡": 4396,
      "ĠX": 4397,
      "à²¦à²¿à²Ĥà²¦": 4398,
      "àµĢà´µ": 4399,
      "à©°à¨¡": 4400,
      "Ġà²ĩà²¦à³ģ": 4401,
      ":`": 4402,
      "à°¯à°Ĥ": 4403,
      "ception": 4404,
      "Ġà¦ľà¦¨à§įà¦¯": 4405,
      "Ġwithout": 4406,
      "à§ģà¦ľ": 4407,
      "à°¾à°²à°¨à°¿": 4408,
      "à°¾à°¹": 4409,
      "à§ĭà¦ª": 4410,
      "à¨²à¨¾": 4411,
      "Ġà®Ĩà®ķ": 4412,
      "Ġmonth": 4413,
      "à°¸à±į": 4414,
      "à®¿à®±à®¤à¯ģ": 4415,
      "à²Ĥà²¤à²°": 4416,
      "Ġà®ħà®µà®°à¯į": 4417,
      "Ġà²¯à²¾à²µ": 4418,
      "Ġà°ĵ": 4419,
      "Ġaff": 4420,
      "àŃįà¬¸": 4421,
      "à¦ªà§įà¦°": 4422,
      "à¯ĭà®¤": 4423,
      "Ġà®īà®Ł": 4424,
      "Ġpresent": 4425,
      "àŃįà¬Ń": 4426,
      "Ġà¨¸à©°à¨": 4427,
      "}\\": 4428,
      "àµº": 4429,
      "àª¹à«Ģ": 4430,
      "Ġperiod": 4431,
      "Ġstandard": 4432,
      "Ġbo": 4433,
      "ential": 4434,
      "à±Ģà°²": 4435,
      "à±ģà°Ĥà°ļà°¿": 4436,
      "à¬°àŃįà¬·": 4437,
      "à°¿à°¤à±ĩ": 4438,
      "ately": 4439,
      "Ġàª¤à«ĭ": 4440,
      "à¥ģà¤¤": 4441,
      "Ġà¨µà¨°": 4442,
      "à¤®à¤§à¥įà¤¯à¥ĩ": 4443,
      "Ġà°ªà±įà°°à°Ń": 4444,
      "à°³à±įà°²": 4445,
      "Ġà¤īà¤¤": 4446,
      "Ġà¦²à§ĭà¦ķ": 4447,
      "18": 4448,
      "à¦ī": 4449,
      "à¬¿à¬®": 4450,
      "à¦¾à¦·": 4451,
      "à¤Ĺà¥Ģ": 4452,
      "Ġoffic": 4453,
      "Ġwrit": 4454,
      "à¯ģà®²": 4455,
      "Ġmult": 4456,
      "à©ĭà¨°": 4457,
      "à«ģàª°": 4458,
      "àŃĢàŃŁ": 4459,
      "à¯ģà®ķà®³à¯į": 4460,
      "à®Ļà¯įà®ķà®³à®¿à®²à¯į": 4461,
      "uthor": 4462,
      "Ġchildren": 4463,
      "Ġà®¤à¯Ĭà®Łà®°": 4464,
      "ead": 4465,
      "Ġà¦¹à¦¯à¦¼à§ĩ": 4466,
      "ram": 4467,
      "à¤ķà¥įà¤¤": 4468,
      "Ġà¤®à¤¿à¤": 4469,
      "à²³à³Ĩ": 4470,
      "Ġà´µàµĨ": 4471,
      "à©±à¨§": 4472,
      "Ġaccount": 4473,
      "inc": 4474,
      "Ġà¦ļà§°": 4475,
      "Ġàªµàª°à«įàª": 4476,
      "Ġfore": 4477,
      "à«įàªķ": 4478,
      "à¤¸à¤¾": 4479,
      "à¯Ĩà®©": 4480,
      "à±įà°¯à°Ĥ": 4481,
      "ality": 4482,
      "à´¤àµįà´¤à´¿à´¨àµįà´±àµĨ": 4483,
      "àµįà´¤àµįà´¤": 4484,
      "à¤Ĺà¤°": 4485,
      "à°µà°°": 4486,
      "Ġcell": 4487,
      "orld": 4488,
      "à¤®à¥ĩà¤Ĥ": 4489,
      "à´¯àµģà´Ĥ": 4490,
      "oint": 4491,
      "à²¿à²¸à²²à³ģ": 4492,
      "ived": 4493,
      "à¥įà¤¯à¤µ": 4494,
      "Ġfinancial": 4495,
      ",âĢĿ": 4496,
      "àª¾àªĵ": 4497,
      "ĠWh": 4498,
      "Ġà²¦à²¿à²¨": 4499,
      "por": 4500,
      "ĠCent": 4501,
      "à´¿à´±àµįà´±": 4502,
      "Ġà¦¸à§įà¦¥": 4503,
      "à³Ģà²µ": 4504,
      "Ġà¬Ĩà¬¸": 4505,
      "Ġà¦¸à¦ķ": 4506,
      "à¯ģà®´": 4507,
      "Ġgreat": 4508,
      "redit": 4509,
      "ke": 4510,
      "à®¸à¯į": 4511,
      "It": 4512,
      "à¤Ĥà¤ª": 4513,
      "Ġàª®àª³": 4514,
      "Ġplace": 4515,
      "à±įà°³": 4516,
      "Ġfew": 4517,
      "à°Ĥà°§": 4518,
      "Ġà®µà®¿à®Ł": 4519,
      "Ġà¦®à¦¨": 4520,
      "Ġfut": 4521,
      "Ġà¤¸à¥ĭ": 4522,
      "àªķàª¾àª°": 4523,
      "ĠĠĠĠĠĠĠĠĠĠĠĠĠĠĠĠĠĠĠĠĠĠĠĠ": 4524,
      "ĠPh": 4525,
      "tle": 4526,
      "à±ĩà°®": 4527,
      "Ġà¤¯à¥ĩ": 4528,
      "Ġà´¤à´¨àµįà´¨": 4529,
      "ccess": 4530,
      "version": 4531,
      "Ġà¬¦àŃĩà¬ĸ": 4532,
      "à§°à§°": 4533,
      "Ġnon": 4534,
      "Ġà¤Ĩà¤¯": 4535,
      "Ġà¤²à¥ĭà¤Ĺ": 4536,
      "hi": 4537,
      "ouse": 4538,
      "à±Ĩà°Ł": 4539,
      "Ġà®ıà®±à¯įà®ª": 4540,
      "à²¬à²¹à³ģà²¦à³ģ": 4541,
      "à¦ħ": 4542,
      "à±ģà°ļ": 4543,
      "Ġà¦Ĩà¦ķ": 4544,
      "à®¾à®°à¯įà®ķà®³à¯į": 4545,
      "Ġà¬ħà¬§": 4546,
      "à¤¤à¥ĭ": 4547,
      "Ġà®ªà®£": 4548,
      "Ġà´ķàµĤà´Ł": 4549,
      "Ġà´ħà´Ł": 4550,
      "Ġà´ħà´¨": 4551,
      "à´Ļàµįà´Ļà´³àµį": 4552,
      "à¨¾à¨¡": 4553,
      "Ġlangu": 4554,
      "Ġhere": 4555,
      "àµģà´ķàµ¾": 4556,
      "Ġstudy": 4557,
      "Ġà²®à³Ĥà²²": 4558,
      "50": 4559,
      "à°¾à°¶": 4560,
      "à²°à²¿à²Ĥà²¦": 4561,
      "à®¾à®³à¯į": 4562,
      "Ġà°¤à±Ģà°¸à±ģà°ķ": 4563,
      "à´®à´¾à´£àµį": 4564,
      "itional": 4565,
      "âģł": 4566,
      "Ġsom": 4567,
      "Ġben": 4568,
      "Ġrece": 4569,
      "Ġà¬Ľ": 4570,
      "Ġà¦Ĩà¦Ľà¦¿à¦²": 4571,
      "Ġà¨¨à¨¾": 4572,
      "Ġà¤¦à¥ĩà¤ĸ": 4573,
      "Ġà¨ľà¨¿à¨¸": 4574,
      "Ġà¦¸à¦Ń": 4575,
      "Ġà¤®à¥ĩ": 4576,
      "à®²à¯įà®µ": 4577,
      "Ġà¦¯à¦¦": 4578,
      "àµįà´¨": 4579,
      "à®²à®ķ": 4580,
      "unc": 4581,
      "ĠEng": 4582,
      "Ġà¨Ĺà¨Ī": 4583,
      "à°ªà±įà°ªà±ģà°¡à±ģ": 4584,
      "à²·à³įà²Łà³ģ": 4585,
      "Ġà¤ķà¤¿à¤¸": 4586,
      "Ġfour": 4587,
      "Ġà°ħà°¨à°¿": 4588,
      "à°Łà°¿": 4589,
      "à©Ģà¨ľ": 4590,
      "med": 4591,
      "à²«": 4592,
      "à²¦à²²": 4593,
      "arent": 4594,
      "\".": 4595,
      "àŃģà¬®": 4596,
      "Ġanother": 4597,
      "Ġdefault": 4598,
      "à³Ĩà²¯à²¨à³įà²¨à³ģ": 4599,
      "à´¾à´Łàµįà´Ł": 4600,
      "à¨ī": 4601,
      "à±įà°£": 4602,
      "Ġà´ķà´¾à´°": 4603,
      "Ġadv": 4604,
      "Ġà²§": 4605,
      "à®¿à®³": 4606,
      "Ġcost": 4607,
      "Ġà¦ĺà¦Ł": 4608,
      "12": 4609,
      "à¦²à¦¾": 4610,
      "Ġà¤µà¤¿à¤ķ": 4611,
      "Ġresearch": 4612,
      "Ġtax": 4613,
      "âĢĶ": 4614,
      "Ġà²ħà²Ń": 4615,
      "Ġà¨ªà©ģ": 4616,
      "Ġprice": 4617,
      "àµĢà´¸àµį": 4618,
      "set": 4619,
      "à´ŀàµįà´ļ": 4620,
      "Ġopp": 4621,
      "à¤§à¥Ģ": 4622,
      "Ġà®¤à¯Ĩà®°à®¿à®µ": 4623,
      "here": 4624,
      "à±įà°·": 4625,
      "Ġprom": 4626,
      "Ġà¦¸à¦¾à¦¹": 4627,
      "Ġbeh": 4628,
      "raph": 4629,
      "à¯ĭà®®à¯į": 4630,
      "à°¾à°¨à°¿": 4631,
      "Ġsl": 4632,
      "Ġel": 4633,
      "Ġà²®à²¹": 4634,
      "Ġà¤Ĩà¤°": 4635,
      "Ġprof": 4636,
      "Ġà¤°à¥Ĥà¤ª": 4637,
      "Ġla": 4638,
      "Ġz": 4639,
      "request": 4640,
      "Ġà¦¸à¦°": 4641,
      "Ġà¬²àŃĭà¬ķ": 4642,
      "¸à¤¾à¤łà¥Ģ": 4643,
      "àªĿ": 4644,
      "Ġopt": 4645,
      "à®¾à®ľ": 4646,
      "Ġmajor": 4647,
      "Ġà¨ªà¨¹": 4648,
      "à¬¤à¬¾": 4649,
      "à¦¨à§įà¦¨": 4650,
      "Ġà¤Ĩà¤ľ": 4651,
      "à§įà§°à§Ģ": 4652,
      "Ġà²µà²¿à²¶": 4653,
      "Ġdesc": 4654,
      "Ġdue": 4655,
      "Ġà¦ªà¦¡à¦¼": 4656,
      "à¯Ĩà®¯": 4657,
      "ource": 4658,
      "Ġà²¬à²Ĺ": 4659,
      "à§Ģà¦¯à¦¼à§ĩ": 4660,
      "àŃįà¬ľ": 4661,
      "Ġà¦¨à¦¿à§°": 4662,
      "àµ¼à´¤àµįà´¤": 4663,
      "à¤¾à¤ļà¥ĩ": 4664,
      "Ġà¨¬à¨¹à©ģà¨¤": 4665,
      "Ġmight": 4666,
      "à®¿à®²à¯ģà®®à¯į": 4667,
      "Ġprot": 4668,
      "à©ĭà¨Ĺ": 4669,
      "Ġà¦¦à¦¿à¦¯à¦¼à§ĩ": 4670,
      "Ġà¬ªà¬°àŃĩ": 4671,
      "Ġà¬Ĩà¬": 4672,
      "à§įà¦¯à¦ķ": 4673,
      "Ġamount": 4674,
      "son": 4675,
      "Ġà¤¸à¤¹": 4676,
      "Ġà²¸à²¹": 4677,
      "à®¿à®¯à¯Ī": 4678,
      "Ġà²¤à²¿à²³": 4679,
      "ocial": 4680,
      "Ġà°¦à±Ģ": 4681,
      "ailable": 4682,
      "Ġà¤µà¤°à¥įà¤·": 4683,
      "Ġspe": 4684,
      "Ġà®İà®´": 4685,
      "à¦£à§ĩ": 4686,
      "path": 4687,
      "Ġà¤ĳ": 4688,
      "àµĭà´Łàµįà´Ł": 4689,
      "à«įàª¯àª¾àªĤ": 4690,
      "àŃģà¬¤": 4691,
      "à²ĸà³įà²¯": 4692,
      "Ġ{\\": 4693,
      "àªµà«ģàªĤ": 4694,
      "ĠPr": 4695,
      "Ġà¬¬àŃĭà¬²": 4696,
      "à§ģà¦¦à§įà¦§": 4697,
      "à°·à±įà°Ł": 4698,
      "Ġà®²": 4699,
      "ering": 4700,
      "Ġcond": 4701,
      "Ġproject": 4702,
      "à°¾à°Ĥà°¤": 4703,
      "mb": 4704,
      "ways": 4705,
      "orth": 4706,
      "à«Ģàª¨à«ĩ": 4707,
      "ently": 4708,
      "Ġà¦¨à¦¿à¦¯à¦¼à§ĩ": 4709,
      "à±ĩà°¤": 4710,
      "à´¨à´Ĥ": 4711,
      "Ġàªħàª¨": 4712,
      "à°¡à°¾à°¨à°¿à°ķà°¿": 4713,
      "Ġcal": 4714,
      "à°Ĥà°¤à±įà°°": 4715,
      "à¨ł": 4716,
      "à²²à²¾à²Ĺà²¿à²¦à³Ĩ": 4717,
      "Ġà²ķà²¾à²°à³įà²¯": 4718,
      "less": 4719,
      "à§įà¦¶": 4720,
      "ively": 4721,
      "à¬£àŃįà¬¡": 4722,
      "//": 4723,
      "Ġà®¸": 4724,
      "Ġà¤Ĺà¥įà¤°": 4725,
      "àµĩà´£àµįà´Ł": 4726,
      "Ġà®ĩà®²à¯įà®²": 4727,
      "à¥Įà¤°": 4728,
      "||": 4729,
      "à¬¾à¬Ł": 4730,
      "ote": 4731,
      "à¤¾à¤Ĥà¤¨à¥Ģ": 4732,
      "ured": 4733,
      "ha": 4734,
      "à§§": 4735,
      "Ġà´ªà´°à´¿à´": 4736,
      "à´¾à´¦": 4737,
      "Ġà¬ķà¬°à¬¾à¬¯": 4738,
      "ĠUS": 4739,
      "à¯Īà®ķà®³à¯į": 4740,
      "àŃĩà¬³àŃĩ": 4741,
      "=\"": 4742,
      "Ġlarge": 4743,
      "Ġà¦ķà¦¾à¦®": 4744,
      "Ġà´ªàµĬ": 4745,
      "à±Ĩà°Ĥà°Ł": 4746,
      "ļà¤¾": 4747,
      "----": 4748,
      "lish": 4749,
      "Ġrest": 4750,
      "à²ķà²¾à²°": 4751,
      "à¥Īà¤Ĥà¤ķ": 4752,
      "Ġà¤¤à¥ģà¤®": 4753,
      "à§ĥà¦·à§įà¦Ł": 4754,
      "à´ķàµįà´¤": 4755,
      "bs": 4756,
      "ends": 4757,
      "view": 4758,
      "Ġsit": 4759,
      "à¤°à¤£": 4760,
      "à§ĩà¦¸": 4761,
      "Ġà°¨à±ģà°Ĥà°ļà°¿": 4762,
      "Ġà¬¯àŃĩ": 4763,
      "Ġà¤ķà¥ĩà¤²à¥ĩ": 4764,
      "me": 4765,
      "à¯įà®¸": 4766,
      "à²Ĥà²ª": 4767,
      "à²¾à²°à³ģ": 4768,
      "à©±à¨¡": 4769,
      "key": 4770,
      "à´¤à´¿à´°": 4771,
      "Ġele": 4772,
      "Ġdesign": 4773,
      "à¤¾à¤°à¥ĩ": 4774,
      "Ġà¤¦à¥ĩà¤¶": 4775,
      "à®¤à¯įà®¤à®¿à®©à¯į": 4776,
      "à®ķà¯įà®ķà¯ģ": 4777,
      "Ġmet": 4778,
      "à§ĭà¦¹": 4779,
      "Ġà¦¬à¦Ľ": 4780,
      "ense": 4781,
      "§à«": 4782,
      "à°¾à°³": 4783,
      "à¨¿à¨®": 4784,
      "à³įà²°à²®": 4785,
      "à´¸àµįà´±àµįà´±": 4786,
      "Ġà¦ķà¦°à¦¤à§ĩ": 4787,
      "Ġbusiness": 4788,
      "Ġsay": 4789,
      "ued": 4790,
      "à¤ķà¥ĭ": 4791,
      "Ġà¤¸à¥ģ": 4792,
      "Ġà¦¸à§ĩ": 4793,
      "à²¤à²¿à²¯": 4794,
      "Ġà®ĩà®¯": 4795,
      "Ġà²¬à²Ĥà²¦": 4796,
      "Ġbas": 4797,
      "Ġdon": 4798,
      "à©ĭà¨²": 4799,
      "Ġmean": 4800,
      "à¨¨à¨¾à¨Ĥ": 4801,
      "à¤¾à¤¤à¥Ģà¤²": 4802,
      "à²¿à²¸à³ģà²¤à³įà²¤": 4803,
      "iving": 4804,
      "à¤Ĥà¤¤à¥įà¤°à¥Ģ": 4805,
      "orn": 4806,
      "Ġtop": 4807,
      "Ġsever": 4808,
      "à´±àµįà´±àµį": 4809,
      "Ġview": 4810,
      "Ġà²Ńà²¾à²°à²¤": 4811,
      "ĠQ": 4812,
      "à¥Ģà¤°": 4813,
      "Ġà¤ķà¥ģà¤": 4814,
      "à±Ģà°¯": 4815,
      "Ġà¤®à¤¿à¤³": 4816,
      "à°ģ": 4817,
      "Ġà¤°à¤¹à¥ĩ": 4818,
      "à¬¢": 4819,
      "Ġà¤Ĩà¤µ": 4820,
      "à¦§à¦¾à¦¨": 4821,
      "à¯ģà®³à¯į": 4822,
      "à¤¾à¤ģ": 4823,
      "Ġorder": 4824,
      "ST": 4825,
      "Ġpress": 4826,
      "àŃįà¬ł": 4827,
      "rop": 4828,
      "àµĭàµ¾": 4829,
      "àµĢà´°": 4830,
      "à©Ģà¨µ": 4831,
      "Ġnews": 4832,
      "à¦¿à¦Ĺ": 4833,
      "Ġà¤ľà¤¨": 4834,
      "ividual": 4835,
      "}{": 4836,
      "à´¿à´ķàµįà´ķàµģà´Ĥ": 4837,
      "à¨¿à©°à¨Ĺ": 4838,
      "pect": 4839,
      "ule": 4840,
      "à´¤à´¿": 4841,
      "ĠAt": 4842,
      "à§įà¦¯à¦¾à¦¨": 4843,
      "Ġà´¨à´¿à´°": 4844,
      "Ġperform": 4845,
      "Ġà¤ªà¤¾à¤°": 4846,
      "igh": 4847,
      "Ġchange": 4848,
      "Ġ198": 4849,
      "idd": 4850,
      "ier": 4851,
      "Ġbre": 4852,
      "Ġanal": 4853,
      "à¯ģà®µà®°": 4854,
      "par": 4855,
      "Ġâ": 4856,
      "à§°à¦£": 4857,
      "Ġkey": 4858,
      "agement": 4859,
      "Ġplan": 4860,
      "ources": 4861,
      "à¦ŀà§įà¦ļ": 4862,
      "Ġexpected": 4863,
      "Ġà¦¨à¦¹": 4864,
      "à®µà¯įà®µ": 4865,
      "Ġstat": 4866,
      "Ġà´ķàµģà´±": 4867,
      "Ġà²Ĺà³įà²°": 4868,
      "à°¿à°¶": 4869,
      "ians": 4870,
      "Ġpost": 4871,
      "urance": 4872,
      "à®µà¯ģ": 4873,
      "à¯ģà®ķà¯įà®ķà¯ģà®®à¯į": 4874,
      "Ġmoney": 4875,
      "à¥įà¤¯à¤®": 4876,
      "Ġgre": 4877,
      "ems": 4878,
      "Ġà¦Ĺà§įà¦°": 4879,
      "à¨¾à¨¨à©Ĥà©°": 4880,
      "à¬«": 4881,
      "à±ĩà°ª": 4882,
      "à°¸à°Ĥ": 4883,
      "Ġhead": 4884,
      "à®¿à®Łà®®à¯į": 4885,
      "à¥įà¤¯à¤ķà¥įà¤¤": 4886,
      "lo": 4887,
      "Ġà¬¸à¬°": 4888,
      "à°¿à°ķà°¾à°°": 4889,
      "àµĩà´¹": 4890,
      "Ġ/": 4891,
      "à¤¿à¤¦": 4892,
      "\"),": 4893,
      "à°ķà°°": 4894,
      "à¦ªà¦°": 4895,
      "Ġàªªàª¹": 4896,
      "Ġà¥§à¥": 4897,
      "arc": 4898,
      "à±ģà°¸": 4899,
      "Ġnorm": 4900,
      "ĠTrue": 4901,
      "à®µà¯Ī": 4902,
      "à¥įà¤¯à¤¾à¤µ": 4903,
      "Ġà²¨à²¿à²®": 4904,
      "Ġà´¸àµįà´¥": 4905,
      "à±ģà°²à°¨à±ģ": 4906,
      "ling": 4907,
      "Ġvis": 4908,
      "à²¿à²¤à³įà²°": 4909,
      "://": 4910,
      "Ġà¨¦à©ĭ": 4911,
      "Ġà¤Ĩà¤®": 4912,
      "à´¯à´Ĥ": 4913,
      "ables": 4914,
      "Ġà¬ħà¬Ń": 4915,
      "alk": 4916,
      "à²¦à²²à³įà²²": 4917,
      "ots": 4918,
      "Ġà¤²à¥ĭà¤ķ": 4919,
      "à¤¿à¤¤à¥Ģ": 4920,
      "à´¾à´¤àµįà´¤": 4921,
      "Ġà¦¤à§ĩà¦ĵà¦ģà§°": 4922,
      "Ġà¦¸à¦¾à¦®": 4923,
      "à±ģà°²à°ķà±ģ": 4924,
      "Ġlarg": 4925,
      "à²³à³įà²³": 4926,
      "à¦¬à¦¾à¦°": 4927,
      "Ġà¤¯à¥ĩà¤": 4928,
      "Ġà¦¤à¦¾à¦ģ": 4929,
      "If": 4930,
      "à¨ķà¨°": 4931,
      "Ġdevelopment": 4932,
      "ged": 4933,
      "stit": 4934,
      "Ġà¤¬à¤¹": 4935,
      "àµģà´®àµįà´ª": 4936,
      "Ġapplic": 4937,
      "Ġà¬¥": 4938,
      "à´¿à´¤àµįà´°": 4939,
      "Ġcr": 4940,
      "à³Ĥà²¡": 4941,
      "àŃįà¬¤àŃįà¬¤": 4942,
      "aim": 4943,
      "ument": 4944,
      "à¨¦à¨°": 4945,
      "Ġà¨ªà©°à¨ľ": 4946,
      "Ġà¤ľà¤¾": 4947,
      "à´£àµįà´£": 4948,
      "Ġà¤®à¤¨": 4949,
      "Ġà®®à®°": 4950,
      "Ġà¦Ĩà¦®à¦¾à¦°": 4951,
      "Ġstudents": 4952,
      "Ġà¨¸à¨°à¨ķà¨¾à¨°": 4953,
      "Ġ+": 4954,
      "à±Ģà°°à±ģ": 4955,
      "Ġà²¸à²¾à²§": 4956,
      "Ġà²Ĺà³ģ": 4957,
      "à¥ĩà¤°": 4958,
      "Ġà¦¸à¦Ļà§įà¦Ĺ": 4959,
      "à«ģàªķ": 4960,
      "Ġà°µà°°": 4961,
      "àª£à«Ģ": 4962,
      "Ġà¤¦à¥įà¤µà¤¾à¤°à¤¾": 4963,
      "cul": 4964,
      "ron": 4965,
      "Ġ24": 4966,
      "à¤¯à¥ĩ": 4967,
      "Ġinclude": 4968,
      "iver": 4969,
      "Ġtoo": 4970,
      "Ġ21": 4971,
      "ĠThese": 4972,
      "Ġseveral": 4973,
      "ton": 4974,
      "Ġà®Ĭ": 4975,
      "ought": 4976,
      "Ġà°µà±Ī": 4977,
      "à²¿à²µà³Ĩ": 4978,
      "Ġà¤®à¤¾à¤¨": 4979,
      "Ġlow": 4980,
      "Ġà¤µà¥įà¤¯à¤ķà¥įà¤¤": 4981,
      "Ġà´¨àµĩ": 4982,
      "Ġà¦°à¦¾à¦ľ": 4983,
      "à²¦à³ģà²ķ": 4984,
      "ĠYou": 4985,
      "à§İà¦¸": 4986,
      "Ġfollowing": 4987,
      "à°¿à°Ĺà°¾": 4988,
      "Ġà¨¦à©Ģà¨Ĩà¨Ĥ": 4989,
      "Ġhuman": 4990,
      "à©±à¨¤": 4991,
      "Ġà¤¨à¤¿à¤¯": 4992,
      "uk": 4993,
      "Ġche": 4994,
      "à´¯à´¿àµ½": 4995,
      "à¤µà¤¾à¤°": 4996,
      "Ġwithin": 4997,
      "à´¨àµįà´¨àµį": 4998,
      "Ġàª°à«Ĥ": 4999,
      "àªĨ": 5000,
      "à´¾à´¹": 5001,
      "à¥įà¤¯à¥Ĥ": 5002,
      "Ġà°®à°¨": 5003,
      "à´¨àµįà´¤àµįà´¯": 5004,
      "rain": 5005,
      "à¤Łà¥Ģ": 5006,
      "Ġàª²à«ĭàªķ": 5007,
      "à°¿à°¡": 5008,
      "Ġbro": 5009,
      "à¤Ĥà¤ļ": 5010,
      "Ġthink": 5011,
      "àªĤàª§": 5012,
      "Ġà®ļà®®": 5013,
      "à¯įà®¨à¯įà®¤à¯ģ": 5014,
      "à®Łà¯ģ": 5015,
      "Ġà¤ĩà¤¨": 5016,
      "Ġà°īà°Ĥà°¡": 5017,
      "à¨¨à©ĩ": 5018,
      "àªµà«ĩ": 5019,
      "à®µà®°à¯į": 5020,
      "à®²à®¾à®®à¯į": 5021,
      "à®¾à®¤à¯ģ": 5022,
      "àµĭà´¦": 5023,
      "à¤¢à¤¼": 5024,
      "à°«": 5025,
      "Ġsum": 5026,
      "à¤¤à¤¿": 5027,
      "Ġà®ķà®Łà¯įà®Ł": 5028,
      "à¥įà¤ŀ": 5029,
      "Ġport": 5030,
      "Ġà´ķàµģà´Ł": 5031,
      "à³Ĥà²°à³ģ": 5032,
      "à¤°à¥įà¤ľ": 5033,
      "à«įàª¯à«ģ": 5034,
      "Ġà¨ļà¨¾à¨¹": 5035,
      "Ġavailable": 5036,
      "àŃģà¬¹": 5037,
      "Ġà¨°à¨¹à©ĩ": 5038,
      "à¤¾à¤¢": 5039,
      "ĠWorld": 5040,
      "à²¿à²¦à²°à³ģ": 5041,
      "à¥ĩà¤·": 5042,
      "Ġà¬¨à¬¾à¬¹à¬¿à¬ģ": 5043,
      "not": 5044,
      "à¤¾à¤ĵà¤Ĥ": 5045,
      "Ġrele": 5046,
      "à¦¯à¦¼à¦¾à¦°": 5047,
      "Ġà¤ļà¤¾à¤¹": 5048,
      "Ġà²®à³ĩà²²à³Ĩ": 5049,
      "Ġà²®à²¨": 5050,
      "à´µà´¿à´": 5051,
      "Ġ40": 5052,
      "Ġàª¹àª¤à«ĭ": 5053,
      "à©ĩà¨Ĺà¨¾": 5054,
      "ats": 5055,
      "Ġà®İà®¤à®¿à®°": 5056,
      "à¯ģà®ķà®¿à®©à¯įà®±": 5057,
      "Ġindust": 5058,
      "àªĽà«Ģ": 5059,
      "ww": 5060,
      "à´¤àµįà´°": 5061,
      "Ġnext": 5062,
      "à°¾à°²à°¨à±ģ": 5063,
      "Ġemploy": 5064,
      "à´¿à´ķàµįà´ķàµģà´¨àµįà´¨à´¤àµį": 5065,
      "Ġà¤¹à¤¾": 5066,
      "Ġà¬¸àŃįà¬¥": 5067,
      "àµģà´ªàµįà´ª": 5068,
      "Ġeas": 5069,
      "urther": 5070,
      "à±Ĩà°°": 5071,
      "Ġunt": 5072,
      "Ġà²¨à³ĭà²¡": 5073,
      "à§ģà¦§": 5074,
      "àµģà´®à´¾à´¯à´¿": 5075,
      "obal": 5076,
      "Ġà²¬à²Ĺà³įà²Ĺà³Ĩ": 5077,
      "min": 5078,
      "Ġbased": 5079,
      "Ġdel": 5080,
      "Ġet": 5081,
      "à¦®à¦¨": 5082,
      "àªķà«ĩ": 5083,
      "ĠCon": 5084,
      "Ġà¬¹àŃĩà¬²": 5085,
      "200": 5086,
      "à¤ªà¥įà¤°": 5087,
      "à´¨àµĨ": 5088,
      "Ġhapp": 5089,
      "Ġàª°à«Ģ": 5090,
      "à°Ĥà°Łà±ĩ": 5091,
      "à®¾à®±à¯įà®±": 5092,
      "Ġbook": 5093,
      "à¤¿à¤·": 5094,
      "Ġmove": 5095,
      "Ġà¤¨à¤¿à¤µ": 5096,
      "ourn": 5097,
      "ĠLe": 5098,
      "à´¾à´±àµįà´±": 5099,
      "à²Ĥà²§": 5100,
      "aken": 5101,
      "Ġdise": 5102,
      "Ġà¤¹à¥ģà¤ı": 5103,
      "Ġà¤Ńà¤¾à¤°à¤¤": 5104,
      "®à¥ģà¤³à¥ĩ": 5105,
      "True": 5106,
      "Ġbest": 5107,
      "Ġà´¨à´¿à´²": 5108,
      "Ġà¦¹à¦¯à¦¼à§ĩà¦Ľà§ĩ": 5109,
      "Ġoccur": 5110,
      "à´İ": 5111,
      "à¥įà¤¡": 5112,
      "Ġà¤īà¤¦": 5113,
      "à¤¬à¤°": 5114,
      "à²Ĥà²¤à³įà²°": 5115,
      "Ġà¨¤à©ģà¨¹": 5116,
      "._": 5117,
      "Ġpract": 5118,
      "Ġà¨¸à¨¾à¨¹": 5119,
      "à§įà¦¯à¦¾à¦²": 5120,
      "Ġà¤ķà¥ĩà¤²à¥Ģ": 5121,
      "à¦¿à¦¯": 5122,
      "à¦¦à¦¿à¦¨": 5123,
      "Ġfamily": 5124,
      "():": 5125,
      "Ġes": 5126,
      "à²¿à²İ": 5127,
      "Ġfac": 5128,
      "à±Ĩà°ķ": 5129,
      "Ġsuccess": 5130,
      "ĠàªĹà«ģ": 5131,
      "Ġà¦īà¦¤à§įà¦¤": 5132,
      "oke": 5133,
      "à°¾à°Łà±ģ": 5134,
      "Ġident": 5135,
      "àµģà´¨": 5136,
      "Ġà¦¦à¦²": 5137,
      "duct": 5138,
      "à®¿à®¯à¯ģà®®à¯į": 5139,
      "Ġà¬¨à¬¿": 5140,
      "Ġbank": 5141,
      "à¦£à§įà¦¡": 5142,
      "ended": 5143,
      "Ġà¨°à¨¿à¨¹à¨¾": 5144,
      "à´¾à´²àµį": 5145,
      "Ġdistribution": 5146,
      "à§įà¦Ľà§ĩ": 5147,
      "Ġà¤¶à¤ķ": 5148,
      "egr": 5149,
      "àª¾àª¬": 5150,
      "à§ģà¦ª": 5151,
      "Ġà¦ªà¦¾à§°": 5152,
      "à±ĭà°¤": 5153,
      "à¤¾à¤µà¤¾": 5154,
      "Ġà°µà°¿à°·": 5155,
      "Ġà®µà®¿à®°": 5156,
      "Ġà®ħà®³": 5157,
      "Ġcome": 5158,
      "over": 5159,
      "Ġve": 5160,
      "à¬¸àŃįà¬¥": 5161,
      "Ġàª°àª¾àªľ": 5162,
      "à¯ģà®µà®©": 5163,
      "à¨¾à¨ĩà¨Ĩ": 5164,
      "à¦¾à¦ī": 5165,
      "Ġà¤ħà¤Ń": 5166,
      "à®²à®®à¯į": 5167,
      "ĠNational": 5168,
      "à¬ĻàŃįà¬ķà¬°": 5169,
      "Ġcontrol": 5170,
      "Ġquest": 5171,
      "Ġà¬ħà¬¨àŃģà¬": 5172,
      "Ġà¤ĵ": 5173,
      "à´¿à´ļàµįà´ļà´¤àµį": 5174,
      "Ġindividual": 5175,
      "ana": 5176,
      "à²Ĥà²Ń": 5177,
      "à´¤àµįà´¤à´¿à´²": 5178,
      "à¥ĩà¤¨": 5179,
      "ides": 5180,
      "à³Ģà²¯": 5181,
      "ĠFr": 5182,
      "Ġà²¤à²®à³įà²®": 5183,
      "à¨°à¨¸": 5184,
      "Ġnear": 5185,
      "Ġà¤°à¤¹": 5186,
      "Ġàª¬àª¨": 5187,
      "Ġamong": 5188,
      "Ġà¨ªà¨¹à¨¿à¨²": 5189,
      "Ġàªķàª°à«ĩ": 5190,
      "Ġà´°à´¾à´ľ": 5191,
      "Ġà®ħà®µà®°": 5192,
      "Ġà¨ľà¨¾": 5193,
      "oper": 5194,
      "Ġà¨²à©Ī": 5195,
      "Ġà¦ªà§įà§°à¦¤": 5196,
      "Åĭ": 5197,
      "à®ŀà¯įà®ļ": 5198,
      "Ġà°¸à±įà°¥": 5199,
      "Ġà¤Ĺà¤Ī": 5200,
      "à±ģà°¤à±įà°µ": 5201,
      "à¯ģà®³à¯įà®³à®¾à®°à¯į": 5202,
      "à´¦àµįà´¦": 5203,
      "ĸà±įà°¯": 5204,
      "Ġà¦®à¦¨à§įà¦¤": 5205,
      "à®¤à¯įà®¤à®¿à®±à¯įà®ķ": 5206,
      "Ġà²ĩà²²à³įà²²": 5207,
      "Ġprovide": 5208,
      "Ġà¬¬àŃĭà¬²à¬¿": 5209,
      "tal": 5210,
      "Ġi": 5211,
      "Ġà¤ķà¤°à¤¤à¥ĩ": 5212,
      "ĠOn": 5213,
      "},": 5214,
      "à²¡à³įà²¡": 5215,
      "osp": 5216,
      "Ġà¬ķà¬°à¬¿à¬¬à¬¾": 5217,
      "Ġàª¹àª¤à«ģàªĤ": 5218,
      "Ġtimes": 5219,
      "à¦¿à¦Ń": 5220,
      "Ġmil": 5221,
      "à³įà²ķà²¾à²°": 5222,
      "Ġabove": 5223,
      "ĠStates": 5224,
      "à¯Īà®¤à¯įà®¤à¯ģ": 5225,
      "Ġàª¹à«ĭàª¯": 5226,
      "à¥ĩà¤µ": 5227,
      "à¦¯à¦¼à§ĭ": 5228,
      "ustom": 5229,
      "Ġà²®à³ģà²Ĥà²¦": 5230,
      "resent": 5231,
      "Ġpolicy": 5232,
      "à§ĩà¦ļ": 5233,
      "rict": 5234,
      "à¬¨àŃįà¬§": 5235,
      "Ġà®µà¯Ĩà®³à®¿à®¯": 5236,
      "Ġàªĩ": 5237,
      "hers": 5238,
      "à²¾à²Ĥà²Ĺ": 5239,
      "Ġbuild": 5240,
      "à²¿à²Ĥà²Ĺà³į": 5241,
      "à°Łà±įà°²à±ģ": 5242,
      "àµ¼à´ķàµįà´ķ": 5243,
      "Ġà®®à¯ĩà®²": 5244,
      "Ġparticular": 5245,
      "run": 5246,
      "Ġà¬¡": 5247,
      "à´¿à´ª": 5248,
      "à§ĩà¦·à§įà¦Ł": 5249,
      "à«ĩàª¡": 5250,
      "à°¸à±įà°Ł": 5251,
      "à²ľà³įà²": 5252,
      "Ńà´µ": 5253,
      "Ġfar": 5254,
      "Ġà¦ķà¦¾à¦ľ": 5255,
      "Ġà¤µà¥ĩ": 5256,
      "Ġàªķàª°àªµàª¾àª®àª¾àªĤ": 5257,
      "à®¾à®®à®²à¯į": 5258,
      "Ġcountries": 5259,
      "Ġkeep": 5260,
      "of": 5261,
      "ļà¥ĩ": 5262,
      "à²¾à²·": 5263,
      "àŃįà¬°à¬®": 5264,
      "Ġà¤°à¤¹à¤¾": 5265,
      "à²¿à²ķà³Ĭà²³à³įà²³": 5266,
      "Ġà®īà®°": 5267,
      "à¦¥à¦®": 5268,
      "Ġà¬¸àŃĩà¬®à¬¾à¬¨": 5269,
      "ration": 5270,
      "ze": 5271,
      "Ġà°¸à±įà°µ": 5272,
      "Ġàª¨à«Ģ": 5273,
      "Ġà¤¥à¥ĩ": 5274,
      "¡àµį": 5275,
      "Ġcertain": 5276,
      "Ġà¨¸à¨Ń": 5277,
      "àŃĢà¬°": 5278,
      "àªµàª¾àª¨à«Ģ": 5279,
      "Ġà²ĵ": 5280,
      "à¬¿à¬Ł": 5281,
      "à¦²à§įà¦²": 5282,
      "Ġlik": 5283,
      "Ġarea": 5284,
      "à¬¤à¬¿": 5285,
      "à¬¤àŃįà¬¤": 5286,
      "à¬¾à¬ĩà¬Ľà¬¿": 5287,
      "à¤ķà¥įà¤·à¤¾": 5288,
      "à¨¾à¨¸à¨¼": 5289,
      "ending": 5290,
      "Ġà´ªà´±à´¯": 5291,
      "à§ĩà¦Ĺ": 5292,
      "Ġà¤®à¥ģà¤ĸ": 5293,
      "ades": 5294,
      "à¤Ĺà¥ĩ": 5295,
      "Ġà°Ĩà°¯": 5296,
      "ilar": 5297,
      "Ġà¨¸à¨¿à©±à¨": 5298,
      "à³įà²¨à²²à³įà²²à²¿": 5299,
      "Ġà¦ħà¦°": 5300,
      "à±Ĥà°¨": 5301,
      "à´¿à´ķàµ¾": 5302,
      "ances": 5303,
      "Ġrecord": 5304,
      "Ġà®®à®¾à®µ": 5305,
      "à©±à¨¥": 5306,
      "Ġà°Ńà°¾à°°": 5307,
      "à¬¥à¬¾": 5308,
      "àµĩà´°à´³": 5309,
      "à´¿à´°àµģà´¨àµįà´¨": 5310,
      "à®Ļà¯įà®ķà®³à¯Ī": 5311,
      "Ø§": 5312,
      "à¥¤\"": 5313,
      "à°°à°Ĥ": 5314,
      "Ġà¤¦à¥ĭ": 5315,
      "àŃģà¬¦": 5316,
      "à¤¡à¥Ģ": 5317,
      "11": 5318,
      "à°¥": 5319,
      "Ġà´ŀ": 5320,
      "à¥ĩà¤®": 5321,
      "à¯ģà®¨": 5322,
      "Ġà°ķà°¨": 5323,
      "à³ĭà²¦": 5324,
      "à¦¾à¦¤à§įà¦°": 5325,
      "Ġtri": 5326,
      "à³Ĩà²°": 5327,
      "Ġà°¸à°¿à°¨": 5328,
      "¦àµįà´": 5329,
      "Ġide": 5330,
      "à©Īà¨ķ": 5331,
      "Ġinvol": 5332,
      "han": 5333,
      "ler": 5334,
      "ional": 5335,
      "à¨°à¨¾à¨Ĥ": 5336,
      "Ġà¦®à¦ĩ": 5337,
      "used": 5338,
      "mber": 5339,
      "à®¾à®¨": 5340,
      "à©±à¨ļ": 5341,
      "à¯Ĭà®°": 5342,
      "Ġpossible": 5343,
      "my": 5344,
      "Ġcredit": 5345,
      "à¤¸à¥įà¤Ł": 5346,
      "à¦°à§įà¦¤": 5347,
      "à´¤àµįà´¤à´¿à´¨àµį": 5348,
      "Ġenvironment": 5349,
      "math": 5350,
      "à§ģà¦£": 5351,
      "Ġà¦¬à¦¿à¦ľ": 5352,
      "à°°à±įà°ª": 5353,
      "Ġsays": 5354,
      "ories": 5355,
      "Ġà¤¬à¥Īà¤Ĥà¤ķ": 5356,
      "à¤¾à¤Ĥà¤ļà¥įà¤¯à¤¾": 5357,
      "Ġà¨¦à¨¿à©±à¨¤à¨¾": 5358,
      "àŃįà¬¯àŃįàŃŁ": 5359,
      "Ġà´ĩà´¨àµįà´¤àµįà´¯": 5360,
      "Ġà¦¤à§ĭà¦®": 5361,
      "oid": 5362,
      "Ġnet": 5363,
      "Ġà¥¨": 5364,
      "à©Īà¨¸": 5365,
      "à°¾à°²à±ĭ": 5366,
      "à°¾à°¨à±ģ": 5367,
      "Ġà¦²à§Ī": 5368,
      "à®¿à®ķà¯įà®ķà®ªà¯įà®ªà®Łà¯įà®Ł": 5369,
      "à±ģà°¤à±ģà°¨à±įà°¨": 5370,
      "à®·": 5371,
      "àŃ¨": 5372,
      "à°¾à°²à°¿": 5373,
      "à¬°àŃįà¬¯àŃįàŃŁ": 5374,
      "acter": 5375,
      "ĠUniversity": 5376,
      "Ġà¤ľà¤¾à¤¤à¤¾": 5377,
      "à´¾à´¨àµįà´": 5378,
      "Ġà²ķà²°": 5379,
      "rist": 5380,
      "ĠTe": 5381,
      "àª¿àª¸": 5382,
      "Ġà²µà²°à³įà²·": 5383,
      "be": 5384,
      "à²İ": 5385,
      "à¤¾à¤¥": 5386,
      "Ġà¦¨à¦¿à¦¯à¦¼": 5387,
      "Ġà¤ĩà¤¤": 5388,
      "command": 5389,
      "Ġà¬¹àŃĭà¬ĩ": 5390,
      "à¯ģà®ªà¯į": 5391,
      "Ġà¬¨à¬¿à¬ľ": 5392,
      "Ġà°ªà±įà°°à°Ńà±ģà°¤à±įà°µ": 5393,
      "Ġà®µà®¿à®³": 5394,
      "ware": 5395,
      "yn": 5396,
      "à®¾à®ªà¯įà®ª": 5397,
      "à¤Ĥà¤ľ": 5398,
      "à®¤à¯ģà®®à¯į": 5399,
      "Ġ22": 5400,
      "utions": 5401,
      "àª¿àªŁ": 5402,
      "Ġà¬ķà¬²": 5403,
      "iance": 5404,
      "Ġwin": 5405,
      "Ġbody": 5406,
      "back": 5407,
      "Ġhome": 5408,
      "Ġà´µà´¿à´µ": 5409,
      "St": 5410,
      "ļà¥Ģ": 5411,
      "à®Ĩ": 5412,
      "head": 5413,
      "ples": 5414,
      "à´¥": 5415,
      "à¥§": 5416,
      "Ġà¦Ľà¦¿à¦²": 5417,
      "Ġput": 5418,
      "Ġà¦®à¦¾à¦ľ": 5419,
      "http": 5420,
      "Ġfood": 5421,
      "ember": 5422,
      "à®¿à®ķà¯į": 5423,
      "Ġà®Ĩà®¯": 5424,
      "à¨¾à¨ľà¨¼": 5425,
      "Ġseries": 5426,
      "à¨¿à¨ĸ": 5427,
      "à°¾à°°à°¾": 5428,
      "à¥Ĥà¤®": 5429,
      "Ġàª¸à«įàªµ": 5430,
      "Ġàª¤à«ĩàª¨àª¾": 5431,
      "Ġeng": 5432,
      "Ġà¤®à¤¾à¤°": 5433,
      "à§Ģà¦ķà§įà¦·": 5434,
      "Ġà¦ħà¦¤": 5435,
      "à°¨à±įà°¨à°¾à°°à±ģ": 5436,
      "à°¾à°¤à±įà°°": 5437,
      "Ġà¦®à¦¾à¦¨à§ģà¦¹": 5438,
      "à«Į": 5439,
      "à´¾à´´": 5440,
      "Ġà²¹à³ģ": 5441,
      "Ġà²İà²°": 5442,
      "à®±à¯įà®±à¯ģ": 5443,
      "Ġà¬ķà¬°à¬¿à¬¥à¬¿à¬²àŃĩ": 5444,
      "iple": 5445,
      "ox": 5446,
      "à®¾à®ª": 5447,
      "Ġà¦¦à§įà¦¬": 5448,
      "Ġà´ķà´£àµįà´Ł": 5449,
      "à°Ĥà°¡à°¿": 5450,
      "cy": 5451,
      "Ġsing": 5452,
      "à¨¾à¨«": 5453,
      "à®¤à®¾à®²à¯į": 5454,
      "à§įà¦¯à¦¾": 5455,
      "ĠFalse": 5456,
      "Ġà²īà²ª": 5457,
      "à³ģà²¨": 5458,
      "à´¤àµįà´¤à´¿à´¨": 5459,
      "à²¨à³įà²¨à³Ĥ": 5460,
      "une": 5461,
      "à©ľà©ĩ": 5462,
      "Ļà¯įà®ķà®³à¯į": 5463,
      "Ġold": 5464,
      "Ġà¨ķà©°à¨®": 5465,
      "Ġà°ķà°¾à°¨": 5466,
      "Ġearly": 5467,
      "Ġà®µà®¾à®´": 5468,
      "ĠAll": 5469,
      "Ġlocal": 5470,
      "ief": 5471,
      "à¤¿à¤¹": 5472,
      "Ġà¤¸à¥įà¤Ł": 5473,
      "Ġà®ļà®°": 5474,
      "Ġà®ļà®¿à®²": 5475,
      "ĠĠĠĠĠĠĠĠĠĠĠĠĠĠĠĠĠĠĠĠĠĠĠĠĊ": 5476,
      "Ġà²¨à³Ģà²µà³ģ": 5477,
      "à¥Ĥà¤²": 5478,
      "à¤°à¥įà¤¶": 5479,
      "Ġà¨ľà¨¦": 5480,
      "à±Īà°¤": 5481,
      "Ġà²¤à²¨à³įà²¨": 5482,
      "à¨ĩà¨Ĩ": 5483,
      "à¦¾à¦°à¦¾": 5484,
      "Ġà°®à°¹": 5485,
      "cli": 5486,
      "Ġshort": 5487,
      "Ġà°Ĺà±įà°°": 5488,
      "à¥ĩà¤¤à¥įà¤°": 5489,
      "vious": 5490,
      "à¯ģà®©": 5491,
      "ention": 5492,
      "à²ķà³Ĩ": 5493,
      "à«įàª°à«ĭ": 5494,
      "à´ªàµįà´°": 5495,
      "à®¾à®¯à¯į": 5496,
      "Ġunderstand": 5497,
      "à«ĩàªµ": 5498,
      "à«Ģàª®": 5499,
      "àªķà«ĭ": 5500,
      "Ġà¬®à¬¨": 5501,
      "Ġà¤ħà¤¸à¥ĩ": 5502,
      "à§ĭà¦·": 5503,
      "à²¤à²°": 5504,
      "Ġà¤®à¥ģ": 5505,
      "Ġà¦ķà§°à¦¿à¦Ľà§ĩ": 5506,
      "Ġàª¨àª¿": 5507,
      "àµĤà´Łàµįà´Ł": 5508,
      "Ġbetter": 5509,
      "ining": 5510,
      "Ġparam": 5511,
      "à±Ĩà°¨": 5512,
      "Ġturn": 5513,
      "àŃįà¬£": 5514,
      "à¤¹à¤°": 5515,
      "à°°à±įà°¶": 5516,
      "Ġà¨ªà©°à¨ľà¨¾à¨¬": 5517,
      "ger": 5518,
      "Ġhold": 5519,
      "à¥įà¤¯à¤¾à¤ª": 5520,
      "Ġà´ķàµĩà´°à´³": 5521,
      "Ġà´¸àµĨ": 5522,
      "à¤°à¥įà¤Ł": 5523,
      "acy": 5524,
      "àª¦à«įàª": 5525,
      "Ġà¤ħà¤¸à¤²à¥įà¤¯à¤¾à¤": 5526,
      "Ġà®ªà¯ĭà®²": 5527,
      "Ġà¦¤à§ĩà¦ĵà¦ģà¦²à§ĭ": 5528,
      "ither": 5529,
      "Ġà¦¬à¦¸": 5530,
      "à¤ľà¥ĩ": 5531,
      "Ġà¦¶à¦¿à¦ķà§įà¦·": 5532,
      "Ġà¨¹à©ĭà¨£": 5533,
      "¨à§įà¦¤": 5534,
      "à§ģà¦¸": 5535,
      "à´¤à´¿à´¯": 5536,
      "Ġà¤¦à¥ĭà¤¨": 5537,
      "à¥ĩà¤¬": 5538,
      "à¬¬à¬°": 5539,
      "Ġà¬ķà¬°àŃģà¬": 5540,
      "Ġgeneral": 5541,
      "Ġà´ªàµĭà´²": 5542,
      "Ġà°ħà°²": 5543,
      "Ġàª¨à«ĩ": 5544,
      "à¤¾à¤¸à¥įà¤¤": 5545,
      "Ġàª¥àª¾àª¯": 5546,
      "Ġà¬ĵà¬¡à¬¼": 5547,
      "Ġfre": 5548,
      "à¨¸à¨¤": 5549,
      "Ġà¤¬à¤¾à¤¤": 5550,
      "àª²à«ĩ": 5551,
      "à¬¸à¬¿": 5552,
      "Ġà°ĩà°¦à°¿": 5553,
      "Ġà¦¬à¦¿à¦·à¦¯à¦¼": 5554,
      "à¬ŀàŃįà¬ļ": 5555,
      "gress": 5556,
      "à¤¾à¤«": 5557,
      "à°ªà±Ī": 5558,
      "à¦¾à¦ł": 5559,
      "rel": 5560,
      "à¤¾à¤Ĥà¤ļà¥Ģ": 5561,
      "Ġà¦¥à¦ķà¦¾": 5562,
      "à¥ĩà¤ķ": 5563,
      "Ġà®®à®ķà¯įà®ķ": 5564,
      "Ġà®ħà®£": 5565,
      "Ġbecome": 5566,
      "à®Łà¯įà®Łà¯ģ": 5567,
      "Ġà¬Ĩà¬®": 5568,
      "Ġà¨ķà©ģà¨Ŀ": 5569,
      "30": 5570,
      "àª¤à«įàª¤": 5571,
      "à´¯à´¿à´²àµį": 5572,
      "Ġà¤°à¤¾à¤¹": 5573,
      "à²¿à²¯à²¨à³įà²¨à³ģ": 5574,
      "à¬ģ": 5575,
      "à§ĩà§°": 5576,
      "anks": 5577,
      "à´°à´Ĥ": 5578,
      "imate": 5579,
      "Ġdeb": 5580,
      "à¦¿à¦¨à§įà¦¨": 5581,
      "à±Ĥà°²": 5582,
      "Ġpopulation": 5583,
      "dom": 5584,
      "à±įà°§": 5585,
      "àª¾àª¶": 5586,
      "à¥įà¤¯à¥ĭà¤Ĥ": 5587,
      "à±ĭà°Ĥà°¦à°¿": 5588,
      "Ġà¦®à¦¨à§ĩ": 5589,
      "Ġàªľà«Ģ": 5590,
      "Ġà®ªà¯ģà®¤": 5591,
      "Ġà®ķà®²": 5592,
      "Ġàª¸àª°": 5593,
      "à°¾à°·à±įà°Łà±įà°°": 5594,
      "à¥ĭà¤§": 5595,
      "Ġlog": 5596,
      "though": 5597,
      "ush": 5598,
      "Ġà¤ªà¥įà¤°à¤ķ": 5599,
      "Ġà¨¸à¨ķà¨¦à¨¾": 5600,
      "Ġtre": 5601,
      "à¦¿à§±": 5602,
      "idence": 5603,
      "à¯ĩà®ļ": 5604,
      "Ġàª®àª¾àªĤ": 5605,
      "à®¾à®¤à¯įà®¤": 5606,
      "Ġà¬ıà¬¹à¬¾": 5607,
      "Ġbenef": 5608,
      "Ġdev": 5609,
      "à¨«à¨¼": 5610,
      "à«¦": 5611,
      "Ġbig": 5612,
      "à«ĭàª¡": 5613,
      "amb": 5614,
      "Ġà¤ħà¤®": 5615,
      "verage": 5616,
      "Ġà¦¹à¦¾à¦¤": 5617,
      "à¯įà®ļà¯įà®ļ": 5618,
      "à²°à³įà²¥": 5619,
      "à´¦àµįà´§": 5620,
      "Ġàªīàªªàª°": 5621,
      "à²µà³ĩ": 5622,
      "Ġà¨¹à¨°": 5623,
      "à¨ķà©Ģ": 5624,
      "Ġàª¸àª¾àª®": 5625,
      "à¯Ĥà®°à¯į": 5626,
      "Ġeducation": 5627,
      "à¦¢à¦¼": 5628,
      "à¤¿à¤Ĺ": 5629,
      "Ġà¦¯à§ĩà¦¨": 5630,
      "à®¨à¯įà®¤à¯ģ": 5631,
      "Ġà¤ľà¤¬": 5632,
      "Ġà¤ĺà¤°": 5633,
      "ĠAss": 5634,
      "à¤µà¥Ģ": 5635,
      "àµĭàµ¼": 5636,
      "Ġà¬ªàŃĤ": 5637,
      "Ġà°ħà°¤": 5638,
      "Ġà°¸à°¿à°¨à°¿à°®": 5639,
      "type": 5640,
      "à¬ı": 5641,
      "erc": 5642,
      "Ġinit": 5643,
      "Ġà¦¬à§ĥ": 5644,
      "olution": 5645,
      "Ġà¤ħà¤µ": 5646,
      "Ġà¨®à©Īà¨Ĥ": 5647,
      "Ġà¨¹à©ĭà¨°": 5648,
      "à®Łà¯įà®ļ": 5649,
      "Ġà¤¦à¥Ģ": 5650,
      "ager": 5651,
      "Ġà¦ķà§°à¦¾à§°": 5652,
      "anies": 5653,
      "à¬¿à¬¹": 5654,
      "à³Ĥà²ª": 5655,
      "àŃĭà¬°": 5656,
      "àµĢà´ķà´°": 5657,
      "Ġchar": 5658,
      "à¬°àŃįà¬®": 5659,
      "Ġevent": 5660,
      "Ġsignific": 5661,
      "change": 5662,
      "ĠàªªàªĽà«Ģ": 5663,
      "Ġà¨²à¨Ĺ": 5664,
      "à°¿à°¤à±įà°°": 5665,
      "Ġà¤ªà¤£": 5666,
      "à¨¨à©ģ": 5667,
      "ĠPl": 5668,
      "Ġàª°àª¾àªĸ": 5669,
      "à¨¾à¨µà¨¾à¨Ĥ": 5670,
      "Ġvarious": 5671,
      "à±Ģà°Ĩ": 5672,
      "Ġà°ªà±Ĭ": 5673,
      "Ġà¦¤à¦¥": 5674,
      "à¤¿à¤ķà¥įà¤·": 5675,
      "à¬¾à¬¤àŃįà¬°": 5676,
      "àµĭà´£": 5677,
      "Ġà®ļà¯ĩà®°": 5678,
      "Ġà¤¦à¤¿à¤µ": 5679,
      "à°Łà±įà°²": 5680,
      "à¤¬à¤Ĥà¤§": 5681,
      ">>>": 5682,
      "Ġà°ļà±ĩà°¶à°¾à°°à±ģ": 5683,
      "urope": 5684,
      "à®Łà®¿à®¯": 5685,
      "Ġà¤ªà¥ĭ": 5686,
      "Ġà¦Ńà¦¿à¦¤": 5687,
      "ĠâĢĶ": 5688,
      "oot": 5689,
      "à¦¿à¦¡": 5690,
      "Ġà¤ķà¤¾à¤¹à¥Ģ": 5691,
      "Ġà¦¬à¦²à§ĩ": 5692,
      "à©°à¨§": 5693,
      "ĠGod": 5694,
      "à°¬à°¡": 5695,
      "Ġareas": 5696,
      "Ġà°¬à±įà°°": 5697,
      "à¯įà®µà¯ģ": 5698,
      "Ġà´²à´Ń": 5699,
      "Ġà¤ľà¤¿à¤²": 5700,
      "Ġà°ħà°Ń": 5701,
      "Ġà®¨à¯ĩà®°": 5702,
      "ĠAmerican": 5703,
      "Ġà¤¸à¤¬": 5704,
      "Ġà´ķàµĭà´Ł": 5705,
      "Ġà¦Ĺà§Ī": 5706,
      "à¯ģà®±à¯Ī": 5707,
      "à¬¾à¬ĩà¬¬": 5708,
      "by": 5709,
      "Ġà¤°à¤¹à¥Ģ": 5710,
      "Ġà°¤à°°": 5711,
      "Ġimpro": 5712,
      "Ġpriv": 5713,
      "cer": 5714,
      "ee": 5715,
      "à±Ģà°ľ": 5716,
      "Ġà¦®à§ĭà§°": 5717,
      "à¦¸à§įà¦ķ": 5718,
      "ĠBank": 5719,
      "à´¦àµįà´¯": 5720,
      "Ġhigher": 5721,
      "Ġà¨ķà©ĭà¨Ī": 5722,
      "Ġà¤ķà¥ģà¤Ľ": 5723,
      "Ġà®®à®¾à®µà®Łà¯įà®Ł": 5724,
      "atural": 5725,
      "à§Ģà¦ķ": 5726,
      "Ġbeg": 5727,
      "Ġà°ļà°¾à°²": 5728,
      "ateg": 5729,
      "à°¾à°²à±įà°²à±ĭ": 5730,
      "Ġà¦Ńà¦¾à§°à¦¤": 5731,
      "Ġà¬¬à¬¿à¬¶": 5732,
      "à²¿à²Łà³įà²Ł": 5733,
      "à±Ĭà°ķà±įà°ķ": 5734,
      "Ġà®Ĩà®©à®¾à®²à¯į": 5735,
      "Ġener": 5736,
      "Ġmeans": 5737,
      "Ġà¤ķà¤¾à¤°à¤£": 5738,
      "ises": 5739,
      "à¦¨à¦¾à¦°": 5740,
      "Ġàªªàª¡": 5741,
      "à©Īà¨¨": 5742,
      "à¯ģà®Łà¯Īà®¯": 5743,
      "à¤¾à¤·à¥įà¤Łà¥įà¤°": 5744,
      "ring": 5745,
      "à¦¿à¦§": 5746,
      "àª¾àªı": 5747,
      "à¦¨à¦¤": 5748,
      "à³ĭà²ľ": 5749,
      "à¦¨à§įà¦®": 5750,
      "à¨Ĩà¨Ĥ": 5751,
      "Ġà°ķà±ĭà°¸à°Ĥ": 5752,
      "Ġà¦ħà§±": 5753,
      "à³ĭà²°": 5754,
      "Ġorig": 5755,
      "Ġà²İà²Ĥà²¦": 5756,
      "à¬ĥ": 5757,
      "à¤ªà¤°": 5758,
      "Ġsocial": 5759,
      "Ġà®ªà®ķà¯ģà®¤": 5760,
      "Ġà¦ıà¦¤": 5761,
      "Ġà¤ªà¥įà¤°à¤ķà¤¾à¤°": 5762,
      "à¤¥à¤¾": 5763,
      "Ġà¨¹à©ģà©°": 5764,
      "Ġtotal": 5765,
      "à«įàªļ": 5766,
      "à¥ģà¤Ĺ": 5767,
      "à®µà®¿à®²à¯įà®²à¯Ī": 5768,
      "Ġà´®à´¨": 5769,
      "à¤¨à¥ĩà¤ķ": 5770,
      "à¥ģà¤·": 5771,
      "Ġà«§à«": 5772,
      "ĠTr": 5773,
      "à¤¦à¥įà¤§": 5774,
      "à¤¾à¤²à¤¯": 5775,
      "à³įà²Łà³į": 5776,
      "à§įà¦¯à¦®": 5777,
      "Ġà¤µà¤¿à¤Ń": 5778,
      "Ġestab": 5779,
      "à°ĥ": 5780,
      "Ġà°¸à±įà°Ł": 5781,
      "Ġà²ªà²°à²¿à²": 5782,
      "âģ¡": 5783,
      "Ġà¤ķà¥įà¤·à¥ĩà¤¤à¥įà¤°": 5784,
      "à±įà°¦": 5785,
      "à¬¿à¬Ĥ": 5786,
      "àµ½à´ķ": 5787,
      "Ġà¨Ĺà¨ı": 5788,
      "à®¾à®³à®°à¯į": 5789,
      "ament": 5790,
      "Ġà¤ªà¥įà¤°à¤¶": 5791,
      "à²¿à²¸à²¿à²¦à²°à³ģ": 5792,
      "Ġà¬ķà¬¾à¬°àŃįà¬¯àŃįàŃŁ": 5793,
      "Ġfuture": 5794,
      "à©Ģà¨¤": 5795,
      "Ġà®¤à®°": 5796,
      "Ġà¨®à¨¿à¨²": 5797,
      "Ġintegr": 5798,
      "Ġà¤ĺà¤Ł": 5799,
      "Ġà°ķà°¾à°°à±įà°¯": 5800,
      "fer": 5801,
      "àŃĪ": 5802,
      "Ġstruct": 5803,
      "Ġà²ħà²¨à³ģ": 5804,
      "pper": 5805,
      "à®Łà¯ģà®ķà¯įà®ķ": 5806,
      "à©ĭà©ľ": 5807,
      "Ġà¤Ĩà¤²à¥ĩ": 5808,
      "Ġà¦ıà¦°": 5809,
      "âĢľ": 5810,
      "à´¿à´ķàµįà´ķàµģà´ķà´¯": 5811,
      "Ġà°°à°¾à°ľ": 5812,
      "àª¾àªµà«Ģ": 5813,
      "Ġcompany": 5814,
      "Ġphys": 5815,
      "har": 5816,
      "à°¾à°ļ": 5817,
      "rodu": 5818,
      "Ġà®¨à®¾à®©à¯į": 5819,
      "ilities": 5820,
      "Ġloss": 5821,
      "Ġant": 5822,
      "à§ģà¦Ĺ": 5823,
      "à¥įà¤Ľ": 5824,
      "àŃĩà¬£": 5825,
      "Ġà¬¸àŃįà¬¬": 5826,
      "à´¸àµįà´¸": 5827,
      "Ġà°°à°¾à°·à±įà°Łà±įà°°": 5828,
      "rick": 5829,
      "reg": 5830,
      "à¤Ĥà¤Ł": 5831,
      "à¦°à§ĩà¦°": 5832,
      "à´¾à´°à´Ĥ": 5833,
      "epend": 5834,
      "(\"/": 5835,
      "à¬®à¬¾à¬¨àŃĩ": 5836,
      "Ġdeterm": 5837,
      "IO": 5838,
      "à§ĩà¦ģ": 5839,
      "Ġfive": 5840,
      "Ġà²ķà³Ĩ": 5841,
      "à©°à¨¬": 5842,
      "Ġà´µà´¿à´¦": 5843,
      "Ġà¬¸à¬°à¬ķà¬¾à¬°": 5844,
      "dict": 5845,
      "Ġaut": 5846,
      "à§ĭà¦®": 5847,
      "Ġà¦¸à¦Ļà§įà¦Ĺà§ĩ": 5848,
      ".âĢĿ": 5849,
      "à¦¿à¦·à§įà¦Ł": 5850,
      "Ġà¤¦à¤°": 5851,
      "Ġalong": 5852,
      "ored": 5853,
      "à¬£à¬¾": 5854,
      "ĠNews": 5855,
      "Ġfield": 5856,
      "Ġà¦¸à¦¾à¦§": 5857,
      "ĠPol": 5858,
      "à²¿à²¨à³įà²¨": 5859,
      "ĠJew": 5860,
      "à¤¤à¥Ģà¤¯": 5861,
      "à¬·": 5862,
      "àŃĩà¬°": 5863,
      "à±ĩà°¨": 5864,
      "ird": 5865,
      "Ġà²¬à²°": 5866,
      "à´£à´®": 5867,
      "Ġleast": 5868,
      "Ġspecial": 5869,
      "Ġpot": 5870,
      "Ġà¤®à¥Ģ": 5871,
      "ĠMan": 5872,
      "à²°à³įà²®": 5873,
      "àµĨà´¯à´¾à´£àµį": 5874,
      "Ġpolit": 5875,
      "àªĵ": 5876,
      "à´¾à´·": 5877,
      "à°°à°£": 5878,
      "àªµàª¿": 5879,
      "Ġà¤ħà¤²": 5880,
      "Ġà°ªà±įà°°à°ķ": 5881,
      "à¦¿à¦¬à¦²à§Ī": 5882,
      "Ġà¬ªàŃįà¬°à¬ķ": 5883,
      "atives": 5884,
      "à²¿à²¬": 5885,
      "alf": 5886,
      "à²Ĥà²ļ": 5887,
      "Ġlab": 5888,
      "Ġà²ħà²Ĥà²¤": 5889,
      "Ġà¤ķà¤°à¤¨à¤¾": 5890,
      "Ġà¤¹à¥ĭà¤¤": 5891,
      "Ġà¤¹à¥ĭà¤¨à¥ĩ": 5892,
      "à®İ": 5893,
      "Ġlater": 5894,
      "à²ªà³įà²°": 5895,
      "à®ļà®¿à®¯": 5896,
      "Ġcomput": 5897,
      "à¤£à¥įà¤¯à¤¾à¤¤": 5898,
      "à´¿à´µà´¸": 5899,
      "àµĨà´Łàµģà´¤àµįà´¤": 5900,
      "àŃĩà¬īà¬ģ": 5901,
      "Ġà¦ıà¦¸": 5902,
      "Ġà®ļà¯Ĩà®¯à®²": 5903,
      "Ġoption": 5904,
      "Ġà¦ķà¦¬": 5905,
      "àŃģà¬¨": 5906,
      "àµĭà´ķ": 5907,
      "à¤¿à¤¯à¥ĩ": 5908,
      "ials": 5909,
      "Ġà®µà®´à®Ļà¯įà®ķ": 5910,
      "Ġwomen": 5911,
      "Ġà¤¬à¥Ģ": 5912,
      "Ġà¨®à©Į": 5913,
      "à¥įà¤£": 5914,
      "à¦ķà§Ī": 5915,
      "Ġà°ķà°¾à°²": 5916,
      "\\\\": 5917,
      "lim": 5918,
      "à§©": 5919,
      "Ġà®ļà®¨à¯įà®¤": 5920,
      "à³Ĭà²Ĥà²¦à³ģ": 5921,
      "à±ģà°¨à°¿": 5922,
      "ĠàªĨàªµà«ĩ": 5923,
      "à¬ĹàŃįà¬°": 5924,
      "àª¹à«ĢàªĤ": 5925,
      "Ġuntil": 5926,
      "Ġbond": 5927,
      "ctx": 5928,
      "Ġnational": 5929,
      "à«ģàª²": 5930,
      "à¤ªà¥Ģ": 5931,
      "à¬¿à¬²àŃįà¬²": 5932,
      "àµĭà´´": 5933,
      "Ġà¬Ńà¬¾à¬¬": 5934,
      "à¥ģà¤ķà¥įà¤¤": 5935,
      "à¨°à¨®": 5936,
      "Ġà¤¸à¤¾à¤Ĥà¤Ĺ": 5937,
      "àŃŁà¬°àŃĩ": 5938,
      "ival": 5939,
      "à¥ĭà¤Ĥà¤¨à¥ĩ": 5940,
      "à³Ĭà²Ĥà²¦à²¿à²Ĺà³Ĩ": 5941,
      "Ġà¦¬à¦¾à¦¡à¦¼": 5942,
      "Ġàª®à«ĩàª": 5943,
      "Ġà¤Ĺà¥ĭ": 5944,
      "à«ĩàª²à«Ģ": 5945,
      "à´¿à´²àµĩà´ķàµįà´ķàµį": 5946,
      "Ġà²®à³Ĥà²²à²ķ": 5947,
      "à¦¨à§Ģ": 5948,
      "à¬¿à¬¯": 5949,
      "à°°à±ģ": 5950,
      "à±ģà°¤à±ģà°Ĥà°¦à°¿": 5951,
      "Ġincrease": 5952,
      "Ġàª²à«ĭàªķà«ĭ": 5953,
      "NA": 5954,
      "Ġà°ĸ": 5955,
      "à³ĭà²ª": 5956,
      "à¬¤àŃįàŃŁ": 5957,
      "ane": 5958,
      "à¥įà¤¯à¤ķà¥įà¤·": 5959,
      "ĠWhen": 5960,
      "Ġà²ĩà²°": 5961,
      "Ġà´¶àµįà´°": 5962,
      "Ġauthor": 5963,
      "Ġà¦Ĩà¦ĩ": 5964,
      "Ġleft": 5965,
      "Ġprobability": 5966,
      "Ġeconomic": 5967,
      "inv": 5968,
      "iting": 5969,
      "Ġàª¦à«įàªµ": 5970,
      "Ġneg": 5971,
      "Ġàª¸à«ģàª§à«Ģ": 5972,
      "Ġà¤ķà¤¿à¤¸à¥Ģ": 5973,
      "à²Ĥà²ķ": 5974,
      "Ġlight": 5975,
      "à´¿à´ķàµįà´ķàµį": 5976,
      "à¥įà¤¹à¥Ģ": 5977,
      "ĠEurope": 5978,
      "Ġà¬¦àŃĩà¬¬": 5979,
      "à®µà®°à¯įà®ķà®³": 5980,
      "Ġàª¶àªķà«ĩ": 5981,
      "face": 5982,
      "Ġpar": 5983,
      "ably": 5984,
      "à°¸à±įà°¯": 5985,
      "à¦¾à¦²à§Ģ": 5986,
      "à¤¿à¤¤à¥įà¤°": 5987,
      "à¦¿à¦ļà¦¾à¦ª": 5988,
      "Ġà²¸à²°à³įà²ķà²¾à²°": 5989,
      "Ġà¨¥": 5990,
      "Ġà´·": 5991,
      "Ġà®ħà®²à¯įà®²": 5992,
      "ĠCol": 5993,
      "Ġà¦ķà¦°à§ĩà¦¨": 5994,
      "Ġà¦®à¦§à§įà¦¯à§ĩ": 5995,
      "à¤¿à¤ĸ": 5996,
      "Ġmater": 5997,
      "à¤ļà¥įà¤ļ": 5998,
      "Ġàª¸à«įàª¥": 5999,
      "à°¯à±įà°¯": 6000,
      "à§ĩà¦¯à¦¼à§ĩ": 6001,
      "à¦¾à§İ": 6002,
      "à®©à¯įà®ª": 6003,
      "Ġà®ħà®ªà¯įà®ª": 6004,
      "à´²à´¿à´¯": 6005,
      "à¤¿à¤ķà¤¾": 6006,
      "plic": 6007,
      "aps": 6008,
      "ĠâĢĺ": 6009,
      "à¬¾à¬¹à¬¾": 6010,
      "à¥īà¤²": 6011,
      "à°¿à°§": 6012,
      "Ġfree": 6013,
      "à¬¾à¬ī": 6014,
      "Ġà°īà°Ĥà°¦à°¿": 6015,
      "print": 6016,
      "Ġgrowth": 6017,
      "àŃª": 6018,
      "Ġà²¨à²®à³įà²®": 6019,
      "ĠBl": 6020,
      "à¤¾à¤Ĥà¤¸": 6021,
      "à¦¾à¦ķà¦¾": 6022,
      "icle": 6023,
      "Ġlit": 6024,
      "Ġà²®à²¾à²°": 6025,
      "Ġiter": 6026,
      "Ġexist": 6027,
      "Ġà¤Ĺà¥ģ": 6028,
      "Ġsecur": 6029,
      "à°°à±įà°ļ": 6030,
      "work": 6031,
      "à®ľ": 6032,
      "à¤¾à¤Ń": 6033,
      "à¬¿à¬Ľà¬¨àŃįà¬¤à¬¿": 6034,
      "à²Ĥà²Ĺà²³": 6035,
      "Ġà¦ªà¦¿à¦Ľ": 6036,
      "Ġà°®à±Ģà°°à±ģ": 6037,
      "à§įà¦¬à§°": 6038,
      "à§Ĥà¦¹": 6039,
      "ĠàªĿ": 6040,
      "Ġcult": 6041,
      "Ġà¦¸à¦¦": 6042,
      "Ġà¨µà©ĩ": 6043,
      "Ġà²Īà²Ĺ": 6044,
      "Ġaccess": 6045,
      "Ġà°ļà±ĩà°¸à°¿à°¨": 6046,
      "Ġà¬°à¬¾à¬ľàŃįàŃŁ": 6047,
      "Ġcapital": 6048,
      "Ġlanguage": 6049,
      "ER": 6050,
      "à§«": 6051,
      "à§°à§įà¦®": 6052,
      "Ġsect": 6053,
      "àª°àª£": 6054,
      "à¨ķà¨¿": 6055,
      "Ġà´¨àµ½à´ķ": 6056,
      "gen": 6057,
      "Ġsw": 6058,
      "Ġder": 6059,
      "Ġgame": 6060,
      "Ġà²µà²¿à²µ": 6061,
      "à¨¾à¨ħà¨¦": 6062,
      "Ġmar": 6063,
      "Ġàªªà«ģ": 6064,
      "Ġàªķàª°àªµàª¾": 6065,
      "à²¿à²Ĥà²¤": 6066,
      "à§ĩà¦²à§ĩ": 6067,
      "Ġà¦¥à¦¾à¦ķà§ĩ": 6068,
      "Ġà®¨à®¿à®±à¯ģà®µà®©": 6069,
      "à®®à¯ģà®®à¯į": 6070,
      "Ġà²Ĩà²¯": 6071,
      "Ġà´ļà´¿à´¤àµįà´°": 6072,
      "à³įà²¸à³į": 6073,
      "ences": 6074,
      "à°³à±įà°³": 6075,
      "à²²à³ĩ": 6076,
      "Ġà²Ĩà²¸": 6077,
      "à´¾à´°àµį": 6078,
      "Ġà°ħà°§à°¿à°ķà°¾à°°": 6079,
      "16": 6080,
      "à§ª": 6081,
      "Ġair": 6082,
      "Ġcases": 6083,
      "àŃĩà¬·": 6084,
      "à¥įà¤¯à¤¾à¤¯": 6085,
      "à°°à±įà°®": 6086,
      "à¬¦àŃįà¬§": 6087,
      "à¦ķà¦²à§°": 6088,
      "à²µà²¾": 6089,
      "àŃĩà¬¸": 6090,
      "à°¾à°°à±įà°Ł": 6091,
      "à²¸à³įà²¸": 6092,
      "ung": 6093,
      "For": 6094,
      "à¯Īà®®": 6095,
      "à¨¸à¨¼à¨¨": 6096,
      "Ġà®°à¯Ĥ": 6097,
      "à¥įà¤°à¥Ģà¤¯": 6098,
      "Ġà¤Ŀà¤¾à¤²": 6099,
      "ready": 6100,
      "let": 6101,
      "à²¤à³į": 6102,
      "Ġà®®à®ķ": 6103,
      "à¥Īà¤¸à¥ĩ": 6104,
      "àŃĢà¬¨": 6105,
      "à©Ģà¨ħ": 6106,
      "à²¿à²ķà²¾à²°": 6107,
      "Ġconsum": 6108,
      "As": 6109,
      "à¤ķà¤¿à¤¨": 6110,
      "Ġà°®à°¾à°Ł": 6111,
      "à¤¯à¥ĭà¤Ĺ": 6112,
      "à²¿à²¨à²²à³įà²²à²¿": 6113,
      "à§ģà¦·à§įà¦ł": 6114,
      "Ġà°·": 6115,
      "Ġà²ķà³Ĥà²¡": 6116,
      "à°¿à°Ĥà°ª": 6117,
      "Ġà°°à±ĭà°ľ": 6118,
      "ĠState": 6119,
      "Ġcentury": 6120,
      "Ġà¤ķà¤°à¤£à¥įà¤¯à¤¾à¤¤": 6121,
      "ape": 6122,
      "wh": 6123,
      "à¬Ĩ": 6124,
      "Ġà²ĺ": 6125,
      "Ġhard": 6126,
      "Ġà¦Ĩà¦²": 6127,
      "Ġà²¬à³ĩ": 6128,
      "Ġà¨¬à¨¾à¨ħà¨¦": 6129,
      "Ġenergy": 6130,
      "à²°à²¿à²Ĺà³Ĩ": 6131,
      "Ġdri": 6132,
      "à°¦à±įà°¯": 6133,
      "à°¿à°¨à±įà°¨": 6134,
      "à¤§à¤¾à¤°": 6135,
      "Ġlet": 6136,
      "à¤¤à¥Ģà¤²": 6137,
      "à±Ĥà°°à±įà°¤": 6138,
      "Ġmodel": 6139,
      "à¦ŀà§įà¦ľ": 6140,
      "Ġà®®à¯ģà®¤à®²à¯į": 6141,
      "Ġà´¤à´¨àµįà´¨àµĨ": 6142,
      "atory": 6143,
      "Ġht": 6144,
      "àª¿àª¨": 6145,
      "Ġà¨µà¨§": 6146,
      "à®±à¯ģ": 6147,
      "resp": 6148,
      "Ġà®īà®¯": 6149,
      "à°¾à°Ĥà°ķ": 6150,
      "Ġà¦¯à¦¦à¦¿": 6151,
      "xy": 6152,
      "à²¸à³įà²¯": 6153,
      "Ġexam": 6154,
      "àµĢà´¸": 6155,
      "Ġàª¥àªĪ": 6156,
      "Ġobs": 6157,
      "aster": 6158,
      "Ġà°ķà±įà°°": 6159,
      "à´¾à´¨à´Ĥ": 6160,
      "Ġà°īà°ª": 6161,
      "à«ĩàª®": 6162,
      "asing": 6163,
      "àµįà´ķàµįà´ķàµį": 6164,
      "flag": 6165,
      "Ġpast": 6166,
      "Ġbi": 6167,
      "à²²à²¿": 6168,
      "à¨¿à¨ī": 6169,
      "import": 6170,
      "Ġà¦¹à¦¿à¦ļà¦¾à¦ª": 6171,
      "à¯Īà®¯à®¾à®ķ": 6172,
      "à°ķà±įà°ķà°¡": 6173,
      "Ġà§¨à§¦": 6174,
      "ĠâĤ": 6175,
      "Ġà¦Ĩà¦¶": 6176,
      "à±ĩà°¯": 6177,
      "pped": 6178,
      "ĠFin": 6179,
      "à¨Ĺà©ĩ": 6180,
      "Ġresults": 6181,
      "Ġvalues": 6182,
      "mp": 6183,
      "à«įàª¨": 6184,
      "à°¨à°Ĥ": 6185,
      "Ġ27": 6186,
      "à§įà¦°à¦®": 6187,
      "Ġà¦¶à§ĩà¦·": 6188,
      "Ġà¤¸à¤®à¤¯": 6189,
      "201": 6190,
      "à³ĩà²µà³Ĩ": 6191,
      "We": 6192,
      "Ġà®ķà®£": 6193,
      "ĠFl": 6194,
      "Ġà²īà²¤à³įà²¤": 6195,
      "Ġrepresent": 6196,
      "Ġàª°à«Ģàª¤à«ĩ": 6197,
      "Ġfail": 6198,
      "à¤ķà¤¿": 6199,
      "à¯ĩà®¯": 6200,
      "Ġà²ķà²¾à²²": 6201,
      "Ġà¨¤à¨°": 6202,
      "Ġà¬ħà¬¬": 6203,
      "Ġclick": 6204,
      "Ġversion": 6205,
      "Ġdays": 6206,
      "Ġthings": 6207,
      "Ġà¨¦à¨°": 6208,
      "à°Ĺà±įà°Ĺ": 6209,
      "Ġenc": 6210,
      "Ġ;": 6211,
      "à®²à®¿à®²à¯į": 6212,
      "àªķà«Ģ": 6213,
      "Ġà¤°à¥ģà¤ª": 6214,
      "ills": 6215,
      "Ġcontract": 6216,
      "Ġothers": 6217,
      "Ġà¦ķà¦¿à¦Ľà§ģ": 6218,
      "à¤Ŀ": 6219,
      "à¨¯": 6220,
      "ĠàªĪ": 6221,
      "Ġcrit": 6222,
      "à²°à²²à³įà²²à²¿": 6223,
      "ĠTo": 6224,
      "Ġà®µà®¿à®µ": 6225,
      "à©ĭà¨Ł": 6226,
      "Ġà¦¤à¦¾à¦ĩ": 6227,
      "à®¤à¯įà®¤à®¿à®¯": 6228,
      "aid": 6229,
      "Ġà²µà³Ī": 6230,
      "à°¾à°¨à±į": 6231,
      "aining": 6232,
      "Ġà¬¦àŃģà¬": 6233,
      "à¯Īà®ªà¯Ĩ": 6234,
      "à±Ĩà°ķà±įà°Ł": 6235,
      "¦àµįà´§": 6236,
      "à²ĺ": 6237,
      "Ġdom": 6238,
      "Ġret": 6239,
      "Ġà¦ıà¦ķà¦Łà¦¿": 6240,
      "Ġindex": 6241,
      "Ġà¦¦à§ĩà¦ĸà¦¾": 6242,
      "What": 6243,
      "à²¡à²¿": 6244,
      "Ġàª²àª¾àªĹ": 6245,
      "Ġà®ªà¯ĭà®Łà¯įà®Ł": 6246,
      "Ġà®¤à¯Ĩà®°à®¿à®µà®¿à®¤à¯įà®¤": 6247,
      "Ġà¨ı": 6248,
      "Ġside": 6249,
      "Ġbillion": 6250,
      "ara": 6251,
      "à¨¸à©Ģ": 6252,
      "Ġà®®à®Łà¯įà®Ł": 6253,
      "Ġà®ħà®´": 6254,
      "Ġà¤¦à¤¿à¤¨": 6255,
      "à«Ĥàª°à«įàª": 6256,
      "Ġà¨¹à©ĭà¨ı": 6257,
      "Ġà¦ĵà¦ª": 6258,
      "Ġà²¹à³Ĭà²°": 6259,
      "Ġtreatment": 6260,
      "Ġà®ķà®¿à®°": 6261,
      "Ġà®®à®¿à®ķ": 6262,
      "à§ĥà¦·": 6263,
      "Ġà²¨à²¡à³Ĩà²¸": 6264,
      "aut": 6265,
      "à³ģà²Ĥà²¬": 6266,
      "Ġmen": 6267,
      "Ġà²¸à²¾à²®": 6268,
      "à¤¦à¤¾": 6269,
      "Ġà´®à´¾à´¤àµįà´°": 6270,
      "à´²à´¯": 6271,
      "à°¨à±įà°¨à°¿": 6272,
      "à´¨àµįà´¦àµįà´°": 6273,
      "à¦ķà¦¾à¦¶": 6274,
      "à²µà²¾à²Ĺà²¿à²¦à³Ĩ": 6275,
      "Ġàª¤à«ĩàª¨à«ĩ": 6276,
      "à²°à³įà²£": 6277,
      "Ġgoing": 6278,
      "Ġà°ħà°¯à°¿à°¤à±ĩ": 6279,
      "Ġà¬ħà¬§à¬¿à¬ķ": 6280,
      "à¤ķà¥įà¤¸": 6281,
      "Ġà¦®à§ĭ": 6282,
      "Ġà²ħà²²à³įà²²": 6283,
      "à¯ĭà®°": 6284,
      "à²°à³įà²¶": 6285,
      "Ġà®ķà¯Ĭà®³à¯įà®³": 6286,
      "Ġhistory": 6287,
      "Ġmov": 6288,
      "Ġà¤ħà¤¨à¥ĩà¤ķ": 6289,
      "Ġà´¸à´¹": 6290,
      "Ġà®¤à¯ĩà®µ": 6291,
      "à«ĭàª²": 6292,
      "à±Ģà°Ł": 6293,
      "àª¤à«įàª°": 6294,
      "Ġà´ªà´¿à´¨àµįà´¨": 6295,
      "Ġà¦¤à¦¾à¦¹": 6296,
      "Ġwhether": 6297,
      "wards": 6298,
      "à¤²à¤Ĥ": 6299,
      "Ġà¦¬à§Ī": 6300,
      "à¦¾à¦°à§ĩ": 6301,
      "Ġà²ªà³ģ": 6302,
      "à²¾à²µà³ģ": 6303,
      "Ġà®®à¯ģà®©à¯įà®©": 6304,
      "Ġsignificant": 6305,
      "mark": 6306,
      "Ġconc": 6307,
      "à°¦à±ģ": 6308,
      "à§°à§ģà§±": 6309,
      "à§ĩà¦²à¦¾": 6310,
      "à´¦àµĩà´¶": 6311,
      "ĠComp": 6312,
      "Ġà¦ľà§Ģà§±": 6313,
      "ID": 6314,
      "à¤ľà¥Ģ": 6315,
      "Ġà¦¬à¦¿à¦¦": 6316,
      "Ġable": 6317,
      "Ġà²ļà²¿à²¤à³įà²°": 6318,
      "ieve": 6319,
      "Ġacross": 6320,
      "Ġà°Ĩà°¯à°¨": 6321,
      "15": 6322,
      "à³ĭà²·": 6323,
      "à§įà§°à¦¹": 6324,
      "Ġseen": 6325,
      "à®¿à®ķà¯įà®ķà¯ģ": 6326,
      "Ġà´īà´ª": 6327,
      "Ġàª¤àª®à«ĩ": 6328,
      "Re": 6329,
      "ging": 6330,
      "à¨¿à¨£": 6331,
      "à¤ªà¤¾à¤¸": 6332,
      "Ġà°²à°ķà±įà°·": 6333,
      "àµĭà´ŁàµĨ": 6334,
      "Ġtaken": 6335,
      "Ġmus": 6336,
      "Ġà®ĩà®¤à¯ģ": 6337,
      "à¨µà©ĩ": 6338,
      "à°°à±įà°¸": 6339,
      "à±ģà°ķà±ĭà°µ": 6340,
      "aper": 6341,
      "Ġflow": 6342,
      "Ġà¤¸à¥įà¤ª": 6343,
      "ĠShe": 6344,
      "Ġà¦¦à¦¿à¦¯à¦¼": 6345,
      "à¥įà¤¯à¤¾à¤²": 6346,
      "Ġà¤ķà¥ĩà¤²à¤¾": 6347,
      "raw": 6348,
      "Ġà®¨à®¾à®Ł": 6349,
      "Ġcomb": 6350,
      "à§°à¦¾à¦ķ": 6351,
      "ene": 6352,
      "Ġà¤ķà¤Ĥà¤ª": 6353,
      "ĠAf": 6354,
      "à¤ļà¥įà¤Ľ": 6355,
      "Ġseason": 6356,
      "àª¦à«Ģ": 6357,
      "àµĩà´ľ": 6358,
      "à¤¾à¤£à¥Ģ": 6359,
      "à¬¾à¬ļ": 6360,
      "à¥Ĥà¤¸": 6361,
      "Ġà°¸à±įà°ª": 6362,
      "Ġà¬¬à¬°àŃįà¬·": 6363,
      "Ġà¤ķà¥ĭà¤Ī": 6364,
      "ards": 6365,
      "Ġà´¨à´¿à´Ļàµįà´Ļ": 6366,
      "ble": 6367,
      "àªł": 6368,
      "à®¾à®Ļà¯įà®ķ": 6369,
      "àŃĩà¬ĸ": 6370,
      "plate": 6371,
      "Ġà°¦à±įà°µ": 6372,
      "Ġpropert": 6373,
      "Ġàªµàª°à«įàª·": 6374,
      "à¦¾à¦Ľà§ĩ": 6375,
      "Ġtoday": 6376,
      "Ġà¤¸à¥Ģ": 6377,
      "Ġline": 6378,
      "àª¤à«ĭ": 6379,
      "Ġà¤ħà¤¤": 6380,
      "à®¿à®¯à®¿à®©à¯į": 6381,
      "Ġà®īà®±": 6382,
      "à°¿à°Ĥà°ļà°¿à°Ĥà°¦à°¿": 6383,
      "à¬¿à¬²àŃĩ": 6384,
      "Ġà´ľà´¨": 6385,
      "Ġ[\"": 6386,
      "Ġclear": 6387,
      "ators": 6388,
      "Ġfall": 6389,
      "Ġmaking": 6390,
      "Ġà¦¬à¦¾à¦Ĥ": 6391,
      "à¯įà®Łà¯į": 6392,
      "à¨¦à¨¾à¨°": 6393,
      "Ġà²ħà²¥": 6394,
      "Ġalways": 6395,
      "Ġ197": 6396,
      "Ġà®ªà¯Ĭà®°": 6397,
      "à´¿à´·": 6398,
      "Ġà¤ķà¤¹": 6399,
      "à¦¬à§°": 6400,
      "Ġà¦ķà§°à¦¿à¦Ľà¦¿à¦²": 6401,
      "Ġà¨°à©±à¨ĸ": 6402,
      "à¦¾à¦¸à§įà¦¤": 6403,
      "Ġà¨ĸà¨¼": 6404,
      "ification": 6405,
      "àµĭà´Łàµį": 6406,
      "Ġà²°à²¾à²ľà³įà²¯": 6407,
      "Ġà¨²à©ĭà¨ķà¨¾à¨Ĥ": 6408,
      "ĠâĤ¹": 6409,
      "à¦¾à¦·à§įà¦Ł": 6410,
      "Ġwar": 6411,
      "à¦¤à§įà¦°": 6412,
      "àµĭà´²": 6413,
      "à©ģà¨ķ": 6414,
      "Ġà´ħà´±à´¿à´¯": 6415,
      "Ġà¦¯à§ĭà¦Ĺ": 6416,
      "àµĤà´ª": 6417,
      "Ġchanges": 6418,
      "àª¨àª¾àªĤ": 6419,
      "Ġà¨ķà¨¹": 6420,
      "à²Ĺà²³à²¿à²Ĺà³Ĩ": 6421,
      "Ġmeet": 6422,
      "à°¾à°Ĥà°Ł": 6423,
      "à°¦à±įà°§": 6424,
      "àµĥà´¤": 6425,
      "Ġà¤²à¥ĩà¤ķà¤¿à¤¨": 6426,
      "à§Ń": 6427,
      "Ġà²¨à²Ĥà²¤à²°": 6428,
      "Ġconn": 6429,
      "à´¿à´¯àµģà´Ĥ": 6430,
      "à²°à³įà²µ": 6431,
      "à¬ªàŃįà¬°": 6432,
      "IN": 6433,
      "Ġà¦ķà¦¯à¦¼": 6434,
      "Ġà¦¹à¦²": 6435,
      "Ġrates": 6436,
      "Ġà¦¶à§ģà¦¨": 6437,
      "à¬¿à¬¨àŃįà¬¤": 6438,
      "Ġà¬¦àŃĩà¬ĩà¬": 6439,
      ".)": 6440,
      "Wh": 6441,
      "foo": 6442,
      "Ġur": 6443,
      "àŃ§": 6444,
      "Ġà¤ķà¥įà¤°": 6445,
      "Ġà¦Ńà¦¾à¦¬": 6446,
      "àµĤàµ¼": 6447,
      "à¯Īà®ļà¯į": 6448,
      "Ġdisease": 6449,
      "Ġà°ļà°¾à°²à°¾": 6450,
      "à²¾à²ļ": 6451,
      "Ġà²¹à²¿à²Ĥà²¦": 6452,
      "Ġhowever": 6453,
      "Ġà²¹à³Ĭà²Ĥà²¦": 6454,
      "Ġà°ªà±Ĩà°Łà±įà°Ł": 6455,
      "Ġsimilar": 6456,
      "Ġà¤ķà¤¾à¤¯": 6457,
      "left": 6458,
      "à±ĭà°Ł": 6459,
      "Ġalready": 6460,
      "Ġà¨ľà©ĩ": 6461,
      "ĠWhat": 6462,
      "ports": 6463,
      "Ġà¤ĺà¥ĩà¤¤": 6464,
      "Ġinsurance": 6465,
      "à¦¿à¦£": 6466,
      "à¨¾à¨ı": 6467,
      "Ġà¦¬à¦¾à¦¹": 6468,
      "ĠCan": 6469,
      "Ġà¨µà©±à¨²": 6470,
      "Ġà¬ªà¬¾à¬°": 6471,
      "Ġà¬¦à¬¿à¬¨": 6472,
      "àµģà´¤à´¿à´¯": 6473,
      "à¥ģà¤Ł": 6474,
      "à¨¸à©Ģà¨Ĥ": 6475,
      "Ġà®¤à®µ": 6476,
      "Ġà²ķà³Ī": 6477,
      "Ġà¦¤à¦¾à¦¦à§ĩà¦°": 6478,
      "Ġà°Ĩà°°": 6479,
      "à²¾à²¨à³ģ": 6480,
      "Ġà¬ĹàŃįà¬°": 6481,
      "Ġsingle": 6482,
      "data": 6483,
      "mission": 6484,
      "à°ħ": 6485,
      "ĠEn": 6486,
      "Ġà²ľà³Ģà²µ": 6487,
      "Ġà²®à³ģà²ĸà³įà²¯": 6488,
      "à³ĥà²¤": 6489,
      "Ġlin": 6490,
      "ada": 6491,
      "Ġà´ªàµģà´±": 6492,
      "istic": 6493,
      "Ġscient": 6494,
      "àŃĩà¬¬àŃĩ": 6495,
      "Ġspace": 6496,
      "::": 6497,
      "IT": 6498,
      "à²ħ": 6499,
      "à°¾à°Ĥ": 6500,
      "ising": 6501,
      "à§ĩà¦¡": 6502,
      "Ġpath": 6503,
      "Ġà¬ķà¬³": 6504,
      "Ġà´¨à´¿à´¯": 6505,
      "àµĤà´°": 6506,
      "Ġà¦®à¦¾à¦¨à§ģà¦·": 6507,
      "Ġàªªà«ĭàª¤": 6508,
      "à¬°à¬£": 6509,
      "à±ĭà°¡": 6510,
      "à©ĭà¨ľ": 6511,
      "à²¾à²°à³į": 6512,
      "agn": 6513,
      "à¬³à¬°àŃĩ": 6514,
      "Ġà¦§à¦°": 6515,
      "à®ªà¯įà®ªà®Łà¯ģà®®à¯į": 6516,
      "Any": 6517,
      "ole": 6518,
      "à³ģà²Ĺ": 6519,
      "Ġà¤¸à¥Ĥ": 6520,
      "Ġà¦ªà¦¾à¦²": 6521,
      "à¯ĭà®ķ": 6522,
      "à²°à²¿": 6523,
      "Ġask": 6524,
      "result": 6525,
      "Ġhaving": 6526,
      "Ġà¤µà¤¿à¤¦": 6527,
      "Ġà¬īà¬ªà¬°àŃĩ": 6528,
      "à±Ģà°¡": 6529,
      "àŃĩà¬Ł": 6530,
      "Ġvol": 6531,
      "Ġà®¨à®Łà¯Īà®ªà¯Ĩ": 6532,
      "Ġà¤īà¤¤à¥įà¤ª": 6533,
      "Ġnormal": 6534,
      "isc": 6535,
      "à¥ģà¤µ": 6536,
      "Ġà®İà®²à¯įà®²": 6537,
      "Ġà´ħà´Ń": 6538,
      "ength": 6539,
      "à¥¨": 6540,
      "Ġfurther": 6541,
      "Ġà¦ļà¦¾à¦ĩ": 6542,
      "Ġà¤Ĺà¤ı": 6543,
      "ogn": 6544,
      "17": 6545,
      "de": 6546,
      "à¬Ľ": 6547,
      "à±ģà°·": 6548,
      "ĠSouth": 6549,
      "Ġà®ħà®²": 6550,
      "Ġà®ĩà®±": 6551,
      "à©±à¨ľ": 6552,
      "Ġà§©": 6553,
      "à²°à³ģà²¤à³įà²¤": 6554,
      "à©Ģà¨Ł": 6555,
      "Ġmanagement": 6556,
      "Ġhttp": 6557,
      "Ġà¦¢": 6558,
      "àªĤàªļ": 6559,
      "Ġà¤¬à¤¾à¤°": 6560,
      "Ġrequire": 6561,
      "Ĭà¤¨": 6562,
      "à´¿àµ¼": 6563,
      "ctions": 6564,
      "Ġà¤ħà¤¶": 6565,
      "Ġà¨ħà¨ľ": 6566,
      "Ġà¤īà¤¤à¥įà¤¤": 6567,
      "à²¾à²ĸ": 6568,
      "à´¾à´¶": 6569,
      "Ġà¦¨à¦¤": 6570,
      "Ġstep": 6571,
      "Ġà®ļà¯ĩ": 6572,
      "àª¾àª°à«ĭ": 6573,
      "Ġrange": 6574,
      "à¦¿à¦¤à¦¾": 6575,
      "à´Ļàµįà´Ļà´¿à´¯": 6576,
      "ffic": 6577,
      "à©ľà©Ģ": 6578,
      "Ġà¦ħà¦¨à§ĩà¦ķ": 6579,
      "Ġexpress": 6580,
      "Ġdescrib": 6581,
      "Ġà²ħà²¥à²µà²¾": 6582,
      "Ġà®¤à¯ĩà®°": 6583,
      "Ġ23": 6584,
      "Ġanim": 6585,
      "umb": 6586,
      "Ġà²ľà³Ĭ": 6587,
      "Ġclaim": 6588,
      "à´¾à´¤àµĨ": 6589,
      "à®¿à®ªà¯įà®ªà¯ģ": 6590,
      "Ġà¤¯à¥ĩà¤¥": 6591,
      "Ġà¤ªà¥Ģ": 6592,
      "àª¿àªĤàªĹ": 6593,
      "add": 6594,
      "à¤¦à¥įà¤°": 6595,
      "ĠMed": 6596,
      "à«ĩàªĸ": 6597,
      "Ġà¬®à¬¾à¬¨": 6598,
      "Ġàªµà«įàª¯": 6599,
      "àµĭà´§": 6600,
      "Ġà°ľà°¿à°²à±įà°²": 6601,
      "Ġà¨ĸà©ĩ": 6602,
      "Ġà¦¬à§įà¦¯à¦¬": 6603,
      "Ġà°²à±ĩà°¦à°¾": 6604,
      "ĠSp": 6605,
      "Ġà®®à®£": 6606,
      "à¯Ĩà®Ł": 6607,
      "à¤Ĺà¥įà¤°": 6608,
      "àŃĭà¬°àŃįà¬": 6609,
      "Ġàª¤à«ĩàª¨à«Ģ": 6610,
      "à°¾à°¦à±ģ": 6611,
      "ological": 6612,
      "Ġà¤ħà¤¨à¥įà¤¯": 6613,
      "Ġàª°àª¹à«ĩ": 6614,
      "ĠCont": 6615,
      "Ġà¤ľà¥Ģà¤µ": 6616,
      "Ġà¤ķà¤°à¤¤à¤¾": 6617,
      "Ġà¤Ńà¤¾à¤Ĺ": 6618,
      "ude": 6619,
      "Ġcho": 6620,
      "Ġà¤Ŀà¤¾à¤²à¥ĩ": 6621,
      "Ġà²®à³Ĭà²¦à²²": 6622,
      "à±ĩà°Ĥà°¦à±įà°°": 6623,
      "Ġà²¨à²¿à²®à³įà²®": 6624,
      "most": 6625,
      "Ġà®¤à¯ĭ": 6626,
      "à¤¡à¥Ĥà¤¨": 6627,
      "Ġà®Ĩà®°": 6628,
      "Ġàªıàª®": 6629,
      "Ġà¤°à¤¾à¤ľà¥įà¤¯": 6630,
      "25": 6631,
      "Ġà®ķà¯ģà®´": 6632,
      "ĠBrit": 6633,
      "ump": 6634,
      "à§įà¦¯à¦¤": 6635,
      "Ġà¤¤à¥įà¤¯à¤¾à¤®à¥ģà¤³à¥ĩ": 6636,
      "à¯Īà®ķà¯įà®ķà¯ģ": 6637,
      "side": 6638,
      "Ġaway": 6639,
      "Ġsix": 6640,
      "à¤¿à¤§": 6641,
      "àŃĩà¬ª": 6642,
      "Ġà¬Ĩà¬ª": 6643,
      "à°¿à°¯à°¾": 6644,
      "Ġà´īà´£àµįà´Ł": 6645,
      "Ġservices": 6646,
      "Ġà°ķà°¾à°¨à±Ģ": 6647,
      "Ġcame": 6648,
      "à«Ģàª°": 6649,
      "à¤°à¥įà¤Ĺ": 6650,
      "à¨¾à¨°à¨¤": 6651,
      "à®¾à®²à¯ģà®®à¯į": 6652,
      "à°§à±įà°¯": 6653,
      "àª¾àª£à«Ģ": 6654,
      "Ġà¬ĺà¬Ł": 6655,
      "Ġà²¬à³Ĩà²³": 6656,
      "Ġsqu": 6657,
      "Ġà¬¸àŃģà¬": 6658,
      "istan": 6659,
      "à¬¿à¬¬à¬¾à¬°": 6660,
      "à§ĩà¦¤à§ĩ": 6661,
      "Ġà¦ķà§°à¦¿à¦¬à¦²à§Ī": 6662,
      "Ġà¦¬à¦¿à¦Ńà¦¿à¦¨à§įà¦¨": 6663,
      "à¤°à¥ĭ": 6664,
      "à´µà´¶": 6665,
      "Ġà´®à´°": 6666,
      "àªľà«ĩ": 6667,
      "Ġà®ļà¯Ĭà®²à¯įà®²": 6668,
      "à±ģà°¸à±įà°¤": 6669,
      "à©Ģà¨°": 6670,
      "à¯įà®ķà®¿à®±": 6671,
      "à©°à¨¨": 6672,
      "ĠMay": 6673,
      "ope": 6674,
      "àµĢà´ª": 6675,
      "Ġcompanies": 6676,
      "Ġà´¦à´¿à´µà´¸": 6677,
      "sy": 6678,
      "à²ł": 6679,
      "à§ĩà¦£": 6680,
      "Ġà®ªà®¿à®±": 6681,
      "Ġà¦ĩà¦¤": 6682,
      "à¥ģà¤¸à¤¾à¤°": 6683,
      "Ġà¦¬à¦°": 6684,
      "Ġà¤ľà¤¾à¤ı": 6685,
      "àªªà«įàª°": 6686,
      "Ġà¨Ĺà©±à¨²": 6687,
      "Ġblood": 6688,
      "à¥Ģà¤®à¤¾": 6689,
      "AN": 6690,
      "ĠAust": 6691,
      "Ġà²¸à³įà²ª": 6692,
      "à°®à±Ĩ": 6693,
      "Ġà²¦à³ĩà²µ": 6694,
      "àµĬà´°": 6695,
      "Ġà¦ıà¦ķà¦Łà¦¾": 6696,
      "Ġà²µà²¿à²·": 6697,
      "Ġà®ĩà®¨à¯įà®¤à®¿à®¯": 6698,
      "Ġà®ķà¯Ĭà®£à¯įà®Łà¯ģ": 6699,
      "Ġà¤¸à¤ķà¤¤à¤¾": 6700,
      "Ġà¦¬à§įà¦¯à§±": 6701,
      "Ġà¨¸à¨¹": 6702,
      "Ġà°¬à±įà°¯": 6703,
      "à¬ĩ": 6704,
      "Ġage": 6705,
      "à§ĭà¦¸": 6706,
      "Ġà¤ªà¥ģà¤°": 6707,
      "ĠSo": 6708,
      "à¤¦à¤¾à¤¨": 6709,
      "à§įà¦¯à§°": 6710,
      "à°¤à±įà°°": 6711,
      "andom": 6712,
      "Ġusually": 6713,
      "àª¨à«įàª¸": 6714,
      "à±Ģà°İ": 6715,
      "Ġà¤Ńà¤¾à¤°à¤¤à¥Ģà¤¯": 6716,
      "Ġà¦ĩà¦¯à¦¼à¦¾à§°": 6717,
      "lection": 6718,
      "lying": 6719,
      "Ġà¤ľà¤®": 6720,
      "Ġàªµàª¾àª¤": 6721,
      "indow": 6722,
      "Ġà¤īà¤¨à¥įà¤¹à¥ĭà¤Ĥà¤¨à¥ĩ": 6723,
      "pass": 6724,
      "Ġtheory": 6725,
      "Ġstates": 6726,
      "àŃĢà¬¬": 6727,
      "uation": 6728,
      "à¦¿à¦ī": 6729,
      "à³įà²°à²¹": 6730,
      "ternal": 6731,
      "Ġàªķà«ĭàªĪ": 6732,
      "bar": 6733,
      "à²¦à³įà²§": 6734,
      "Ġà¤ªà¤¾à¤¹": 6735,
      "ids": 6736,
      "à²¡à²¿à²¸": 6737,
      "Ġà¤ķà¤°à¥Ĥà¤¨": 6738,
      "Ġà´¤àµĨ": 6739,
      "Ġshare": 6740,
      "à®¿à®ķà¯įà®ķà¯Ī": 6741,
      "à±ģà°Ĥà°¡à°¾": 6742,
      "à¤¾à¤±": 6743,
      "à¦¬à¦¾": 6744,
      "ules": 6745,
      "Ġ26": 6746,
      "Ġà²¬à²¹": 6747,
      "à´£àµį": 6748,
      "à°Ĥà°Łà°¿": 6749,
      "itor": 6750,
      "à¦¾à¦¨à¦¾": 6751,
      "Ġà°®à±Ĥà°": 6752,
      "à¬°àŃįà¬¥": 6753,
      "à±įà°µà°°": 6754,
      "Ġà°µà±įà°¯à°ķà±įà°¤": 6755,
      "Ġmembers": 6756,
      "àŃĩà¬¨àŃįà¬¦": 6757,
      "Ġà´ķà´´à´¿à´ŀàµįà´ŀ": 6758,
      "Ġà¬ĵà¬¡à¬¼à¬¿à¬¶": 6759,
      "AT": 6760,
      "hand": 6761,
      "{\"": 6762,
      "Ġ...": 6763,
      "à¤ģ": 6764,
      "help": 6765,
      "à¥ĩà¤¦": 6766,
      "Ġà¨¸à¨¾à¨°à©ĩ": 6767,
      "Ġà¤ħà¤¬": 6768,
      "Ġà°ħà°Ĥà°¤": 6769,
      "Ġà¨ľà¨¾à¨µ": 6770,
      "rix": 6771,
      "à±ģà°ķà±ģà°¨à±įà°¨": 6772,
      "àµĭà´·": 6773,
      "Ġprim": 6774,
      "à®¾à®£à¯įà®Ł": 6775,
      "Ġà´ªà´±à´ŀàµįà´ŀàµģ": 6776,
      "option": 6777,
      "Ġàª¦à«įàªµàª¾àª°àª¾": 6778,
      "tem": 6779,
      "àªħ": 6780,
      "Ġcause": 6781,
      "Ġà¦¬à§ģà¦": 6782,
      "ctor": 6783,
      "à¦¬à¦¾à¦¦": 6784,
      "à¦¾à§°à§°": 6785,
      "Ġà¦ħà¦¸": 6786,
      "Ġ--": 6787,
      "à¨¾à¨£à©Ģ": 6788,
      "àªĥ": 6789,
      "Ġà¦ıà¦²": 6790,
      "à®®à¯įà®®": 6791,
      "Ġà¨ªà©Ī": 6792,
      "ortun": 6793,
      "Ġà¤«à¤¿à¤°": 6794,
      "Ġà´¬à´¨àµįà´§": 6795,
      "ĠChrist": 6796,
      "Ġà¬ķà¬°à¬¿à¬Ľà¬¨àŃįà¬¤à¬¿": 6797,
      "Ġterms": 6798,
      "Ġproblem": 6799,
      "à³Ĩà²ª": 6800,
      "à«įàª·": 6801,
      "Ġlat": 6802,
      "Ġà¬®à¬¿à¬³": 6803,
      "à¤ľà¤¨": 6804,
      "ograph": 6805,
      "ĠOr": 6806,
      "Ġà´Ĩà´¶": 6807,
      "Ġplant": 6808,
      "Ġcontext": 6809,
      "Ġdiscuss": 6810,
      "Ġà¬ĩ": 6811,
      "Ġtook": 6812,
      "erence": 6813,
      "Ļàµįà´ķ": 6814,
      "Ġà°ªà±įà°°à°ľ": 6815,
      "Ġintrodu": 6816,
      "Ġà¤ĩà¤¸à¤ķà¥ĩ": 6817,
      "Ġà¦¬à¦²à§ĩà¦¨": 6818,
      "Ġ}": 6819,
      "Ġà®ķà¯ģà®Ł": 6820,
      "utes": 6821,
      "Ġà¤µà¤¾à¤²à¥ĩ": 6822,
      "Ġà¤¨à¤µ": 6823,
      "à¤°à¥įà¤¸": 6824,
      "à®¿à®©à¯įà®©": 6825,
      "Ġà²ªà³įà²°à²¤": 6826,
      "à®±à¯įà®±à®¿": 6827,
      "ookie": 6828,
      "à¤Ĥà¤¦à¥įà¤°": 6829,
      "Ġà²ķà²¾à²°à²£": 6830,
      "Ex": 6831,
      "sel": 6832,
      "ĠAcc": 6833,
      "Ġà°¸à°¾à°§": 6834,
      "Ġà²¹à³ĭà²Ĺ": 6835,
      "à¦¯à§ĭà¦Ĺ": 6836,
      "icult": 6837,
      "à¦¾à¦°à§ĩà¦°": 6838,
      "Ġà²ķà²²": 6839,
      "Ġà°°à±Ĥ": 6840,
      "à®¿à®µà¯ģ": 6841,
      "Type": 6842,
      "cle": 6843,
      "Ġà¨¦à¨¿à¨¨": 6844,
      "àªķà«įàª¤": 6845,
      "à¯Īà®¯à¯ĩ": 6846,
      "ĠOne": 6847,
      "à¥įà¤²à¥Ģ": 6848,
      "part": 6849,
      "à¥įà¤Ĺ": 6850,
      "Ġparent": 6851,
      "Ġbir": 6852,
      "Ġàª¤àª°": 6853,
      "Ġà®İà®©à¯į": 6854,
      "Ġà¤ķà¤¾à¤°à¥įà¤¯à¤ķ": 6855,
      "Ġstrong": 6856,
      "Ġà¬®à¬§àŃįàŃŁà¬°àŃĩ": 6857,
      "Ġà¬ĩà¬": 6858,
      "ones": 6859,
      "Ġà¤¸à¤¿à¤Ĥ": 6860,
      "àª¿àªĤ": 6861,
      "Ġà´ķà´°": 6862,
      "Ġà¤¬à¥įà¤°": 6863,
      "à´®à´¾à´ķàµįà´ķ": 6864,
      "Ġrole": 6865,
      "Ġà°ªà±ĭà°²": 6866,
      "àª¾àªŁ": 6867,
      "à¥įà¤¯à¤Ĥà¤¤": 6868,
      "Ġlower": 6869,
      "à«ĭàª°": 6870,
      "Ġà´¸àµģà´": 6871,
      "There": 6872,
      "plement": 6873,
      "use": 6874,
      "Ġinternational": 6875,
      "à¬¾à¬ģ": 6876,
      "Ġà®ķà®¾à®°à®£": 6877,
      "Ġà®µà®¿à®Łà¯įà®Ł": 6878,
      "Ġàªķàª¾àª®": 6879,
      "à±ģà°ķà±ģà°Ĥà°Ł": 6880,
      "Ġà®ļà¯Ĩà®¯à¯įà®¤à¯ģ": 6881,
      "à±ĭà°²": 6882,
      "Ġsugg": 6883,
      "Ġà¤ªà¥įà¤°à¤®": 6884,
      "à´ķàµįà´ķà´¾à´°": 6885,
      "à¬¨àŃįà¬¤àŃģ": 6886,
      "Ġà¦Ĩà¦®à¦¾à§°": 6887,
      "à´«àµį": 6888,
      "Ġimpact": 6889,
      "Ġà¦¨à¦¤à§ģà¦¨": 6890,
      "Ġsuggest": 6891,
      "Ġtry": 6892,
      "à±Ĩà°¡": 6893,
      "Ġ28": 6894,
      "à¨¾à¨Ĥà¨Ĺ": 6895,
      "à§ģà¦Ń": 6896,
      "thing": 6897,
      "Ġà¨ķà¨°à¨¦à©ĩ": 6898,
      "pecially": 6899,
      "à¤ķà¤°à¤£": 6900,
      "Ġà¤ħà¤ªà¤¨à¥Ģ": 6901,
      "Ġà¨ķà¨¿à¨¸à©ĩ": 6902,
      "Ġcourse": 6903,
      "fil": 6904,
      "Ġtext": 6905,
      "à²¿à²§": 6906,
      "Ġsaf": 6907,
      "à°¬à±įà°¬": 6908,
      "Ġà®ªà¯Ĩà®±à¯įà®±": 6909,
      "¨à¥ĩ": 6910,
      "ĠÂ": 6911,
      "Ġà®¨à®¿à®°": 6912,
      "à¤¾à¤Ĥà¤ļ": 6913,
      "à®¿à®©à®¾à®°à¯į": 6914,
      "Ġà¨®à©ĩ": 6915,
      "àŃĭà¬·": 6916,
      "Ġàª²à«Ģ": 6917,
      "à°¿à°¸à±įà°¤à±ģà°¨à±įà°¨": 6918,
      "à«ĩàªŁàª²": 6919,
      "hold": 6920,
      "Ġfr": 6921,
      "à®¤à®µ": 6922,
      "à¦²à¦¤": 6923,
      "à²¤à²¨": 6924,
      "Ġà¤®à¤¾à¤¤à¥įà¤°": 6925,
      "Ġà®ķà®µ": 6926,
      "à±Ģà°ª": 6927,
      "Ġà²¨à³įà²¯": 6928,
      "à´¿à´ķàµįà´ķà´¾àµ»": 6929,
      "Ġà¤ıà¤µ": 6930,
      "à«Ĥàª°": 6931,
      "}}\\": 6932,
      "BI": 6933,
      "erve": 6934,
      "à±ģà°£": 6935,
      "à²¡à²¿à²¯": 6936,
      "à°®à±ģà°¨": 6937,
      "Ġà¤°à¤ĸ": 6938,
      "à°¯à°Ĥà°²à±ĭ": 6939,
      "Ġà¨¹à©ĭà¨ĩà¨Ĩ": 6940,
      "Ġà°µà°¿à°µ": 6941,
      "Ġaccording": 6942,
      "à¬¿à¬Ĺ": 6943,
      "à²µà²¾à²¸": 6944,
      "Ġgra": 6945,
      "ĠAb": 6946,
      "Ġà¦¨à¦¯à¦¼": 6947,
      "Ġà¤¨à¤¾à¤®": 6948,
      "Ġà¦ľà¦¾à¦¤": 6949,
      "Ġnever": 6950,
      "àª¿àª¯àª¾": 6951,
      "Ġcentral": 6952,
      "à®¿à®°à¯ģà®¨à¯įà®¤à¯ģ": 6953,
      "Ġpressure": 6954,
      "à´°àµĨ": 6955,
      "à«ģàª®": 6956,
      "verse": 6957,
      "à¦¾à§°à§Ģ": 6958,
      "à°ļà±įà°ļà±ģ": 6959,
      "Com": 6960,
      "func": 6961,
      "Ġà®Ī": 6962,
      "àª¾àª¥": 6963,
      "Ġà¨¹à¨¾à¨Ĥ": 6964,
      "à§įà¦¯à¦¾à¦¯à¦¼": 6965,
      "Ġà¨µà¨¿à¨¸": 6966,
      "Ġà®ķà¯Ĥà®Ł": 6967,
      "ysis": 6968,
      "à¯Īà®ļà¯įà®ļ": 6969,
      "Ġà¦¬à§ĩà¦¶": 6970,
      "iment": 6971,
      "Ġà°ķà±ĩà°¸": 6972,
      "àŃĭà¬ľ": 6973,
      "Ġà´ĩà´Ł": 6974,
      "Ġindic": 6975,
      "Ġspecific": 6976,
      "¬à°Ĥà°§": 6977,
      "à´¤à´¿à´¨": 6978,
      "à³ĩà²·": 6979,
      "Ġà°µà°¸à±įà°¤": 6980,
      "Ġà´®àµĤ": 6981,
      "Ġvar": 6982,
      "Ġà¦ħà¦¨à§ģà¦·à§įà¦ł": 6983,
      "à¤¿à¤µà¤¾à¤°": 6984,
      "Ġà´¨à´Łà´¤àµįà´¤": 6985,
      "reen": 6986,
      "à¬ªàŃģà¬°": 6987,
      "Ġ60": 6988,
      "Ġsubject": 6989,
      "à´¿à´Łàµįà´Łàµģà´£àµįà´Łàµį": 6990,
      "file": 6991,
      "à¥Ģà¤¸": 6992,
      "Ġcash": 6993,
      "Ġtoget": 6994,
      "Ġà¨¸à©ĭ": 6995,
      "à°¾à°°à°¿": 6996,
      "Ġà¤µà¥įà¤¯à¤µ": 6997,
      "Ġà¬¸à¬¬": 6998,
      "à²¿à²ķà³įà²ķ": 6999,
      "Ġclient": 7000,
      "Ġtogether": 7001,
      "à¯ģà®Ļà¯įà®ķ": 7002,
      "Ġà®ķà®¿à®Ł": 7003,
      "Ġà®µà®¾à®°": 7004,
      "Ġà¦¤à§ģà¦²": 7005,
      "à¤¦à¤¿": 7006,
      "oph": 7007,
      "Ġàªľàª£": 7008,
      "ĠWest": 7009,
      "àªĹàª°": 7010,
      "comm": 7011,
      "Ġà¬¸àŃĩà¬¹": 7012,
      "Ġà®ħà®±à®¿à®µ": 7013,
      "Ġproducts": 7014,
      "ients": 7015,
      "à¤ķà¤¾à¤°à¥Ģ": 7016,
      "Ġà®ħà®¤à¯ģ": 7017,
      "Ġà°¸à°°": 7018,
      "Ġdecl": 7019,
      "Ġà´ªàµįà´°à´µ": 7020,
      "Ġbecame": 7021,
      "Ġà®®à¯ģà®´": 7022,
      "Ġlikely": 7023,
      "Ġpain": 7024,
      "à¨¿à©°à¨¦": 7025,
      "Ġà¬ªà¬¾à¬": 7026,
      "Ġà¤¬à¥Ī": 7027,
      "Ġà°ªà±įà°°à°¯": 7028,
      "Ġà²ªà³įà²°à²¦": 7029,
      "Ġà®¤à¯Ĭà®´": 7030,
      "Ġmatch": 7031,
      "Ġà¦¨à¦¹à¦¯à¦¼": 7032,
      "à§¬": 7033,
      "à¦¤à¦¿à¦ķ": 7034,
      "Ġà°ªà°¨": 7035,
      "Ġà¨¨à¨¿à¨°": 7036,
      "Ġàª¬à«Ģ": 7037,
      "à§ĩà¦Ľà¦¿": 7038,
      "Ġà¦ħà¦Ńà¦¿à¦¯": 7039,
      "anu": 7040,
      "à¬¿à¬·": 7041,
      "Ġà¦¬à¦¿à¦ķ": 7042,
      "Ġeither": 7043,
      "Ġà®µà®ķ": 7044,
      "à³ĩà²Ĥà²¦à³įà²°": 7045,
      "Ġà¬¸à¬¾à¬®": 7046,
      "Ġà°®à±ģà°": 7047,
      "aged": 7048,
      "Ġà¦²à¦¿à¦ĸ": 7049,
      "Ġnatural": 7050,
      "Ġà¨¸à¨¥": 7051,
      "Ġà¨¤à©±à¨ķ": 7052,
      "Ġà¦²à¦Ĺà¦¤": 7053,
      "Ġcomplex": 7054,
      "Ġà°®à±Ĭà°¦": 7055,
      "Ġprivate": 7056,
      "à²ĩ": 7057,
      "Ġsent": 7058,
      "à©ĩà¨µ": 7059,
      "à±ĭà°¨": 7060,
      "Ġà®ªà¯ĩà®°": 7061,
      "à²¿à²¤à²¿": 7062,
      "à¤¿à¤²à¤¾": 7063,
      "cont": 7064,
      "ething": 7065,
      "Ġà¦¬à¦¿à¦¶à§ĩà¦·": 7066,
      "tx": 7067,
      "à¬¿àŃŁ": 7068,
      "à´¯àµĨ": 7069,
      "à´¿à´ķàµįà´ķàµģà´¨àµįà´¨àµģ": 7070,
      "à¨¾à¨²à©Ģ": 7071,
      "à¤²à¥ĩà¤²à¥įà¤¯à¤¾": 7072,
      "à¤¾à¤ľà¥Ģ": 7073,
      "Ġà¦ªà¦¾à¦°à§ĩ": 7074,
      "ĠMinister": 7075,
      "Ġfoc": 7076,
      "Ġfile": 7077,
      "à©±à¨¤à¨°": 7078,
      "Ġà´ķà´¾à´£": 7079,
      "Ġwords": 7080,
      "context": 7081,
      "Ġà®ĩà®°à¯ģà®ªà¯įà®ª": 7082,
      "Ġà¬¦àŃĩà¬¶": 7083,
      "Ġworking": 7084,
      "à´¦àµįà´¦àµĩà´¹": 7085,
      "Ġconcern": 7086,
      "à©ģà¨²": 7087,
      "à°°à±įà°ķ": 7088,
      "Ġà¬®àŃģà¬ģ": 7089,
      "Ġà´¸à´Ĥà´Ńà´µ": 7090,
      "Ġà¤¸à¤Ńà¥Ģ": 7091,
      "Ġà¦ªà¦¥": 7092,
      "Ġà¨ķà¨®": 7093,
      "à¤ªà¥Ĥ": 7094,
      "à©°à¨ļ": 7095,
      "à®ļà¯į": 7096,
      "exp": 7097,
      "à¦Ĥà¦Ĺ": 7098,
      "Ġ194": 7099,
      "ibility": 7100,
      "à°ªà±įà°ªà°Ł": 7101,
      "Ġà¬ħà¬¨àŃįàŃŁ": 7102,
      "Ġrespect": 7103,
      "Ġinvestment": 7104,
      "Ġsal": 7105,
      "à°¾à°ĸ": 7106,
      "Ġà¤¨à¤¿à¤ķ": 7107,
      "à«ĩàªľ": 7108,
      "Ġà°¤à°®": 7109,
      "Ġweek": 7110,
      "Ġglobal": 7111,
      "Ġcalcul": 7112,
      "PI": 7113,
      "à¨¿à¨Ł": 7114,
      "Ġspecies": 7115,
      "Ġcommunity": 7116,
      "Ġà¦¸à¦¾à¦¹à¦¿à¦¤": 7117,
      "à¨¸à¨°": 7118,
      "Ġà¨ħà¨§": 7119,
      "àµįà´¸àµį": 7120,
      "à´·àµįà´Ł": 7121,
      "Ġà¦ħà¦ª": 7122,
      "à°ªà±įà°°": 7123,
      "tes": 7124,
      "Ġà°Ĳ": 7125,
      "Ġà¦ķà§Ģ": 7126,
      "ķàµįà´·": 7127,
      "Ġà´¨àµĩà´°": 7128,
      "à®¿à®©à®°à¯į": 7129,
      "àªŁà«Ģ": 7130,
      "Ġappear": 7131,
      "Ġà¤ªà¤¹à¤²à¥ĩ": 7132,
      "Ġproblems": 7133,
      "ges": 7134,
      "yd": 7135,
      "Ġà¨¸à¨¾à¨²": 7136,
      "àªĤàªķ": 7137,
      "à±įà°¯à±Ĥà°": 7138,
      "Ġà¦²à¦ķà§įà¦·": 7139,
      "àµĩà´ĸ": 7140,
      "Ġà°¦à±ĩà°¶": 7141,
      "à³ģà²¤à³įà²¤à²¿à²¦à³Ĩ": 7142,
      "à´ķàµįà´°": 7143,
      "ļà¥įà¤¯à¤¾": 7144,
      "rec": 7145,
      "à°²à°ķà±ģ": 7146,
      "uted": 7147,
      "Ġgive": 7148,
      "à¤¾à¤¸à¤¨": 7149,
      "à©ľà©įà¨¹": 7150,
      "à´¿à´Ĥ": 7151,
      "enn": 7152,
      "Ġà¤ľà¤¾à¤¨": 7153,
      "ĠWith": 7154,
      "Ġà®ĩà®°à¯ģà®¨à¯įà®¤à¯ģ": 7155,
      "Ġà¤²à¥ĭà¤Ĺà¥ĭà¤Ĥ": 7156,
      "CC": 7157,
      "omet": 7158,
      "àªµàª¾àª°": 7159,
      "ĠMar": 7160,
      "à´¸àµįà´¤": 7161,
      "à¬®àŃįà¬Ń": 7162,
      "Ġà¦Ńà¦¾à¦·": 7163,
      "à¨¿à¨Ĩà¨°": 7164,
      "Ġà¬¬à¬¿à¬ľ": 7165,
      "Ġrespons": 7166,
      "pytest": 7167,
      "à²°à²¦": 7168,
      "Ġmot": 7169,
      "Ġà®®à¯ģà®±": 7170,
      "Ġàª²à«ĩ": 7171,
      "Ġàªļàª¾àª²": 7172,
      "Ġà¤µà¤¿à¤¶à¥įà¤µ": 7173,
      "init": 7174,
      "Ġdone": 7175,
      "Ġà®®à®¾à®¨": 7176,
      "Ġà°®à±ģà°Ĥà°¦": 7177,
      "Ġà¦ļà¦¿à¦¨": 7178,
      "Ġtechnology": 7179,
      "ique": 7180,
      "à§§à§": 7181,
      "à²°à²£": 7182,
      "Ġà¤¹à¤ľ": 7183,
      "Ġà®®à®¤": 7184,
      "Ġà®®à®¾à®¤": 7185,
      "à¦¾à¦®à§Ģ": 7186,
      "Ġà¬°à¬ĸ": 7187,
      "à³ģà²¦à³įà²§": 7188,
      "Ġplac": 7189,
      "Ġàª¦àª¿àªµ": 7190,
      "à¨¬à¨°": 7191,
      "à±Ĩà°²à±įà°²": 7192,
      "Ġà¨¤à©ģà¨¸à©Ģà¨Ĥ": 7193,
      "à¥ĩà¤³à¥Ģ": 7194,
      "lam": 7195,
      "inary": 7196,
      "Ġà¦¬à¦¨à§įà¦§": 7197,
      "à¨¿à¨ľ": 7198,
      "Ġà¨¦à©±à¨¸": 7199,
      "à¦¾à§°à¦£": 7200,
      "Ġà¦Ĩà¦®à¦¾à¦¦à§ĩà¦°": 7201,
      "à²¾à²¯à²ķ": 7202,
      "Ġlittle": 7203,
      "à¤ĩ": 7204,
      "Ġsite": 7205,
      "àŃģà¬ķàŃįà¬¤": 7206,
      "àŃĩà¬¹": 7207,
      "àª®à«Ģ": 7208,
      "à´¿à´²à´¾à´£àµį": 7209,
      "Ġdemand": 7210,
      "à¯ģà®¤à¯į": 7211,
      "Ġà¦ķà¦°à§įà¦®": 7212,
      "à³įà²Łà³įà²°": 7213,
      "à³ģà²¤à³įà²¤à²¾à²°à³Ĩ": 7214,
      "duc": 7215,
      "Ġà¦°à¦¾à¦ĸ": 7216,
      "Ġhalf": 7217,
      "Ġthought": 7218,
      "Ġà¦ªà¦¦": 7219,
      "Ġà¦¨à§ĩà¦¤": 7220,
      "Ġà¤µà¥įà¤¹": 7221,
      "Ġà¨ľà©Ģ": 7222,
      "à¦¦à¦¾à¦¨": 7223,
      "ours": 7224,
      "Ġà¤¸à¤Ĥà¤¬à¤Ĥà¤§": 7225,
      "Ġà¬¬à¬¿à¬Ń": 7226,
      "à¦¸à§įà¦¥à¦¾": 7227,
      "Ġà¨Ĩà¨ªà¨£à©Ģ": 7228,
      "à®¿à®ļà¯įà®ļ": 7229,
      "Ġincreased": 7230,
      "Ġinflu": 7231,
      "à¬ħ": 7232,
      "à¦²à§ĩà¦¨": 7233,
      "etic": 7234,
      "Ġà¦¦à¦¿à¦¯à¦¼à¦¾": 7235,
      "Ġà¤¬à¤¤": 7236,
      "à´¿à´¯à´¿àµ½": 7237,
      "à®¤à¯įà®¤à¯ģ": 7238,
      "Ġdeath": 7239,
      "à´±à´¿": 7240,
      "àª¸à«Ģ": 7241,
      "output": 7242,
      "Ġà´İà´¨àµįà´¨à´¿à´µ": 7243,
      "à²ľà³įà²ŀ": 7244,
      "13": 7245,
      "à§ģà¦ģ": 7246,
      "à´¤àµįà´¤à´¿à´²àµĨ": 7247,
      "ands": 7248,
      "Ġà´®à´±": 7249,
      "à´ķàµįà´ķàµĨ": 7250,
      "Ġindepend": 7251,
      "Ġà²¹à³Ĭà²¸": 7252,
      "ĠGovernment": 7253,
      "à¥įà¤ł": 7254,
      "Ġà²¸à²ļ": 7255,
      "Ġà¦¹à§ĭà§±à¦¾": 7256,
      "Ġà´ħà´§": 7257,
      "à©°à¨Ł": 7258,
      "Ġworks": 7259,
      "à¤¿à¤Ĥà¤¦": 7260,
      "Ġà®ķà®Łà®¨à¯įà®¤": 7261,
      "Ġà¤¹à¥ģà¤Ĩ": 7262,
      "Ġà¦ħà¦§à¦¿à¦ķ": 7263,
      "àµĨà´Ļàµįà´ķà´¿à´²àµģà´Ĥ": 7264,
      "=\\": 7265,
      "RE": 7266,
      "uf": 7267,
      "à¦¾à¦«": 7268,
      "Ġcity": 7269,
      "Ġmax": 7270,
      "Ġà¤®à¥Į": 7271,
      "uses": 7272,
      "Ġà´İà´²àµįà´²": 7273,
      "à°°à±įà°¥": 7274,
      "à²°à³įà²Ĺ": 7275,
      "à¬¾à¬¹à¬¾à¬°": 7276,
      "Ġàªīàª¤": 7277,
      "Ġà´ľàµĢà´µ": 7278,
      "ixed": 7279,
      "Ġà²ķà³Ĩà²²à²¸": 7280,
      "Ġà¨¸à¨¿à©±à¨ĸ": 7281,
      "Ind": 7282,
      "à´ħ": 7283,
      "Ġà®ªà®´": 7284,
      "Ġà²¸à³ĩà²°": 7285,
      "Ġà¬ķàŃįà¬·": 7286,
      "Ġà®¨à¯ĭ": 7287,
      "Ġà¦¬à¦¿à¦ļ": 7288,
      "Ġago": 7289,
      "à°Łà±įà°Łà°¿": 7290,
      "à°ķà±įà°ķà±ģà°µ": 7291,
      "Ġàªµàª§à«ģ": 7292,
      "Ġà¦¸à¦ķà¦²à§ĭ": 7293,
      "rite": 7294,
      "à¬°àŃįà¬¤àŃįà¬¤": 7295,
      "Ġà¦¸à¦ķà¦²": 7296,
      "Ġà´¨à´¿à´¨àµįà´¨àµį": 7297,
      "Ġbehav": 7298,
      "à´¾à´´àµįà´ļ": 7299,
      "af": 7300,
      "Ġbool": 7301,
      "àª¨à«įàªŁ": 7302,
      "Ġà¤µà¥Ī": 7303,
      "Ġà¬ķà¬¿à¬Ľà¬¿": 7304,
      "Ġàª¦àª°": 7305,
      "Ġabs": 7306,
      "à¯ģà®®à®¾à®©": 7307,
      "Ġens": 7308,
      "Ġà¬Ńà¬¾à¬°": 7309,
      "à³įà²Ĺà²³": 7310,
      "invoke": 7311,
      "à¥įà¤¬": 7312,
      "oms": 7313,
      "à¨¿à¨¬": 7314,
      "Ġà¤µà¤¿à¤°": 7315,
      "Ġà¦¤à§ģà¦®": 7316,
      "Ġà´ħà´ª": 7317,
      "Ġà°ªà±įà°°à°¤": 7318,
      "Ġà°İà°²": 7319,
      "à¥ĥà¤·": 7320,
      "Ġà®ķà¯Ĥà®Łà¯įà®Ł": 7321,
      "Ġbelow": 7322,
      "time": 7323,
      "Ġà²Ĳ": 7324,
      "Ġhouse": 7325,
      "ĠIm": 7326,
      "à´¿à´ŁàµĨ": 7327,
      "à¤¾à¤¦à¥Ģ": 7328,
      "Ġà²¸à²Ĥà²ª": 7329,
      "à±ĥà°¤": 7330,
      "à¦¸à§įà¦¥à¦¿à¦¤": 7331,
      "Ġ__": 7332,
      "à°¾à°°à°¨à°¿": 7333,
      "Ġonce": 7334,
      "à¦Ńà¦¾à§±": 7335,
      "Ġcontrib": 7336,
      "ĠàŃ©": 7337,
      "à¥ģà¤¦à¥įà¤§": 7338,
      "ero": 7339,
      "Ġfull": 7340,
      "à²¦à³įà²¯": 7341,
      "à°°à±Ģ": 7342,
      "ilt": 7343,
      "à¥Ĥà¤Ĥ": 7344,
      "à¥įà¤¯à¤¾à¤¸": 7345,
      "Ġà®ĩà®©à¯įà®±à¯ģ": 7346,
      "Ġà¦¯à¦¾à¦¬": 7347,
      "Ġ196": 7348,
      "à²¾à²¨à³Ĩ": 7349,
      "à²ķà²°à²£": 7350,
      "Ġà¨µà¨¾à¨²à©ĩ": 7351,
      "****************": 7352,
      "\"],": 7353,
      "env": 7354,
      "Ġstock": 7355,
      "à°®à±ģà°²": 7356,
      "Ġà¤¬à¤¦": 7357,
      "à¨µà¨°": 7358,
      "ĠàªıàªŁ": 7359,
      "Ġà²Ĺà²³": 7360,
      "Ġàª¯à«ģ": 7361,
      "Ġà¨ļà¨¾à¨¹à©Ģ": 7362,
      "àª¦à«įàª§": 7363,
      "àŃ©": 7364,
      "àµįà´¬": 7365,
      "à¥Ģà¤¯": 7366,
      "imum": 7367,
      "àŃĭà¬§": 7368,
      "Ġenough": 7369,
      "à¤Ńà¤¾à¤µ": 7370,
      "Ġà°¶à±įà°°à±Ģ": 7371,
      "Ġà¬¸à¬®à¬¸àŃįà¬¤": 7372,
      "Ġà®īà®³à¯įà®³à®¤à¯ģ": 7373,
      "14": 7374,
      "à§¯": 7375,
      "Ġter": 7376,
      "Ġbanks": 7377,
      "Ġà¤¸à¤¾à¤²": 7378,
      "Ġà¤®à¤¾à¤¹": 7379,
      "à¨ķà¨¾": 7380,
      "àµĭà´ª": 7381,
      "à«ĩàª¦": 7382,
      "Ġà²¹à³Ģ": 7383,
      "Ġà¨²à©±à¨Ĺ": 7384,
      "Ġà´°àµĤà´ª": 7385,
      "Ġassoci": 7386,
      "à²¾à²¤à³įà²°": 7387,
      "Ġespecially": 7388,
      "Ġreally": 7389,
      "Ġà²ķà³įà²·": 7390,
      "à³įà²¯à²¾à²Ĥ": 7391,
      "ĠHis": 7392,
      "artment": 7393,
      "à¦Ĥà¦¶": 7394,
      "Ġexpect": 7395,
      "Ġrecent": 7396,
      "àªĤàª¤à«ģ": 7397,
      "à±Ģà°Ĩà°°à±į": 7398,
      "AS": 7399,
      "à¤ķà¥įà¤ķ": 7400,
      "à¦¤à§įà¦¬": 7401,
      "à§ĭà¦ļ": 7402,
      "Ġà¦¤à¦¾": 7403,
      "à´²àµįà´ķ": 7404,
      "Ġà¨¤à©Įà¨°": 7405,
      "ĠGen": 7406,
      "Ġà°ħà°¦à°¿": 7407,
      "à®ķà®®à¯į": 7408,
      "Ġà¦ļà¦ķ": 7409,
      "Ġà¤ķà¤°à¤¤": 7410,
      "Ġàª¦à«ģ": 7411,
      "à¥ĩà¤¶à¤¨": 7412,
      "Ġdifficult": 7413,
      "Ġà®İà®©à¯įà®ªà®¤à¯ģ": 7414,
      "Ġrequired": 7415,
      "Ġconsider": 7416,
      "Ġtemper": 7417,
      "Ġcells": 7418,
      "à°¾à°Ĺà°¾": 7419,
      "à¯Ĭà®£à¯įà®Ł": 7420,
      "Ġnecess": 7421,
      "àµĭà´³àµį": 7422,
      "Ġ#": 7423,
      "vert": 7424,
      "Ġàª¸à«įàªŁ": 7425,
      "empt": 7426,
      "àµ¼à´·": 7427,
      "à¨¿à¨Ĩà¨¨": 7428,
      "ĠJu": 7429,
      "Ġà²¸à²ļà²¿à²µ": 7430,
      "à´¿àµ»": 7431,
      "à°Ĥà°ľ": 7432,
      "à°Ĥà°¡à±ģ": 7433,
      "à©Ĥà¨°à©Ģ": 7434,
      "Ġrather": 7435,
      "Ġà¦¨à¦¿à¦¶": 7436,
      "Ġaddress": 7437,
      "EN": 7438,
      "à§®": 7439,
      "Ġsize": 7440,
      "à³ĩà²Ł": 7441,
      "à²¡à³ģà²µ": 7442,
      "ĠMe": 7443,
      "à®¿à®ķà¯įà®ķà¯ģà®®à¯į": 7444,
      "à¬Łà¬¿": 7445,
      "Ġà¨¸à¨®à©ĩà¨Ĥ": 7446,
      "Ġcreate": 7447,
      "Ġà²¹à³Ĩà²ļà³įà²ļà³ģ": 7448,
      "Ġà®Ĩà®ķà®¿à®¯": 7449,
      "Ġmonths": 7450,
      "hest": 7451,
      "à¥ĭà¤¡": 7452,
      "Ġà¦ķà§Ī": 7453,
      "Ġà¦Ĩà¦²à§ĭ": 7454,
      "à¥Ĥà¤ķ": 7455,
      "Ġà¤¤à¤¥à¤¾": 7456,
      "Ġà´¸àµįà´±àµįà´±": 7457,
      "à´¿à´ķàµįà´ķà´¾à´¨": 7458,
      "Ġà´Ĩà´¯": 7459,
      "à¥įà¤Łà¥Ģ": 7460,
      "Ġà¤µà¤¿à¤ļ": 7461,
      "Ġestim": 7462,
      "Ġà¬Ĩà¬ªà¬£": 7463,
      "no": 7464,
      "wargs": 7465,
      "à´ĸ": 7466,
      "à¤ļà¤¾à¤°": 7467,
      "à¯Ĩà®²à¯įà®²": 7468,
      "à²¿à²¯à²¾à²Ĺ": 7469,
      "à¬°àŃįà¬£": 7470,
      "Ġà²ªà³įà²°à²¶": 7471,
      "à¤¾à¤ªà¥įà¤¤": 7472,
      "Ġàª¸àª®àª¯": 7473,
      "à¬ŀàŃįà¬ľ": 7474,
      "Ġdig": 7475,
      "Ġà¦®à§ĥà¦¤": 7476,
      "à¦ªà§įà§°": 7477,
      "Ġà¨¬à¨¾à¨°à©ĩ": 7478,
      "ĠØ": 7479,
      "Ġà¦¸à§Ī": 7480,
      "oll": 7481,
      "à³ĭà²§": 7482,
      "Ġà¦Ĺà¦¤": 7483,
      "Ġàª®àª¾àª¤": 7484,
      "à¥ĩà¤²à¥įà¤¯à¤¾": 7485,
      "àµįà´Ľ": 7486,
      "à´¤àµįà´¸": 7487,
      "Ġà¤²à¤ķà¥įà¤·": 7488,
      "Ġkind": 7489,
      "à®Łà¯ģà®¤à¯įà®¤à¯ģ": 7490,
      "Ġsystems": 7491,
      "rs": 7492,
      "ani": 7493,
      "à¤¿à¤£": 7494,
      "Ġà¦ªà¦¾à¦¨": 7495,
      "à¦®à§įà¦Ń": 7496,
      "à¯ĭà®©": 7497,
      "ĠNo": 7498,
      "à¬¿à¬¬à¬¾à¬ķàŃģ": 7499,
      "Ġà²ľà²¿à²²à³įà²²": 7500,
      "à¤ıà¤¸": 7501,
      "à±įà°ľ": 7502,
      "urs": 7503,
      "ĠSy": 7504,
      "Ġà¤µà¤¾à¤¢": 7505,
      "ĠMus": 7506,
      "Ġàª¤à«įàª¯àª¾àª°à«ĩ": 7507,
      "Ġyield": 7508,
      "ĠàªĨàªĹ": 7509,
      "Ġà¨°à¨¾à¨ľ": 7510,
      "Ġàª¦à«Ģ": 7511,
      "ricult": 7512,
      "heme": 7513,
      "Ġmeasure": 7514,
      "Ġobserv": 7515,
      "Ġà¦¬à¦¾à¦Ĥà¦²": 7516,
      "atures": 7517,
      "à´¿à´ľ": 7518,
      "Ġà¨¸à¨¿à¨°": 7519,
      "Ġà®µà¯Īà®¤à¯įà®¤": 7520,
      "Ġà°ªà°¦": 7521,
      "Ġà¨¨à¨µ": 7522,
      "Ġ29": 7523,
      "Ġà´¨à´¿àµ¼": 7524,
      "à³ģà²¤à³įà²¤à²¿à²¦à³įà²¦": 7525,
      "Ġcompet": 7526,
      "Ġbuy": 7527,
      "ires": 7528,
      "mu": 7529,
      "àŃ«": 7530,
      "ley": 7531,
      "à²²à²¿à²¦à³Ĩ": 7532,
      "Ġà¤¬à¤¢à¤¼": 7533,
      "Ġwhy": 7534,
      "Ġà´ħà´¦àµįà´¦àµĩà´¹": 7535,
      "opy": 7536,
      "ĠGu": 7537,
      "Ġà´Ĩà´µà´¶": 7538,
      "Ġà°²à±ĩà°ķ": 7539,
      "à§įà¦¯à¦¨à§įà¦¤": 7540,
      "oman": 7541,
      "Ġthough": 7542,
      "à¨¤à¨¾à¨Ĥ": 7543,
      "Ġà¦¹à¦¾à¦ľ": 7544,
      "à¦¿à¦¨à§įà¦¦": 7545,
      "Ġà¦ķà¦°à¦¾à¦°": 7546,
      "Ġà¬¨àŃĩà¬ĩ": 7547,
      "Ġà²°à³Ĥà²ª": 7548,
      "Ġaddition": 7549,
      "Ġà¤īà¤¨à¤ķà¥ĩ": 7550,
      "Ġà¨ķà¨¾à¨°à¨¨": 7551,
      "Ġsomething": 7552,
      "PA": 7553,
      "Ġà®µà®¾à®ķà¯įà®ķ": 7554,
      "Ġà¬¸à¬¾à¬¹": 7555,
      "Ġà¤¤à¥įà¤¯à¤¾": 7556,
      "Ġà´ķàµĭ": 7557,
      "à¤¾à¤¤à¤¾": 7558,
      "à¦¿à¦²à¦¾": 7559,
      "à´¿à´¨à´¿à´®": 7560,
      "Ġà¤µà¤¿à¤§": 7561,
      "à°¿à°ªà±ĭà°¯": 7562,
      "Ġà¦ªà¦¾à¦ĩ": 7563,
      "Ġà°µà±ĩà°": 7564,
      "Ġà°¨à±Ģ": 7565,
      "à¤¬à¥Ģ": 7566,
      "à¦¾à¦¦à¦ķ": 7567,
      "Ġà°¤à±Ĩà°²à°¿à°ª": 7568,
      "Ġpoints": 7569,
      "Ġprovided": 7570,
      "Ġaverage": 7571,
      "ĠAm": 7572,
      "à³Ģà²¨": 7573,
      "Ġlearn": 7574,
      "Ġà®Ĵà®©à¯įà®±": 7575,
      "Ġà¨¸à¨¼à©ģà¨°à©Ĥ": 7576,
      "à¤¸à¥įà¤¥à¤¾": 7577,
      "Ġcharacter": 7578,
      "#:": 7579,
      "à±įà°ŀ": 7580,
      "ĠApp": 7581,
      "àªĤàª¡": 7582,
      "à²¿à²¦à³įà²¯": 7583,
      "raise": 7584,
      "à³Ģà²ķà³įà²·": 7585,
      "àª£àª¾": 7586,
      "àª°à«įàª®": 7587,
      "à°¾à°Ĥà°¡": 7588,
      "Ġà°ļà±Ĩà°Ĥà°¦": 7589,
      "Ġfeel": 7590,
      "Ġfilm": 7591,
      "ohn": 7592,
      "Ġtypes": 7593,
      "àŃĩà¬¨àŃįà¬¦àŃįà¬°": 7594,
      "Ġà°ªà±ĭà°²à±Ģà°¸": 7595,
      "code": 7596,
      "Ġà¤®à¤¾à¤®": 7597,
      "à²Ĥà²¦à²°à³Ĩ": 7598,
      "Ġsuper": 7599,
      "Ġà¨ķà¨°à¨¦à¨¾": 7600,
      "Ġà¦ªà§įà¦°à¦¶": 7601,
      "Ġà¬ľà¬¿à¬²àŃįà¬²": 7602,
      "ĠThat": 7603,
      "Ġrelations": 7604,
      "False": 7605,
      "Ġlot": 7606,
      "à°²à°¨à±ģ": 7607,
      "Ġà¤Ĩà¤¤": 7608,
      "Ġà®ĩà®²": 7609,
      "à¤°à¥įà¤¦": 7610,
      "Ġà´¨à´²àµįà´ķ": 7611,
      "à¯Īà®¯à®¾à®©": 7612,
      "àŃĢà¬¤": 7613,
      "à°¡à±ģ": 7614,
      "à°¯à±ĭà°Ĺ": 7615,
      "Ġà²¦à³ĩà²¶": 7616,
      "ublic": 7617,
      "Ġneeds": 7618,
      "à±ģà°Ĥà°¡à°¿": 7619,
      "ĠAfric": 7620,
      "ches": 7621,
      "à¨ĥ": 7622,
      "à¦¾à¦¤à§įà§°": 7623,
      "Ġà´µà´¿à´¶": 7624,
      "Ġàªªàª°àªĤàª¤à«ģ": 7625,
      "Ġà®®à¯ģà®Łà®¿à®¯": 7626,
      "Ġbegin": 7627,
      "Ïĥ": 7628,
      "à±ĭà°ª": 7629,
      "Ġà¤Ĩà¤¤à¤¾": 7630,
      "ĠHind": 7631,
      "Ġà°µà°¿à°¦": 7632,
      "Ġadded": 7633,
      "Ġflask": 7634,
      "Ġreported": 7635,
      "lier": 7636,
      "à´¤à´¿à´°àµĨ": 7637,
      "load": 7638,
      "à²¾à²Ĥà²Ĺà³įà²°à³Ĩ": 7639,
      "Ġà¤µà¤¿à¤Ńà¤¾à¤Ĺ": 7640,
      "à²Ĥà²ľ": 7641,
      "à°¾à°°à±į": 7642,
      "à°¾à°°à°£": 7643,
      "Ġà°®à°Ĥà°¤à±įà°°": 7644,
      "à²¿à²¸à²¿à²¦à³įà²¦à²¾à²°à³Ĩ": 7645,
      "ivity": 7646,
      "Ġà¨¹à©ĭà¨Ī": 7647,
      "Ġindustry": 7648,
      "Ġmakes": 7649,
      "ĠAg": 7650,
      "Ġstri": 7651,
      "ĠĠĠĠĠĠĠĠĠĠĠĠĠĠĠĠĠĠĠĠĠĠĠĠĠĠ": 7652,
      "Ġà¤¯à¥ĩà¤¤": 7653,
      "à³Ģà²¤": 7654,
      "à§ģà¦²à§ĭ": 7655,
      "Ġitself": 7656,
      "Ġprevent": 7657,
      "à´¸àµįà´¥à´¾à´¨": 7658,
      "ricket": 7659,
      "Ġà¤¸à¤¿à¤Ĥà¤¹": 7660,
      "rest": 7661,
      "à§ĩà¦ī": 7662,
      "Ġà°ªà±Ī": 7663,
      "à¤°à¥įà¤¡": 7664,
      "à´¿à´¯à´¿à´²àµį": 7665,
      "Ġà§«": 7666,
      "à¥įà¤¹à¤¾": 7667,
      "Ġprevious": 7668,
      "à§ĩà¦¤à¦¿à¦¯à¦¼à¦¾": 7669,
      "à§įà¦¯à¦¾à¦²à¦¯à¦¼": 7670,
      "inst": 7671,
      "à©Ģà¨¨": 7672,
      "Ġà¦Ĩà¦¤": 7673,
      "Ġstream": 7674,
      "Ġà¦ħà§°": 7675,
      "àµĢà´¯": 7676,
      "Ġà®īà®²à®ķ": 7677,
      "Ġà°µà°¿à°¶": 7678,
      "ledge": 7679,
      "Ġrights": 7680,
      "Ġissues": 7681,
      "sw": 7682,
      "arning": 7683,
      "à±ģà°ģ": 7684,
      "Ġmess": 7685,
      "Ġà¦¦à§ģà¦ĩ": 7686,
      "à³ĭà²ķ": 7687,
      "Ġheld": 7688,
      "Ġà¦¹à§Īà¦Ľà¦¿à¦²": 7689,
      "Ġà¤¹à¥ģà¤Ī": 7690,
      "à¨¾à¨¡à©ĩ": 7691,
      "pos": 7692,
      "year": 7693,
      "à°İ": 7694,
      "ĠàªĬ": 7695,
      "à°¸à±įà°¸": 7696,
      "à¦Ĺà§įà¦°": 7697,
      "Ġà¦²à¦¾à¦Ń": 7698,
      "clus": 7699,
      "Ġà¦¬à¦¿à¦ª": 7700,
      "Ġà¦īà¦²à§įà¦²": 7701,
      "Ġà¨ļà©ģ": 7702,
      "Ġà®®à¯Ĥà®²à®®à¯į": 7703,
      "Ġà¤ķà¤Ī": 7704,
      "icro": 7705,
      "ĠSome": 7706,
      "igma": 7707,
      "Ġà¬ķà¬®": 7708,
      "à³Ģà²¸": 7709,
      "à§įà¦¬à¦¾à¦ļ": 7710,
      "Ġyoung": 7711,
      "à¤¿à¤¸à¥įà¤¤": 7712,
      "Ġà¨«à¨¼": 7713,
      "Ġattack": 7714,
      "Ġà²ĩà²¦à³įà²¦": 7715,
      "Ġdeveloped": 7716,
      "Ġà®ĩà®°à¯ģà®ķà¯įà®ķà¯ģà®®à¯į": 7717,
      "à¬¿à¬¨àŃįà¬¤àŃģ": 7718,
      "Ġcustom": 7719,
      "Ġà°ļà°¿à°¤à±įà°°": 7720,
      "ript": 7721,
      "Ġeffort": 7722,
      "àª¥àª¾": 7723,
      "Ġà¦¬à§įà¦¯à¦ķ": 7724,
      "Ġparticip": 7725,
      "Ġexperience": 7726,
      "Ġà²¯à²¾à²µà³ģà²¦": 7727,
      "à¨¿à¨īà¨Ĥ": 7728,
      "uments": 7729,
      "ÙĦ": 7730,
      "à¤¨à¥įà¤¦": 7731,
      "Ġà¤¹à¤°": 7732,
      "ĠSing": 7733,
      "Ġà®¤à®¿à®Łà¯įà®Ł": 7734,
      "à¦¾à¦ķà§įà¦¤": 7735,
      "Ġà¦īà¦ļ": 7736,
      "Ġclose": 7737,
      "Ġjob": 7738,
      "Ġà¨¹à©ģà¨£": 7739,
      "Ġà¦¬à§įà¦¯à¦ķà§įà¦¤": 7740,
      "bl": 7741,
      "Ġà®Ĳ": 7742,
      "à²²à³Ĥ": 7743,
      "à±ĭà°°": 7744,
      "à±Ģà°¨": 7745,
      "àµĩà´¸": 7746,
      "Ġrat": 7747,
      "Ġà¬ıà¬¥": 7748,
      "oute": 7749,
      "à¬¾à¬¸à¬¨": 7750,
      "Ġàª¬àª¨àª¾àªµ": 7751,
      "ES": 7752,
      "à²¿à²¶": 7753,
      "Ġoil": 7754,
      "à²¾à²¬": 7755,
      "à«ĩàªķ": 7756,
      "Ġground": 7757,
      "adi": 7758,
      "Ġà¤ķà¤°à¥ĩà¤Ĥ": 7759,
      "Ġà´ĩà´¤àµį": 7760,
      "à²Ńà²µ": 7761,
      "à§ĥà¦·à§įà¦Łà¦¿": 7762,
      "à¯įà®¸à¯į": 7763,
      "à°¾à°¸à±įà°¤": 7764,
      "à¬¿à¬¦": 7765,
      "Ġà¤Ńà¤°": 7766,
      "Ġàª¬àª¹": 7767,
      "Ġlevels": 7768,
      "}^{": 7769,
      "à§Ģà¦®": 7770,
      "Ġà²¸à²¿à²¨": 7771,
      "Ġà¦ıà¦¨": 7772,
      "Ġà¦ıà¦¨à§ĩ": 7773,
      "à¬¨àŃįà¬¤àŃįà¬°àŃĢ": 7774,
      "Ġà¬¯àŃĩà¬īà¬ģ": 7775,
      "Ġà´°à´£àµįà´Ł": 7776,
      "Ġà¤¤à¤°à¤¹": 7777,
      "Ġà®¨à®¿à®²à¯Īà®¯à®¿à®²à¯į": 7778,
      "Ġà¬®àŃģà¬ĸ": 7779,
      "à²Ĺà³ģ": 7780,
      "à¬¾à¬°àŃĢ": 7781,
      "à¦¿à¦²à§ĩà¦¨": 7782,
      "Ġcannot": 7783,
      "Ġà²¶à²¾à²¸": 7784,
      "à¤¡à¤¼à¤¾": 7785,
      "à¤¡à¤¼à¥ĩ": 7786,
      "Ġà°¨à°¿à°°à±įà°µ": 7787,
      "Ġdetail": 7788,
      "echo": 7789,
      "Ġà¤¸à¤¦": 7790,
      "Ġà¤®à¤¾à¤Ĺ": 7791,
      "Ġà¨¸à¨ª": 7792,
      "à¤®à¤¾à¤¨": 7793,
      "Ġà¦¨à§ĩà¦ĩ": 7794,
      "Ġà²¹à²¾à²ķ": 7795,
      "Ġà¬¬à¬¹": 7796,
      "Ġà°ļà±Ĥà°": 7797,
      "Ġrandom": 7798,
      "à²¤à³įà²¤à³ģ": 7799,
      "à¦¿à¦ķà¦¾": 7800,
      "Ġà²µà²¿à²°": 7801,
      "....": 7802,
      "earch": 7803,
      "Ġimplement": 7804,
      "Ġàªķàª¹à«įàª¯à«ģàªĤ": 7805,
      "Ġà¤®à¥įà¤¹à¤£à¥Ĥà¤¨": 7806,
      "ĠEnglish": 7807,
      "Ġà¨ľà¨¦à©ĭà¨Ĥ": 7808,
      "Ġà¨µà¨¿à¨¸à¨¼": 7809,
      "Ġà¬ł": 7810,
      "eds": 7811,
      "à¨¿à¨ª": 7812,
      "à¬¾à¬°à¬¾": 7813,
      "à¦¿à¦¨à§Ģ": 7814,
      "ueprint": 7815,
      "Ġimm": 7816,
      "Ġà°ĩà°ļà±įà°ļ": 7817,
      "à¦¾à¦¦à§ĩà¦¶": 7818,
      "Ġà¤ħà¤¸à¥Ĥà¤¨": 7819,
      "à§įà¦¦à§ĩà¦¶": 7820,
      "Ġà°¯à±Ĭà°ķà±įà°ķ": 7821,
      "Ġnumbers": 7822,
      "Ġinstead": 7823,
      "Ġphot": 7824,
      "à§ģà§±à¦¾": 7825,
      "Ġà®¤à®²à¯Īà®µ": 7826,
      "na": 7827,
      "Ġà°ªà±Ĥà°°à±įà°¤": 7828,
      "Ġà®¤à®¾à®©à¯į": 7829,
      "à¥įà¤¯à¤¾à¤¦": 7830,
      "Ġà¬ªàŃģà¬°": 7831,
      "à²¸à³Ĩ": 7832,
      "Ġconduct": 7833,
      "à´¿à´¯à´¤àµį": 7834,
      "à¤ľà¤°": 7835,
      "à°¿à°ķà±į": 7836,
      "Ġà°Ĩà°¸": 7837,
      "Ġà®ļà¯Ĩà®²": 7838,
      "Ġà®µà®¿à®ļ": 7839,
      "Ġà¤®à¤¹à¤¾à¤°": 7840,
      "Ġconsidered": 7841,
      "operator": 7842,
      "go": 7843,
      "à¤Ľ": 7844,
      "ison": 7845,
      "à²¦à³ĩ": 7846,
      "à¬¿à¬ĻàŃįà¬Ĺ": 7847,
      "Ġà¦ķà¦¾à¦²": 7848,
      "Ġà°ħà°¦": 7849,
      "à®¿à®°à¯ģà®ªà¯įà®ª": 7850,
      "à¤¿à¤¤à¤¾": 7851,
      "à®¿à®ķà®´": 7852,
      "à´°àµįâĢį": 7853,
      "Ġeffects": 7854,
      "You": 7855,
      "Ġill": 7856,
      "ala": 7857,
      "Ġà¤®à¥Īà¤Ĥ": 7858,
      "à¦¾à¦¨à§°": 7859,
      "àµįà´ªàµįà´ª": 7860,
      "Ġà¨²à¨¿à¨Ĩ": 7861,
      "Ġà¦ħà¦¨à§įà¦¤": 7862,
      "à¬¨àŃįà¬¨": 7863,
      "Ġrelated": 7864,
      "Ġà¤¤à¥įà¤¯à¤¾à¤Ĥà¤¨à¥Ģ": 7865,
      "Ġà´µàµįà´¯à´ķàµįà´¤": 7866,
      "à®¤à¯įà®¤à®¿à®±à¯įà®ķà¯ģ": 7867,
      "ĠAfter": 7868,
      "Ġà°ªà°¡": 7869,
      "à§įà§°à¦®": 7870,
      "aka": 7871,
      "Ġàª¨àª¾àª®": 7872,
      "Ġà²ªà³įà²°à²¯": 7873,
      "Ġà¦Ĩà¦®à¦°à¦¾": 7874,
      "Ġresponse": 7875,
      "Ġpublished": 7876,
      "à®¾à®¨à¯įà®¤": 7877,
      "à¤ķà¥įà¤Ł": 7878,
      "àŃĩà¬ĩà¬": 7879,
      "Ġstory": 7880,
      "à´Łà´¿": 7881,
      "à©Ĥà¨²": 7882,
      "Ġà¬Ĩà¬°": 7883,
      "Ġfinal": 7884,
      "iterable": 7885,
      "Ġconditions": 7886,
      "Ġà®®à¯ĩà®²à¯ģà®®à¯į": 7887,
      "à¬°àŃįà¬£àŃįà¬£": 7888,
      "à¯Īà®¤à¯į": 7889,
      "Ġà¤¤à¥Ģà¤¨": 7890,
      "à¤°à¥įà¤§": 7891,
      "à®ķà®µ": 7892,
      "à´¨àµįà´¨àµģ": 7893,
      "Ġà§§": 7894,
      "à¤¾à¤¸à¤¾à¤łà¥Ģ": 7895,
      "Ġà°ıà°°à±įà°ª": 7896,
      "Ġà¤¹à¤ľà¤¾à¤°": 7897,
      "How": 7898,
      "ele": 7899,
      "Ġsource": 7900,
      "à¯ģà®Ļà¯įà®ķà®³à¯į": 7901,
      "Ġà´ªàµĩà´°": 7902,
      "à³Ģà²ª": 7903,
      "Ġàªľàª¾àª£": 7904,
      "à°°à±įà°·": 7905,
      "Ġà¤ļà¥Į": 7906,
      "Ġà¤µà¤¿à¤µ": 7907,
      "ET": 7908,
      "word": 7909,
      "Ġà¤ķà¤¿à¤Ĥ": 7910,
      "Ġreason": 7911,
      "à¥Īà¤¨": 7912,
      "Ġà²¨à²¾à²µà³ģ": 7913,
      "àµģà´Ĥà´¬": 7914,
      "Ġàª¹à«ģàªĤ": 7915,
      "ights": 7916,
      "Ġà²®à²¾à²¡à²¿": 7917,
      "Ġà¤Ŀà¤¾à¤²à¤¾": 7918,
      "à²¾à²Łà²ķ": 7919,
      "Ġà²¸à²¾à²§à³įà²¯": 7920,
      "Ġàª¦àª¿àªµàª¸": 7921,
      "br": 7922,
      "Ġâģł": 7923,
      "itiz": 7924,
      "Ġà®µà®¿à®²": 7925,
      "Ġà°ªà±ĩà°°": 7926,
      "ĠNorth": 7927,
      "à¨¾à¨¨à©Ģ": 7928,
      "Ġà¤¡à¥ī": 7929,
      "Ġcollect": 7930,
      "Ġà§§à§¯": 7931,
      "Ġà¦ħà¦°à§įà¦¥": 7932,
      "à§ĭà¦ľ": 7933,
      "Ġà´µà´³": 7934,
      "Ġà²ªà²ķà³įà²·": 7935,
      "Ġà°¤à±ĭ": 7936,
      "Ġà¬Ĩà¬ľ": 7937,
      "Ġà¦ªà§įà¦°à¦¥à¦®": 7938,
      "order": 7939,
      "operatorname": 7940,
      "ares": 7941,
      "Ġcir": 7942,
      "aring": 7943,
      "à²°à²¨à³įà²¨à³ģ": 7944,
      "à¤²à¥įà¤ª": 7945,
      "à´°à´£": 7946,
      "Ġà´ªàµģà´¤à´¿à´¯": 7947,
      "Ġà¦¤à¦ĸà¦¨": 7948,
      "ĠPre": 7949,
      "à´ķàµ¾": 7950,
      "Ġà¤īà¤¸à¥ĩ": 7951,
      "Ġà°°à±Īà°¤": 7952,
      "Ġparty": 7953,
      "à°¾à°¸à±į": 7954,
      "Ġsurface": 7955,
      "Ġà°²à±ĩà°¦à±ģ": 7956,
      "à¯ģà®ļà¯į": 7957,
      "Ġà¦ķà§ĩà¦¨à§įà¦¦": 7958,
      "Ġaction": 7959,
      "à¦¾à¦¯": 7960,
      "Ġsens": 7961,
      "à³ģà²®": 7962,
      "Ġwon": 7963,
      "à¦¤à§°": 7964,
      "à®©à¯įà®®": 7965,
      "Ġlive": 7966,
      "à°²à°Ĥ": 7967,
      "Ġà²¸à²Ĥà²¦": 7968,
      "Ġà°¨à±ĩ": 7969,
      "à°µà±įà°µ": 7970,
      "à²¹à²¾à²°": 7971,
      "àª®àª¾àªĤàª¥à«Ģ": 7972,
      "Ġmodern": 7973,
      "à´ļàµįà´Ľ": 7974,
      "à²¿à²ľà³Ĩà²ª": 7975,
      "medi": 7976,
      "Ġà²İà²°à²¡à³ģ": 7977,
      "ili": 7978,
      "Ġà¨ħà¨¨à©ģ": 7979,
      "Ġà¤ªà¥įà¤°à¤µ": 7980,
      "ension": 7981,
      "à®µà®°à¯įà®ķà®³à¯į": 7982,
      "Ġàª¤à«ĩàª£": 7983,
      "Ġà´ıà´±àµįà´±": 7984,
      "Ġlimit": 7985,
      "Ġà¨¦à©ģà¨Ĩ": 7986,
      "selves": 7987,
      "oor": 7988,
      "ederal": 7989,
      "à§ĭà¦¬": 7990,
      "Ġà®¤à¯Ģ": 7991,
      "Ġà²ķà²¡": 7992,
      "Ġà®ļà¯Ĥ": 7993,
      "ĠMarch": 7994,
      "Ġà®ĩà®©": 7995,
      "à¯ĭà®Łà¯ģ": 7996,
      "à´¿à´¯àµĨ": 7997,
      "à©Ģà¨¡": 7998,
      "Ġà´ĩà´µ": 7999,
      "Ġà¬ĹàŃĭà¬Ł": 8000,
      "ĠChina": 8001,
      "Ġregard": 8002,
      "Ġproduction": 8003,
      "àª¨à«įàª¡": 8004,
      "Ġà¦¸à¦°à¦ķà¦¾à¦°": 8005,
      "à¦¯à¦¼à§ĭà¦ľà¦¨": 8006,
      "àŃģà¬ķ": 8007,
      "Ġà®ªà¯Ĥ": 8008,
      "à©°à¨¸": 8009,
      "ĠII": 8010,
      "àµĩà´±àµįà´±": 8011,
      "rab": 8012,
      "Ġà´µàµĪ": 8013,
      "Ġà´µà´²à´¿à´¯": 8014,
      "ĠBy": 8015,
      "ĠGl": 8016,
      "à¬¿à¬²à¬¾": 8017,
      "Ġà¬¯àŃĭà¬Ĺ": 8018,
      "àŃĥà¬·àŃįà¬Ł": 8019,
      "àŃģà¬¦àŃįà¬§": 8020,
      "mathb": 8021,
      "àªĺ": 8022,
      "Ġà²ķà²¾à²Ĥà²Ĺà³įà²°à³Ĩ": 8023,
      "Ġà¬ķàŃĮ": 8024,
      "Ġà¦¤à¦¬à§ĩ": 8025,
      "Ġà®ĩà®£": 8026,
      "à±įà°¨à±ģ": 8027,
      "à¤¾à¤Ĥà¤ļà¤¾": 8028,
      "ĠDep": 8029,
      "Ġà¬Ĩà¬¦": 8030,
      "Ġà²Ĺà³Ĩ": 8031,
      "Ġà¦°à¦¯à¦¼": 8032,
      "Ġà¬ĹàŃģà¬": 8033,
      "Ġà¤¨à¤¿à¤°à¥įà¤®": 8034,
      "Ġà¤µà¤¿à¤ļà¤¾à¤°": 8035,
      "cing": 8036,
      "oard": 8037,
      "Ġtaking": 8038,
      "Ġcro": 8039,
      "à¦²à§įà¦ª": 8040,
      "Ġey": 8041,
      "à¦¬à§įà¦¯": 8042,
      "Ġà¤¨à¤¾à¤Ĺ": 8043,
      "Ġà¦¦à§ģ": 8044,
      "Ġà´İà´¨àµįà´¤": 8045,
      "à´Ļàµįà´Ļà´³àµģà´Ĥ": 8046,
      "Ġà²Ĵà²Ĥà²¦": 8047,
      "Ġoptions": 8048,
      "Ġà¬Ĩà¬ī": 8049,
      "Ġred": 8050,
      "Ġyet": 8051,
      "à²¿à²Ĺà³Ĥ": 8052,
      "Ġ500": 8053,
      "Ġà¨°à¨¹à©Ģ": 8054,
      "Ġà²ħà²¦à²°": 8055,
      "Ġcapt": 8056,
      "Ġà¤¸à¥ģà¤°à¥Ĥ": 8057,
      "Ġà²µà²¿à²¶à³įà²µ": 8058,
      "Ġà¨¤à©ģà¨¹à¨¾à¨¨à©Ĥà©°": 8059,
      "àµįâĢį": 8060,
      "Ġach": 8061,
      "Ġfri": 8062,
      "Ġà¨¸à©Ĥ": 8063,
      "Ġà¦ıà¦®à¦¨": 8064,
      "à®¿à®¯à®¤à¯ģ": 8065,
      "hern": 8066,
      "Ġà´¨àµĢ": 8067,
      "Ġservice": 8068,
      "Ġfunds": 8069,
      "Ġmultiple": 8070,
      "sum": 8071,
      "uff": 8072,
      "à®¿à®¸": 8073,
      "à²¿à²¹": 8074,
      "à¦²à¦¾à¦ĩ": 8075,
      "à²¨à²¾à²¡": 8076,
      "à¤®à¥Ģ": 8077,
      "Ġà¦®à¦¤": 8078,
      "Ġà¨µà©±à¨¡": 8079,
      "Ġà´ķàµĪ": 8080,
      "Ġà¦ļà¦¿à¦ķ": 8081,
      "place": 8082,
      "Ġà¤¶à¤¿à¤µ": 8083,
      "ideo": 8084,
      "à°¾à°Ĥà°Ĺ": 8085,
      "ĠYork": 8086,
      "à±įà°ķà±ģ": 8087,
      "àªµàª¾àª¨à«ģàªĤ": 8088,
      "Ġpolitical": 8089,
      "à¥įà¤ľ": 8090,
      "à¦¾à§°à¦¿": 8091,
      "Ġà´ķà´³": 8092,
      "Ġà²ħà²ª": 8093,
      "à¤¶à¥įà¤¯à¤ķ": 8094,
      "Ġgovern": 8095,
      "à®¾à®Łà¯ģ": 8096,
      "Ġà®µà®¿à®´": 8097,
      "à¤Ĥà¤¬à¤Ī": 8098,
      "àµĨà´Ļàµįà´ķà´¿àµ½": 8099,
      "Ġà°¦à±įà°µà°¾à°°à°¾": 8100,
      "Ġtarg": 8101,
      "Ġà®¨à¯ĩ": 8102,
      "à²Ĺà²³à²¿à²Ĥà²¦": 8103,
      "Ġà¤ªà¥įà¤°à¤¦à¥ĩà¤¶": 8104,
      "Ġà¤Łà¥įà¤°": 8105,
      "à¤¡à¤¼à¥Ģ": 8106,
      "Ġrunner": 8107,
      "à¬¢à¬¼": 8108,
      "rast": 8109,
      "à¤ķà¥ĭà¤Ĥ": 8110,
      "ula": 8111,
      "ĠĠĠĠĠĠĠĠĠĠĠĠĠĠĠĠĠĠĠĠĠĠĠĠĠĠĊ": 8112,
      "à°¤à±įà°µ": 8113,
      "àª¾àª°à«įàª": 8114,
      "Ġà¦¬à¦¿à¦¬": 8115,
      "except": 8116,
      "Ġà²ªà³įà²°à²®": 8117,
      "à²¾à²¨à³į": 8118,
      "Ġà°µà°¿à°§": 8119,
      "àª¨à«įàª¦": 8120,
      "Ġprinc": 8121,
      "Ġà¤®à¥ĭà¤ł": 8122,
      "Ġà°ħà°¨à±įà°¨à°¿": 8123,
      "template": 8124,
      "à²Ĩ": 8125,
      "à¬°à¬°àŃĩ": 8126,
      "à¤¸à¥įà¤µ": 8127,
      "Ġà´ķà´Ł": 8128,
      "Ġà²¬à²¿à²ľà³Ĩà²ª": 8129,
      "à¯Īà®¯à®¾à®³": 8130,
      "Ġàª¨àª¾": 8131,
      "ĠàªĹàª¯àª¾": 8132,
      "àª³à«Ģ": 8133,
      "Ġà¨«à¨¿à¨°": 8134,
      "Ġà®ķà¯ģà®±à®¿à®ªà¯įà®ª": 8135,
      "à¦°à§įà¦ķ": 8136,
      "à°°à°¿à°Ĥà°ļ": 8137,
      "Ġà¦Ĩà¦ģ": 8138,
      "sequ": 8139,
      "Ġà°ķà°¾à°µ": 8140,
      "Ġà²¨à³Ĩ": 8141,
      "à®¨à¯įà®¤à®¿à®°": 8142,
      "Ġà¬ħà¬ª": 8143,
      "overed": 8144,
      "à®ªà¯įà®ªà®Łà®¿": 8145,
      "Ġà¬°à¬¹à¬¿à¬Ľà¬¿": 8146,
      "Ġàª¤à«ĩàªĵ": 8147,
      "Ġmethods": 8148,
      "AR": 8149,
      "ED": 8150,
      "Ġà²¸à³ĭ": 8151,
      "Ġformer": 8152,
      "Ġà´¸à´¾à´§": 8153,
      "Ġà´¸à´¿à´¨à´¿à´®": 8154,
      "à°¡à°Ĥà°¤à±ĭ": 8155,
      "Ġà¦Ĺà§ĩà¦²": 8156,
      "Ġà¤¶à¤¾à¤®": 8157,
      "Ġà¤ļà¤²": 8158,
      "Ġà¦ªà§°à§Ģà¦ķà§įà¦·": 8159,
      "Ġupon": 8160,
      "}}}": 8161,
      "Ġregul": 8162,
      "à¦¿à¦·à§įà¦ł": 8163,
      "Ġà²®à²¾à²¤à³įà²°": 8164,
      "à´ªàµįà´ªàµĨà´Łàµģà´¤àµįà´¤": 8165,
      "à´¯àµįà´ķàµįà´ķàµį": 8166,
      "Ġsecurity": 8167,
      "40": 8168,
      "à¥įà¤«": 8169,
      "stream": 8170,
      "Ġà¤ªà¤¾à¤¸": 8171,
      "Ġà¥¥": 8172,
      "Ġà¬ķà¬¿à¬¨àŃįà¬¤àŃģ": 8173,
      "ried": 8174,
      "Ġà¨°à©Ĥ": 8175,
      "à±ģà°ķà±Ĭ": 8176,
      "Ġentire": 8177,
      "Ġà¤¦à¤¿à¤²à¥įà¤²à¥Ģ": 8178,
      "ociety": 8179,
      "Ġà¤¬à¤¹à¥ģà¤¤": 8180,
      "When": 8181,
      "àª¿àª°": 8182,
      "à´¯à´¿à´²àµĨ": 8183,
[...]
